{
  "version": "1.0",
  "truncation": null,
  "padding": null,
  "added_tokens": [
    {
      "id": 0,
      "content": "[PAD]",
      "single_word": false,
      "lstrip": false,
      "rstrip": false,
      "normalized": false,
      "special": true
    },
    {
      "id": 1,
      "content": "[UNK]",
      "single_word": false,
      "lstrip": false,
      "rstrip": false,
      "normalized": false,
      "special": true
    },
    {
      "id": 2,
      "content": "[CLS]",
      "single_word": false,
      "lstrip": false,
      "rstrip": false,
      "normalized": false,
      "special": true
    },
    {
      "id": 3,
      "content": "[SEP]",
      "single_word": false,
      "lstrip": false,
      "rstrip": false,
      "normalized": false,
      "special": true
    },
    {
      "id": 4,
      "content": "[MASK]",
      "single_word": false,
      "lstrip": false,
      "rstrip": false,
      "normalized": false,
      "special": true
    }
  ],
  "normalizer": {
    "type": "BertNormalizer",
    "clean_text": true,
    "handle_chinese_chars": true,
    "strip_accents": null,
    "lowercase": true
  },
  "pre_tokenizer": {
    "type": "BertPreTokenizer"
  },
  "post_processor": {
    "type": "TemplateProcessing",
    "single": [
      {
        "SpecialToken": {
          "id": "[CLS]",
          "type_id": 0
        }
      },
      {
        "Sequence": {
          "id": "A",
          "type_id": 0
        }
      },
      {
        "SpecialToken": {
          "id": "[SEP]",
          "type_id": 0
        }
      }
    ],
    "pair": [
      {
        "SpecialToken": {
          "id": "[CLS]",
          "type_id": 0
        }
      },
      {
        "Sequence": {
          "id": "A",
          "type_id": 0
        }
      },
      {
        "SpecialToken": {
          "id": "[SEP]",
          "type_id": 0
        }
      },
      {
        "Sequence": {
          "id": "B",
          "type_id": 1
        }
      },
      {
        "SpecialToken": {
          "id": "[SEP]",
          "type_id": 1
        }
      }
    ],
    "special_tokens": {
      "[CLS]": {
        "id": "[CLS]",
        "ids": [
          2
        ],
        "tokens": [
          "[CLS]"
        ]
      },
      "[SEP]": {
        "id": "[SEP]",
        "ids": [
          3
        ],
        "tokens": [
          "[SEP]"
        ]
      }
    }
  },
  "decoder": {
    "type": "WordPiece",
    "prefix": "##",
    "cleanup": true
  },
  "model": {
    "type": "WordPiece",
    "unk_token": "[UNK]",
    "continuing_subword_prefix": "##",
    "max_input_chars_per_word": 100,
    "vocab": {
      "[PAD]": 0,
      "[UNK]": 1,
      "[CLS]": 2,
      "[SEP]": 3,
      "[MASK]": 4,
      "!": 5,
      "\"": 6,
      "&": 7,
      "'": 8,
      ",": 9,
      "-": 10,
      ".": 11,
      "1": 12,
      "2": 13,
      "3": 14,
      "4": 15,
      "5": 16,
      "6": 17,
      "7": 18,
      "8": 19,
      "9": 20,
      "?": 21,
      "a": 22,
      "b": 23,
      "c": 24,
      "d": 25,
      "e": 26,
      "f": 27,
      "g": 28,
      "h": 29,
      "i": 30,
      "j": 31,
      "k": 32,
      "l": 33,
      "m": 34,
      "n": 35,
      "o": 36,
      "p": 37,
      "q": 38,
      "r": 39,
      "s": 40,
      "t": 41,
      "u": 42,
      "v": 43,
      "w": 44,
      "x": 45,
      "y": 46,
      "z": 47,
      "##p": 48,
      "##o": 49,
      "##r": 50,
      "##t": 51,
      "##i": 52,
      "##v": 53,
      "##e": 54,
      "##u": 55,
      "##n": 56,
      "##c": 57,
      "##l": 58,
      "##k": 59,
      "##s": 60,
      "##a": 61,
      "##g": 62,
      "##h": 63,
      "##m": 64,
      "##b": 65,
      "##d": 66,
      "##y": 67,
      "##w": 68,
      "##f": 69,
      "##j": 70,
      "##x": 71,
      "##q": 72,
      "##z": 73,
      "th": 74,
      "##ou": 75,
      "##er": 76,
      "the": 77,
      "##nd": 78,
      "##or": 79,
      "##at": 80,
      "##in": 81,
      "##ll": 82,
      "##es": 83,
      "and": 84,
      "##is": 85,
      "##ar": 86,
      "to": 87,
      "you": 88,
      "##en": 89,
      "##on": 90,
      "##th": 91,
      "##an": 92,
      "of": 93,
      "no": 94,
      "wh": 95,
      "wi": 96,
      "##ve": 97,
      "##re": 98,
      "be": 99,
      "##om": 100,
      "##ing": 101,
      "in": 102,
      "##st": 103,
      "my": 104,
      "he": 105,
      "##ow": 106,
      "ha": 107,
      "##se": 108,
      "that": 109,
      "sh": 110,
      "##ce": 111,
      "##le": 112,
      "##ut": 113,
      "for": 114,
      "##ay": 115,
      "me": 116,
      "##ch": 117,
      "##ld": 118,
      "##ere": 119,
      "is": 120,
      "##ir": 121,
      "##et": 122,
      "##ed": 123,
      "not": 124,
      "##ur": 125,
      "##gh": 126,
      "##im": 127,
      "##oo": 128,
      "it": 129,
      "with": 130,
      "##it": 131,
      "we": 132,
      "st": 133,
      "your": 134,
      "thou": 135,
      "##ke": 136,
      "this": 137,
      "##ad": 138,
      "his": 139,
      "as": 140,
      "##as": 141,
      "##al": 142,
      "do": 143,
      "but": 144,
      "so": 145,
      "pr": 146,
      "##all": 147,
      "##ent": 148,
      "have": 149,
      "##ght": 150,
      "##id": 151,
      "li": 152,
      "on": 153,
      "##ome": 154,
      "him": 155,
      "##ath": 156,
      "##ly": 157,
      "will": 158,
      "##ord": 159,
      "de": 160,
      "##est": 161,
      "fr": 162,
      "what": 163,
      "##ain": 164,
      "##ould": 165,
      "##am": 166,
      "##ess": 167,
      "an": 168,
      "##ood": 169,
      "##ee": 170,
      "re": 171,
      "##ore": 172,
      "##ck": 173,
      "her": 174,
      "##us": 175,
      "##ion": 176,
      "##ver": 177,
      "##ra": 178,
      "thy": 179,
      "##ie": 180,
      "go": 181,
      "su": 182,
      "ma": 183,
      "##ea": 184,
      "lo": 185,
      "all": 186,
      "##ge": 187,
      "##ter": 188,
      "##ther": 189,
      "##our": 190,
      "shall": 191,
      "by": 192,
      "sp": 193,
      "##ight": 194,
      "if": 195,
      "##and": 196,
      "are": 197,
      "kn": 198,
      "ne": 199,
      "our": 200,
      "ch": 201,
      "lord": 202,
      "tr": 203,
      "##il": 204,
      "##ard": 205,
      "##ct": 206,
      "thee": 207,
      "good": 208,
      "there": 209,
      "man": 210,
      "up": 211,
      "##ue": 212,
      "fa": 213,
      "at": 214,
      "now": 215,
      "am": 216,
      "br": 217,
      "##ich": 218,
      "sir": 219,
      "mu": 220,
      "or": 221,
      "let": 222,
      "##ill": 223,
      "com": 224,
      "##ell": 225,
      "mo": 226,
      "##ear": 227,
      "##fe": 228,
      "she": 229,
      "con": 230,
      "come": 231,
      "##ous": 232,
      "from": 233,
      "##ine": 234,
      "##art": 235,
      "here": 236,
      "ll": 237,
      "##sel": 238,
      "en": 239,
      "would": 240,
      "##ive": 241,
      "than": 242,
      "un": 243,
      "they": 244,
      "##ant": 245,
      "was": 246,
      "##ot": 247,
      "##one": 248,
      "more": 249,
      "know": 250,
      "##ble": 251,
      "##ers": 252,
      "well": 253,
      "can": 254,
      "##un": 255,
      "sw": 256,
      "how": 257,
      "bl": 258,
      "which": 259,
      "##ven": 260,
      "then": 261,
      "see": 262,
      "##ul": 263,
      "bo": 264,
      "them": 265,
      "love": 266,
      "ar": 267,
      "who": 268,
      "ta": 269,
      "when": 270,
      "say": 271,
      "##ry": 272,
      "their": 273,
      "##ame": 274,
      "##ate": 275,
      "wor": 276,
      "##pp": 277,
      "like": 278,
      "##ind": 279,
      "hath": 280,
      "##ence": 281,
      "us": 282,
      "##ish": 283,
      "se": 284,
      "##self": 285,
      "ho": 286,
      "##um": 287,
      "##row": 288,
      "did": 289,
      "##au": 290,
      "where": 291,
      "king": 292,
      "##ink": 293,
      "one": 294,
      "mad": 295,
      "upon": 296,
      "##ic": 297,
      "may": 298,
      "pl": 299,
      "##ong": 300,
      "##ure": 301,
      "sa": 302,
      "##ast": 303,
      "should": 304,
      "po": 305,
      "mar": 306,
      "make": 307,
      "##ri": 308,
      "gre": 309,
      "were": 310,
      "al": 311,
      "##ance": 312,
      "##ook": 313,
      "out": 314,
      "##ves": 315,
      "yet": 316,
      "must": 317,
      "##ather": 318,
      "dis": 319,
      "ag": 320,
      "had": 321,
      "##ort": 322,
      "some": 323,
      "pro": 324,
      "##are": 325,
      "##fore": 326,
      "##nds": 327,
      "why": 328,
      "too": 329,
      "##ol": 330,
      "tw": 331,
      "##eak": 332,
      "tis": 333,
      "##pe": 334,
      "##ice": 335,
      "##ig": 336,
      "tim": 337,
      "such": 338,
      "speak": 339,
      "##em": 340,
      "give": 341,
      "##ro": 342,
      "ex": 343,
      "these": 344,
      "##ity": 345,
      "hon": 346,
      "again": 347,
      "god": 348,
      "##oun": 349,
      "##pt": 350,
      "heart": 351,
      "gra": 352,
      "##ff": 353,
      "##ound": 354,
      "take": 355,
      "le": 356,
      "##to": 357,
      "qu": 358,
      "##ies": 359,
      "ever": 360,
      "think": 361,
      "##ick": 362,
      "##nder": 363,
      "look": 364,
      "cl": 365,
      "most": 366,
      "##ose": 367,
      "##ness": 368,
      "tell": 369,
      "##orn": 370,
      "day": 371,
      "ab": 372,
      "great": 373,
      "mine": 374,
      "hea": 375,
      "co": 376,
      "##ery": 377,
      "nor": 378,
      "ey": 379,
      "##wn": 380,
      "##ust": 381,
      "aw": 382,
      "##ise": 383,
      "father": 384,
      "bre": 385,
      "##urn": 386,
      "time": 387,
      "##other": 388,
      "##ist": 389,
      "str": 390,
      "##own": 391,
      "##ster": 392,
      "hear": 393,
      "##ady": 394,
      "##age": 395,
      "##ful": 396,
      "##ci": 397,
      "##ack": 398,
      "never": 399,
      "much": 400,
      "ro": 401,
      "##ire": 402,
      "bet": 403,
      "des": 404,
      "##ass": 405,
      "off": 406,
      "men": 407,
      "##ng": 408,
      "fo": 409,
      "gent": 410,
      "war": 411,
      "##ep": 412,
      "fl": 413,
      "##ation": 414,
      "frie": 415,
      "per": 416,
      "##ft": 417,
      "lea": 418,
      "##ag": 419,
      "ear": 420,
      "gr": 421,
      "##out": 422,
      "art": 423,
      "night": 424,
      "##qu": 425,
      "sc": 426,
      "fair": 427,
      "##ang": 428,
      "##ince": 429,
      "##thing": 430,
      "death": 431,
      "blood": 432,
      "wr": 433,
      "word": 434,
      "pray": 435,
      "##ase": 436,
      "##eet": 437,
      "call": 438,
      "er": 439,
      "gentle": 440,
      "ad": 441,
      "hand": 442,
      "##ide": 443,
      "comm": 444,
      "##igh": 445,
      "ple": 446,
      "##ak": 447,
      "la": 448,
      "fear": 449,
      "life": 450,
      "##io": 451,
      "heaven": 452,
      "##ull": 453,
      "##ile": 454,
      "##ither": 455,
      "doth": 456,
      "##ith": 457,
      "##ings": 458,
      "##ud": 459,
      "master": 460,
      "part": 461,
      "##per": 462,
      "foo": 463,
      "##ough": 464,
      "##ber": 465,
      "sweet": 466,
      "jo": 467,
      "hast": 468,
      "ser": 469,
      "away": 470,
      "made": 471,
      "any": 472,
      "##ip": 473,
      "##oul": 474,
      "very": 475,
      "##ress": 476,
      "son": 477,
      "##tle": 478,
      "coun": 479,
      "##ign": 480,
      "ay": 481,
      "cann": 482,
      "##el": 483,
      "##ree": 484,
      "true": 485,
      "honour": 486,
      "stand": 487,
      "thus": 488,
      "sl": 489,
      "cannot": 490,
      "##iv": 491,
      "own": 492,
      "##eed": 493,
      "app": 494,
      "##ment": 495,
      "##ite": 496,
      "other": 497,
      "im": 498,
      "##eep": 499,
      "lady": 500,
      "du": 501,
      "##ward": 502,
      "pre": 503,
      "##ans": 504,
      "been": 505,
      "##ss": 506,
      "bear": 507,
      "before": 508,
      "##ty": 509,
      "af": 510,
      "##aught": 511,
      "##ction": 512,
      "brother": 513,
      "gl": 514,
      "em": 515,
      "##ph": 516,
      "world": 517,
      "done": 518,
      "name": 519,
      "wom": 520,
      "head": 521,
      "leave": 522,
      "way": 523,
      "comp": 524,
      "might": 525,
      "pres": 526,
      "##orrow": 527,
      "cont": 528,
      "##end": 529,
      "could": 530,
      "##cc": 531,
      "eyes": 532,
      "##ach": 533,
      "##ap": 534,
      "noble": 535,
      "down": 536,
      "rem": 537,
      "poor": 538,
      "being": 539,
      "##ts": 540,
      "arm": 541,
      "into": 542,
      "long": 543,
      "fir": 544,
      "beg": 545,
      "##ief": 546,
      "old": 547,
      "nothing": 548,
      "fool": 549,
      "till": 550,
      "##ave": 551,
      "therefore": 552,
      "cour": 553,
      "##ace": 554,
      "##man": 555,
      "ind": 556,
      "##atter": 557,
      "though": 558,
      "##rown": 559,
      "thought": 560,
      "new": 561,
      "pur": 562,
      "##ied": 563,
      "grace": 564,
      "even": 565,
      "##sw": 566,
      "##les": 567,
      "whose": 568,
      "foll": 569,
      "comes": 570,
      "better": 571,
      "mer": 572,
      "keep": 573,
      "show": 574,
      "nay": 575,
      "##ious": 576,
      "##atch": 577,
      "both": 578,
      "##land": 579,
      "rep": 580,
      "two": 581,
      "##ouse": 582,
      "##ause": 583,
      "##ks": 584,
      "pea": 585,
      "dr": 586,
      "find": 587,
      "dead": 588,
      "har": 589,
      "myself": 590,
      "##ears": 591,
      "##ason": 592,
      "dear": 593,
      "soul": 594,
      "against": 595,
      "put": 596,
      "##less": 597,
      "peace": 598,
      "many": 599,
      "hold": 600,
      "fell": 601,
      "##ving": 602,
      "##kes": 603,
      "##tain": 604,
      "best": 605,
      "fort": 606,
      "char": 607,
      "first": 608,
      "tru": 609,
      "##ild": 610,
      "##aughter": 611,
      "##ple": 612,
      "##iss": 613,
      "live": 614,
      "every": 615,
      "duke": 616,
      "##come": 617,
      "mist": 618,
      "##uck": 619,
      "##sh": 620,
      "conf": 621,
      "lie": 622,
      "under": 623,
      "eng": 624,
      "those": 625,
      "set": 626,
      "##ces": 627,
      "still": 628,
      "nat": 629,
      "##li": 630,
      "##able": 631,
      "high": 632,
      "##ted": 633,
      "sm": 634,
      "thr": 635,
      "friends": 636,
      "##ower": 637,
      "##ew": 638,
      "madam": 639,
      "sle": 640,
      "##ought": 641,
      "que": 642,
      "##cy": 643,
      "end": 644,
      "wit": 645,
      "worth": 646,
      "fortun": 647,
      "lit": 648,
      "hel": 649,
      "stay": 650,
      "follow": 651,
      "fare": 652,
      "house": 653,
      "##ian": 654,
      "cons": 655,
      "wife": 656,
      "tong": 657,
      "##ia": 658,
      "##ake": 659,
      "little": 660,
      "serv": 661,
      "el": 662,
      "##ange": 663,
      "young": 664,
      "dev": 665,
      "die": 666,
      "##ors": 667,
      "mon": 668,
      "prince": 669,
      "bring": 670,
      "bes": 671,
      "queen": 672,
      "none": 673,
      "answ": 674,
      "faith": 675,
      "gone": 676,
      "hour": 677,
      "res": 678,
      "##os": 679,
      "##oud": 680,
      "bel": 681,
      "gi": 682,
      "boy": 683,
      "whom": 684,
      "cur": 685,
      "turn": 686,
      "friend": 687,
      "##alk": 688,
      "fall": 689,
      "##ier": 690,
      "##well": 691,
      "daughter": 692,
      "full": 693,
      "hum": 694,
      "rest": 695,
      "after": 696,
      "indeed": 697,
      "himself": 698,
      "gu": 699,
      "##ius": 700,
      "##ens": 701,
      "place": 702,
      "unto": 703,
      "pa": 704,
      "wel": 705,
      "##ield": 706,
      "mother": 707,
      "ob": 708,
      "##der": 709,
      "##iness": 710,
      "since": 711,
      "##alt": 712,
      "kind": 713,
      "rich": 714,
      "vir": 715,
      "answer": 716,
      "wo": 717,
      "bid": 718,
      "fal": 719,
      "woman": 720,
      "please": 721,
      "count": 722,
      "rome": 723,
      "beh": 724,
      "play": 725,
      "mind": 726,
      "sar": 727,
      "face": 728,
      "fellow": 729,
      "vill": 730,
      "present": 731,
      "else": 732,
      "##ock": 733,
      "tre": 734,
      "thine": 735,
      "##lt": 736,
      "##its": 737,
      "##esty": 738,
      "acc": 739,
      "##led": 740,
      "mistress": 741,
      "once": 742,
      "imp": 743,
      "words": 744,
      "court": 745,
      "tongue": 746,
      "bra": 747,
      "thing": 748,
      "mean": 749,
      "##eech": 750,
      "val": 751,
      "dou": 752,
      "hence": 753,
      "right": 754,
      "eye": 755,
      "dost": 756,
      "##for": 757,
      "##ps": 758,
      "##ison": 759,
      "pass": 760,
      "##ect": 761,
      "seem": 762,
      "ant": 763,
      "sword": 764,
      "dra": 765,
      "hus": 766,
      "##cl": 767,
      "forth": 768,
      "bed": 769,
      "about": 770,
      "##ling": 771,
      "said": 772,
      "##reat": 773,
      "back": 774,
      "pe": 775,
      "pat": 776,
      "##old": 777,
      "has": 778,
      "sub": 779,
      "need": 780,
      "par": 781,
      "tra": 782,
      "##sand": 783,
      "##ench": 784,
      "marry": 785,
      "ca": 786,
      "matter": 787,
      "ret": 788,
      "##lf": 789,
      "##red": 790,
      "meet": 791,
      "spir": 792,
      "crown": 793,
      "ere": 794,
      "##ret": 795,
      "child": 796,
      "nature": 797,
      "##ition": 798,
      "ass": 799,
      "##band": 800,
      "hor": 801,
      "kill": 802,
      "##we": 803,
      "three": 804,
      "wrong": 805,
      "dre": 806,
      "france": 807,
      "hope": 808,
      "##men": 809,
      "welcome": 810,
      "just": 811,
      "reason": 812,
      "##dy": 813,
      "husband": 814,
      "home": 815,
      "light": 816,
      "car": 817,
      "##asure": 818,
      "fortune": 819,
      "over": 820,
      "earth": 821,
      "farewell": 822,
      "##ouch": 823,
      "sure": 824,
      "tro": 825,
      "without": 826,
      "hang": 827,
      "fur": 828,
      "##ins": 829,
      "wear": 830,
      "##aint": 831,
      "lords": 832,
      "came": 833,
      "morrow": 834,
      "sleep": 835,
      "heard": 836,
      "##ister": 837,
      "power": 838,
      "thank": 839,
      "breath": 840,
      "cr": 841,
      "virt": 842,
      "##if": 843,
      "##ab": 844,
      "another": 845,
      "##ieve": 846,
      "use": 847,
      "##oke": 848,
      "thousand": 849,
      "cause": 850,
      "makes": 851,
      "##uty": 852,
      "law": 853,
      "get": 854,
      "##ost": 855,
      "##selves": 856,
      "mis": 857,
      "##xt": 858,
      "##ship": 859,
      "help": 860,
      "bus": 861,
      "##ory": 862,
      "break": 863,
      "far": 864,
      "pra": 865,
      "##ardon": 866,
      "gods": 867,
      "does": 868,
      "hands": 869,
      "letter": 870,
      "ban": 871,
      "##ience": 872,
      "##ken": 873,
      "##ows": 874,
      "pardon": 875,
      "sent": 876,
      "att": 877,
      "##ains": 878,
      "false": 879,
      "ed": 880,
      "##ru": 881,
      "forg": 882,
      "rather": 883,
      "things": 884,
      "sold": 885,
      "happ": 886,
      "shame": 887,
      "gold": 888,
      "truth": 889,
      "##pect": 890,
      "hither": 891,
      "news": 892,
      "enough": 893,
      "##cle": 894,
      "##fect": 895,
      "maid": 896,
      "##vy": 897,
      "##ail": 898,
      "lay": 899,
      "##yal": 900,
      "suff": 901,
      "wish": 902,
      "only": 903,
      "adv": 904,
      "within": 905,
      "mark": 906,
      "##ony": 907,
      "england": 908,
      "honest": 909,
      "remem": 910,
      "ill": 911,
      "last": 912,
      "##eel": 913,
      "##cious": 914,
      "##co": 915,
      "ye": 916,
      "state": 917,
      "##ceive": 918,
      "wilt": 919,
      "den": 920,
      "land": 921,
      "sil": 922,
      "##sed": 923,
      "disp": 924,
      "gentleman": 925,
      "##fort": 926,
      "bar": 927,
      "##int": 928,
      "##ute": 929,
      "maj": 930,
      "youth": 931,
      "inst": 932,
      "##ents": 933,
      "##rant": 934,
      "devil": 935,
      "op": 936,
      "want": 937,
      "bec": 938,
      "swear": 939,
      "command": 940,
      "##ial": 941,
      "##ried": 942,
      "cor": 943,
      "cous": 944,
      "tears": 945,
      "shalt": 946,
      "##eng": 947,
      "##any": 948,
      "born": 949,
      "##bt": 950,
      "pers": 951,
      "through": 952,
      "##esh": 953,
      "yourself": 954,
      "saw": 955,
      "care": 956,
      "exce": 957,
      "return": 958,
      "sign": 959,
      "##ily": 960,
      "stri": 961,
      "##gether": 962,
      "faul": 963,
      "enem": 964,
      "##ates": 965,
      "grief": 966,
      "fire": 967,
      "sea": 968,
      "##eal": 969,
      "##ash": 970,
      "purp": 971,
      "##hn": 972,
      "john": 973,
      "bur": 974,
      "dar": 975,
      "run": 976,
      "fight": 977,
      "strange": 978,
      "##gar": 979,
      "majesty": 980,
      "##ting": 981,
      "##ener": 982,
      "int": 983,
      "cousin": 984,
      "ph": 985,
      "##dd": 986,
      "##ester": 987,
      "send": 988,
      "##iz": 989,
      "oft": 990,
      "##ions": 991,
      "##ctor": 992,
      "deed": 993,
      "horse": 994,
      "mur": 995,
      "talk": 996,
      "joy": 997,
      "jud": 998,
      "vo": 999,
      "##vere": 1000,
      "##ject": 1001,
      "weep": 1002,
      "##ms": 1003,
      "while": 1004,
      "wind": 1005,
      "means": 1006,
      "##anger": 1007,
      "less": 1008,
      "prove": 1009,
      "lost": 1010,
      "villain": 1011,
      "spirit": 1012,
      "sun": 1013,
      "seen": 1014,
      "##ub": 1015,
      "near": 1016,
      "free": 1017,
      "kiss": 1018,
      "ent": 1019,
      "fly": 1020,
      "##bour": 1021,
      "seek": 1022,
      "strong": 1023,
      "##ey": 1024,
      "prom": 1025,
      "hard": 1026,
      "together": 1027,
      "yours": 1028,
      "sick": 1029,
      "##ues": 1030,
      "##lo": 1031,
      "##ons": 1032,
      "##ides": 1033,
      "##vour": 1034,
      "##ner": 1035,
      "beat": 1036,
      "arms": 1037,
      "draw": 1038,
      "grow": 1039,
      "##ary": 1040,
      "reven": 1041,
      "enter": 1042,
      "left": 1043,
      "##dom": 1044,
      "body": 1045,
      "half": 1046,
      "deser": 1047,
      "believe": 1048,
      "tem": 1049,
      "##ib": 1050,
      "read": 1051,
      "cry": 1052,
      "itself": 1053,
      "supp": 1054,
      "gener": 1055,
      "##lish": 1056,
      "##ets": 1057,
      "royal": 1058,
      "sorrow": 1059,
      "##und": 1060,
      "##op": 1061,
      "##air": 1062,
      "##oney": 1063,
      "##outh": 1064,
      "bea": 1065,
      "comfort": 1066,
      "found": 1067,
      "ra": 1068,
      "##vers": 1069,
      "di": 1070,
      "sing": 1071,
      "business": 1072,
      "sit": 1073,
      "quick": 1074,
      "further": 1075,
      "win": 1076,
      "##oura": 1077,
      "thoughts": 1078,
      "foul": 1079,
      "country": 1080,
      "##ient": 1081,
      "##ade": 1082,
      "work": 1083,
      "fie": 1084,
      "beseech": 1085,
      "##ween": 1086,
      "told": 1087,
      "says": 1088,
      "disc": 1089,
      "hen": 1090,
      "##ning": 1091,
      "met": 1092,
      "##alth": 1093,
      "sen": 1094,
      "##ertain": 1095,
      "##ork": 1096,
      "au": 1097,
      "fit": 1098,
      "##ove": 1099,
      "##ats": 1100,
      "##ime": 1101,
      "##ush": 1102,
      "##ople": 1103,
      "alas": 1104,
      "lear": 1105,
      "ty": 1106,
      "proud": 1107,
      "lies": 1108,
      "between": 1109,
      "lu": 1110,
      "sister": 1111,
      "service": 1112,
      "same": 1113,
      "prith": 1114,
      "prithee": 1115,
      "gave": 1116,
      "late": 1117,
      "save": 1118,
      "desire": 1119,
      "worthy": 1120,
      "touch": 1121,
      "cold": 1122,
      "remember": 1123,
      "sound": 1124,
      "cond": 1125,
      "bloody": 1126,
      "##form": 1127,
      "henry": 1128,
      "york": 1129,
      "doubt": 1130,
      "dam": 1131,
      "pity": 1132,
      "bu": 1133,
      "gro": 1134,
      "##fend": 1135,
      "prot": 1136,
      "##ounds": 1137,
      "bless": 1138,
      "purpose": 1139,
      "tit": 1140,
      "##use": 1141,
      "inf": 1142,
      "people": 1143,
      "murder": 1144,
      "each": 1145,
      "ask": 1146,
      "air": 1147,
      "lead": 1148,
      "aff": 1149,
      "cra": 1150,
      "mus": 1151,
      "oath": 1152,
      "sad": 1153,
      "ang": 1154,
      "trust": 1155,
      "danger": 1156,
      "sight": 1157,
      "##itor": 1158,
      "soon": 1159,
      "che": 1160,
      "serve": 1161,
      "cass": 1162,
      "yes": 1163,
      "dog": 1164,
      "uncle": 1165,
      "antony": 1166,
      "te": 1167,
      "sin": 1168,
      "##ures": 1169,
      "##unt": 1170,
      "dream": 1171,
      "meth": 1172,
      "alone": 1173,
      "dist": 1174,
      "hate": 1175,
      "##ered": 1176,
      "stra": 1177,
      "del": 1178,
      "general": 1179,
      "sk": 1180,
      "yield": 1181,
      "thyself": 1182,
      "cut": 1183,
      "certain": 1184,
      "##ls": 1185,
      "exp": 1186,
      "cap": 1187,
      "dare": 1188,
      "charge": 1189,
      "lose": 1190,
      "vi": 1191,
      "wat": 1192,
      "##rew": 1193,
      "times": 1194,
      "common": 1195,
      "drink": 1196,
      "happy": 1197,
      "cle": 1198,
      "gall": 1199,
      "ter": 1200,
      "##oose": 1201,
      "looks": 1202,
      "banish": 1203,
      "bir": 1204,
      "prov": 1205,
      "company": 1206,
      "min": 1207,
      "##up": 1208,
      "knows": 1209,
      "holy": 1210,
      "days": 1211,
      "foot": 1212,
      "wa": 1213,
      "##iet": 1214,
      "prison": 1215,
      "lives": 1216,
      "favour": 1217,
      "gracious": 1218,
      "content": 1219,
      "wise": 1220,
      "brought": 1221,
      "ten": 1222,
      "##cess": 1223,
      "som": 1224,
      "years": 1225,
      "##most": 1226,
      "grave": 1227,
      "warrant": 1228,
      "virtue": 1229,
      "bound": 1230,
      "##king": 1231,
      "known": 1232,
      "behold": 1233,
      "brave": 1234,
      "ring": 1235,
      "burn": 1236,
      "ga": 1237,
      "past": 1238,
      "star": 1239,
      "four": 1240,
      "sat": 1241,
      "dep": 1242,
      "highness": 1243,
      "patience": 1244,
      "##retch": 1245,
      "ba": 1246,
      "money": 1247,
      "prin": 1248,
      "given": 1249,
      "music": 1250,
      "ac": 1251,
      "field": 1252,
      "sur": 1253,
      "##be": 1254,
      "##anc": 1255,
      "nob": 1256,
      "gentlemen": 1257,
      "edward": 1258,
      "lad": 1259,
      "pay": 1260,
      "ru": 1261,
      "##let": 1262,
      "##ury": 1263,
      "loves": 1264,
      "##ices": 1265,
      "because": 1266,
      "mort": 1267,
      "ven": 1268,
      "yea": 1269,
      "##iers": 1270,
      "##aim": 1271,
      "dem": 1272,
      "french": 1273,
      "knight": 1274,
      "report": 1275,
      "act": 1276,
      "div": 1277,
      "eat": 1278,
      "##ible": 1279,
      "##ert": 1280,
      "##ength": 1281,
      "age": 1282,
      "neither": 1283,
      "capt": 1284,
      "##ren": 1285,
      "##wick": 1286,
      "##ix": 1287,
      "inc": 1288,
      "##ump": 1289,
      "poss": 1290,
      "quest": 1291,
      "hot": 1292,
      "mouth": 1293,
      "didst": 1294,
      "writ": 1295,
      "gar": 1296,
      "##ift": 1297,
      "##mer": 1298,
      "hell": 1299,
      "warwick": 1300,
      "##ude": 1301,
      "mercy": 1302,
      "something": 1303,
      "prof": 1304,
      "pleas": 1305,
      "learn": 1306,
      "vis": 1307,
      "##oth": 1308,
      "##enty": 1309,
      "deep": 1310,
      "deli": 1311,
      "requ": 1312,
      "thanks": 1313,
      "bold": 1314,
      "est": 1315,
      "##ated": 1316,
      "mock": 1317,
      "sec": 1318,
      "black": 1319,
      "pleasure": 1320,
      "confess": 1321,
      "knave": 1322,
      "##els": 1323,
      "women": 1324,
      "open": 1325,
      "ah": 1326,
      "jew": 1327,
      "woo": 1328,
      "sum": 1329,
      "appear": 1330,
      "cast": 1331,
      "##ipp": 1332,
      "##by": 1333,
      "##ont": 1334,
      "canst": 1335,
      "richard": 1336,
      "##iant": 1337,
      "##iece": 1338,
      "##fection": 1339,
      "attend": 1340,
      "fault": 1341,
      "watch": 1342,
      "whil": 1343,
      "lov": 1344,
      "person": 1345,
      "col": 1346,
      "dro": 1347,
      "red": 1348,
      "##cius": 1349,
      "either": 1350,
      "##vent": 1351,
      "##mb": 1352,
      "toward": 1353,
      "suit": 1354,
      "quar": 1355,
      "merry": 1356,
      "morn": 1357,
      "##ond": 1358,
      "##br": 1359,
      "hearts": 1360,
      "ground": 1361,
      "walk": 1362,
      "fast": 1363,
      "truly": 1364,
      "servant": 1365,
      "enemy": 1366,
      "ange": 1367,
      "goes": 1368,
      "heavy": 1369,
      "subject": 1370,
      "base": 1371,
      "mal": 1372,
      "##ron": 1373,
      "sake": 1374,
      "##ments": 1375,
      "beauty": 1376,
      "tender": 1377,
      "deliver": 1378,
      "##ior": 1379,
      "##gue": 1380,
      "cham": 1381,
      "ears": 1382,
      "haste": 1383,
      "wonder": 1384,
      "justice": 1385,
      "gain": 1386,
      "##gn": 1387,
      "##oward": 1388,
      "##ceed": 1389,
      "speech": 1390,
      "worse": 1391,
      "twas": 1392,
      "appro": 1393,
      "##oof": 1394,
      "reg": 1395,
      "next": 1396,
      "##inks": 1397,
      "took": 1398,
      "valiant": 1399,
      "entreat": 1400,
      "revenge": 1401,
      "sn": 1402,
      "inter": 1403,
      "almost": 1404,
      "ext": 1405,
      "ben": 1406,
      "pen": 1407,
      "pet": 1408,
      "##oot": 1409,
      "const": 1410,
      "twenty": 1411,
      "emb": 1412,
      "english": 1413,
      "side": 1414,
      "##ac": 1415,
      "##utus": 1416,
      "##ooth": 1417,
      "knew": 1418,
      "moon": 1419,
      "unt": 1420,
      "pret": 1421,
      "woe": 1422,
      "straight": 1423,
      "##ape": 1424,
      "sovere": 1425,
      "speed": 1426,
      "change": 1427,
      "leg": 1428,
      "scar": 1429,
      "question": 1430,
      "##sue": 1431,
      "##oman": 1432,
      "desp": 1433,
      "sovereign": 1434,
      "lau": 1435,
      "##uous": 1436,
      "having": 1437,
      "soft": 1438,
      "##each": 1439,
      "bos": 1440,
      "pluck": 1441,
      "course": 1442,
      "praise": 1443,
      "strike": 1444,
      "voice": 1445,
      "damn": 1446,
      "##aff": 1447,
      "town": 1448,
      "short": 1449,
      "##alm": 1450,
      "hark": 1451,
      "weak": 1452,
      "rec": 1453,
      "forb": 1454,
      "brutus": 1455,
      "excell": 1456,
      "fe": 1457,
      "opp": 1458,
      "hair": 1459,
      "note": 1460,
      "##rah": 1461,
      "unless": 1462,
      "##ount": 1463,
      "##lic": 1464,
      "glad": 1465,
      "soldier": 1466,
      "fet": 1467,
      "mess": 1468,
      "point": 1469,
      "counsel": 1470,
      "traitor": 1471,
      "water": 1472,
      "bosom": 1473,
      "coward": 1474,
      "lam": 1475,
      "##ready": 1476,
      "##stand": 1477,
      "hector": 1478,
      "spoke": 1479,
      "##ander": 1480,
      "stands": 1481,
      "prep": 1482,
      "emp": 1483,
      "duty": 1484,
      "tal": 1485,
      "##oc": 1486,
      "##iest": 1487,
      "##cester": 1488,
      "coming": 1489,
      "heavens": 1490,
      "sons": 1491,
      "methinks": 1492,
      "cro": 1493,
      "pom": 1494,
      "##sc": 1495,
      "##ities": 1496,
      "themselves": 1497,
      "already": 1498,
      "ap": 1499,
      "ach": 1500,
      "wretch": 1501,
      "##ne": 1502,
      "def": 1503,
      "ready": 1504,
      "sirrah": 1505,
      "plain": 1506,
      "flesh": 1507,
      "bad": 1508,
      "##ixt": 1509,
      "withal": 1510,
      "married": 1511,
      "scorn": 1512,
      "##gg": 1513,
      "liege": 1514,
      "suffer": 1515,
      "deny": 1516,
      "judg": 1517,
      "lest": 1518,
      "page": 1519,
      "wast": 1520,
      "##anch": 1521,
      "become": 1522,
      "stir": 1523,
      "##umber": 1524,
      "##riage": 1525,
      "harm": 1526,
      "presently": 1527,
      "und": 1528,
      "##ring": 1529,
      "##iff": 1530,
      "##ally": 1531,
      "chee": 1532,
      "grant": 1533,
      "##oy": 1534,
      "##ones": 1535,
      "##owers": 1536,
      "##ours": 1537,
      "close": 1538,
      "##dden": 1539,
      "laugh": 1540,
      "action": 1541,
      "bat": 1542,
      "hur": 1543,
      "wis": 1544,
      "##ec": 1545,
      "dish": 1546,
      "teach": 1547,
      "wall": 1548,
      "##eness": 1549,
      "wid": 1550,
      "##aud": 1551,
      "wherefore": 1552,
      "labour": 1553,
      "##ully": 1554,
      "creat": 1555,
      "sport": 1556,
      "trou": 1557,
      "strength": 1558,
      "wars": 1559,
      "glou": 1560,
      "respect": 1561,
      "lack": 1562,
      "##iar": 1563,
      "priv": 1564,
      "##agg": 1565,
      "add": 1566,
      "witness": 1567,
      "buck": 1568,
      "dire": 1569,
      "##ague": 1570,
      "needs": 1571,
      "##ourable": 1572,
      "book": 1573,
      "id": 1574,
      "##uff": 1575,
      "heir": 1576,
      "amb": 1577,
      "##umb": 1578,
      "##ument": 1579,
      "commend": 1580,
      "city": 1581,
      "five": 1582,
      "##race": 1583,
      "##feit": 1584,
      "flatter": 1585,
      "captain": 1586,
      "##ised": 1587,
      "##ank": 1588,
      "##east": 1589,
      "chr": 1590,
      "proceed": 1591,
      "##olk": 1592,
      "signior": 1593,
      "fetch": 1594,
      "bit": 1595,
      "feast": 1596,
      "ri": 1597,
      "white": 1598,
      "got": 1599,
      "loss": 1600,
      "##ils": 1601,
      "##une": 1602,
      "begin": 1603,
      "pale": 1604,
      "gloucester": 1605,
      "cam": 1606,
      "low": 1607,
      "pain": 1608,
      "sim": 1609,
      "vile": 1610,
      "lips": 1611,
      "bro": 1612,
      "sworn": 1613,
      "dark": 1614,
      "chamber": 1615,
      "ve": 1616,
      "##av": 1617,
      "##sters": 1618,
      "lordship": 1619,
      "##ott": 1620,
      "##ung": 1621,
      "##rice": 1622,
      "rob": 1623,
      "hours": 1624,
      "morning": 1625,
      "din": 1626,
      "ev": 1627,
      "jest": 1628,
      "main": 1629,
      "thir": 1630,
      "##als": 1631,
      "rel": 1632,
      "##vern": 1633,
      "sudden": 1634,
      "wherein": 1635,
      "resol": 1636,
      "fam": 1637,
      "offend": 1638,
      "wouldst": 1639,
      "kingdom": 1640,
      "soldiers": 1641,
      "quarre": 1642,
      "excellent": 1643,
      "##eth": 1644,
      "##ys": 1645,
      "##ern": 1646,
      "wild": 1647,
      "bell": 1648,
      "beast": 1649,
      "##ceiv": 1650,
      "##cience": 1651,
      "office": 1652,
      "guil": 1653,
      "romeo": 1654,
      "hide": 1655,
      "mil": 1656,
      "throw": 1657,
      "self": 1658,
      "fat": 1659,
      "pit": 1660,
      "##ays": 1661,
      "anon": 1662,
      "reb": 1663,
      "##unk": 1664,
      "march": 1665,
      "offer": 1666,
      "adm": 1667,
      "slave": 1668,
      "letters": 1669,
      "fore": 1670,
      "##oop": 1671,
      "stre": 1672,
      "move": 1673,
      "honourable": 1674,
      "abs": 1675,
      "beggar": 1676,
      "understand": 1677,
      "cheer": 1678,
      "somet": 1679,
      "sal": 1680,
      "##ires": 1681,
      "above": 1682,
      "##ize": 1683,
      "christ": 1684,
      "##vel": 1685,
      "receive": 1686,
      "mot": 1687,
      "whole": 1688,
      "poison": 1689,
      "marriage": 1690,
      "conscience": 1691,
      "det": 1692,
      "fill": 1693,
      "fash": 1694,
      "##asc": 1695,
      "chur": 1696,
      "among": 1697,
      "##empt": 1698,
      "dread": 1699,
      "cassio": 1700,
      "pretty": 1701,
      "feed": 1702,
      "sigh": 1703,
      "##ses": 1704,
      "##arge": 1705,
      "worship": 1706,
      "##ries": 1707,
      "slain": 1708,
      "spirits": 1709,
      "sense": 1710,
      "ke": 1711,
      "##of": 1712,
      "##essed": 1713,
      "speaks": 1714,
      "double": 1715,
      "children": 1716,
      "lim": 1717,
      "wed": 1718,
      "##vol": 1719,
      "##ser": 1720,
      "##bs": 1721,
      "##imes": 1722,
      "##ask": 1723,
      "host": 1724,
      "twere": 1725,
      "case": 1726,
      "lust": 1727,
      "rage": 1728,
      "##ham": 1729,
      "##hood": 1730,
      "health": 1731,
      "door": 1732,
      "kings": 1733,
      "guard": 1734,
      "treason": 1735,
      "acqu": 1736,
      "fing": 1737,
      "hund": 1738,
      "##ines": 1739,
      "##isf": 1740,
      "##cept": 1741,
      "##ution": 1742,
      "steal": 1743,
      "mod": 1744,
      "safe": 1745,
      "##roke": 1746,
      "fortunes": 1747,
      "hundred": 1748,
      "ef": 1749,
      "feel": 1750,
      "form": 1751,
      "##ool": 1752,
      "spo": 1753,
      "ourselves": 1754,
      "harry": 1755,
      "gives": 1756,
      "passion": 1757,
      "often": 1758,
      "card": 1759,
      "ut": 1760,
      "lion": 1761,
      "liber": 1762,
      "##ants": 1763,
      "along": 1764,
      "ble": 1765,
      "eas": 1766,
      "saint": 1767,
      "##pr": 1768,
      "##od": 1769,
      "##az": 1770,
      "brief": 1771,
      "affection": 1772,
      "seems": 1773,
      "fashion": 1774,
      "ele": 1775,
      "mir": 1776,
      "wound": 1777,
      "##ford": 1778,
      "whe": 1779,
      "beard": 1780,
      "force": 1781,
      "living": 1782,
      "tale": 1783,
      "offence": 1784,
      "##ations": 1785,
      "write": 1786,
      "longer": 1787,
      "##cover": 1788,
      "mortal": 1789,
      "judgment": 1790,
      "bow": 1791,
      "occ": 1792,
      "sor": 1793,
      "##ny": 1794,
      "##ler": 1795,
      "masters": 1796,
      "loving": 1797,
      "knock": 1798,
      "choose": 1799,
      "##antage": 1800,
      "##ages": 1801,
      "ladies": 1802,
      "cross": 1803,
      "##str": 1804,
      "issue": 1805,
      "chance": 1806,
      "trump": 1807,
      "join": 1808,
      "mighty": 1809,
      "souls": 1810,
      "enemies": 1811,
      "quickly": 1812,
      "satisf": 1813,
      "piece": 1814,
      "ver": 1815,
      "##ale": 1816,
      "disg": 1817,
      "exec": 1818,
      "gift": 1819,
      "##claim": 1820,
      "forget": 1821,
      "promise": 1822,
      "princes": 1823,
      "battle": 1824,
      "drown": 1825,
      "nur": 1826,
      "##aw": 1827,
      "##af": 1828,
      "##ites": 1829,
      "##ited": 1830,
      "bond": 1831,
      "claud": 1832,
      "small": 1833,
      "besides": 1834,
      "valour": 1835,
      "trouble": 1836,
      "effect": 1837,
      "died": 1838,
      "hu": 1839,
      "kate": 1840,
      "match": 1841,
      "##hile": 1842,
      "##ancy": 1843,
      "##ural": 1844,
      "seco": 1845,
      "breed": 1846,
      "perform": 1847,
      "consent": 1848,
      "dangerous": 1849,
      "wisdom": 1850,
      "##ying": 1851,
      "##inal": 1852,
      "fresh": 1853,
      "order": 1854,
      "exc": 1855,
      "##force": 1856,
      "patient": 1857,
      "deeds": 1858,
      "cal": 1859,
      "cup": 1860,
      "fine": 1861,
      "ign": 1862,
      "tar": 1863,
      "ur": 1864,
      "inn": 1865,
      "stud": 1866,
      "##ider": 1867,
      "trib": 1868,
      "arg": 1869,
      "presence": 1870,
      "possess": 1871,
      "won": 1872,
      "##ead": 1873,
      "##anio": 1874,
      "ham": 1875,
      "shar": 1876,
      "enc": 1877,
      "unw": 1878,
      "blow": 1879,
      "##aster": 1880,
      "bears": 1881,
      "emper": 1882,
      "heads": 1883,
      "moun": 1884,
      "##gr": 1885,
      "##mn": 1886,
      "shad": 1887,
      "ship": 1888,
      "##ames": 1889,
      "succ": 1890,
      "##ourn": 1891,
      "unk": 1892,
      "troth": 1893,
      "claudio": 1894,
      "second": 1895,
      "vow": 1896,
      "went": 1897,
      "##oss": 1898,
      "##bly": 1899,
      "##ety": 1900,
      "##eem": 1901,
      "##ility": 1902,
      "##uel": 1903,
      "hadst": 1904,
      "timon": 1905,
      "breast": 1906,
      "parts": 1907,
      "birth": 1908,
      "emperor": 1909,
      "jul": 1910,
      "mid": 1911,
      "ins": 1912,
      "##set": 1913,
      "cho": 1914,
      "conqu": 1915,
      "north": 1916,
      "fools": 1917,
      "foolish": 1918,
      "behind": 1919,
      "virtuous": 1920,
      "whilst": 1921,
      "bab": 1922,
      "fee": 1923,
      "year": 1924,
      "##fully": 1925,
      "##esy": 1926,
      "inv": 1927,
      "brain": 1928,
      "saf": 1929,
      "clar": 1930,
      "adie": 1931,
      "##pher": 1932,
      "title": 1933,
      "dull": 1934,
      "six": 1935,
      "##ught": 1936,
      "##ners": 1937,
      "shake": 1938,
      "forsw": 1939,
      "pride": 1940,
      "govern": 1941,
      "neigh": 1942,
      "cloud": 1943,
      "curse": 1944,
      "humour": 1945,
      "opin": 1946,
      "dest": 1947,
      "reign": 1948,
      "##cked": 1949,
      "##ular": 1950,
      "green": 1951,
      "counter": 1952,
      "pract": 1953,
      "##ealous": 1954,
      "entertain": 1955,
      "approach": 1956,
      "quarrel": 1957,
      "adieu": 1958,
      "bast": 1959,
      "port": 1960,
      "##aves": 1961,
      "##bury": 1962,
      "##iev": 1963,
      "going": 1964,
      "##ilus": 1965,
      "worst": 1966,
      "seal": 1967,
      "post": 1968,
      "lend": 1969,
      "quiet": 1970,
      "perceive": 1971,
      "contr": 1972,
      "buy": 1973,
      "church": 1974,
      "horn": 1975,
      "jack": 1976,
      "pi": 1977,
      "wood": 1978,
      "##irm": 1979,
      "stop": 1980,
      "qual": 1981,
      "awhile": 1982,
      "##rupt": 1983,
      "sus": 1984,
      "wert": 1985,
      "##bot": 1986,
      "measure": 1987,
      "##asion": 1988,
      "sole": 1989,
      "herself": 1990,
      "shallow": 1991,
      "wash": 1992,
      "least": 1993,
      "prayers": 1994,
      "shows": 1995,
      "obey": 1996,
      "##ledge": 1997,
      "angry": 1998,
      "depart": 1999,
      "hurt": 2000,
      "dinner": 2001,
      "cardinal": 2002,
      "round": 2003,
      "sch": 2004,
      "thither": 2005,
      "mel": 2006,
      "stood": 2007,
      "unh": 2008,
      "helen": 2009,
      "gainst": 2010,
      "bitter": 2011,
      "kept": 2012,
      "clarence": 2013,
      "cre": 2014,
      "jealous": 2015,
      "##ends": 2016,
      "##ker": 2017,
      "##ding": 2018,
      "##wd": 2019,
      "unf": 2020,
      "##osition": 2021,
      "carry": 2022,
      "ath": 2023,
      "roman": 2024,
      "sever": 2025,
      "plague": 2026,
      "proper": 2027,
      "imm": 2028,
      "dispatch": 2029,
      "pompe": 2030,
      "av": 2031,
      "gir": 2032,
      "list": 2033,
      "pains": 2034,
      "vain": 2035,
      "##ium": 2036,
      "##uit": 2037,
      "whither": 2038,
      "##rem": 2039,
      "ref": 2040,
      "tast": 2041,
      "earl": 2042,
      "##ify": 2043,
      "faults": 2044,
      "judge": 2045,
      "##ourage": 2046,
      "scarce": 2047,
      "sorry": 2048,
      "pal": 2049,
      "##ual": 2050,
      "##ores": 2051,
      "##ises": 2052,
      "##rey": 2053,
      "shr": 2054,
      "##lex": 2055,
      "proof": 2056,
      "##cted": 2057,
      "brook": 2058,
      "blind": 2059,
      "taken": 2060,
      "sac": 2061,
      "jove": 2062,
      "drum": 2063,
      "troilus": 2064,
      "demand": 2065,
      "colour": 2066,
      "talbot": 2067,
      "mut": 2068,
      "ren": 2069,
      "rasc": 2070,
      "##ray": 2071,
      "##zen": 2072,
      "noise": 2073,
      "##ingly": 2074,
      "##cks": 2075,
      "ours": 2076,
      "try": 2077,
      "concl": 2078,
      "alive": 2079,
      "offic": 2080,
      "laid": 2081,
      "fearful": 2082,
      "dishon": 2083,
      "bastard": 2084,
      "pompey": 2085,
      "gates": 2086,
      "sort": 2087,
      "##ges": 2088,
      "thro": 2089,
      "##ark": 2090,
      "fors": 2091,
      "trans": 2092,
      "usur": 2093,
      "ros": 2094,
      "others": 2095,
      "import": 2096,
      "##airs": 2097,
      "fled": 2098,
      "vie": 2099,
      "##een": 2100,
      "##so": 2101,
      "##jur": 2102,
      "##edy": 2103,
      "stor": 2104,
      "##ided": 2105,
      "trick": 2106,
      "conce": 2107,
      "hearing": 2108,
      "calls": 2109,
      "purse": 2110,
      "drunk": 2111,
      "##like": 2112,
      "golden": 2113,
      "hamlet": 2114,
      "corn": 2115,
      "ge": 2116,
      "rid": 2117,
      "##oly": 2118,
      "##ror": 2119,
      "##ife": 2120,
      "shape": 2121,
      "pros": 2122,
      "honesty": 2123,
      "contin": 2124,
      "smil": 2125,
      "virg": 2126,
      "troy": 2127,
      "auth": 2128,
      "condition": 2129,
      "viol": 2130,
      "success": 2131,
      "opinion": 2132,
      "cir": 2133,
      "cred": 2134,
      "eg": 2135,
      "ow": 2136,
      "rough": 2137,
      "##cent": 2138,
      "##app": 2139,
      "##ances": 2140,
      "##chief": 2141,
      "broke": 2142,
      "##ots": 2143,
      "seven": 2144,
      "##ume": 2145,
      "glory": 2146,
      "monster": 2147,
      "obser": 2148,
      "cruel": 2149,
      "forgot": 2150,
      "nurse": 2151,
      "ignor": 2152,
      "sharp": 2153,
      "catch": 2154,
      "mere": 2155,
      "tear": 2156,
      "wench": 2157,
      "##ek": 2158,
      "friar": 2159,
      "blame": 2160,
      "blush": 2161,
      "struck": 2162,
      "boys": 2163,
      "silence": 2164,
      "instant": 2165,
      "temp": 2166,
      "innoc": 2167,
      "neighbour": 2168,
      "courage": 2169,
      "##vey": 2170,
      "manner": 2171,
      "whence": 2172,
      "hop": 2173,
      "plant": 2174,
      "dism": 2175,
      "expect": 2176,
      "clock": 2177,
      "bestow": 2178,
      "deserve": 2179,
      "gross": 2180,
      "clear": 2181,
      "embrace": 2182,
      "equ": 2183,
      "pin": 2184,
      "yo": 2185,
      "##ram": 2186,
      "thrice": 2187,
      "held": 2188,
      "liv": 2189,
      "frown": 2190,
      "##ease": 2191,
      "chast": 2192,
      "amen": 2193,
      "##illes": 2194,
      "##unning": 2195,
      "holl": 2196,
      "##ffer": 2197,
      "greater": 2198,
      "##perate": 2199,
      "month": 2200,
      "request": 2201,
      "secret": 2202,
      "forbid": 2203,
      "odd": 2204,
      "pub": 2205,
      "tor": 2206,
      "##right": 2207,
      "##day": 2208,
      "##ona": 2209,
      "anci": 2210,
      "moor": 2211,
      "thence": 2212,
      "takes": 2213,
      "paris": 2214,
      "suffolk": 2215,
      "visit": 2216,
      "whether": 2217,
      "view": 2218,
      "powers": 2219,
      "##oin": 2220,
      "##ians": 2221,
      "##under": 2222,
      "tow": 2223,
      "##ingham": 2224,
      "step": 2225,
      "##entine": 2226,
      "defend": 2227,
      "lod": 2228,
      "swift": 2229,
      "proclaim": 2230,
      "quite": 2231,
      "rogue": 2232,
      "smile": 2233,
      "obed": 2234,
      "drawn": 2235,
      "delight": 2236,
      "bird": 2237,
      "utter": 2238,
      "ancient": 2239,
      "da": 2240,
      "loud": 2241,
      "rise": 2242,
      "vouch": 2243,
      "top": 2244,
      "##omp": 2245,
      "deal": 2246,
      "loath": 2247,
      "shepher": 2248,
      "awake": 2249,
      "commit": 2250,
      "princely": 2251,
      "humble": 2252,
      "persu": 2253,
      "phil": 2254,
      "lucius": 2255,
      "shepherd": 2256,
      "tent": 2257,
      "vol": 2258,
      "wine": 2259,
      "wicked": 2260,
      "wealth": 2261,
      "##usion": 2262,
      "necess": 2263,
      "goodly": 2264,
      "blessed": 2265,
      "whereof": 2266,
      "marcius": 2267,
      "greatness": 2268,
      "##elve": 2269,
      "honours": 2270,
      "folly": 2271,
      "endure": 2272,
      "borne": 2273,
      "protect": 2274,
      "achilles": 2275,
      "taste": 2276,
      "cat": 2277,
      "cunning": 2278,
      "due": 2279,
      "fish": 2280,
      "vent": 2281,
      "wounds": 2282,
      "##iam": 2283,
      "##den": 2284,
      "ford": 2285,
      "trium": 2286,
      "##ical": 2287,
      "desires": 2288,
      "##phin": 2289,
      "consider": 2290,
      "paper": 2291,
      "anton": 2292,
      "becom": 2293,
      "intend": 2294,
      "wretched": 2295,
      "motion": 2296,
      "rosal": 2297,
      "prosper": 2298,
      "pun": 2299,
      "rain": 2300,
      "winds": 2301,
      "##staff": 2302,
      "hail": 2303,
      "forward": 2304,
      "meant": 2305,
      "chang": 2306,
      "enj": 2307,
      "knowledge": 2308,
      "##ult": 2309,
      "alth": 2310,
      "alack": 2311,
      "prop": 2312,
      "proph": 2313,
      "compl": 2314,
      "##ission": 2315,
      "fellows": 2316,
      "aught": 2317,
      "cassius": 2318,
      "prisoner": 2319,
      "angelo": 2320,
      "buckingham": 2321,
      "third": 2322,
      "author": 2323,
      "dau": 2324,
      "pot": 2325,
      "west": 2326,
      "##broke": 2327,
      "threat": 2328,
      "hap": 2329,
      "##itors": 2330,
      "deg": 2331,
      "uns": 2332,
      "margar": 2333,
      "cost": 2334,
      "##ustom": 2335,
      "##bert": 2336,
      "ways": 2337,
      "holds": 2338,
      "falstaff": 2339,
      "drop": 2340,
      "shadow": 2341,
      "margaret": 2342,
      "dur": 2343,
      "sy": 2344,
      "##via": 2345,
      "##ze": 2346,
      "##orous": 2347,
      "wits": 2348,
      "sto": 2349,
      "stain": 2350,
      "doing": 2351,
      "priest": 2352,
      "making": 2353,
      "kneel": 2354,
      "fail": 2355,
      "roar": 2356,
      "partic": 2357,
      "forgive": 2358,
      "grows": 2359,
      "winter": 2360,
      "extrem": 2361,
      "bene": 2362,
      "until": 2363,
      "creature": 2364,
      "private": 2365,
      "bleed": 2366,
      "yonder": 2367,
      "triumph": 2368,
      "bones": 2369,
      "eld": 2370,
      "fig": 2371,
      "owe": 2372,
      "##cus": 2373,
      "##ane": 2374,
      "shrew": 2375,
      "yourselves": 2376,
      "dec": 2377,
      "revol": 2378,
      "hero": 2379,
      "##ieves": 2380,
      "bod": 2381,
      "greet": 2382,
      "grand": 2383,
      "claim": 2384,
      "wrath": 2385,
      "repent": 2386,
      "tongues": 2387,
      "weary": 2388,
      "terms": 2389,
      "wait": 2390,
      "prepar": 2391,
      "christian": 2392,
      "excuse": 2393,
      "choice": 2394,
      "safety": 2395,
      "melanch": 2396,
      "although": 2397,
      "fle": 2398,
      "fain": 2399,
      "large": 2400,
      "rude": 2401,
      "sear": 2402,
      "tur": 2403,
      "wal": 2404,
      "##ives": 2405,
      "##vish": 2406,
      "##ever": 2407,
      "##cil": 2408,
      "##ax": 2409,
      "##ged": 2410,
      "##her": 2411,
      "##stance": 2412,
      "mem": 2413,
      "mend": 2414,
      "weigh": 2415,
      "blows": 2416,
      "twice": 2417,
      "precious": 2418,
      "army": 2419,
      "charm": 2420,
      "##loy": 2421,
      "damned": 2422,
      "messeng": 2423,
      "employ": 2424,
      "virgin": 2425,
      "melancholy": 2426,
      "hung": 2427,
      "song": 2428,
      "##vell": 2429,
      "med": 2430,
      "##chance": 2431,
      "stock": 2432,
      "stuff": 2433,
      "neg": 2434,
      "neck": 2435,
      "amaz": 2436,
      "bright": 2437,
      "unp": 2438,
      "##icious": 2439,
      "twixt": 2440,
      "##emn": 2441,
      "##ounter": 2442,
      "anything": 2443,
      "imag": 2444,
      "brothers": 2445,
      "remain": 2446,
      "summer": 2447,
      "towards": 2448,
      "malice": 2449,
      "cheek": 2450,
      "simple": 2451,
      "finger": 2452,
      "occasion": 2453,
      "encounter": 2454,
      "cried": 2455,
      "few": 2456,
      "##og": 2457,
      "##ald": 2458,
      "##mble": 2459,
      "##bb": 2460,
      "bend": 2461,
      "heels": 2462,
      "doctor": 2463,
      "herm": 2464,
      "knee": 2465,
      "cliff": 2466,
      "##ago": 2467,
      "glass": 2468,
      "keeps": 2469,
      "stars": 2470,
      "legs": 2471,
      "cheeks": 2472,
      "widow": 2473,
      "dauphin": 2474,
      "van": 2475,
      "wak": 2476,
      "##ndon": 2477,
      "##utation": 2478,
      "meat": 2479,
      "anne": 2480,
      "manners": 2481,
      "brit": 2482,
      "unc": 2483,
      "unb": 2484,
      "foes": 2485,
      "called": 2486,
      "##ierce": 2487,
      "courtesy": 2488,
      "wrongs": 2489,
      "advantage": 2490,
      "whiles": 2491,
      "direct": 2492,
      "trumpet": 2493,
      "circ": 2494,
      "tower": 2495,
      "bare": 2496,
      "fought": 2497,
      "pure": 2498,
      "##min": 2499,
      "##ina": 2500,
      "##ley": 2501,
      "steel": 2502,
      "prick": 2503,
      "##ident": 2504,
      "spring": 2505,
      "brow": 2506,
      "##icles": 2507,
      "shouldst": 2508,
      "fond": 2509,
      "earn": 2510,
      "fears": 2511,
      "compan": 2512,
      "maiden": 2513,
      "remembr": 2514,
      "phys": 2515,
      "prote": 2516,
      "somer": 2517,
      "guilty": 2518,
      "liberty": 2519,
      "particular": 2520,
      "dry": 2521,
      "fame": 2522,
      "py": 2523,
      "rose": 2524,
      "rans": 2525,
      "##iance": 2526,
      "##hip": 2527,
      "nose": 2528,
      "heat": 2529,
      "mac": 2530,
      "spend": 2531,
      "chall": 2532,
      "env": 2533,
      "sav": 2534,
      "sail": 2535,
      "accord": 2536,
      "assur": 2537,
      "##ruction": 2538,
      "corrupt": 2539,
      "anger": 2540,
      "minister": 2541,
      "bened": 2542,
      "lament": 2543,
      "several": 2544,
      "antonio": 2545,
      "somerset": 2546,
      "aud": 2547,
      "dwell": 2548,
      "kins": 2549,
      "sau": 2550,
      "##dain": 2551,
      "##with": 2552,
      "##ways": 2553,
      "##orge": 2554,
      "##read": 2555,
      "##omach": 2556,
      "london": 2557,
      "boling": 2558,
      "madness": 2559,
      "quoth": 2560,
      "slander": 2561,
      "monstr": 2562,
      "wanton": 2563,
      "tyrant": 2564,
      "protest": 2565,
      "##otten": 2566,
      "punish": 2567,
      "physic": 2568,
      "monstrous": 2569,
      "big": 2570,
      "hors": 2571,
      "lanc": 2572,
      "rare": 2573,
      "sens": 2574,
      "##night": 2575,
      "##leness": 2576,
      "thunder": 2577,
      "##oral": 2578,
      "##edom": 2579,
      "weap": 2580,
      "stone": 2581,
      "story": 2582,
      "##ards": 2583,
      "conc": 2584,
      "twill": 2585,
      "cloth": 2586,
      "slaughter": 2587,
      "undert": 2588,
      "swords": 2589,
      "silver": 2590,
      "instr": 2591,
      "affairs": 2592,
      "profess": 2593,
      "forbear": 2594,
      "sometime": 2595,
      "enjoy": 2596,
      "bolingbroke": 2597,
      "custom": 2598,
      "food": 2599,
      "pu": 2600,
      "##que": 2601,
      "##enance": 2602,
      "shut": 2603,
      "shore": 2604,
      "rever": 2605,
      "receiv": 2606,
      "chain": 2607,
      "prod": 2608,
      "perfect": 2609,
      "##aps": 2610,
      "witch": 2611,
      "mont": 2612,
      "assure": 2613,
      "fury": 2614,
      "tyr": 2615,
      "prepare": 2616,
      "##agger": 2617,
      "idle": 2618,
      "mountain": 2619,
      "counterfeit": 2620,
      "renown": 2621,
      "becomes": 2622,
      "search": 2623,
      "clifford": 2624,
      "cuck": 2625,
      "dies": 2626,
      "led": 2627,
      "##ov": 2628,
      "##vail": 2629,
      "##eous": 2630,
      "##cul": 2631,
      "thief": 2632,
      "##orth": 2633,
      "##reh": 2634,
      "hal": 2635,
      "stomach": 2636,
      "##eeth": 2637,
      "##ourse": 2638,
      "mov": 2639,
      "plot": 2640,
      "desperate": 2641,
      "smell": 2642,
      "throne": 2643,
      "paid": 2644,
      "fiend": 2645,
      "oaths": 2646,
      "easy": 2647,
      "study": 2648,
      "conquer": 2649,
      "lancaster": 2650,
      "bas": 2651,
      "bass": 2652,
      "fre": 2653,
      "faint": 2654,
      "tut": 2655,
      "var": 2656,
      "vows": 2657,
      "##more": 2658,
      "##orious": 2659,
      "##ences": 2660,
      "##ved": 2661,
      "heed": 2662,
      "former": 2663,
      "##eds": 2664,
      "weight": 2665,
      "##athers": 2666,
      "##ainted": 2667,
      "chief": 2668,
      "##unes": 2669,
      "tail": 2670,
      "always": 2671,
      "leis": 2672,
      "abro": 2673,
      "leaves": 2674,
      "##angu": 2675,
      "duc": 2676,
      "empt": 2677,
      "meaning": 2678,
      "reasons": 2679,
      "condemn": 2680,
      "express": 2681,
      "venge": 2682,
      "subjects": 2683,
      "circum": 2684,
      "ransom": 2685,
      "aid": 2686,
      "dance": 2687,
      "dust": 2688,
      "hit": 2689,
      "squ": 2690,
      "##ypt": 2691,
      "##ense": 2692,
      "##iment": 2693,
      "start": 2694,
      "doom": 2695,
      "##allow": 2696,
      "ones": 2697,
      "fruit": 2698,
      "##ract": 2699,
      "lover": 2700,
      "spent": 2701,
      "convey": 2702,
      "twelve": 2703,
      "exam": 2704,
      "betray": 2705,
      "foe": 2706,
      "##udge": 2707,
      "thrust": 2708,
      "valentine": 2709,
      "crowns": 2710,
      "breathe": 2711,
      "miser": 2712,
      "##verend": 2713,
      "gallant": 2714,
      "dishonour": 2715,
      "egypt": 2716,
      "remembrance": 2717,
      "horses": 2718,
      "ease": 2719,
      "nine": 2720,
      "niece": 2721,
      "rank": 2722,
      "tree": 2723,
      "##sp": 2724,
      "##bles": 2725,
      "##wise": 2726,
      "##ising": 2727,
      "wives": 2728,
      "sheep": 2729,
      "##itude": 2730,
      "spare": 2731,
      "trial": 2732,
      "##rows": 2733,
      "##aked": 2734,
      "humbly": 2735,
      "kindness": 2736,
      "griefs": 2737,
      "weeping": 2738,
      "differ": 2739,
      "sooner": 2740,
      "##ronic": 2741,
      "evil": 2742,
      "spoken": 2743,
      "argument": 2744,
      "solemn": 2745,
      "leisure": 2746,
      "aj": 2747,
      "able": 2748,
      "bard": 2749,
      "cries": 2750,
      "grown": 2751,
      "hid": 2752,
      "iago": 2753,
      "line": 2754,
      "number": 2755,
      "wra": 2756,
      "wol": 2757,
      "##rest": 2758,
      "##afe": 2759,
      "##fer": 2760,
      "bef": 2761,
      "##urs": 2762,
      "stol": 2763,
      "allow": 2764,
      "comb": 2765,
      "mayst": 2766,
      "disple": 2767,
      "affect": 2768,
      "natural": 2769,
      "##ified": 2770,
      "lawful": 2771,
      "happiness": 2772,
      "temper": 2773,
      "supper": 2774,
      "discourse": 2775,
      "vict": 2776,
      "princess": 2777,
      "broken": 2778,
      "dreadful": 2779,
      "rascal": 2780,
      "abroad": 2781,
      "ajax": 2782,
      "cure": 2783,
      "dri": 2784,
      "dign": 2785,
      "gown": 2786,
      "pick": 2787,
      "tune": 2788,
      "##gs": 2789,
      "##yond": 2790,
      "##wh": 2791,
      "beyond": 2792,
      "##erem": 2793,
      "aside": 2794,
      "##idge": 2795,
      "fright": 2796,
      "##ams": 2797,
      "##ament": 2798,
      "reverend": 2799,
      "lovers": 2800,
      "spite": 2801,
      "sack": 2802,
      "grey": 2803,
      "##oler": 2804,
      "##olph": 2805,
      "flood": 2806,
      "plead": 2807,
      "dearest": 2808,
      "charity": 2809,
      "follows": 2810,
      "countenance": 2811,
      "tyb": 2812,
      "sometimes": 2813,
      "execution": 2814,
      "forsworn": 2815,
      "usurp": 2816,
      "storm": 2817,
      "##centio": 2818,
      "bardolph": 2819,
      "aim": 2820,
      "borrow": 2821,
      "gate": 2822,
      "sooth": 2823,
      "##go": 2824,
      "stones": 2825,
      "##ieur": 2826,
      "##ourish": 2827,
      "envy": 2828,
      "discover": 2829,
      "thinks": 2830,
      "warm": 2831,
      "percy": 2832,
      "griev": 2833,
      "slow": 2834,
      "##aughters": 2835,
      "condu": 2836,
      "possible": 2837,
      "walls": 2838,
      "guilt": 2839,
      "rosalind": 2840,
      "cy": 2841,
      "fancy": 2842,
      "gh": 2843,
      "hat": 2844,
      "wing": 2845,
      "##iful": 2846,
      "##dle": 2847,
      "thick": 2848,
      "bew": 2849,
      "shed": 2850,
      "##ches": 2851,
      "goodness": 2852,
      "enforce": 2853,
      "saying": 2854,
      "season": 2855,
      "imper": 2856,
      "preser": 2857,
      "remedy": 2858,
      "firm": 2859,
      "bids": 2860,
      "seeming": 2861,
      "traitors": 2862,
      "silvia": 2863,
      "except": 2864,
      "purpos": 2865,
      "freely": 2866,
      "despair": 2867,
      "undone": 2868,
      "maintain": 2869,
      "deter": 2870,
      "mirth": 2871,
      "clouds": 2872,
      "##ointed": 2873,
      "protector": 2874,
      "tybalt": 2875,
      "civ": 2876,
      "dig": 2877,
      "hy": 2878,
      "hill": 2879,
      "ly": 2880,
      "langu": 2881,
      "sore": 2882,
      "teeth": 2883,
      "##pl": 2884,
      "##su": 2885,
      "##bit": 2886,
      "incl": 2887,
      "forest": 2888,
      "doors": 2889,
      "deb": 2890,
      "loyal": 2891,
      "bride": 2892,
      "quit": 2893,
      "cover": 2894,
      "flight": 2895,
      "flowers": 2896,
      "gentlew": 2897,
      "confirm": 2898,
      "guest": 2899,
      "denied": 2900,
      "buried": 2901,
      "tempt": 2902,
      "ruin": 2903,
      "jewel": 2904,
      "##umberland": 2905,
      "acquaint": 2906,
      "hopes": 2907,
      "vouchs": 2908,
      "messenger": 2909,
      "proteus": 2910,
      "benedick": 2911,
      "bott": 2912,
      "der": 2913,
      "feet": 2914,
      "mild": 2915,
      "vice": 2916,
      "##iol": 2917,
      "##ua": 2918,
      "##ging": 2919,
      "##mit": 2920,
      "##zard": 2921,
      "##ars": 2922,
      "##enet": 2923,
      "##alf": 2924,
      "dece": 2925,
      "##very": 2926,
      "##raid": 2927,
      "##ters": 2928,
      "therein": 2929,
      "conj": 2930,
      "swe": 2931,
      "hol": 2932,
      "leon": 2933,
      "lean": 2934,
      "heavenly": 2935,
      "contempt": 2936,
      "thrive": 2937,
      "intent": 2938,
      "single": 2939,
      "capit": 2940,
      "learned": 2941,
      "constant": 2942,
      "oppos": 2943,
      "hollow": 2944,
      "authority": 2945,
      "daughters": 2946,
      "giv": 2947,
      "hun": 2948,
      "ir": 2949,
      "pound": 2950,
      "pack": 2951,
      "ride": 2952,
      "tid": 2953,
      "wings": 2954,
      "##ees": 2955,
      "##ca": 2956,
      "##ann": 2957,
      "whore": 2958,
      "infect": 2959,
      "##leep": 2960,
      "press": 2961,
      "render": 2962,
      "swell": 2963,
      "arch": 2964,
      "peril": 2965,
      "womb": 2966,
      "begins": 2967,
      "charles": 2968,
      "falls": 2969,
      "wond": 2970,
      "tread": 2971,
      "banqu": 2972,
      "voices": 2973,
      "sickness": 2974,
      "titus": 2975,
      "crack": 2976,
      "unkind": 2977,
      "quality": 2978,
      "school": 2979,
      "athens": 2980,
      "earnest": 2981,
      "bought": 2982,
      "cit": 2983,
      "cress": 2984,
      "east": 2985,
      "fil": 2986,
      "furn": 2987,
      "honey": 2988,
      "nap": 2989,
      "nought": 2990,
      "naked": 2991,
      "ted": 2992,
      "##lit": 2993,
      "##sieur": 2994,
      "##wixt": 2995,
      "thom": 2996,
      "##ination": 2997,
      "asleep": 2998,
      "debt": 2999,
      "knees": 3000,
      "disdain": 3001,
      "heav": 3002,
      "betwixt": 3003,
      "flies": 3004,
      "flower": 3005,
      "smooth": 3006,
      "guess": 3007,
      "lands": 3008,
      "skill": 3009,
      "rule": 3010,
      "regard": 3011,
      "wide": 3012,
      "cupid": 3013,
      "girl": 3014,
      "credit": 3015,
      "tempest": 3016,
      "innocent": 3017,
      "equal": 3018,
      "durst": 3019,
      "benef": 3020,
      "ducats": 3021,
      "vengeance": 3022,
      "bottom": 3023,
      "tedious": 3024,
      "thomas": 3025,
      "bull": 3026,
      "boot": 3027,
      "cord": 3028,
      "dun": 3029,
      "dian": 3030,
      "rom": 3031,
      "salt": 3032,
      "wag": 3033,
      "##ten": 3034,
      "##cing": 3035,
      "##iter": 3036,
      "##ades": 3037,
      "realm": 3038,
      "spr": 3039,
      "cher": 3040,
      "unl": 3041,
      "swore": 3042,
      "sayst": 3043,
      "seat": 3044,
      "marcus": 3045,
      "##riv": 3046,
      "##rible": 3047,
      "ali": 3048,
      "prevent": 3049,
      "##phrey": 3050,
      "armour": 3051,
      "confer": 3052,
      "humphrey": 3053,
      "minds": 3054,
      "treach": 3055,
      "accus": 3056,
      "hanged": 3057,
      "profit": 3058,
      "drops": 3059,
      "despite": 3060,
      "streets": 3061,
      "juliet": 3062,
      "northumberland": 3063,
      "throat": 3064,
      "empty": 3065,
      "tidings": 3066,
      "cressid": 3067,
      "apt": 3068,
      "ber": 3069,
      "bade": 3070,
      "fi": 3071,
      "ox": 3072,
      "##ating": 3073,
      "##iny": 3074,
      "whipp": 3075,
      "##cend": 3076,
      "dew": 3077,
      "reward": 3078,
      "hers": 3079,
      "##ands": 3080,
      "##rius": 3081,
      "outward": 3082,
      "bred": 3083,
      "strang": 3084,
      "room": 3085,
      "early": 3086,
      "scot": 3087,
      "##elt": 3088,
      "appears": 3089,
      "prevail": 3090,
      "purch": 3091,
      "villany": 3092,
      "caius": 3093,
      "mischief": 3094,
      "angel": 3095,
      "vex": 3096,
      "suddenly": 3097,
      "absence": 3098,
      "obedience": 3099,
      "ghost": 3100,
      "ep": 3101,
      "esc": 3102,
      "fift": 3103,
      "hie": 3104,
      "loose": 3105,
      "names": 3106,
      "pie": 3107,
      "pil": 3108,
      "ran": 3109,
      "rail": 3110,
      "sits": 3111,
      "wake": 3112,
      "##oll": 3113,
      "##aces": 3114,
      "##ision": 3115,
      "##ene": 3116,
      "##anus": 3117,
      "##cel": 3118,
      "##ases": 3119,
      "dot": 3120,
      "##idius": 3121,
      "##tern": 3122,
      "brings": 3123,
      "greatest": 3124,
      "cock": 3125,
      "##istol": 3126,
      "commission": 3127,
      "##ips": 3128,
      "appreh": 3129,
      "deadly": 3130,
      "virtues": 3131,
      "disposition": 3132,
      "bark": 3133,
      "coriol": 3134,
      "divine": 3135,
      "estate": 3136,
      "empress": 3137,
      "admir": 3138,
      "##after": 3139,
      "pict": 3140,
      "suspect": 3141,
      "officer": 3142,
      "memory": 3143,
      "pyram": 3144,
      "conduct": 3145,
      "vouchsafe": 3146,
      "romans": 3147,
      "cease": 3148,
      "ends": 3149,
      "miss": 3150,
      "rul": 3151,
      "rash": 3152,
      "##vin": 3153,
      "##con": 3154,
      "andronic": 3155,
      "##enge": 3156,
      "whores": 3157,
      "stab": 3158,
      "staff": 3159,
      "pron": 3160,
      "##amp": 3161,
      "recover": 3162,
      "suck": 3163,
      "lock": 3164,
      "spe": 3165,
      "knife": 3166,
      "##ilt": 3167,
      "faces": 3168,
      "hereafter": 3169,
      "##ishop": 3170,
      "gree": 3171,
      "disch": 3172,
      "##igence": 3173,
      "##ement": 3174,
      "abh": 3175,
      "flow": 3176,
      "perchance": 3177,
      "hastings": 3178,
      "compass": 3179,
      "begu": 3180,
      "villains": 3181,
      "exceed": 3182,
      "burden": 3183,
      "deserv": 3184,
      "methought": 3185,
      "banished": 3186,
      "bawd": 3187,
      "ambition": 3188,
      "sighs": 3189,
      "tarry": 3190,
      "avo": 3191,
      "challenge": 3192,
      "civil": 3193,
      "gentlewoman": 3194,
      "eag": 3195,
      "fix": 3196,
      "tort": 3197,
      "va": 3198,
      "wont": 3199,
      "wander": 3200,
      "##nat": 3201,
      "##kin": 3202,
      "##aid": 3203,
      "##isbury": 3204,
      "tomb": 3205,
      "##ced": 3206,
      "##cher": 3207,
      "##chant": 3208,
      "##etrius": 3209,
      "ital": 3210,
      "##itious": 3211,
      "stick": 3212,
      "deceive": 3213,
      "spake": 3214,
      "seas": 3215,
      "clo": 3216,
      "##akes": 3217,
      "parted": 3218,
      "##ctions": 3219,
      "devise": 3220,
      "turns": 3221,
      "imposs": 3222,
      "sleeping": 3223,
      "edm": 3224,
      "beaten": 3225,
      "build": 3226,
      "blessing": 3227,
      "burning": 3228,
      "demetrius": 3229,
      "salisbury": 3230,
      "modesty": 3231,
      "satisfied": 3232,
      "disgrace": 3233,
      "unkn": 3234,
      "contrary": 3235,
      "forsooth": 3236,
      "violent": 3237,
      "ignorant": 3238,
      "kinsman": 3239,
      "fiery": 3240,
      "ape": 3241,
      "fin": 3242,
      "fun": 3243,
      "length": 3244,
      "nest": 3245,
      "por": 3246,
      "pour": 3247,
      "sour": 3248,
      "##oard": 3249,
      "##hold": 3250,
      "##bl": 3251,
      "##folk": 3252,
      "##jury": 3253,
      "##inius": 3254,
      "sho": 3255,
      "shot": 3256,
      "##uten": 3257,
      "prize": 3258,
      "reck": 3259,
      "train": 3260,
      "##ello": 3261,
      "table": 3262,
      "worm": 3263,
      "sees": 3264,
      "pos": 3265,
      "##pend": 3266,
      "##ption": 3267,
      "abus": 3268,
      "norfolk": 3269,
      "stranger": 3270,
      "grieve": 3271,
      "slight": 3272,
      "merit": 3273,
      "repair": 3274,
      "reputation": 3275,
      "lieuten": 3276,
      "object": 3277,
      "behalf": 3278,
      "hencefor": 3279,
      "attempt": 3280,
      "burg": 3281,
      "dares": 3282,
      "suppose": 3283,
      "affli": 3284,
      "crave": 3285,
      "waste": 3286,
      "admit": 3287,
      "limbs": 3288,
      "modest": 3289,
      "gifts": 3290,
      "unworth": 3291,
      "horns": 3292,
      "unhapp": 3293,
      "public": 3294,
      "degree": 3295,
      "undertake": 3296,
      "victory": 3297,
      "leonat": 3298,
      "pronoun": 3299,
      "bill": 3300,
      "bian": 3301,
      "dying": 3302,
      "gard": 3303,
      "kath": 3304,
      "mart": 3305,
      "mass": 3306,
      "numb": 3307,
      "##iate": 3308,
      "##act": 3309,
      "##bar": 3310,
      "##bed": 3311,
      "whis": 3312,
      "inform": 3313,
      "##imer": 3314,
      "herald": 3315,
      "trif": 3316,
      "##iliar": 3317,
      "seeing": 3318,
      "##ulous": 3319,
      "seest": 3320,
      "##icate": 3321,
      "abuse": 3322,
      "##ired": 3323,
      "perforce": 3324,
      "fairly": 3325,
      "party": 3326,
      "prefer": 3327,
      "glorious": 3328,
      "complex": 3329,
      "merc": 3330,
      "confound": 3331,
      "treasure": 3332,
      "dogs": 3333,
      "venice": 3334,
      "garments": 3335,
      "shortly": 3336,
      "painted": 3337,
      "familiar": 3338,
      "offended": 3339,
      "sacred": 3340,
      "george": 3341,
      "reverence": 3342,
      "andronicus": 3343,
      "edmund": 3344,
      "lieutenant": 3345,
      "bianca": 3346,
      "kathar": 3347,
      "bind": 3348,
      "boun": 3349,
      "cerem": 3350,
      "dst": 3351,
      "eight": 3352,
      "fate": 3353,
      "fits": 3354,
      "iron": 3355,
      "oct": 3356,
      "pistol": 3357,
      "##na": 3358,
      "##haps": 3359,
      "##dra": 3360,
      "##dem": 3361,
      "thieves": 3362,
      "invent": 3363,
      "##oots": 3364,
      "stat": 3365,
      "stoop": 3366,
      "fac": 3367,
      "brows": 3368,
      "brains": 3369,
      "##ellow": 3370,
      "lovely": 3371,
      "taught": 3372,
      "mars": 3373,
      "thinking": 3374,
      "clim": 3375,
      "perhaps": 3376,
      "grat": 3377,
      "##elia": 3378,
      "ladyship": 3379,
      "##apes": 3380,
      "friendship": 3381,
      "device": 3382,
      "account": 3383,
      "assist": 3384,
      "colours": 3385,
      "ripe": 3386,
      "according": 3387,
      "pyramus": 3388,
      "speci": 3389,
      "octav": 3390,
      "ball": 3391,
      "cens": 3392,
      "dumb": 3393,
      "rh": 3394,
      "tide": 3395,
      "##pir": 3396,
      "##dge": 3397,
      "##ators": 3398,
      "hazard": 3399,
      "forfeit": 3400,
      "##asy": 3401,
      "##idence": 3402,
      "liest": 3403,
      "frame": 3404,
      "super": 3405,
      "chide": 3406,
      "##ote": 3407,
      "knowing": 3408,
      "blunt": 3409,
      "polic": 3410,
      "graces": 3411,
      "remove": 3412,
      "pair": 3413,
      "maids": 3414,
      "##ails": 3415,
      "advance": 3416,
      "advice": 3417,
      "market": 3418,
      "raise": 3419,
      "wax": 3420,
      "##beth": 3421,
      "servants": 3422,
      "relig": 3423,
      "fatal": 3424,
      "rebell": 3425,
      "haply": 3426,
      "negle": 3427,
      "calm": 3428,
      "fathers": 3429,
      "key": 3430,
      "mourn": 3431,
      "rag": 3432,
      "rush": 3433,
      "sell": 3434,
      "sink": 3435,
      "sides": 3436,
      "ves": 3437,
      "##rain": 3438,
      "##used": 3439,
      "##sing": 3440,
      "##head": 3441,
      "##oured": 3442,
      "##inite": 3443,
      "##ency": 3444,
      "belike": 3445,
      "shine": 3446,
      "wither": 3447,
      "ste": 3448,
      "knaves": 3449,
      "trade": 3450,
      "##illo": 3451,
      "ung": 3452,
      "sway": 3453,
      "swallow": 3454,
      "loved": 3455,
      "tells": 3456,
      "dearly": 3457,
      "puts": 3458,
      "slender": 3459,
      "followers": 3460,
      "sentence": 3461,
      "beatrice": 3462,
      "raven": 3463,
      "groan": 3464,
      "dreams": 3465,
      "mortimer": 3466,
      "camillo": 3467,
      "belly": 3468,
      "practice": 3469,
      "smiles": 3470,
      "plantag": 3471,
      "chaste": 3472,
      "odds": 3473,
      "bodies": 3474,
      "hermia": 3475,
      "macbeth": 3476,
      "montague": 3477,
      "displeasure": 3478,
      "citiz": 3479,
      "furnish": 3480,
      "unknown": 3481,
      "policy": 3482,
      "ful": 3483,
      "hind": 3484,
      "mount": 3485,
      "pill": 3486,
      "root": 3487,
      "tam": 3488,
      "tend": 3489,
      "wink": 3490,
      "##pent": 3491,
      "##oon": 3492,
      "##com": 3493,
      "##cri": 3494,
      "##ining": 3495,
      "##anct": 3496,
      "##rees": 3497,
      "##uted": 3498,
      "melt": 3499,
      "##ado": 3500,
      "##aded": 3501,
      "##ested": 3502,
      "spur": 3503,
      "sirs": 3504,
      "blown": 3505,
      "pock": 3506,
      "speaking": 3507,
      "rock": 3508,
      "desdem": 3509,
      "image": 3510,
      "bearing": 3511,
      "native": 3512,
      "monsieur": 3513,
      "troj": 3514,
      "intell": 3515,
      "infinite": 3516,
      "sky": 3517,
      "minute": 3518,
      "accept": 3519,
      "esteem": 3520,
      "castle": 3521,
      "##prise": 3522,
      "observ": 3523,
      "revolt": 3524,
      "companion": 3525,
      "cuckold": 3526,
      "wrack": 3527,
      "sweat": 3528,
      "giving": 3529,
      "##vinia": 3530,
      "##natural": 3531,
      "vessel": 3532,
      "desdemona": 3533,
      "es": 3534,
      "etern": 3535,
      "fant": 3536,
      "mong": 3537,
      "naught": 3538,
      "pis": 3539,
      "rt": 3540,
      "##rous": 3541,
      "##acle": 3542,
      "##mp": 3543,
      "##thur": 3544,
      "##omed": 3545,
      "##utes": 3546,
      "william": 3547,
      "deceiv": 3548,
      "##iel": 3549,
      "arrest": 3550,
      "arthur": 3551,
      "sends": 3552,
      "##uments": 3553,
      "alter": 3554,
      "diss": 3555,
      "##olute": 3556,
      "clam": 3557,
      "fairy": 3558,
      "fairest": 3559,
      "lavinia": 3560,
      "council": 3561,
      "afraid": 3562,
      "finds": 3563,
      "consul": 3564,
      "resc": 3565,
      "woes": 3566,
      "impr": 3567,
      "wears": 3568,
      "misery": 3569,
      "edge": 3570,
      "advise": 3571,
      "hardly": 3572,
      "sorrows": 3573,
      "##undy": 3574,
      "delay": 3575,
      "snow": 3576,
      "creatures": 3577,
      "disgu": 3578,
      "tribunes": 3579,
      "conceit": 3580,
      "figure": 3581,
      "prodig": 3582,
      "alike": 3583,
      "picture": 3584,
      "abhor": 3585,
      "impossible": 3586,
      "henceforth": 3587,
      "burgundy": 3588,
      "bounty": 3589,
      "plantagenet": 3590,
      "bent": 3591,
      "bite": 3592,
      "crow": 3593,
      "dim": 3594,
      "dagger": 3595,
      "fierce": 3596,
      "ire": 3597,
      "nice": 3598,
      "rat": 3599,
      "test": 3600,
      "##ton": 3601,
      "##born": 3602,
      "##fl": 3603,
      "##ator": 3604,
      "whip": 3605,
      "ingr": 3606,
      "inher": 3607,
      "isle": 3608,
      "weeds": 3609,
      "stroke": 3610,
      "##ads": 3611,
      "willing": 3612,
      "repe": 3613,
      "unnatural": 3614,
      "worn": 3615,
      "exch": 3616,
      "desir": 3617,
      "fox": 3618,
      "wrought": 3619,
      "joint": 3620,
      "appar": 3621,
      "prey": 3622,
      "drive": 3623,
      "mistake": 3624,
      "below": 3625,
      "impat": 3626,
      "##sander": 3627,
      "surely": 3628,
      "##uteous": 3629,
      "devils": 3630,
      "wants": 3631,
      "bury": 3632,
      "countrymen": 3633,
      "lucentio": 3634,
      "favours": 3635,
      "darkness": 3636,
      "pitch": 3637,
      "babe": 3638,
      "susp": 3639,
      "unfold": 3640,
      "months": 3641,
      "necessity": 3642,
      "bassanio": 3643,
      "purposes": 3644,
      "lysander": 3645,
      "whoreson": 3646,
      "avoid": 3647,
      "unhappy": 3648,
      "don": 3649,
      "kent": 3650,
      "pear": 3651,
      "pause": 3652,
      "rum": 3653,
      "south": 3654,
      "sanct": 3655,
      "tall": 3656,
      "tame": 3657,
      "vantage": 3658,
      "yond": 3659,
      "##ict": 3660,
      "##mon": 3661,
      "##jo": 3662,
      "##ths": 3663,
      "injur": 3664,
      "stretch": 3665,
      "sol": 3666,
      "deer": 3667,
      "spar": 3668,
      "unse": 3669,
      "arise": 3670,
      "taking": 3671,
      "marks": 3672,
      "##arel": 3673,
      "heartily": 3674,
      "strain": 3675,
      "fold": 3676,
      "perish": 3677,
      "leap": 3678,
      "scr": 3679,
      "prayer": 3680,
      "##iled": 3681,
      "glo": 3682,
      "cursed": 3683,
      "##ension": 3684,
      "tremble": 3685,
      "peers": 3686,
      "meeting": 3687,
      "cares": 3688,
      "hanging": 3689,
      "bush": 3690,
      "commanded": 3691,
      "window": 3692,
      "promis": 3693,
      "desert": 3694,
      "diomed": 3695,
      "craft": 3696,
      "hateful": 3697,
      "exped": 3698,
      "knights": 3699,
      "##ertes": 3700,
      "secre": 3701,
      "undo": 3702,
      "ambitious": 3703,
      "##asket": 3704,
      "acquainted": 3705,
      "midnight": 3706,
      "britain": 3707,
      "instrument": 3708,
      "pieces": 3709,
      "whisper": 3710,
      "complexion": 3711,
      "alex": 3712,
      "rotten": 3713,
      "scept": 3714,
      "yester": 3715,
      "##eg": 3716,
      "##eld": 3717,
      "##mond": 3718,
      "##inct": 3719,
      "##enz": 3720,
      "ink": 3721,
      "hall": 3722,
      "##sequ": 3723,
      "shift": 3724,
      "island": 3725,
      "##oops": 3726,
      "withdra": 3727,
      "##itable": 3728,
      "reach": 3729,
      "##iege": 3730,
      "knit": 3731,
      "##seless": 3732,
      "boast": 3733,
      "places": 3734,
      "##rift": 3735,
      "proc": 3736,
      "cler": 3737,
      "scape": 3738,
      "handker": 3739,
      "slew": 3740,
      "substance": 3741,
      "retire": 3742,
      "hangs": 3743,
      "runs": 3744,
      "senate": 3745,
      "banishment": 3746,
      "mouths": 3747,
      "secure": 3748,
      "lamb": 3749,
      "defence": 3750,
      "privile": 3751,
      "robb": 3752,
      "##volio": 3753,
      "fingers": 3754,
      "destro": 3755,
      "entertainment": 3756,
      "creep": 3757,
      "ignorance": 3758,
      "pinch": 3759,
      "elder": 3760,
      "difference": 3761,
      "language": 3762,
      "capitol": 3763,
      "reckon": 3764,
      "numbers": 3765,
      "katharine": 3766,
      "citizens": 3767,
      "felt": 3768,
      "ja": 3769,
      "mow": 3770,
      "mill": 3771,
      "##ope": 3772,
      "##ric": 3773,
      "##cest": 3774,
      "##gues": 3775,
      "##oment": 3776,
      "##omio": 3777,
      "##inger": 3778,
      "habit": 3779,
      "weather": 3780,
      "decl": 3781,
      "sup": 3782,
      "##eap": 3783,
      "neph": 3784,
      "ord": 3785,
      "hereford": 3786,
      "exper": 3787,
      "hearted": 3788,
      "quench": 3789,
      "coz": 3790,
      "##cian": 3791,
      "slaves": 3792,
      "appet": 3793,
      "otherwise": 3794,
      "remains": 3795,
      "repro": 3796,
      "dromio": 3797,
      "belong": 3798,
      "turned": 3799,
      "friendly": 3800,
      "human": 3801,
      "richmond": 3802,
      "peas": 3803,
      "barren": 3804,
      "instru": 3805,
      "stronger": 3806,
      "promised": 3807,
      "deserves": 3808,
      "commonwe": 3809,
      "gaunt": 3810,
      "nobly": 3811,
      "nobles": 3812,
      "angels": 3813,
      "peter": 3814,
      "record": 3815,
      "pomp": 3816,
      "shrewd": 3817,
      "weapons": 3818,
      "befall": 3819,
      "benefit": 3820,
      "purchase": 3821,
      "unworthy": 3822,
      "special": 3823,
      "nephew": 3824,
      "bon": 3825,
      "bag": 3826,
      "fed": 3827,
      "gle": 3828,
      "journ": 3829,
      "lent": 3830,
      "luck": 3831,
      "moment": 3832,
      "rap": 3833,
      "yoke": 3834,
      "##ody": 3835,
      "##res": 3836,
      "##action": 3837,
      "##acy": 3838,
      "##gl": 3839,
      "##ws": 3840,
      "##just": 3841,
      "##zz": 3842,
      "##arch": 3843,
      "toby": 3844,
      "##anny": 3845,
      "##omin": 3846,
      "##semb": 3847,
      "##chio": 3848,
      "##eter": 3849,
      "##ediate": 3850,
      "ash": 3851,
      "lip": 3852,
      "franc": 3853,
      "rejo": 3854,
      "sple": 3855,
      "knot": 3856,
      "choler": 3857,
      "thereof": 3858,
      "amiss": 3859,
      "conver": 3860,
      "##ously": 3861,
      "blast": 3862,
      "greek": 3863,
      "twain": 3864,
      "looking": 3865,
      "coll": 3866,
      "breach": 3867,
      "laun": 3868,
      "serves": 3869,
      "apparel": 3870,
      "slept": 3871,
      "stays": 3872,
      "faithful": 3873,
      "curr": 3874,
      "pawn": 3875,
      "kindly": 3876,
      "behav": 3877,
      "accuse": 3878,
      "travel": 3879,
      "laws": 3880,
      "##ruchio": 3881,
      "corp": 3882,
      "discret": 3883,
      "nobility": 3884,
      "petruchio": 3885,
      "constable": 3886,
      "##scri": 3887,
      "simp": 3888,
      "resolv": 3889,
      "milk": 3890,
      "affections": 3891,
      "huge": 3892,
      "sacri": 3893,
      "torment": 3894,
      "complain": 3895,
      "envious": 3896,
      "senses": 3897,
      "dignity": 3898,
      "garden": 3899,
      "withdraw": 3900,
      "francis": 3901,
      "band": 3902,
      "cand": 3903,
      "gri": 3904,
      "ju": 3905,
      "kin": 3906,
      "mood": 3907,
      "ner": 3908,
      "oth": 3909,
      "pad": 3910,
      "sought": 3911,
      "sins": 3912,
      "tied": 3913,
      "##uc": 3914,
      "##lest": 3915,
      "##ym": 3916,
      "##orse": 3917,
      "##atra": 3918,
      "##arg": 3919,
      "inqu": 3920,
      "shun": 3921,
      "##ldom": 3922,
      "##itch": 3923,
      "store": 3924,
      "dozen": 3925,
      "soci": 3926,
      "willingly": 3927,
      "hercul": 3928,
      "trim": 3929,
      "mult": 3930,
      "poin": 3931,
      "marvel": 3932,
      "also": 3933,
      "##ortion": 3934,
      "abide": 3935,
      "aboard": 3936,
      "descend": 3937,
      "pericles": 3938,
      "nights": 3939,
      "scene": 3940,
      "fairer": 3941,
      "ado": 3942,
      "standing": 3943,
      "began": 3944,
      "harsh": 3945,
      "monument": 3946,
      "villan": 3947,
      "killed": 3948,
      "wishes": 3949,
      "advent": 3950,
      "##opatra": 3951,
      "discont": 3952,
      "cleopatra": 3953,
      "bravely": 3954,
      "bapt": 3955,
      "incre": 3956,
      "pleasant": 3957,
      "pleasures": 3958,
      "penny": 3959,
      "feeling": 3960,
      "immediate": 3961,
      "concern": 3962,
      "renowned": 3963,
      "tailor": 3964,
      "circumstance": 3965,
      "wolf": 3966,
      "wondrous": 3967,
      "pocket": 3968,
      "othello": 3969,
      "hercules": 3970,
      "bot": 3971,
      "cool": 3972,
      "dow": 3973,
      "et": 3974,
      "goose": 3975,
      "hunt": 3976,
      "je": 3977,
      "jup": 3978,
      "mould": 3979,
      "non": 3980,
      "pand": 3981,
      "paint": 3982,
      "rous": 3983,
      "sine": 3984,
      "zeal": 3985,
      "##ta": 3986,
      "##tles": 3987,
      "##iour": 3988,
      "##uce": 3989,
      "##lock": 3990,
      "##son": 3991,
      "##med": 3992,
      "##fidius": 3993,
      "height": 3994,
      "stern": 3995,
      "priam": 3996,
      "rev": 3997,
      "chid": 3998,
      "chase": 3999,
      "tranio": 4000,
      "wholes": 4001,
      "tap": 4002,
      "tooth": 4003,
      "##ros": 4004,
      "godd": 4005,
      "looked": 4006,
      "rod": 4007,
      "robert": 4008,
      "flat": 4009,
      "flourish": 4010,
      "score": 4011,
      "laertes": 4012,
      "partly": 4013,
      "##ression": 4014,
      "appointed": 4015,
      "glove": 4016,
      "younger": 4017,
      "belov": 4018,
      "accomp": 4019,
      "courtier": 4020,
      "drew": 4021,
      "##vered": 4022,
      "aufidius": 4023,
      "murderer": 4024,
      "skin": 4025,
      "books": 4026,
      "resolve": 4027,
      "beasts": 4028,
      "absolute": 4029,
      "lusty": 4030,
      "wounded": 4031,
      "trumpets": 4032,
      "hubert": 4033,
      "jealousy": 4034,
      "committed": 4035,
      "wales": 4036,
      "savage": 4037,
      "clothes": 4038,
      "tyranny": 4039,
      "miserable": 4040,
      "acquaintance": 4041,
      "italy": 4042,
      "censure": 4043,
      "destroy": 4044,
      "journey": 4045,
      "sacrif": 4046,
      "jupiter": 4047,
      "bay": 4048,
      "cou": 4049,
      "couch": 4050,
      "gid": 4051,
      "gather": 4052,
      "lat": 4053,
      "nym": 4054,
      "od": 4055,
      "oak": 4056,
      "task": 4057,
      "ward": 4058,
      "##pet": 4059,
      "##oint": 4060,
      "##rid": 4061,
      "##liv": 4062,
      "thrown": 4063,
      "toil": 4064,
      "whit": 4065,
      "stan": 4066,
      "stub": 4067,
      "asham": 4068,
      "lift": 4069,
      "depend": 4070,
      "frail": 4071,
      "spurn": 4072,
      "branch": 4073,
      "conven": 4074,
      "##ouses": 4075,
      "unm": 4076,
      "##otion": 4077,
      "##bled": 4078,
      "##amemn": 4079,
      "hole": 4080,
      "agamemn": 4081,
      "##roll": 4082,
      "bread": 4083,
      "league": 4084,
      "##outs": 4085,
      "##aking": 4086,
      "##tled": 4087,
      "appl": 4088,
      "armed": 4089,
      "pursue": 4090,
      "merri": 4091,
      "confusion": 4092,
      "higher": 4093,
      "services": 4094,
      "monarch": 4095,
      "humours": 4096,
      "passage": 4097,
      "subd": 4098,
      "travell": 4099,
      "falsehood": 4100,
      "silent": 4101,
      "weeps": 4102,
      "reveng": 4103,
      "enterprise": 4104,
      "temple": 4105,
      "afford": 4106,
      "prisoners": 4107,
      "redeem": 4108,
      "petition": 4109,
      "message": 4110,
      "wedding": 4111,
      "calf": 4112,
      "tricks": 4113,
      "saucy": 4114,
      "fifty": 4115,
      "coriolanus": 4116,
      "imprison": 4117,
      "suspic": 4118,
      "appetite": 4119,
      "discretion": 4120,
      "wholesome": 4121,
      "goddess": 4122,
      "agamemnon": 4123,
      "bud": 4124,
      "bount": 4125,
      "cell": 4126,
      "hort": 4127,
      "mile": 4128,
      "nation": 4129,
      "pate": 4130,
      "pace": 4131,
      "rub": 4132,
      "sic": 4133,
      "sounds": 4134,
      "##ok": 4135,
      "##now": 4136,
      "##kedom": 4137,
      "##hem": 4138,
      "##wis": 4139,
      "thorn": 4140,
      "##erous": 4141,
      "##ora": 4142,
      "##ative": 4143,
      "##atio": 4144,
      "tom": 4145,
      "wheel": 4146,
      "shown": 4147,
      "##irt": 4148,
      "stro": 4149,
      "mak": 4150,
      "spit": 4151,
      "shoulders": 4152,
      "##igo": 4153,
      "lewis": 4154,
      "coat": 4155,
      "strive": 4156,
      "design": 4157,
      "##assad": 4158,
      "perfection": 4159,
      "wrest": 4160,
      "err": 4161,
      "serpent": 4162,
      "dukedom": 4163,
      "remorse": 4164,
      "slee": 4165,
      "beside": 4166,
      "welsh": 4167,
      "trees": 4168,
      "passing": 4169,
      "subtle": 4170,
      "earthly": 4171,
      "corre": 4172,
      "beaut": 4173,
      "lately": 4174,
      "groans": 4175,
      "provided": 4176,
      "wisely": 4177,
      "gait": 4178,
      "written": 4179,
      "malvolio": 4180,
      "famous": 4181,
      "rebels": 4182,
      "stream": 4183,
      "liberal": 4184,
      "satisfaction": 4185,
      "urge": 4186,
      "julia": 4187,
      "forswear": 4188,
      "palace": 4189,
      "continue": 4190,
      "observe": 4191,
      "westmore": 4192,
      "freedom": 4193,
      "conference": 4194,
      "discharge": 4195,
      "torture": 4196,
      "rebellion": 4197,
      "trojan": 4198,
      "eternal": 4199,
      "handkerchief": 4200,
      "suspicion": 4201,
      "hortens": 4202,
      "westmoreland": 4203,
      "bore": 4204,
      "caught": 4205,
      "dress": 4206,
      "nim": 4207,
      "nun": 4208,
      "pee": 4209,
      "vul": 4210,
      "##can": 4211,
      "##cise": 4212,
      "##hrew": 4213,
      "##bow": 4214,
      "##llen": 4215,
      "##arm": 4216,
      "##arus": 4217,
      "##aries": 4218,
      "inh": 4219,
      "inward": 4220,
      "##semble": 4221,
      "wept": 4222,
      "stamp": 4223,
      "deaf": 4224,
      "suc": 4225,
      "spot": 4226,
      "spread": 4227,
      "##ilia": 4228,
      "conceive": 4229,
      "arriv": 4230,
      "seize": 4231,
      "alb": 4232,
      "graves": 4233,
      "cozen": 4234,
      "##ista": 4235,
      "offices": 4236,
      "gently": 4237,
      "scur": 4238,
      "scru": 4239,
      "fairies": 4240,
      "error": 4241,
      "lap": 4242,
      "couldst": 4243,
      "charac": 4244,
      "beshrew": 4245,
      "kindred": 4246,
      "needful": 4247,
      "horatio": 4248,
      "sleeps": 4249,
      "misc": 4250,
      "strife": 4251,
      "burst": 4252,
      "joyful": 4253,
      "supply": 4254,
      "senators": 4255,
      "check": 4256,
      "term": 4257,
      "##iety": 4258,
      "redress": 4259,
      "woeful": 4260,
      "towns": 4261,
      "hairs": 4262,
      "pitiful": 4263,
      "foreign": 4264,
      "amongst": 4265,
      "hostess": 4266,
      "troubled": 4267,
      "possession": 4268,
      "refuse": 4269,
      "dismiss": 4270,
      "birds": 4271,
      "persuade": 4272,
      "grandam": 4273,
      "audience": 4274,
      "example": 4275,
      "combat": 4276,
      "cloak": 4277,
      "climb": 4278,
      "ireland": 4279,
      "exchange": 4280,
      "sceptre": 4281,
      "instruct": 4282,
      "spleen": 4283,
      "baptista": 4284,
      "stubborn": 4285,
      "hortensio": 4286,
      "peevish": 4287,
      "ale": 4288,
      "afe": 4289,
      "dame": 4290,
      "hatch": 4291,
      "lin": 4292,
      "lower": 4293,
      "mat": 4294,
      "moral": 4295,
      "ora": 4296,
      "ped": 4297,
      "palm": 4298,
      "rouse": 4299,
      "rime": 4300,
      "sings": 4301,
      "siege": 4302,
      "wail": 4303,
      "##rate": 4304,
      "##teen": 4305,
      "##vest": 4306,
      "##ded": 4307,
      "##way": 4308,
      "##inate": 4309,
      "##lly": 4310,
      "##ening": 4311,
      "##thum": 4312,
      "##sell": 4313,
      "forty": 4314,
      "isab": 4315,
      "notice": 4316,
      "##urb": 4317,
      "##asp": 4318,
      "butcher": 4319,
      "price": 4320,
      "liqu": 4321,
      "ancest": 4322,
      "suits": 4323,
      "alleg": 4324,
      "chair": 4325,
      "une": 4326,
      "shoulder": 4327,
      "grew": 4328,
      "disease": 4329,
      "grands": 4330,
      "strump": 4331,
      "perf": 4332,
      "county": 4333,
      "merchant": 4334,
      "ended": 4335,
      "helm": 4336,
      "curst": 4337,
      "curses": 4338,
      "obsc": 4339,
      "beheld": 4340,
      "braw": 4341,
      "dougl": 4342,
      "drag": 4343,
      "peer": 4344,
      "advis": 4345,
      "barbar": 4346,
      "coron": 4347,
      "signs": 4348,
      "joys": 4349,
      "ravish": 4350,
      "leads": 4351,
      "distra": 4352,
      "delicate": 4353,
      "waters": 4354,
      "clean": 4355,
      "provide": 4356,
      "beholding": 4357,
      "venom": 4358,
      "visage": 4359,
      "jewels": 4360,
      "quarter": 4361,
      "recomp": 4362,
      "addition": 4363,
      "ambassad": 4364,
      "absent": 4365,
      "easily": 4366,
      "breeding": 4367,
      "urg": 4368,
      "destruction": 4369,
      "officers": 4370,
      "smiling": 4371,
      "obedient": 4372,
      "vols": 4373,
      "directly": 4374,
      "conjure": 4375,
      "filth": 4376,
      "naples": 4377,
      "cherish": 4378,
      "posthum": 4379,
      "leonato": 4380,
      "privilege": 4381,
      "giddy": 4382,
      "succeed": 4383,
      "afeard": 4384,
      "douglas": 4385,
      "posthumus": 4386,
      "fif": 4387,
      "ger": 4388,
      "gild": 4389,
      "laughter": 4390,
      "nails": 4391,
      "patch": 4392,
      "pierce": 4393,
      "rate": 4394,
      "rust": 4395,
      "##vil": 4396,
      "##enc": 4397,
      "##reed": 4398,
      "bee": 4399,
      "shook": 4400,
      "forc": 4401,
      "week": 4402,
      "sting": 4403,
      "steed": 4404,
      "strew": 4405,
      "thisby": 4406,
      "aspect": 4407,
      "soil": 4408,
      "liking": 4409,
      "split": 4410,
      "troops": 4411,
      "theirs": 4412,
      "semb": 4413,
      "seldom": 4414,
      "poet": 4415,
      "##ria": 4416,
      "ago": 4417,
      "##emper": 4418,
      "##osed": 4419,
      "roder": 4420,
      "scour": 4421,
      "advers": 4422,
      "parting": 4423,
      "serious": 4424,
      "slay": 4425,
      "newly": 4426,
      "following": 4427,
      "reser": 4428,
      "falling": 4429,
      "tremb": 4430,
      "value": 4431,
      "fares": 4432,
      "suffic": 4433,
      "dispos": 4434,
      "commands": 4435,
      "corse": 4436,
      "growing": 4437,
      "beauteous": 4438,
      "learning": 4439,
      "terror": 4440,
      "terrible": 4441,
      "fields": 4442,
      "ruff": 4443,
      "estim": 4444,
      "interp": 4445,
      "interest": 4446,
      "petty": 4447,
      "cowards": 4448,
      "apoll": 4449,
      "granted": 4450,
      "thirty": 4451,
      "resolution": 4452,
      "spoil": 4453,
      "##aws": 4454,
      "ships": 4455,
      "conquest": 4456,
      "immort": 4457,
      "conclusion": 4458,
      "transform": 4459,
      "daily": 4460,
      "proportion": 4461,
      "stopp": 4462,
      "extremity": 4463,
      "bleeding": 4464,
      "medic": 4465,
      "assurance": 4466,
      "weapon": 4467,
      "beware": 4468,
      "determin": 4469,
      "pronounce": 4470,
      "inherit": 4471,
      "stanley": 4472,
      "strumpet": 4473,
      "sembl": 4474,
      "roderigo": 4475,
      "dut": 4476,
      "event": 4477,
      "hom": 4478,
      "hated": 4479,
      "nar": 4480,
      "nam": 4481,
      "ope": 4482,
      "tick": 4483,
      "wot": 4484,
      "##ug": 4485,
      "##upt": 4486,
      "##lam": 4487,
      "##sin": 4488,
      "##mine": 4489,
      "##atic": 4490,
      "##ario": 4491,
      "token": 4492,
      "nod": 4493,
      "beth": 4494,
      "##leans": 4495,
      "##chester": 4496,
      "steep": 4497,
      "liver": 4498,
      "frank": 4499,
      "goths": 4500,
      "load": 4501,
      "space": 4502,
      "troop": 4503,
      "manhood": 4504,
      "orleans": 4505,
      "unre": 4506,
      "bohem": 4507,
      "theme": 4508,
      "dise": 4509,
      "lep": 4510,
      "telling": 4511,
      "hears": 4512,
      "warri": 4513,
      "flor": 4514,
      "flout": 4515,
      "adam": 4516,
      "commons": 4517,
      "counsell": 4518,
      "##ival": 4519,
      "contract": 4520,
      "repr": 4521,
      "curs": 4522,
      "paul": 4523,
      "##clam": 4524,
      "caus": 4525,
      "justly": 4526,
      "lights": 4527,
      "crest": 4528,
      "breaks": 4529,
      "breaking": 4530,
      "happily": 4531,
      "youthful": 4532,
      "murd": 4533,
      "lesser": 4534,
      "crying": 4535,
      "working": 4536,
      "mettle": 4537,
      "aug": 4538,
      "divor": 4539,
      "##bray": 4540,
      "feat": 4541,
      "defy": 4542,
      "milan": 4543,
      "government": 4544,
      "schol": 4545,
      "drums": 4546,
      "conclude": 4547,
      "##soever": 4548,
      "venture": 4549,
      "preparation": 4550,
      "fleet": 4551,
      "preserve": 4552,
      "oxford": 4553,
      "scotland": 4554,
      "rescue": 4555,
      "apparent": 4556,
      "mowbray": 4557,
      "commonwealth": 4558,
      "padua": 4559,
      "points": 4560,
      "grandsire": 4561,
      "fifth": 4562,
      "immortal": 4563,
      "cates": 4564,
      "cade": 4565,
      "dil": 4566,
      "eros": 4567,
      "jer": 4568,
      "lor": 4569,
      "lying": 4570,
      "ming": 4571,
      "oce": 4572,
      "pull": 4573,
      "rack": 4574,
      "rib": 4575,
      "ug": 4576,
      "vous": 4577,
      "yellow": 4578,
      "##par": 4579,
      "##rust": 4580,
      "##noon": 4581,
      "##gic": 4582,
      "##wife": 4583,
      "threw": 4584,
      "injury": 4585,
      "share": 4586,
      "shield": 4587,
      "shines": 4588,
      "shapes": 4589,
      "medd": 4590,
      "item": 4591,
      "hist": 4592,
      "dol": 4593,
      "wills": 4594,
      "##rase": 4595,
      "##eavour": 4596,
      "herein": 4597,
      "unjust": 4598,
      "swears": 4599,
      "##ulate": 4600,
      "likely": 4601,
      "kingly": 4602,
      "aloud": 4603,
      "aged": 4604,
      "twould": 4605,
      "cop": 4606,
      "coff": 4607,
      "perpet": 4608,
      "##ended": 4609,
      "beget": 4610,
      "begun": 4611,
      "charg": 4612,
      "endeavour": 4613,
      "##oso": 4614,
      "afternoon": 4615,
      "##clus": 4616,
      "killing": 4617,
      "husbands": 4618,
      "carried": 4619,
      "overth": 4620,
      "bank": 4621,
      "phrase": 4622,
      "kisses": 4623,
      "rais": 4624,
      "winchester": 4625,
      "sisters": 4626,
      "deliv": 4627,
      "drinking": 4628,
      "##bridge": 4629,
      "feather": 4630,
      "proceeding": 4631,
      "camp": 4632,
      "veins": 4633,
      "satisfy": 4634,
      "feeble": 4635,
      "philoso": 4636,
      "prophet": 4637,
      "potent": 4638,
      "eldest": 4639,
      "turk": 4640,
      "virginity": 4641,
      "imagination": 4642,
      "instruments": 4643,
      "deceit": 4644,
      "banquo": 4645,
      "##celot": 4646,
      "greeks": 4647,
      "exceeding": 4648,
      "eagle": 4649,
      "ceremony": 4650,
      "religious": 4651,
      "neglect": 4652,
      "scratch": 4653,
      "rapier": 4654,
      "launcelot": 4655,
      "behaviour": 4656,
      "villanous": 4657,
      "discontent": 4658,
      "increase": 4659,
      "scurvy": 4660,
      "oracle": 4661,
      "recompense": 4662,
      "apollo": 4663,
      "ax": 4664,
      "aar": 4665,
      "aunt": 4666,
      "boots": 4667,
      "cent": 4668,
      "casc": 4669,
      "fret": 4670,
      "gam": 4671,
      "houses": 4672,
      "lt": 4673,
      "push": 4674,
      "##tered": 4675,
      "##uish": 4676,
      "##kind": 4677,
      "thin": 4678,
      "##inent": 4679,
      "##inous": 4680,
      "##ese": 4681,
      "##ano": 4682,
      "shoot": 4683,
      "##uts": 4684,
      "meas": 4685,
      "sty": 4686,
      "solic": 4687,
      "likes": 4688,
      "front": 4689,
      "##aine": 4690,
      "rend": 4691,
      "reve": 4692,
      "reco": 4693,
      "sue": 4694,
      "span": 4695,
      "neas": 4696,
      "ourself": 4697,
      "##arded": 4698,
      "manif": 4699,
      "orland": 4700,
      "whereon": 4701,
      "##asting": 4702,
      "pole": 4703,
      "disci": 4704,
      "##roclus": 4705,
      "exeter": 4706,
      "lev": 4707,
      "perjur": 4708,
      "grass": 4709,
      "scatter": 4710,
      "fearing": 4711,
      "begg": 4712,
      "begot": 4713,
      "pursu": 4714,
      "keeping": 4715,
      "reply": 4716,
      "repose": 4717,
      "throng": 4718,
      "consum": 4719,
      "elbow": 4720,
      "curts": 4721,
      "turning": 4722,
      "bidding": 4723,
      "plays": 4724,
      "access": 4725,
      "accident": 4726,
      "doub": 4727,
      "beds": 4728,
      "patroclus": 4729,
      "matters": 4730,
      "thankful": 4731,
      "praises": 4732,
      "barn": 4733,
      "barg": 4734,
      "signify": 4735,
      "strangely": 4736,
      "strongly": 4737,
      "draws": 4738,
      "senseless": 4739,
      "touching": 4740,
      "infirm": 4741,
      "distress": 4742,
      "certainly": 4743,
      "burns": 4744,
      "saturn": 4745,
      "##lete": 4746,
      "divide": 4747,
      "wooing": 4748,
      "apart": 4749,
      "apace": 4750,
      "actions": 4751,
      "##agged": 4752,
      "rivers": 4753,
      "rebu": 4754,
      "beggars": 4755,
      "safely": 4756,
      "effects": 4757,
      "##grim": 4758,
      "shadows": 4759,
      "athen": 4760,
      "throats": 4761,
      "conceal": 4762,
      "conditions": 4763,
      "merely": 4764,
      "steps": 4765,
      "windsor": 4766,
      "meantime": 4767,
      "##spur": 4768,
      "grievous": 4769,
      "diana": 4770,
      "pilgrim": 4771,
      "dote": 4772,
      "tamora": 4773,
      "intelligence": 4774,
      "pisanio": 4775,
      "rejoice": 4776,
      "couple": 4777,
      "allegiance": 4778,
      "bohemia": 4779,
      "delivered": 4780,
      "aaron": 4781,
      "casca": 4782,
      "orlando": 4783,
      "bere": 4784,
      "basket": 4785,
      "cudge": 4786,
      "dat": 4787,
      "dine": 4788,
      "egg": 4789,
      "fer": 4790,
      "kee": 4791,
      "lines": 4792,
      "pest": 4793,
      "sed": 4794,
      "tun": 4795,
      "tig": 4796,
      "wore": 4797,
      "##sion": 4798,
      "##ais": 4799,
      "##ger": 4800,
      "##bishop": 4801,
      "##zing": 4802,
      "thers": 4803,
      "##eral": 4804,
      "wipe": 4805,
      "##stain": 4806,
      "##cell": 4807,
      "stale": 4808,
      "dove": 4809,
      "##idus": 4810,
      "willow": 4811,
      "whate": 4812,
      "rear": 4813,
      "##geon": 4814,
      "spy": 4815,
      "thereby": 4816,
      "bru": 4817,
      "brown": 4818,
      "thane": 4819,
      "blue": 4820,
      "seeks": 4821,
      "tax": 4822,
      "sayest": 4823,
      "marvell": 4824,
      "marina": 4825,
      "alto": 4826,
      "prolo": 4827,
      "exh": 4828,
      "exile": 4829,
      "everl": 4830,
      "clot": 4831,
      "clapp": 4832,
      "cox": 4833,
      "coin": 4834,
      "##owne": 4835,
      "roses": 4836,
      "perd": 4837,
      "grum": 4838,
      "wrink": 4839,
      "adver": 4840,
      "sweetly": 4841,
      "appoint": 4842,
      "duch": 4843,
      "compound": 4844,
      "harbour": 4845,
      "sets": 4846,
      "natures": 4847,
      "conspir": 4848,
      "resign": 4849,
      "guide": 4850,
      "rightly": 4851,
      "subst": 4852,
      "breathing": 4853,
      "busy": 4854,
      "instance": 4855,
      "voy": 4856,
      "kissing": 4857,
      "prompt": 4858,
      "royalty": 4859,
      "metal": 4860,
      "tyre": 4861,
      "distemper": 4862,
      "victor": 4863,
      "contented": 4864,
      "gaze": 4865,
      "starve": 4866,
      "fourteen": 4867,
      "deputy": 4868,
      "surfeit": 4869,
      "pays": 4870,
      "garland": 4871,
      "requite": 4872,
      "approve": 4873,
      "weakness": 4874,
      "fever": 4875,
      "bosoms": 4876,
      "closet": 4877,
      "heirs": 4878,
      "evils": 4879,
      "kingdoms": 4880,
      "received": 4881,
      "##prus": 4882,
      "eleven": 4883,
      "hugh": 4884,
      "tribute": 4885,
      "portia": 4886,
      "qualities": 4887,
      "helena": 4888,
      "conclud": 4889,
      "owes": 4890,
      "instantly": 4891,
      "davy": 4892,
      "roaring": 4893,
      "charmian": 4894,
      "hungry": 4895,
      "##ogen": 4896,
      "physician": 4897,
      "varlet": 4898,
      "cyprus": 4899,
      "imperial": 4900,
      "determine": 4901,
      "loyalty": 4902,
      "opposite": 4903,
      "archbishop": 4904,
      "treacherous": 4905,
      "berowne": 4906,
      "whipped": 4907,
      "invention": 4908,
      "##cription": 4909,
      "expedition": 4910,
      "secrets": 4911,
      "yesterday": 4912,
      "jaqu": 4913,
      "society": 4914,
      "nimble": 4915,
      "isabel": 4916,
      "medicine": 4917,
      "##clamation": 4918,
      "ocean": 4919,
      "keeper": 4920,
      "thersites": 4921,
      "altogether": 4922,
      "ack": 4923,
      "bishop": 4924,
      "cave": 4925,
      "jes": 4926,
      "net": 4927,
      "pite": 4928,
      "peep": 4929,
      "ragged": 4930,
      "yon": 4931,
      "##ping": 4932,
      "##ris": 4933,
      "##some": 4934,
      "##bon": 4935,
      "##bus": 4936,
      "thur": 4937,
      "thread": 4938,
      "##orough": 4939,
      "##inary": 4940,
      "##enes": 4941,
      "beams": 4942,
      "hey": 4943,
      "sham": 4944,
      "shade": 4945,
      "forms": 4946,
      "##ita": 4947,
      "deck": 4948,
      "goss": 4949,
      "sugg": 4950,
      "spect": 4951,
      "trench": 4952,
      "manage": 4953,
      "upright": 4954,
      "attain": 4955,
      "amends": 4956,
      "##illy": 4957,
      "##unken": 4958,
      "swain": 4959,
      "block": 4960,
      "box": 4961,
      "likewise": 4962,
      "madman": 4963,
      "plac": 4964,
      "grecian": 4965,
      "outra": 4966,
      "somewh": 4967,
      "exer": 4968,
      "level": 4969,
      "betimes": 4970,
      "##quish": 4971,
      "scope": 4972,
      "commod": 4973,
      "slipp": 4974,
      "imogen": 4975,
      "compar": 4976,
      "indign": 4977,
      "purs": 4978,
      "drunken": 4979,
      "##shine": 4980,
      "afterward": 4981,
      "subscri": 4982,
      "parley": 4983,
      "careful": 4984,
      "talking": 4985,
      "entr": 4986,
      "yielded": 4987,
      "provost": 4988,
      "depos": 4989,
      "acts": 4990,
      "eaten": 4991,
      "dropp": 4992,
      "wonderful": 4993,
      "softly": 4994,
      "feign": 4995,
      "sufferance": 4996,
      "direction": 4997,
      "riot": 4998,
      "forehead": 4999,
      "street": 5000,
      "doublet": 5001,
      "miracle": 5002,
      "forsake": 5003,
      "owl": 5004,
      "expectation": 5005,
      "lodge": 5006,
      "lodging": 5007,
      "prosperous": 5008,
      "decay": 5009,
      "greeting": 5010,
      "hunger": 5011,
      "banquet": 5012,
      "treachery": 5013,
      "beguile": 5014,
      "trifle": 5015,
      "steward": 5016,
      "##enzo": 5017,
      "clerk": 5018,
      "current": 5019,
      "dowry": 5020,
      "convenient": 5021,
      "miscar": 5022,
      "lepidus": 5023,
      "lorenzo": 5024,
      "ugly": 5025,
      "axe": 5026,
      "discipl": 5027,
      "coxcom": 5028,
      "thurio": 5029,
      "batter": 5030,
      "ce": 5031,
      "cook": 5032,
      "cel": 5033,
      "gn": 5034,
      "gon": 5035,
      "game": 5036,
      "jun": 5037,
      "lark": 5038,
      "mask": 5039,
      "nourish": 5040,
      "pier": 5041,
      "rot": 5042,
      "sands": 5043,
      "##port": 5044,
      "##avery": 5045,
      "##hol": 5046,
      "##mant": 5047,
      "##mio": 5048,
      "##mark": 5049,
      "##esp": 5050,
      "##isible": 5051,
      "wil": 5052,
      "inch": 5053,
      "##eder": 5054,
      "noted": 5055,
      "notwith": 5056,
      "##uring": 5057,
      "stout": 5058,
      "stead": 5059,
      "##adle": 5060,
      "##asing": 5061,
      "liken": 5062,
      "lions": 5063,
      "livery": 5064,
      "defe": 5065,
      "frost": 5066,
      "##eek": 5067,
      "rece": 5068,
      "herd": 5069,
      "##rand": 5070,
      "spark": 5071,
      "##anders": 5072,
      "nept": 5073,
      "chin": 5074,
      "trip": 5075,
      "goods": 5076,
      "mant": 5077,
      "fact": 5078,
      "amity": 5079,
      "orn": 5080,
      "moves": 5081,
      "consequ": 5082,
      "enr": 5083,
      "enm": 5084,
      "enf": 5085,
      "knowest": 5086,
      "##unch": 5087,
      "bloss": 5088,
      "##ateful": 5089,
      "seiz": 5090,
      "hose": 5091,
      "##icle": 5092,
      "mayor": 5093,
      "pox": 5094,
      "gremio": 5095,
      "outl": 5096,
      "agree": 5097,
      "##igent": 5098,
      "strat": 5099,
      "offences": 5100,
      "flock": 5101,
      "deaths": 5102,
      "##aken": 5103,
      "sweetest": 5104,
      "##ivity": 5105,
      "##phy": 5106,
      "mightst": 5107,
      "contain": 5108,
      "contents": 5109,
      "everything": 5110,
      "setting": 5111,
      "household": 5112,
      "youngest": 5113,
      "hourly": 5114,
      "resist": 5115,
      "fallen": 5116,
      "mothers": 5117,
      "courteous": 5118,
      "brace": 5119,
      "bragg": 5120,
      "assa": 5121,
      "horrible": 5122,
      "carries": 5123,
      "praised": 5124,
      "suffice": 5125,
      "denmark": 5126,
      "dispose": 5127,
      "instruction": 5128,
      "became": 5129,
      "strict": 5130,
      "burial": 5131,
      "promises": 5132,
      "suppos": 5133,
      "comforts": 5134,
      "diet": 5135,
      "discord": 5136,
      "soundly": 5137,
      "doubtful": 5138,
      "titles": 5139,
      "infant": 5140,
      "craves": 5141,
      "sadness": 5142,
      "disturb": 5143,
      "explo": 5144,
      "gallows": 5145,
      "lads": 5146,
      "writing": 5147,
      "snatch": 5148,
      "penit": 5149,
      "##acles": 5150,
      "sovereignty": 5151,
      "recre": 5152,
      "##standing": 5153,
      "achieve": 5154,
      "troubles": 5155,
      "keen": 5156,
      "drowned": 5157,
      "insol": 5158,
      "babes": 5159,
      "invisible": 5160,
      "mutiny": 5161,
      "continu": 5162,
      "neighbours": 5163,
      "threaten": 5164,
      "stocks": 5165,
      "imagine": 5166,
      "ministers": 5167,
      "miseries": 5168,
      "wager": 5169,
      "apemant": 5170,
      "octavia": 5171,
      "rhe": 5172,
      "superfl": 5173,
      "mongst": 5174,
      "prodigal": 5175,
      "pearl": 5176,
      "reproach": 5177,
      "peasant": 5178,
      "adventure": 5179,
      "bottle": 5180,
      "sinews": 5181,
      "merrily": 5182,
      "strokes": 5183,
      "vulgar": 5184,
      "scruple": 5185,
      "narrow": 5186,
      "diseases": 5187,
      "grumio": 5188,
      "voyage": 5189,
      "acknow": 5190,
      "notwithstanding": 5191,
      "neptune": 5192,
      "blossom": 5193,
      "apemantus": 5194,
      "bul": 5195,
      "bach": 5196,
      "cin": 5197,
      "dor": 5198,
      "danc": 5199,
      "hare": 5200,
      "jess": 5201,
      "les": 5202,
      "linger": 5203,
      "ned": 5204,
      "nupt": 5205,
      "omit": 5206,
      "pul": 5207,
      "rar": 5208,
      "roof": 5209,
      "sith": 5210,
      "tum": 5211,
      "tush": 5212,
      "##ique": 5213,
      "##ez": 5214,
      "##nes": 5215,
      "##nicious": 5216,
      "##gen": 5217,
      "##master": 5218,
      "##bation": 5219,
      "##father": 5220,
      "##enius": 5221,
      "offe": 5222,
      "##omm": 5223,
      "##sey": 5224,
      "shores": 5225,
      "##lets": 5226,
      "##utch": 5227,
      "##chor": 5228,
      "notes": 5229,
      "its": 5230,
      "##key": 5231,
      "sov": 5232,
      "##athe": 5233,
      "deform": 5234,
      "##verty": 5235,
      "##andal": 5236,
      "chat": 5237,
      "trunk": 5238,
      "fawn": 5239,
      "amorous": 5240,
      "brid": 5241,
      "canker": 5242,
      "##unts": 5243,
      "blot": 5244,
      "blaz": 5245,
      "worms": 5246,
      "##umer": 5247,
      "whereto": 5248,
      "polit": 5249,
      "poverty": 5250,
      "muster": 5251,
      "process": 5252,
      "##peci": 5253,
      "evermore": 5254,
      "coast": 5255,
      "pernicious": 5256,
      "leaving": 5257,
      "slip": 5258,
      "slumber": 5259,
      "afoot": 5260,
      "indiff": 5261,
      "dearer": 5262,
      "holding": 5263,
      "charms": 5264,
      "confeder": 5265,
      "lief": 5266,
      "##lier": 5267,
      "fortunate": 5268,
      "##ianus": 5269,
      "curtain": 5270,
      "riches": 5271,
      "players": 5272,
      "rights": 5273,
      "hush": 5274,
      "forthwith": 5275,
      "parent": 5276,
      "swearing": 5277,
      "diam": 5278,
      "touches": 5279,
      "groom": 5280,
      "infer": 5281,
      "affright": 5282,
      "straw": 5283,
      "##upon": 5284,
      "surpr": 5285,
      "nobody": 5286,
      "garter": 5287,
      "require": 5288,
      "champ": 5289,
      "recon": 5290,
      "tales": 5291,
      "scorns": 5292,
      "flattery": 5293,
      "election": 5294,
      "elements": 5295,
      "bowels": 5296,
      "verona": 5297,
      "execute": 5298,
      "breeds": 5299,
      "create": 5300,
      "wenches": 5301,
      "torch": 5302,
      "steph": 5303,
      "walks": 5304,
      "vanquish": 5305,
      "waking": 5306,
      "sensible": 5307,
      "cuckoo": 5308,
      "digest": 5309,
      "deceived": 5310,
      "octavius": 5311,
      "especi": 5312,
      "fantast": 5313,
      "ingrat": 5314,
      "impatient": 5315,
      "rumour": 5316,
      "inquire": 5317,
      "sacrifice": 5318,
      "sleeve": 5319,
      "divorce": 5320,
      "scholar": 5321,
      "catesby": 5322,
      "history": 5323,
      "bargain": 5324,
      "athenian": 5325,
      "prologue": 5326,
      "duchess": 5327,
      "piteous": 5328,
      "likeness": 5329,
      "bachel": 5330,
      "nuptial": 5331,
      "politic": 5332,
      "indiffer": 5333,
      "bone": 5334,
      "ces": 5335,
      "dain": 5336,
      "fem": 5337,
      "gap": 5338,
      "hue": 5339,
      "il": 5340,
      "jot": 5341,
      "lun": 5342,
      "mor": 5343,
      "mas": 5344,
      "mich": 5345,
      "ost": 5346,
      "ought": 5347,
      "path": 5348,
      "rites": 5349,
      "vers": 5350,
      "vast": 5351,
      "vass": 5352,
      "##pes": 5353,
      "##ogue": 5354,
      "##tance": 5355,
      "##ties": 5356,
      "##ivers": 5357,
      "##net": 5358,
      "##ney": 5359,
      "##cock": 5360,
      "##light": 5361,
      "##lied": 5362,
      "##aus": 5363,
      "thrift": 5364,
      "##ndower": 5365,
      "##thorn": 5366,
      "hedge": 5367,
      "haw": 5368,
      "forces": 5369,
      "##chery": 5370,
      "##ursed": 5371,
      "##imony": 5372,
      "stage": 5373,
      "##asions": 5374,
      "##ales": 5375,
      "butter": 5376,
      "fram": 5377,
      "##raft": 5378,
      "sugar": 5379,
      "suitor": 5380,
      "male": 5381,
      "chos": 5382,
      "trow": 5383,
      "faction": 5384,
      "amend": 5385,
      "##illing": 5386,
      "moving": 5387,
      "conv": 5388,
      "convers": 5389,
      "conjur": 5390,
      "unman": 5391,
      "moreo": 5392,
      "swagger": 5393,
      "blest": 5394,
      "##ulation": 5395,
      "boar": 5396,
      "works": 5397,
      "seed": 5398,
      "##umes": 5399,
      "##ica": 5400,
      "plan": 5401,
      "marsh": 5402,
      "##rib": 5403,
      "proclamation": 5404,
      "clos": 5405,
      "abb": 5406,
      "roy": 5407,
      "rogues": 5408,
      "flame": 5409,
      "flint": 5410,
      "grim": 5411,
      "grain": 5412,
      "grieves": 5413,
      "joan": 5414,
      "hasty": 5415,
      "compare": 5416,
      "presume": 5417,
      "contend": 5418,
      "confident": 5419,
      "##lius": 5420,
      "##liament": 5421,
      "devour": 5422,
      "restor": 5423,
      "obtain": 5424,
      "imped": 5425,
      "antio": 5426,
      "antip": 5427,
      "backs": 5428,
      "backward": 5429,
      "park": 5430,
      "parson": 5431,
      "parliament": 5432,
      "cawd": 5433,
      "carriage": 5434,
      "surety": 5435,
      "hangman": 5436,
      "crook": 5437,
      "mischance": 5438,
      "silk": 5439,
      "wanting": 5440,
      "careless": 5441,
      "running": 5442,
      "intents": 5443,
      "phe": 5444,
      "seeking": 5445,
      "diest": 5446,
      "served": 5447,
      "baw": 5448,
      "bait": 5449,
      "survey": 5450,
      "venus": 5451,
      "division": 5452,
      "writes": 5453,
      "garment": 5454,
      "pleasing": 5455,
      "summ": 5456,
      "##ipping": 5457,
      "speeches": 5458,
      "regent": 5459,
      "embass": 5460,
      "stirring": 5461,
      "flattering": 5462,
      "river": 5463,
      "quarrels": 5464,
      "hideous": 5465,
      "rebel": 5466,
      "salute": 5467,
      "limb": 5468,
      "briefly": 5469,
      "sixth": 5470,
      "departure": 5471,
      "shroud": 5472,
      "cruelty": 5473,
      "innocence": 5474,
      "chastity": 5475,
      "negl": 5476,
      "vanity": 5477,
      "punishment": 5478,
      "profession": 5479,
      "pupp": 5480,
      "conqueror": 5481,
      "bassianus": 5482,
      "infected": 5483,
      "unkindness": 5484,
      "cordelia": 5485,
      "greece": 5486,
      "beguil": 5487,
      "injuries": 5488,
      "reckoning": 5489,
      "glendower": 5490,
      "corporal": 5491,
      "candle": 5492,
      "concerns": 5493,
      "correction": 5494,
      "character": 5495,
      "ancestors": 5496,
      "barbarous": 5497,
      "filthy": 5498,
      "sufficient": 5499,
      "estimation": 5500,
      "bethink": 5501,
      "perpetual": 5502,
      "everlasting": 5503,
      "jesu": 5504,
      "ingratitude": 5505,
      "dainty": 5506,
      "chosen": 5507,
      "cawdor": 5508,
      "aumer": 5509,
      "bounds": 5510,
      "bully": 5511,
      "dash": 5512,
      "drows": 5513,
      "ice": 5514,
      "mour": 5515,
      "oph": 5516,
      "pang": 5517,
      "rut": 5518,
      "rip": 5519,
      "tu": 5520,
      "tie": 5521,
      "tents": 5522,
      "uly": 5523,
      "vin": 5524,
      "##raint": 5525,
      "##iver": 5526,
      "##ipt": 5527,
      "##egr": 5528,
      "##lings": 5529,
      "##acious": 5530,
      "##mission": 5531,
      "##bast": 5532,
      "##isement": 5533,
      "##arum": 5534,
      "##thren": 5535,
      "hec": 5536,
      "##sec": 5537,
      "shy": 5538,
      "##itation": 5539,
      "##enton": 5540,
      "defect": 5541,
      "##aints": 5542,
      "ann": 5543,
      "anointed": 5544,
      "relish": 5545,
      "losing": 5546,
      "cheap": 5547,
      "tried": 5548,
      "##ardy": 5549,
      "##illon": 5550,
      "moder": 5551,
      "shel": 5552,
      "bliss": 5553,
      "bonds": 5554,
      "pop": 5555,
      "poins": 5556,
      "awe": 5557,
      "brethren": 5558,
      "##cip": 5559,
      "##cio": 5560,
      "##ciful": 5561,
      "perjury": 5562,
      "nightly": 5563,
      "scandal": 5564,
      "commends": 5565,
      "pledge": 5566,
      "appeal": 5567,
      "preced": 5568,
      "##sses": 5569,
      "headed": 5570,
      "contem": 5571,
      "fires": 5572,
      "purge": 5573,
      "mistook": 5574,
      "mistrust": 5575,
      "undergo": 5576,
      "smoke": 5577,
      "helic": 5578,
      "resem": 5579,
      "belove": 5580,
      "meanest": 5581,
      "kills": 5582,
      "wronged": 5583,
      "##ific": 5584,
      "attends": 5585,
      "integr": 5586,
      "reading": 5587,
      "##imely": 5588,
      "capu": 5589,
      "terr": 5590,
      "fourth": 5591,
      "bald": 5592,
      "nobler": 5593,
      "##gnant": 5594,
      "untimely": 5595,
      "despise": 5596,
      "opport": 5597,
      "messal": 5598,
      "plainly": 5599,
      "harmony": 5600,
      "broad": 5601,
      "beastly": 5602,
      "miles": 5603,
      "bondage": 5604,
      "governor": 5605,
      "destiny": 5606,
      "practise": 5607,
      "dismal": 5608,
      "publius": 5609,
      "persuaded": 5610,
      "rosaline": 5611,
      "stole": 5612,
      "extreme": 5613,
      "employment": 5614,
      "vanish": 5615,
      "puiss": 5616,
      "mountains": 5617,
      "inclin": 5618,
      "bootless": 5619,
      "prevented": 5620,
      "funeral": 5621,
      "nestor": 5622,
      "shoes": 5623,
      "affliction": 5624,
      "hinder": 5625,
      "dissol": 5626,
      "alexander": 5627,
      "procure": 5628,
      "experience": 5629,
      "multitude": 5630,
      "immediately": 5631,
      "liquor": 5632,
      "coronation": 5633,
      "semblance": 5634,
      "duties": 5635,
      "meddle": 5636,
      "rebuke": 5637,
      "pestil": 5638,
      "marvellous": 5639,
      "cloten": 5640,
      "suggest": 5641,
      "somewhat": 5642,
      "commodity": 5643,
      "entrance": 5644,
      "coxcomb": 5645,
      "juno": 5646,
      "enmity": 5647,
      "rheum": 5648,
      "indifferent": 5649,
      "moreover": 5650,
      "antioch": 5651,
      "aumerle": 5652,
      "ulysses": 5653,
      "beloved": 5654,
      "balm": 5655,
      "cri": 5656,
      "dart": 5657,
      "dang": 5658,
      "dower": 5659,
      "ebb": 5660,
      "fan": 5661,
      "hood": 5662,
      "hates": 5663,
      "hounds": 5664,
      "lur": 5665,
      "latter": 5666,
      "mouse": 5667,
      "rud": 5668,
      "sow": 5669,
      "taint": 5670,
      "vig": 5671,
      "zounds": 5672,
      "##iot": 5673,
      "##iction": 5674,
      "##ael": 5675,
      "##gro": 5676,
      "##hire": 5677,
      "##maid": 5678,
      "##bling": 5679,
      "##wart": 5680,
      "##fast": 5681,
      "thorough": 5682,
      "##eres": 5683,
      "##ories": 5684,
      "##isp": 5685,
      "##ares": 5686,
      "toad": 5687,
      "##onst": 5688,
      "beque": 5689,
      "heigh": 5690,
      "shout": 5691,
      "##utio": 5692,
      "##chard": 5693,
      "##urity": 5694,
      "stuck": 5695,
      "##advent": 5696,
      "doll": 5697,
      "butt": 5698,
      "sober": 5699,
      "##order": 5700,
      "fro": 5701,
      "##amy": 5702,
      "##uss": 5703,
      "sung": 5704,
      "sustain": 5705,
      "knavery": 5706,
      "neat": 5707,
      "tresp": 5708,
      "manly": 5709,
      "mankind": 5710,
      "upb": 5711,
      "cominius": 5712,
      "sheets": 5713,
      "enl": 5714,
      "##unate": 5715,
      "##unity": 5716,
      "swim": 5717,
      "blank": 5718,
      "board": 5719,
      "arr": 5720,
      "##inder": 5721,
      "##umn": 5722,
      "##inking": 5723,
      "plent": 5724,
      "plight": 5725,
      "plag": 5726,
      "savour": 5727,
      "sails": 5728,
      "pope": 5729,
      "alen": 5730,
      "agreed": 5731,
      "prover": 5732,
      "heap": 5733,
      "cove": 5734,
      "coats": 5735,
      "rocks": 5736,
      "description": 5737,
      "articles": 5738,
      "article": 5739,
      "##ullus": 5740,
      "cannon": 5741,
      "dukes": 5742,
      "compell": 5743,
      "complete": 5744,
      "purg": 5745,
      "evening": 5746,
      "merciful": 5747,
      "harvest": 5748,
      "putting": 5749,
      "engag": 5750,
      "##lix": 5751,
      "##lihood": 5752,
      "consort": 5753,
      "devotion": 5754,
      "answers": 5755,
      "obst": 5756,
      "richer": 5757,
      "fellowship": 5758,
      "impart": 5759,
      "trag": 5760,
      "reasonable": 5761,
      "powerful": 5762,
      "crom": 5763,
      "cram": 5764,
      "displ": 5765,
      "majest": 5766,
      "nearer": 5767,
      "beats": 5768,
      "diff": 5769,
      "sitting": 5770,
      "countryman": 5771,
      "luc": 5772,
      "titinius": 5773,
      "##beit": 5774,
      "reports": 5775,
      "divided": 5776,
      "mocks": 5777,
      "speedy": 5778,
      "legions": 5779,
      "address": 5780,
      "robin": 5781,
      "robes": 5782,
      "maine": 5783,
      "pitied": 5784,
      "wedded": 5785,
      "utmost": 5786,
      "executed": 5787,
      "middle": 5788,
      "baby": 5789,
      "invite": 5790,
      "demands": 5791,
      "transport": 5792,
      "corner": 5793,
      "violence": 5794,
      "deserved": 5795,
      "frowns": 5796,
      "holla": 5797,
      "necessary": 5798,
      "prophesy": 5799,
      "costard": 5800,
      "shrews": 5801,
      "challeng": 5802,
      "stolen": 5803,
      "affected": 5804,
      "drift": 5805,
      "preserv": 5806,
      "guests": 5807,
      "swelling": 5808,
      "strangers": 5809,
      "escape": 5810,
      "finish": 5811,
      "shoe": 5812,
      "mercutio": 5813,
      "ballad": 5814,
      "raging": 5815,
      "clamour": 5816,
      "ashes": 5817,
      "bounteous": 5818,
      "german": 5819,
      "reproof": 5820,
      "curtsy": 5821,
      "outrage": 5822,
      "exercise": 5823,
      "mantua": 5824,
      "consequence": 5825,
      "enrich": 5826,
      "jessica": 5827,
      "surpris": 5828,
      "especially": 5829,
      "bachelor": 5830,
      "michael": 5831,
      "verses": 5832,
      "marshal": 5833,
      "ophelia": 5834,
      "vincentio": 5835,
      "integrity": 5836,
      "bequeath": 5837,
      "trespass": 5838,
      "cull": 5839,
      "date": 5840,
      "dum": 5841,
      "dial": 5842,
      "eats": 5843,
      "esp": 5844,
      "fow": 5845,
      "fert": 5846,
      "fenton": 5847,
      "gor": 5848,
      "gorge": 5849,
      "hire": 5850,
      "lame": 5851,
      "lung": 5852,
      "nigh": 5853,
      "oh": 5854,
      "row": 5855,
      "rue": 5856,
      "rig": 5857,
      "vine": 5858,
      "vap": 5859,
      "wre": 5860,
      "##ples": 5861,
      "##tic": 5862,
      "##iqu": 5863,
      "##iades": 5864,
      "##val": 5865,
      "##ux": 5866,
      "##cer": 5867,
      "##long": 5868,
      "##mouth": 5869,
      "##zy": 5870,
      "##anks": 5871,
      "noon": 5872,
      "infection": 5873,
      "##stery": 5874,
      "mystery": 5875,
      "hab": 5876,
      "haven": 5877,
      "haught": 5878,
      "##cet": 5879,
      "fores": 5880,
      "##iments": 5881,
      "##itive": 5882,
      "stake": 5883,
      "assemb": 5884,
      "lik": 5885,
      "reap": 5886,
      "##rac": 5887,
      "mast": 5888,
      "locks": 5889,
      "allay": 5890,
      "thereto": 5891,
      "mang": 5892,
      "mud": 5893,
      "orchard": 5894,
      "lets": 5895,
      "ens": 5896,
      "enra": 5897,
      "##unted": 5898,
      "sweep": 5899,
      "sex": 5900,
      "sequ": 5901,
      "sap": 5902,
      "alt": 5903,
      "aloof": 5904,
      "dissemb": 5905,
      "lewd": 5906,
      "lechery": 5907,
      "abate": 5908,
      "abomin": 5909,
      "awak": 5910,
      "stray": 5911,
      "roll": 5912,
      "desol": 5913,
      "wring": 5914,
      "errand": 5915,
      "lac": 5916,
      "aye": 5917,
      "contag": 5918,
      "##endom": 5919,
      "indire": 5920,
      "##issa": 5921,
      "highest": 5922,
      "endur": 5923,
      "##iano": 5924,
      "giant": 5925,
      "restore": 5926,
      "pleaseth": 5927,
      "accursed": 5928,
      "parents": 5929,
      "assay": 5930,
      "horrid": 5931,
      "lightning": 5932,
      "crush": 5933,
      "##ably": 5934,
      "used": 5935,
      "prais": 5936,
      "attach": 5937,
      "strikes": 5938,
      "judas": 5939,
      "revenue": 5940,
      "deserts": 5941,
      "deserving": 5942,
      "divers": 5943,
      "blessings": 5944,
      "murderous": 5945,
      "trusty": 5946,
      "sights": 5947,
      "provoke": 5948,
      "provok": 5949,
      "waves": 5950,
      "noblest": 5951,
      "ladder": 5952,
      "frenchmen": 5953,
      "profane": 5954,
      "visor": 5955,
      "confession": 5956,
      "attended": 5957,
      "suitors": 5958,
      "regan": 5959,
      "penance": 5960,
      "excellence": 5961,
      "oppose": 5962,
      "oppress": 5963,
      "apr": 5964,
      "ache": 5965,
      "battles": 5966,
      "relent": 5967,
      "famish": 5968,
      "milford": 5969,
      "moved": 5970,
      "understanding": 5971,
      "cheerful": 5972,
      "christendom": 5973,
      "detest": 5974,
      "treasons": 5975,
      "occasions": 5976,
      "knocks": 5977,
      "joints": 5978,
      "performance": 5979,
      "safer": 5980,
      "control": 5981,
      "shrie": 5982,
      "rascals": 5983,
      "blushing": 5984,
      "grossly": 5985,
      "lodg": 5986,
      "delights": 5987,
      "dealing": 5988,
      "persuasion": 5989,
      "philip": 5990,
      "intended": 5991,
      "changes": 5992,
      "degrees": 5993,
      "beneath": 5994,
      "grandfather": 5995,
      "unpro": 5996,
      "corrupted": 5997,
      "dwells": 5998,
      "kinsmen": 5999,
      "tyrann": 6000,
      "tutor": 6001,
      "guiltless": 6002,
      "debts": 6003,
      "holp": 6004,
      "holid": 6005,
      "apprehend": 6006,
      "stabb": 6007,
      "porter": 6008,
      "ceremon": 6009,
      "fulvia": 6010,
      "pillow": 6011,
      "disguise": 6012,
      "impatience": 6013,
      "nerissa": 6014,
      "pandarus": 6015,
      "subdu": 6016,
      "linen": 6017,
      "ambassador": 6018,
      "volsces": 6019,
      "trembling": 6020,
      "counsellor": 6021,
      "solicit": 6022,
      "bereft": 6023,
      "substit": 6024,
      "superfluous": 6025,
      "acknowledge": 6026,
      "cesario": 6027,
      "phebe": 6028,
      "mourning": 6029,
      "shylock": 6030,
      "precedent": 6031,
      "messala": 6032,
      "dangers": 6033,
      "cromwell": 6034,
      "shrewsbury": 6035,
      "lungs": 6036,
      "crows": 6037,
      "foun": 6038,
      "gilt": 6039,
      "hook": 6040,
      "lan": 6041,
      "ning": 6042,
      "pent": 6043,
      "pounds": 6044,
      "rab": 6045,
      "rated": 6046,
      "rising": 6047,
      "sand": 6048,
      "sire": 6049,
      "silly": 6050,
      "tart": 6051,
      "vit": 6052,
      "velve": 6053,
      "##vity": 6054,
      "##ean": 6055,
      "##nish": 6056,
      "##craft": 6057,
      "##lain": 6058,
      "##lot": 6059,
      "##late": 6060,
      "##lorn": 6061,
      "##liness": 6062,
      "##kens": 6063,
      "##here": 6064,
      "##mas": 6065,
      "##bol": 6066,
      "thurs": 6067,
      "##eration": 6068,
      "##incul": 6069,
      "whir": 6070,
      "whist": 6071,
      "whel": 6072,
      "##reg": 6073,
      "heal": 6074,
      "heel": 6075,
      "heinous": 6076,
      "hack": 6077,
      "haunt": 6078,
      "sher": 6079,
      "forlorn": 6080,
      "##iron": 6081,
      "##urous": 6082,
      "prat": 6083,
      "print": 6084,
      "##ids": 6085,
      "##estial": 6086,
      "fray": 6087,
      "##aments": 6088,
      "revel": 6089,
      "##ione": 6090,
      "maker": 6091,
      "magic": 6092,
      "##tery": 6093,
      "spell": 6094,
      "chose": 6095,
      "trincul": 6096,
      "fav": 6097,
      "brass": 6098,
      "moe": 6099,
      "enchant": 6100,
      "unlike": 6101,
      "univers": 6102,
      "##oted": 6103,
      "##pple": 6104,
      "likelihood": 6105,
      "sebast": 6106,
      "poster": 6107,
      "exclaim": 6108,
      "exact": 6109,
      "leather": 6110,
      "eyel": 6111,
      "descent": 6112,
      "gentleness": 6113,
      "perio": 6114,
      "wrang": 6115,
      "prays": 6116,
      "calling": 6117,
      "adul": 6118,
      "partner": 6119,
      "pregnant": 6120,
      "longing": 6121,
      "foolery": 6122,
      "courses": 6123,
      "purple": 6124,
      "merch": 6125,
      "charitable": 6126,
      "lived": 6127,
      "confin": 6128,
      "settled": 6129,
      "monmouth": 6130,
      "beseem": 6131,
      "answered": 6132,
      "curious": 6133,
      "restrain": 6134,
      "guild": 6135,
      "minded": 6136,
      "valu": 6137,
      "wearing": 6138,
      "thousands": 6139,
      "handsome": 6140,
      "falsely": 6141,
      "lays": 6142,
      "instead": 6143,
      "persons": 6144,
      "windows": 6145,
      "entra": 6146,
      "entire": 6147,
      "flying": 6148,
      "##eys": 6149,
      "sickly": 6150,
      "support": 6151,
      "raw": 6152,
      "saved": 6153,
      "sounded": 6154,
      "buzz": 6155,
      "yielding": 6156,
      "caps": 6157,
      "minion": 6158,
      "tenour": 6159,
      "ruth": 6160,
      "pleases": 6161,
      "mocking": 6162,
      "summon": 6163,
      "counsels": 6164,
      "cowardly": 6165,
      "respects": 6166,
      "##aggers": 6167,
      "added": 6168,
      "beginning": 6169,
      "jests": 6170,
      "thirst": 6171,
      "relieve": 6172,
      "motive": 6173,
      "limit": 6174,
      "knocking": 6175,
      "verse": 6176,
      "patiently": 6177,
      "julius": 6178,
      "pipe": 6179,
      "##soe": 6180,
      "visitation": 6181,
      "philipp": 6182,
      "symp": 6183,
      "stops": 6184,
      "messengers": 6185,
      "bending": 6186,
      "hermione": 6187,
      "macd": 6188,
      "corruption": 6189,
      "produce": 6190,
      "witchcraft": 6191,
      "baseness": 6192,
      "squire": 6193,
      "wolves": 6194,
      "##where": 6195,
      "winged": 6196,
      "bridegro": 6197,
      "deriv": 6198,
      "hunting": 6199,
      "wonders": 6200,
      "corioli": 6201,
      "gratiano": 6202,
      "gloves": 6203,
      "rode": 6204,
      "nuncle": 6205,
      "inhab": 6206,
      "alban": 6207,
      "gilded": 6208,
      "paulina": 6209,
      "ribs": 6210,
      "tiger": 6211,
      "concluded": 6212,
      "comparison": 6213,
      "celestial": 6214,
      "exploit": 6215,
      "dancing": 6216,
      "parentage": 6217,
      "stephano": 6218,
      "female": 6219,
      "vassal": 6220,
      "drowsy": 6221,
      "rutland": 6222,
      "contempl": 6223,
      "##adventure": 6224,
      "velvet": 6225,
      "thursday": 6226,
      "sebastian": 6227,
      "period": 6228,
      "sympath": 6229,
      "bridegroom": 6230,
      "afore": 6231,
      "bi": 6232,
      "bate": 6233,
      "bona": 6234,
      "dom": 6235,
      "dried": 6236,
      "eur": 6237,
      "fath": 6238,
      "fates": 6239,
      "gage": 6240,
      "lance": 6241,
      "lute": 6242,
      "lime": 6243,
      "mates": 6244,
      "pir": 6245,
      "pine": 6246,
      "pant": 6247,
      "pig": 6248,
      "puff": 6249,
      "sans": 6250,
      "tir": 6251,
      "tire": 6252,
      "tainted": 6253,
      "##pence": 6254,
      "##ops": 6255,
      "##ranch": 6256,
      "##iard": 6257,
      "##iven": 6258,
      "##uch": 6259,
      "##sus": 6260,
      "##aunt": 6261,
      "##mish": 6262,
      "##fellow": 6263,
      "##nday": 6264,
      "##inth": 6265,
      "toe": 6266,
      "whet": 6267,
      "##rel": 6268,
      "##reet": 6269,
      "beau": 6270,
      "hem": 6271,
      "hav": 6272,
      "sha": 6273,
      "shames": 6274,
      "meed": 6275,
      "notorious": 6276,
      "##itary": 6277,
      "weed": 6278,
      "weal": 6279,
      "stum": 6280,
      "##adem": 6281,
      "assemble": 6282,
      "priz": 6283,
      "prime": 6284,
      "sullen": 6285,
      "magn": 6286,
      "alliance": 6287,
      "##geons": 6288,
      "spurs": 6289,
      "nell": 6290,
      "chest": 6291,
      "choke": 6292,
      "##ilius": 6293,
      "##ardine": 6294,
      "faster": 6295,
      "ample": 6296,
      "mum": 6297,
      "org": 6298,
      "unth": 6299,
      "unsh": 6300,
      "##ulch": 6301,
      "boat": 6302,
      "bolt": 6303,
      "arrant": 6304,
      "worcester": 6305,
      "worser": 6306,
      "uses": 6307,
      "plough": 6308,
      "saving": 6309,
      "polix": 6310,
      "marble": 6311,
      "alms": 6312,
      "albeit": 6313,
      "diso": 6314,
      "dislo": 6315,
      "dislike": 6316,
      "##pel": 6317,
      "quaint": 6318,
      "club": 6319,
      "strings": 6320,
      "roan": 6321,
      "robe": 6322,
      "desc": 6323,
      "leaf": 6324,
      "##agon": 6325,
      "scant": 6326,
      "scold": 6327,
      "bloods": 6328,
      "slanders": 6329,
      "emilia": 6330,
      "courts": 6331,
      "merr": 6332,
      "dram": 6333,
      "droop": 6334,
      "truer": 6335,
      "confine": 6336,
      "confidence": 6337,
      "smother": 6338,
      "belie": 6339,
      "humility": 6340,
      "falcon": 6341,
      "impud": 6342,
      "##ected": 6343,
      "crowned": 6344,
      "horror": 6345,
      "overt": 6346,
      "crim": 6347,
      "crimes": 6348,
      "cradle": 6349,
      "breakfast": 6350,
      "silken": 6351,
      "instinct": 6352,
      "cousins": 6353,
      "returns": 6354,
      "returned": 6355,
      "beating": 6356,
      "revenges": 6357,
      "built": 6358,
      "titan": 6359,
      "sadly": 6360,
      "skull": 6361,
      "expense": 6362,
      "capable": 6363,
      "drinks": 6364,
      "burnt": 6365,
      "gazing": 6366,
      "nobleness": 6367,
      "captains": 6368,
      "hotspur": 6369,
      "profound": 6370,
      "deeply": 6371,
      "requires": 6372,
      "boldly": 6373,
      "security": 6374,
      "walking": 6375,
      "region": 6376,
      "prett": 6377,
      "scarf": 6378,
      "cowardice": 6379,
      "empire": 6380,
      "stirr": 6381,
      "laughing": 6382,
      "created": 6383,
      "lacks": 6384,
      "idly": 6385,
      "flatterer": 6386,
      "vilely": 6387,
      "vein": 6388,
      "bells": 6389,
      "detested": 6390,
      "churlish": 6391,
      "smallest": 6392,
      "tarsus": 6393,
      "studied": 6394,
      "practis": 6395,
      "crept": 6396,
      "avaunt": 6397,
      "listen": 6398,
      "scarcely": 6399,
      "bastards": 6400,
      "storms": 6401,
      "succession": 6402,
      "dismay": 6403,
      "topas": 6404,
      "prosperity": 6405,
      "syll": 6406,
      "wakes": 6407,
      "companions": 6408,
      "envoy": 6409,
      "fruitful": 6410,
      "driven": 6411,
      "hatred": 6412,
      "enforced": 6413,
      "heaviness": 6414,
      "duncan": 6415,
      "fifteen": 6416,
      "fixed": 6417,
      "vault": 6418,
      "wandering": 6419,
      "function": 6420,
      "afflict": 6421,
      "religion": 6422,
      "ungent": 6423,
      "repeat": 6424,
      "unseen": 6425,
      "hallow": 6426,
      "painting": 6427,
      "accomplish": 6428,
      "nymph": 6429,
      "imprisonment": 6430,
      "obscure": 6431,
      "brawl": 6432,
      "scourge": 6433,
      "reserv": 6434,
      "ruffian": 6435,
      "homage": 6436,
      "warriors": 6437,
      "overthrow": 6438,
      "style": 6439,
      "revels": 6440,
      "barnardine": 6441,
      "infirmity": 6442,
      "saturnine": 6443,
      "cudgel": 6444,
      "afterwards": 6445,
      "wilful": 6446,
      "enfranch": 6447,
      "assault": 6448,
      "penitent": 6449,
      "covet": 6450,
      "fertile": 6451,
      "abominable": 6452,
      "fountain": 6453,
      "trinculo": 6454,
      "macduff": 6455,
      "fathom": 6456,
      "polixenes": 6457,
      "aust": 6458,
      "aqu": 6459,
      "bail": 6460,
      "bands": 6461,
      "cau": 6462,
      "cities": 6463,
      "ded": 6464,
      "ec": 6465,
      "eph": 6466,
      "file": 6467,
      "gun": 6468,
      "hound": 6469,
      "kern": 6470,
      "lull": 6471,
      "nut": 6472,
      "oliv": 6473,
      "pence": 6474,
      "pap": 6475,
      "patter": 6476,
      "ram": 6477,
      "race": 6478,
      "sly": 6479,
      "wet": 6480,
      "wagg": 6481,
      "##po": 6482,
      "##oqu": 6483,
      "##obar": 6484,
      "##rion": 6485,
      "##rue": 6486,
      "##ressed": 6487,
      "##tis": 6488,
      "##eard": 6489,
      "##uary": 6490,
      "##nel": 6491,
      "##lar": 6492,
      "##look": 6493,
      "##side": 6494,
      "##ainder": 6495,
      "##get": 6496,
      "##gress": 6497,
      "##yard": 6498,
      "##jou": 6499,
      "thumb": 6500,
      "theft": 6501,
      "andrew": 6502,
      "toys": 6503,
      "tokens": 6504,
      "halt": 6505,
      "shakes": 6506,
      "shirt": 6507,
      "##lebr": 6508,
      "mell": 6509,
      "##itate": 6510,
      "states": 6511,
      "stiff": 6512,
      "stool": 6513,
      "asunder": 6514,
      "dole": 6515,
      "prate": 6516,
      "anjou": 6517,
      "reh": 6518,
      "rein": 6519,
      "reform": 6520,
      "sums": 6521,
      "loft": 6522,
      "##tering": 6523,
      "##terbury": 6524,
      "chaf": 6525,
      "trad": 6526,
      "goodman": 6527,
      "muse": 6528,
      "orsin": 6529,
      "##ille": 6530,
      "moiety": 6531,
      "cong": 6532,
      "enfor": 6533,
      "enobar": 6534,
      "unqu": 6535,
      "##antages": 6536,
      "canterbury": 6537,
      "swound": 6538,
      "bol": 6539,
      "ariel": 6540,
      "tavern": 6541,
      "##pper": 6542,
      "##icer": 6543,
      "##iculous": 6544,
      "plenty": 6545,
      "##asted": 6546,
      "alci": 6547,
      "alarum": 6548,
      "mustard": 6549,
      "disorder": 6550,
      "ague": 6551,
      "proves": 6552,
      "clay": 6553,
      "clap": 6554,
      "cob": 6555,
      "coal": 6556,
      "road": 6557,
      "rope": 6558,
      "menenius": 6559,
      "flam": 6560,
      "perse": 6561,
      "peruse": 6562,
      "peradventure": 6563,
      "##ighth": 6564,
      "parties": 6565,
      "sweeter": 6566,
      "serving": 6567,
      "slack": 6568,
      "apply": 6569,
      "worldly": 6570,
      "composition": 6571,
      "mightily": 6572,
      "nobleman": 6573,
      "harms": 6574,
      "highly": 6575,
      "witty": 6576,
      "worthless": 6577,
      "worthiness": 6578,
      "helps": 6579,
      "consist": 6580,
      "bringing": 6581,
      "besp": 6582,
      "resort": 6583,
      "rests": 6584,
      "welkin": 6585,
      "obliv": 6586,
      "presented": 6587,
      "accent": 6588,
      "brand": 6589,
      "patric": 6590,
      "parcel": 6591,
      "homely": 6592,
      "furious": 6593,
      "banks": 6594,
      "forgiven": 6595,
      "shameful": 6596,
      "rememb": 6597,
      "landed": 6598,
      "dispra": 6599,
      "commandment": 6600,
      "daring": 6601,
      "intends": 6602,
      "readiness": 6603,
      "fiends": 6604,
      "discom": 6605,
      "grove": 6606,
      "infl": 6607,
      "asked": 6608,
      "leaden": 6609,
      "distance": 6610,
      "yields": 6611,
      "pastime": 6612,
      "rug": 6613,
      "reported": 6614,
      "divin": 6615,
      "vision": 6616,
      "boldness": 6617,
      "malicious": 6618,
      "extend": 6619,
      "scars": 6620,
      "oppression": 6621,
      "gladly": 6622,
      "talents": 6623,
      "apes": 6624,
      "wasted": 6625,
      "stirs": 6626,
      "harmless": 6627,
      "wiser": 6628,
      "labouring": 6629,
      "privy": 6630,
      "idleness": 6631,
      "proceedings": 6632,
      "feasts": 6633,
      "broach": 6634,
      "resolute": 6635,
      "feeds": 6636,
      "wednes": 6637,
      "acquit": 6638,
      "model": 6639,
      "blemish": 6640,
      "mortality": 6641,
      "bowl": 6642,
      "occup": 6643,
      "succour": 6644,
      "melted": 6645,
      "property": 6646,
      "renew": 6647,
      "ridiculous": 6648,
      "publish": 6649,
      "loathsome": 6650,
      "threats": 6651,
      "during": 6652,
      "priests": 6653,
      "triumphant": 6654,
      "walter": 6655,
      "lamentable": 6656,
      "bigger": 6657,
      "assured": 6658,
      "stomachs": 6659,
      "chiefest": 6660,
      "twelvemon": 6661,
      "frighted": 6662,
      "usurping": 6663,
      "imperious": 6664,
      "debate": 6665,
      "derive": 6666,
      "epita": 6667,
      "ranks": 6668,
      "admirable": 6669,
      "supposed": 6670,
      "leonatus": 6671,
      "trifles": 6672,
      "mercury": 6673,
      "statue": 6674,
      "removed": 6675,
      "rags": 6676,
      "observance": 6677,
      "naughty": 6678,
      "repeal": 6679,
      "belongs": 6680,
      "latest": 6681,
      "ashamed": 6682,
      "branches": 6683,
      "applaud": 6684,
      "distracted": 6685,
      "beef": 6686,
      "causes": 6687,
      "manifest": 6688,
      "victorious": 6689,
      "jaques": 6690,
      "gossip": 6691,
      "subscribe": 6692,
      "discipline": 6693,
      "##holus": 6694,
      "defeat": 6695,
      "outlive": 6696,
      "stratage": 6697,
      "unmanner": 6698,
      "impediment": 6699,
      "antipholus": 6700,
      "shelter": 6701,
      "opportunity": 6702,
      "assembly": 6703,
      "indirect": 6704,
      "shaft": 6705,
      "ephes": 6706,
      "olivia": 6707,
      "pattern": 6708,
      "lofty": 6709,
      "orsino": 6710,
      "wednesday": 6711,
      "twelvemonth": 6712,
      "epitaph": 6713,
      "bench": 6714,
      "bub": 6715,
      "coo": 6716,
      "cad": 6717,
      "cush": 6718,
      "dw": 6719,
      "eun": 6720,
      "fut": 6721,
      "fence": 6722,
      "fang": 6723,
      "gower": 6724,
      "gains": 6725,
      "guts": 6726,
      "las": 6727,
      "mute": 6728,
      "oil": 6729,
      "pud": 6730,
      "pel": 6731,
      "pup": 6732,
      "perem": 6733,
      "rive": 6734,
      "riv": 6735,
      "sall": 6736,
      "saints": 6737,
      "ti": 6738,
      "torn": 6739,
      "tub": 6740,
      "tardy": 6741,
      "vat": 6742,
      "vest": 6743,
      "vio": 6744,
      "wart": 6745,
      "##pire": 6746,
      "##poc": 6747,
      "##pulch": 6748,
      "##okes": 6749,
      "##rude": 6750,
      "##iable": 6751,
      "##lies": 6752,
      "##kins": 6753,
      "##awn": 6754,
      "##gu": 6755,
      "##house": 6756,
      "##biades": 6757,
      "##wall": 6758,
      "##worth": 6759,
      "##fret": 6760,
      "thigh": 6761,
      "##inu": 6762,
      "##isc": 6763,
      "toss": 6764,
      "##thest": 6765,
      "##anor": 6766,
      "noses": 6767,
      "beam": 6768,
      "##stood": 6769,
      "hew": 6770,
      "##owder": 6771,
      "mew": 6772,
      "melo": 6773,
      "##cho": 6774,
      "##itan": 6775,
      "wea": 6776,
      "##assed": 6777,
      "##alty": 6778,
      "doct": 6779,
      "##alls": 6780,
      "##ida": 6781,
      "lily": 6782,
      "fraught": 6783,
      "froth": 6784,
      "whatsoever": 6785,
      "##eems": 6786,
      "##thern": 6787,
      "chances": 6788,
      "mantle": 6789,
      "upward": 6790,
      "amain": 6791,
      "muff": 6792,
      "##ella": 6793,
      "moan": 6794,
      "sheet": 6795,
      "##antity": 6796,
      "##unction": 6797,
      "howl": 6798,
      "array": 6799,
      "arbit": 6800,
      "sepulch": 6801,
      "hog": 6802,
      "hob": 6803,
      "madly": 6804,
      "plots": 6805,
      "marian": 6806,
      "disting": 6807,
      "dissemble": 6808,
      "tween": 6809,
      "##igation": 6810,
      "leth": 6811,
      "quake": 6812,
      "clown": 6813,
      "abject": 6814,
      "abund": 6815,
      "norway": 6816,
      "##civ": 6817,
      "offered": 6818,
      "gentry": 6819,
      "warning": 6820,
      "pert": 6821,
      "permit": 6822,
      "scap": 6823,
      "adore": 6824,
      "comment": 6825,
      "footing": 6826,
      "appell": 6827,
      "pred": 6828,
      "bearer": 6829,
      "glow": 6830,
      "wayward": 6831,
      "compet": 6832,
      "compact": 6833,
      "remov": 6834,
      "armado": 6835,
      "indust": 6836,
      "charges": 6837,
      "truce": 6838,
      "underne": 6839,
      "##liest": 6840,
      "worthies": 6841,
      "worthier": 6842,
      "worthily": 6843,
      "eloqu": 6844,
      "devis": 6845,
      "belief": 6846,
      "believ": 6847,
      "fully": 6848,
      "obsequ": 6849,
      "played": 6850,
      "faced": 6851,
      "accurs": 6852,
      "impress": 6853,
      "impeach": 6854,
      "brab": 6855,
      "meaner": 6856,
      "passions": 6857,
      "patron": 6858,
      "parch": 6859,
      "assume": 6860,
      "trod": 6861,
      "misfort": 6862,
      "forgotten": 6863,
      "happier": 6864,
      "suffered": 6865,
      "lasting": 6866,
      "devilish": 6867,
      "rape": 6868,
      "singing": 6869,
      "mete": 6870,
      "lux": 6871,
      "coldly": 6872,
      "buff": 6873,
      "crab": 6874,
      "watery": 6875,
      "waist": 6876,
      "gaoler": 6877,
      "princip": 6878,
      "surm": 6879,
      "surgeon": 6880,
      "##ancies": 6881,
      "payment": 6882,
      "frenchman": 6883,
      "incur": 6884,
      "mockery": 6885,
      "##bras": 6886,
      "fasting": 6887,
      "approbation": 6888,
      "interch": 6889,
      "constancy": 6890,
      "moonshine": 6891,
      "despised": 6892,
      "damnation": 6893,
      "recount": 6894,
      "feats": 6895,
      "talks": 6896,
      "##ocate": 6897,
      "pomfret": 6898,
      "badge": 6899,
      "##umbling": 6900,
      "commendations": 6901,
      "losses": 6902,
      "events": 6903,
      "lustre": 6904,
      "stealing": 6905,
      "beards": 6906,
      "tribune": 6907,
      "mounted": 6908,
      "ports": 6909,
      "avouch": 6910,
      "mutual": 6911,
      "changed": 6912,
      "complaint": 6913,
      "figures": 6914,
      "stockings": 6915,
      "maidenhead": 6916,
      "audrey": 6917,
      "sauce": 6918,
      "pucell": 6919,
      "weighty": 6920,
      "circumst": 6921,
      "square": 6922,
      "dignities": 6923,
      "##whel": 6924,
      "hypoc": 6925,
      "hills": 6926,
      "##suing": 6927,
      "tempted": 6928,
      "capital": 6929,
      "hunts": 6930,
      "heavier": 6931,
      "springs": 6932,
      "unlaw": 6933,
      "cressida": 6934,
      "apprehension": 6935,
      "italian": 6936,
      "bills": 6937,
      "neglected": 6938,
      "fulf": 6939,
      "fantasy": 6940,
      "pisa": 6941,
      "secrecy": 6942,
      "million": 6943,
      "mouldy": 6944,
      "tapster": 6945,
      "traveller": 6946,
      "sicilia": 6947,
      "beautiful": 6948,
      "spotted": 6949,
      "dragon": 6950,
      "interpre": 6951,
      "murders": 6952,
      "feature": 6953,
      "philosophy": 6954,
      "levied": 6955,
      "doubts": 6956,
      "pilgrimage": 6957,
      "pursuit": 6958,
      "miscarry": 6959,
      "celebr": 6960,
      "piercing": 6961,
      "ornament": 6962,
      "insolence": 6963,
      "bulk": 6964,
      "offender": 6965,
      "diamond": 6966,
      "champion": 6967,
      "fantastical": 6968,
      "lunatic": 6969,
      "abbey": 6970,
      "bawdy": 6971,
      "pangs": 6972,
      "annoy": 6973,
      "helicanus": 6974,
      "capulet": 6975,
      "upbraid": 6976,
      "enlarge": 6977,
      "proverb": 6978,
      "##iquity": 6979,
      "dissembling": 6980,
      "holiday": 6981,
      "lanthorn": 6982,
      "universal": 6983,
      "philippi": 6984,
      "disloyal": 6985,
      "ecst": 6986,
      "enobarbus": 6987,
      "alcibiades": 6988,
      "oblivion": 6989,
      "patricians": 6990,
      "rugby": 6991,
      "eunuch": 6992,
      "perempt": 6993,
      "underneath": 6994,
      "pucelle": 6995,
      "bal": 6996,
      "bide": 6997,
      "ced": 6998,
      "cas": 6999,
      "daggers": 7000,
      "ew": 7001,
      "fol": 7002,
      "fist": 7003,
      "fide": 7004,
      "fancies": 7005,
      "gul": 7006,
      "jade": 7007,
      "jump": 7008,
      "loo": 7009,
      "leek": 7010,
      "nick": 7011,
      "nail": 7012,
      "rings": 7013,
      "rats": 7014,
      "ranc": 7015,
      "sixt": 7016,
      "##ridge": 7017,
      "##ecy": 7018,
      "##ned": 7019,
      "##ked": 7020,
      "##ming": 7021,
      "##ering": 7022,
      "##erning": 7023,
      "##orp": 7024,
      "##ined": 7025,
      "##inus": 7026,
      "##inence": 7027,
      "##inance": 7028,
      "##lling": 7029,
      "##isite": 7030,
      "toy": 7031,
      "##enor": 7032,
      "##onstr": 7033,
      "##aniel": 7034,
      "##rement": 7035,
      "##stone": 7036,
      "##seth": 7037,
      "shining": 7038,
      "meal": 7039,
      "notable": 7040,
      "##imate": 7041,
      "##imney": 7042,
      "##ooted": 7043,
      "##itiff": 7044,
      "stew": 7045,
      "stairs": 7046,
      "ascend": 7047,
      "##alus": 7048,
      "dover": 7049,
      "##ention": 7050,
      "##idents": 7051,
      "lic": 7052,
      "frant": 7053,
      "anchor": 7054,
      "##usions": 7055,
      "##racus": 7056,
      "##eable": 7057,
      "chival": 7058,
      "trot": 7059,
      "brim": 7060,
      "orph": 7061,
      "mole": 7062,
      "enge": 7063,
      "ensue": 7064,
      "unch": 7065,
      "unru": 7066,
      "swif": 7067,
      "howe": 7068,
      "##ulting": 7069,
      "boister": 7070,
      "dido": 7071,
      "whereby": 7072,
      "whereupon": 7073,
      "plants": 7074,
      "##ripp": 7075,
      "outside": 7076,
      "disco": 7077,
      "project": 7078,
      "##roth": 7079,
      "##ross": 7080,
      "excess": 7081,
      "##ounted": 7082,
      "gravity": 7083,
      "levy": 7084,
      "quantity": 7085,
      "##ickle": 7086,
      "cloy": 7087,
      "brew": 7088,
      "##cians": 7089,
      "foil": 7090,
      "flin": 7091,
      "arts": 7092,
      "scale": 7093,
      "adj": 7094,
      "adder": 7095,
      "##oughs": 7096,
      "##elaus": 7097,
      "owner": 7098,
      "apple": 7099,
      "duck": 7100,
      "glance": 7101,
      "gloss": 7102,
      "compul": 7103,
      "compos": 7104,
      "presum": 7105,
      "remun": 7106,
      "longs": 7107,
      "follies": 7108,
      "showers": 7109,
      "finding": 7110,
      "harlot": 7111,
      "peaceful": 7112,
      "nativity": 7113,
      "##lict": 7114,
      "ending": 7115,
      "worthiest": 7116,
      "curb": 7117,
      "restraint": 7118,
      "welcom": 7119,
      "##alties": 7120,
      "richly": 7121,
      "pleased": 7122,
      "accidents": 7123,
      "brag": 7124,
      "brazen": 7125,
      "rightful": 7126,
      "antick": 7127,
      "submit": 7128,
      "parle": 7129,
      "traff": 7130,
      "caitiff": 7131,
      "assail": 7132,
      "husbandry": 7133,
      "carrion": 7134,
      "furthest": 7135,
      "crisp": 7136,
      "gets": 7137,
      "mispr": 7138,
      "attorn": 7139,
      "happen": 7140,
      "advanc": 7141,
      "##fortunate": 7142,
      "barr": 7143,
      "throughly": 7144,
      "##uba": 7145,
      "nearest": 7146,
      "growth": 7147,
      "raz": 7148,
      "diadem": 7149,
      "fitted": 7150,
      "proudest": 7151,
      "infamy": 7152,
      "leader": 7153,
      "angiers": 7154,
      "cheese": 7155,
      "gallia": 7156,
      "gallants": 7157,
      "foursc": 7158,
      "captive": 7159,
      "incens": 7160,
      "inconst": 7161,
      "personal": 7162,
      "tenderness": 7163,
      "entreats": 7164,
      "interim": 7165,
      "interrupt": 7166,
      "extra": 7167,
      "constrain": 7168,
      "##acity": 7169,
      "feathers": 7170,
      "wretches": 7171,
      "suffering": 7172,
      "judgments": 7173,
      "laughed": 7174,
      "hurts": 7175,
      "wisest": 7176,
      "strengthen": 7177,
      "respected": 7178,
      "proceeded": 7179,
      "lowly": 7180,
      "resolved": 7181,
      "cheerly": 7182,
      "motions": 7183,
      "fills": 7184,
      "feeding": 7185,
      "verily": 7186,
      "excus": 7187,
      "igno": 7188,
      "studies": 7189,
      "insinu": 7190,
      "sixpence": 7191,
      "opinions": 7192,
      "reigns": 7193,
      "reignier": 7194,
      "practices": 7195,
      "approaches": 7196,
      "girls": 7197,
      "lists": 7198,
      "shrill": 7199,
      "proofs": 7200,
      "dishonest": 7201,
      "sorts": 7202,
      "drunkard": 7203,
      "cornwall": 7204,
      "temples": 7205,
      "bestowed": 7206,
      "frowning": 7207,
      "volunt": 7208,
      "prophecy": 7209,
      "unsp": 7210,
      "syracus": 7211,
      "extremes": 7212,
      "wrathful": 7213,
      "mended": 7214,
      "songs": 7215,
      "amazed": 7216,
      "imagin": 7217,
      "uncertain": 7218,
      "protection": 7219,
      "greyh": 7220,
      "discovery": 7221,
      "languish": 7222,
      "holiness": 7223,
      "napkin": 7224,
      "accusation": 7225,
      "admiration": 7226,
      "##blood": 7227,
      "admitted": 7228,
      "assistance": 7229,
      "keys": 7230,
      "disguis": 7231,
      "testimony": 7232,
      "ingrateful": 7233,
      "sanctuary": 7234,
      "injurious": 7235,
      "converse": 7236,
      "collected": 7237,
      "moody": 7238,
      "rousillon": 7239,
      "applause": 7240,
      "steeds": 7241,
      "mingle": 7242,
      "coffin": 7243,
      "bankrupt": 7244,
      "discontented": 7245,
      "recovered": 7246,
      "battery": 7247,
      "gonz": 7248,
      "recreant": 7249,
      "cinna": 7250,
      "dorset": 7251,
      "crooked": 7252,
      "embassy": 7253,
      "negligence": 7254,
      "hecuba": 7255,
      "pestilence": 7256,
      "plagues": 7257,
      "fowl": 7258,
      "haughty": 7259,
      "mangled": 7260,
      "april": 7261,
      "contemplation": 7262,
      "beaufort": 7263,
      "merriment": 7264,
      "unmannerly": 7265,
      "ephesus": 7266,
      "future": 7267,
      "lasciv": 7268,
      "distinguish": 7269,
      "misfortune": 7270,
      "ecstasy": 7271,
      "peremptory": 7272,
      "sixteen": 7273,
      "frantic": 7274,
      "unruly": 7275,
      "swifter": 7276,
      "fourscore": 7277,
      "lascivious": 7278,
      "actor": 7279,
      "bath": 7280,
      "bour": 7281,
      "bio": 7282,
      "budge": 7283,
      "cu": 7284,
      "cow": 7285,
      "cue": 7286,
      "crew": 7287,
      "cases": 7288,
      "casket": 7289,
      "dir": 7290,
      "dit": 7291,
      "dul": 7292,
      "dally": 7293,
      "domin": 7294,
      "echo": 7295,
      "fest": 7296,
      "gest": 7297,
      "gust": 7298,
      "gull": 7299,
      "gert": 7300,
      "hides": 7301,
      "jar": 7302,
      "ken": 7303,
      "ling": 7304,
      "lane": 7305,
      "mate": 7306,
      "nix": 7307,
      "rad": 7308,
      "rout": 7309,
      "rages": 7310,
      "roots": 7311,
      "si": 7312,
      "sess": 7313,
      "sblood": 7314,
      "vices": 7315,
      "wave": 7316,
      "wages": 7317,
      "yare": 7318,
      "##rh": 7319,
      "##vile": 7320,
      "##ule": 7321,
      "##ually": 7322,
      "##ns": 7323,
      "##came": 7324,
      "##cli": 7325,
      "##lers": 7326,
      "##ky": 7327,
      "##sm": 7328,
      "##mand": 7329,
      "##mans": 7330,
      "##bes": 7331,
      "##bear": 7332,
      "##bted": 7333,
      "##yr": 7334,
      "##ndello": 7335,
      "##orate": 7336,
      "##inbras": 7337,
      "##ism": 7338,
      "##arf": 7339,
      "tops": 7340,
      "wheres": 7341,
      "##rels": 7342,
      "beads": 7343,
      "##omy": 7344,
      "##omen": 7345,
      "shop": 7346,
      "foret": 7347,
      "meek": 7348,
      "withhold": 7349,
      "stare": 7350,
      "doting": 7351,
      "prim": 7352,
      "prating": 7353,
      "liar": 7354,
      "frag": 7355,
      "frenz": 7356,
      "rele": 7357,
      "##iend": 7358,
      "loins": 7359,
      "spain": 7360,
      "spher": 7361,
      "spacious": 7362,
      "##andon": 7363,
      "knighth": 7364,
      "chap": 7365,
      "chains": 7366,
      "chape": 7367,
      "chronic": 7368,
      "chann": 7369,
      "chimney": 7370,
      "##ilful": 7371,
      "mansion": 7372,
      "##uellen": 7373,
      "brib": 7374,
      "ordain": 7375,
      "moist": 7376,
      "conceiv": 7377,
      "concept": 7378,
      "consec": 7379,
      "una": 7380,
      "unst": 7381,
      "unarm": 7382,
      "canop": 7383,
      "however": 7384,
      "boon": 7385,
      "whoever": 7386,
      "tak": 7387,
      "usage": 7388,
      "sew": 7389,
      "sext": 7390,
      "seated": 7391,
      "separ": 7392,
      "hoar": 7393,
      "##ication": 7394,
      "marqu": 7395,
      "##rian": 7396,
      "greets": 7397,
      "outst": 7398,
      "discl": 7399,
      "ages": 7400,
      "proffer": 7401,
      "progress": 7402,
      "##rog": 7403,
      "exqu": 7404,
      "grac": 7405,
      "thinkest": 7406,
      "abst": 7407,
      "abod": 7408,
      "abused": 7409,
      "abandon": 7410,
      "greatly": 7411,
      "coil": 7412,
      "betroth": 7413,
      "menelaus": 7414,
      "foh": 7415,
      "flames": 7416,
      "fluellen": 7417,
      "leagues": 7418,
      "nighting": 7419,
      "scald": 7420,
      "scroll": 7421,
      "ert": 7422,
      "handle": 7423,
      "lazy": 7424,
      "##ithe": 7425,
      "precise": 7426,
      "glories": 7427,
      "downright": 7428,
      "armies": 7429,
      "purses": 7430,
      "betters": 7431,
      "merits": 7432,
      "harp": 7433,
      "fortinbras": 7434,
      "truant": 7435,
      "##shipp": 7436,
      "conflict": 7437,
      "understood": 7438,
      "smart": 7439,
      "smack": 7440,
      "housewife": 7441,
      "boyet": 7442,
      "humorous": 7443,
      "playing": 7444,
      "presents": 7445,
      "antenor": 7446,
      "draught": 7447,
      "suborn": 7448,
      "parth": 7449,
      "parish": 7450,
      "paroll": 7451,
      "retir": 7452,
      "childish": 7453,
      "lightly": 7454,
      "carri": 7455,
      "##ifies": 7456,
      "##ablish": 7457,
      "educ": 7458,
      "wished": 7459,
      "advised": 7460,
      "denies": 7461,
      "dispers": 7462,
      "bars": 7463,
      "commander": 7464,
      "fights": 7465,
      "##enerate": 7466,
      "revenged": 7467,
      "temperate": 7468,
      "##ibly": 7469,
      "cryst": 7470,
      "generation": 7471,
      "generally": 7472,
      "comfortable": 7473,
      "rapt": 7474,
      "singular": 7475,
      "quicken": 7476,
      "infancy": 7477,
      "asking": 7478,
      "airy": 7479,
      "affair": 7480,
      "angle": 7481,
      "unclean": 7482,
      "text": 7483,
      "cuts": 7484,
      "expos": 7485,
      "minutes": 7486,
      "waft": 7487,
      "pasture": 7488,
      "surrey": 7489,
      "venet": 7490,
      "eating": 7491,
      "incest": 7492,
      "questions": 7493,
      "deeper": 7494,
      "establish": 7495,
      "appearance": 7496,
      "fasten": 7497,
      "speechless": 7498,
      "regal": 7499,
      "entreaty": 7500,
      "entreated": 7501,
      "snake": 7502,
      "penalty": 7503,
      "speedily": 7504,
      "scarlet": 7505,
      "plucks": 7506,
      "weaker": 7507,
      "##licity": 7508,
      "lambs": 7509,
      "##ocation": 7510,
      "defiance": 7511,
      "plainness": 7512,
      "teaching": 7513,
      "labours": 7514,
      "directed": 7515,
      "idol": 7516,
      "flatterers": 7517,
      "chamberlain": 7518,
      "##avish": 7519,
      "relief": 7520,
      "beggary": 7521,
      "guarded": 7522,
      "##odes": 7523,
      "element": 7524,
      "eleanor": 7525,
      "calib": 7526,
      "calais": 7527,
      "##ossess": 7528,
      "midwife": 7529,
      "cloudy": 7530,
      "posts": 7531,
      "contrad": 7532,
      "pigeons": 7533,
      "importune": 7534,
      "continent": 7535,
      "continual": 7536,
      "circle": 7537,
      "requests": 7538,
      "secretly": 7539,
      "louder": 7540,
      "necessities": 7541,
      "fishes": 7542,
      "changing": 7543,
      "compliment": 7544,
      "revolted": 7545,
      "amazement": 7546,
      "sailors": 7547,
      "dwelling": 7548,
      "concerning": 7549,
      "smells": 7550,
      "chiefly": 7551,
      "condemned": 7552,
      "starts": 7553,
      "dooms": 7554,
      "examine": 7555,
      "egyptian": 7556,
      "drives": 7557,
      "picked": 7558,
      "executioner": 7559,
      "cymb": 7560,
      "inclination": 7561,
      "covert": 7562,
      "hunter": 7563,
      "irish": 7564,
      "schoolmaster": 7565,
      "unluck": 7566,
      "stafford": 7567,
      "compassion": 7568,
      "eager": 7569,
      "balls": 7570,
      "arrested": 7571,
      "rescu": 7572,
      "ratcli": 7573,
      "crafty": 7574,
      "yesternight": 7575,
      "suprem": 7576,
      "ordinary": 7577,
      "bags": 7578,
      "ashore": 7579,
      "simplicity": 7580,
      "griff": 7581,
      "descended": 7582,
      "adopt": 7583,
      "latin": 7584,
      "frailty": 7585,
      "affords": 7586,
      "buds": 7587,
      "thorns": 7588,
      "ambassadors": 7589,
      "interpret": 7590,
      "inheritance": 7591,
      "tickle": 7592,
      "warrior": 7593,
      "florence": 7594,
      "jerkin": 7595,
      "mingled": 7596,
      "copy": 7597,
      "coffers": 7598,
      "centre": 7599,
      "measures": 7600,
      "wrinkled": 7601,
      "adverse": 7602,
      "gnaw": 7603,
      "receipt": 7604,
      "braggart": 7605,
      "##ommod": 7606,
      "deformed": 7607,
      "reconci": 7608,
      "ostent": 7609,
      "antiochus": 7610,
      "plenteous": 7611,
      "tragedy": 7612,
      "display": 7613,
      "rowland": 7614,
      "muddy": 7615,
      "altar": 7616,
      "tyrannous": 7617,
      "rabble": 7618,
      "sheriff": 7619,
      "bias": 7620,
      "disobed": 7621,
      "crimson": 7622,
      "syllable": 7623,
      "ungentle": 7624,
      "covetous": 7625,
      "enforc": 7626,
      "sepulchre": 7627,
      "brabant": 7628,
      "principal": 7629,
      "folks": 7630,
      "chivalry": 7631,
      "boisterous": 7632,
      "remuneration": 7633,
      "voluntary": 7634,
      "biondello": 7635,
      "gertrude": 7636,
      "frenzy": 7637,
      "knighthood": 7638,
      "exquisite": 7639,
      "parolles": 7640,
      "ratcliff": 7641,
      "aut": 7642,
      "bows": 7643,
      "cim": 7644,
      "dy": 7645,
      "dice": 7646,
      "dick": 7647,
      "ditch": 7648,
      "dirt": 7649,
      "fen": 7650,
      "gen": 7651,
      "gad": 7652,
      "gear": 7653,
      "gash": 7654,
      "gasp": 7655,
      "hart": 7656,
      "jades": 7657,
      "larg": 7658,
      "na": 7659,
      "nan": 7660,
      "ou": 7661,
      "oman": 7662,
      "pile": 7663,
      "pip": 7664,
      "pious": 7665,
      "palt": 7666,
      "russ": 7667,
      "rooted": 7668,
      "size": 7669,
      "tired": 7670,
      "vot": 7671,
      "vau": 7672,
      "wan": 7673,
      "wester": 7674,
      "yard": 7675,
      "##oat": 7676,
      "##oster": 7677,
      "##oft": 7678,
      "##resh": 7679,
      "##rates": 7680,
      "##rrh": 7681,
      "##riend": 7682,
      "##tling": 7683,
      "##col": 7684,
      "##lph": 7685,
      "##gery": 7686,
      "##mor": 7687,
      "##met": 7688,
      "##bable": 7689,
      "##board": 7690,
      "##body": 7691,
      "##field": 7692,
      "##fold": 7693,
      "##quel": 7694,
      "thwart": 7695,
      "##eril": 7696,
      "##ater": 7697,
      "##iner": 7698,
      "##inish": 7699,
      "##esies": 7700,
      "##ensed": 7701,
      "##enna": 7702,
      "##once": 7703,
      "##onish": 7704,
      "nomin": 7705,
      "wip": 7706,
      "beet": 7707,
      "inches": 7708,
      "ingen": 7709,
      "shear": 7710,
      "shap": 7711,
      "shaking": 7712,
      "##uto": 7713,
      "##chan": 7714,
      "##irts": 7715,
      "##ghill": 7716,
      "ster": 7717,
      "stinking": 7718,
      "##adise": 7719,
      "hiss": 7720,
      "deem": 7721,
      "froward": 7722,
      "##amis": 7723,
      "herbs": 7724,
      "sunder": 7725,
      "sulph": 7726,
      "lot": 7727,
      "spies": 7728,
      "spider": 7729,
      "sphere": 7730,
      "knell": 7731,
      "trash": 7732,
      "therewith": 7733,
      "uphold": 7734,
      "broth": 7735,
      "bridge": 7736,
      "orator": 7737,
      "comedy": 7738,
      "moy": 7739,
      "##feits": 7740,
      "conject": 7741,
      "##artered": 7742,
      "unfortunate": 7743,
      "##otent": 7744,
      "canon": 7745,
      "swing": 7746,
      "swine": 7747,
      "howling": 7748,
      "blanch": 7749,
      "boil": 7750,
      "arra": 7751,
      "arrog": 7752,
      "tack": 7753,
      "tawn": 7754,
      "taper": 7755,
      "worshipp": 7756,
      "wherewith": 7757,
      "madmen": 7758,
      "plate": 7759,
      "plum": 7760,
      "poll": 7761,
      "marr": 7762,
      "##ribly": 7763,
      "aloft": 7764,
      "disper": 7765,
      "agripp": 7766,
      "##emp": 7767,
      "##tock": 7768,
      "quill": 7769,
      "cod": 7770,
      "covent": 7771,
      "bree": 7772,
      "offers": 7773,
      "warn": 7774,
      "erp": 7775,
      "erth": 7776,
      "##oult": 7777,
      "##eline": 7778,
      "contra": 7779,
      "remainder": 7780,
      "longav": 7781,
      "indent": 7782,
      "shower": 7783,
      "showing": 7784,
      "##iously": 7785,
      "truest": 7786,
      "smock": 7787,
      "staying": 7788,
      "followed": 7789,
      "devout": 7790,
      "faithfully": 7791,
      "treas": 7792,
      "treble": 7793,
      "accommod": 7794,
      "impl": 7795,
      "eyeb": 7796,
      "bedford": 7797,
      "peck": 7798,
      "submission": 7799,
      "needless": 7800,
      "paragon": 7801,
      "paradise": 7802,
      "marrying": 7803,
      "cab": 7804,
      "retain": 7805,
      "retreat": 7806,
      "meets": 7807,
      "breathes": 7808,
      "breathless": 7809,
      "crutch": 7810,
      "lawy": 7811,
      "getting": 7812,
      "misd": 7813,
      "attire": 7814,
      "goldsm": 7815,
      "laying": 7816,
      "suffers": 7817,
      "illy": 7818,
      "denial": 7819,
      "dispro": 7820,
      "barb": 7821,
      "faulcon": 7822,
      "fighting": 7823,
      "intr": 7824,
      "sending": 7825,
      "horsemen": 7826,
      "murm": 7827,
      "void": 7828,
      "##ubber": 7829,
      "drawing": 7830,
      "discern": 7831,
      "fitter": 7832,
      "lucil": 7833,
      "lucio": 7834,
      "dames": 7835,
      "trusted": 7836,
      "##itories": 7837,
      "dreamt": 7838,
      "distill": 7839,
      "capacity": 7840,
      "cleave": 7841,
      "gape": 7842,
      "stark": 7843,
      "musician": 7844,
      "musicians": 7845,
      "surv": 7846,
      "incense": 7847,
      "incensed": 7848,
      "profan": 7849,
      "requir": 7850,
      "attending": 7851,
      "watchful": 7852,
      "malady": 7853,
      "malign": 7854,
      "approved": 7855,
      "englishman": 7856,
      "damnable": 7857,
      "preposter": 7858,
      "achiev": 7859,
      "defil": 7860,
      "pageant": 7861,
      "hurl": 7862,
      "witnesses": 7863,
      "cambridge": 7864,
      "broils": 7865,
      "veil": 7866,
      "famine": 7867,
      "offenders": 7868,
      "wildly": 7869,
      "marching": 7870,
      "streams": 7871,
      "detain": 7872,
      "steals": 7873,
      "mirror": 7874,
      "chooseth": 7875,
      "calam": 7876,
      "argues": 7877,
      "mounsieur": 7878,
      "midst": 7879,
      "invest": 7880,
      "jealousies": 7881,
      "unfit": 7882,
      "refus": 7883,
      "shrink": 7884,
      "mutton": 7885,
      "rascally": 7886,
      "geld": 7887,
      "geese": 7888,
      "eglam": 7889,
      "blushes": 7890,
      "planted": 7891,
      "loathed": 7892,
      "volume": 7893,
      "wickedness": 7894,
      "wealthy": 7895,
      "prospero": 7896,
      "degenerate": 7897,
      "triumphs": 7898,
      "decree": 7899,
      "waiting": 7900,
      "prepared": 7901,
      "pricks": 7902,
      "companies": 7903,
      "pyrrh": 7904,
      "baser": 7905,
      "basest": 7906,
      "solemnity": 7907,
      "floods": 7908,
      "bewitch": 7909,
      "hymen": 7910,
      "perilous": 7911,
      "cords": 7912,
      "dunghill": 7913,
      "ghosts": 7914,
      "recovery": 7915,
      "sticks": 7916,
      "preferr": 7917,
      "preferment": 7918,
      "clamorous": 7919,
      "abhorr": 7920,
      "abhorred": 7921,
      "testament": 7922,
      "pearls": 7923,
      "sparrow": 7924,
      "scroop": 7925,
      "globe": 7926,
      "corpse": 7927,
      "simply": 7928,
      "jugg": 7929,
      "trimm": 7930,
      "chiding": 7931,
      "designs": 7932,
      "perfume": 7933,
      "distraction": 7934,
      "adversaries": 7935,
      "philosopher": 7936,
      "exhib": 7937,
      "trencher": 7938,
      "slippery": 7939,
      "indignation": 7940,
      "lingering": 7941,
      "planet": 7942,
      "territories": 7943,
      "puissant": 7944,
      "vigour": 7945,
      "frozen": 7946,
      "arras": 7947,
      "habits": 7948,
      "desolation": 7949,
      "contagious": 7950,
      "substitute": 7951,
      "whirl": 7952,
      "whelp": 7953,
      "favoured": 7954,
      "adulter": 7955,
      "beseeming": 7956,
      "entrails": 7957,
      "ruthless": 7958,
      "inhabit": 7959,
      "papers": 7960,
      "unquiet": 7961,
      "persever": 7962,
      "pupil": 7963,
      "##whelm": 7964,
      "unlawful": 7965,
      "balance": 7966,
      "traffic": 7967,
      "whereso": 7968,
      "marquess": 7969,
      "caliban": 7970,
      "doomsday": 7971,
      "cymbeline": 7972,
      "paltry": 7973,
      "tawny": 7974,
      "agrippa": 7975,
      "longaville": 7976,
      "goldsmith": 7977,
      "faulconbridge": 7978,
      "lucilius": 7979,
      "eglamour": 7980,
      "pyrrhus": 7981,
      "ast": 7982,
      "dall": 7983,
      "daint": 7984,
      "dances": 7985,
      "duteous": 7986,
      "eth": 7987,
      "eve": 7988,
      "ely": 7989,
      "fife": 7990,
      "goot": 7991,
      "ginger": 7992,
      "hoo": 7993,
      "jaws": 7994,
      "len": 7995,
      "link": 7996,
      "mity": 7997,
      "nich": 7998,
      "nig": 7999,
      "nav": 8000,
      "oper": 8001,
      "omin": 8002,
      "pan": 8003,
      "pins": 8004,
      "powder": 8005,
      "rent": 8006,
      "rite": 8007,
      "rimes": 8008,
      "tough": 8009,
      "vail": 8010,
      "viz": 8011,
      "vac": 8012,
      "vicious": 8013,
      "##oes": 8014,
      "##test": 8015,
      "##tish": 8016,
      "##eon": 8017,
      "##eas": 8018,
      "##ection": 8019,
      "##ugg": 8020,
      "##nam": 8021,
      "##lin": 8022,
      "##lant": 8023,
      "##gard": 8024,
      "##heard": 8025,
      "##bers": 8026,
      "##bian": 8027,
      "##face": 8028,
      "##journ": 8029,
      "thais": 8030,
      "##oubted": 8031,
      "##erity": 8032,
      "##erog": 8033,
      "##orter": 8034,
      "##inction": 8035,
      "##arn": 8036,
      "##arged": 8037,
      "##enster": 8038,
      "##onna": 8039,
      "##anim": 8040,
      "wight": 8041,
      "bees": 8042,
      "beck": 8043,
      "hag": 8044,
      "hay": 8045,
      "shill": 8046,
      "shipp": 8047,
      "##lend": 8048,
      "##lect": 8049,
      "memb": 8050,
      "##chas": 8051,
      "##chers": 8052,
      "##imon": 8053,
      "itch": 8054,
      "##itimate": 8055,
      "web": 8056,
      "stings": 8057,
      "##keys": 8058,
      "aspir": 8059,
      "##alo": 8060,
      "##alms": 8061,
      "soar": 8062,
      "prerog": 8063,
      "##allel": 8064,
      "lick": 8065,
      "fru": 8066,
      "whatever": 8067,
      "##amer": 8068,
      "anat": 8069,
      "revell": 8070,
      "herne": 8071,
      "##usale": 8072,
      "##racious": 8073,
      "mag": 8074,
      "mand": 8075,
      "spin": 8076,
      "sped": 8077,
      "spear": 8078,
      "knives": 8079,
      "necks": 8080,
      "chop": 8081,
      "chaff": 8082,
      "##ilities": 8083,
      "atone": 8084,
      "compel": 8085,
      "##ellus": 8086,
      "motle": 8087,
      "##earse": 8088,
      "sheath": 8089,
      "enth": 8090,
      "ensuing": 8091,
      "##antial": 8092,
      "##unct": 8093,
      "##unting": 8094,
      "swan": 8095,
      "blister": 8096,
      "blade": 8097,
      "##ula": 8098,
      "arrows": 8099,
      "tab": 8100,
      "tables": 8101,
      "##pping": 8102,
      "sequel": 8103,
      "holes": 8104,
      "madonna": 8105,
      "sale": 8106,
      "pol": 8107,
      "poly": 8108,
      "greed": 8109,
      "greasy": 8110,
      "outr": 8111,
      "disf": 8112,
      "agent": 8113,
      "probable": 8114,
      "##ola": 8115,
      "##olis": 8116,
      "##olas": 8117,
      "twin": 8118,
      "##rovers": 8119,
      "exempt": 8120,
      "theseus": 8121,
      "##pton": 8122,
      "##ptuous": 8123,
      "clout": 8124,
      "daylight": 8125,
      "ability": 8126,
      "cog": 8127,
      "cope": 8128,
      "coach": 8129,
      "northern": 8130,
      "string": 8131,
      "hearers": 8132,
      "hearken": 8133,
      "##fulness": 8134,
      "betide": 8135,
      "foam": 8136,
      "gentler": 8137,
      "wary": 8138,
      "flag": 8139,
      "flaw": 8140,
      "perple": 8141,
      "perceiv": 8142,
      "##fted": 8143,
      "earls": 8144,
      "grudge": 8145,
      "scra": 8146,
      "scri": 8147,
      "wrench": 8148,
      "##aker": 8149,
      "lab": 8150,
      "footed": 8151,
      "sweeten": 8152,
      "jolly": 8153,
      "serp": 8154,
      "images": 8155,
      "imitate": 8156,
      "predom": 8157,
      "precept": 8158,
      "emulation": 8159,
      "headstr": 8160,
      "contains": 8161,
      "controvers": 8162,
      "fooling": 8163,
      "##aved": 8164,
      "repute": 8165,
      "reputed": 8166,
      "drench": 8167,
      "bestr": 8168,
      "lively": 8169,
      "##shire": 8170,
      "confines": 8171,
      "witted": 8172,
      "dieu": 8173,
      "monsters": 8174,
      "humb": 8175,
      "##ensive": 8176,
      "treat": 8177,
      "impose": 8178,
      "courtiers": 8179,
      "passes": 8180,
      "antique": 8181,
      "caper": 8182,
      "calend": 8183,
      "lighted": 8184,
      "overcame": 8185,
      "wearied": 8186,
      "sleepy": 8187,
      "crime": 8188,
      "##ifully": 8189,
      "farm": 8190,
      "praising": 8191,
      "edict": 8192,
      "wishing": 8193,
      "advantages": 8194,
      "##cod": 8195,
      "yeoman": 8196,
      "stately": 8197,
      "barber": 8198,
      "signal": 8199,
      "freeze": 8200,
      "harder": 8201,
      "generous": 8202,
      "metellus": 8203,
      "proudly": 8204,
      "lucet": 8205,
      "infants": 8206,
      "murderers": 8207,
      "saddle": 8208,
      "sinful": 8209,
      "distract": 8210,
      "distinct": 8211,
      "distinction": 8212,
      "strait": 8213,
      "skins": 8214,
      "vienna": 8215,
      "cleon": 8216,
      "birnam": 8217,
      "provokes": 8218,
      "gaol": 8219,
      "depose": 8220,
      "surly": 8221,
      "demi": 8222,
      "demonstr": 8223,
      "actors": 8224,
      "incont": 8225,
      "incorp": 8226,
      "visited": 8227,
      "confessor": 8228,
      "opening": 8229,
      "chambers": 8230,
      "entreaties": 8231,
      "snail": 8232,
      "snuff": 8233,
      "intercept": 8234,
      "construe": 8235,
      "pretence": 8236,
      "despis": 8237,
      "lamp": 8238,
      "crop": 8239,
      "undes": 8240,
      "commended": 8241,
      "bites": 8242,
      "biting": 8243,
      "camb": 8244,
      "simon": 8245,
      "evidence": 8246,
      "relate": 8247,
      "wilder": 8248,
      "throws": 8249,
      "throwing": 8250,
      "beggarly": 8251,
      "poisonous": 8252,
      "sighing": 8253,
      "wedlock": 8254,
      "stealth": 8255,
      "formal": 8256,
      "crosses": 8257,
      "verity": 8258,
      "bondman": 8259,
      "finely": 8260,
      "tribe": 8261,
      "arguments": 8262,
      "wonted": 8263,
      "unwilling": 8264,
      "chok": 8265,
      "contrive": 8266,
      "churchyard": 8267,
      "woods": 8268,
      "roundly": 8269,
      "gird": 8270,
      "girdle": 8271,
      "refer": 8272,
      "ridd": 8273,
      "riding": 8274,
      "catching": 8275,
      "courageous": 8276,
      "expected": 8277,
      "torments": 8278,
      "towers": 8279,
      "utterance": 8280,
      "ventidius": 8281,
      "enjoin": 8282,
      "propose": 8283,
      "costly": 8284,
      "syc": 8285,
      "extremest": 8286,
      "decrees": 8287,
      "flee": 8288,
      "member": 8289,
      "medit": 8290,
      "amaze": 8291,
      "glasses": 8292,
      "particulars": 8293,
      "environ": 8294,
      "lamentation": 8295,
      "sauc": 8296,
      "tyrants": 8297,
      "rarely": 8298,
      "plotted": 8299,
      "faintly": 8300,
      "expressly": 8301,
      "different": 8302,
      "allowance": 8303,
      "displeas": 8304,
      "temperance": 8305,
      "hyper": 8306,
      "##enetta": 8307,
      "debtor": 8308,
      "heavily": 8309,
      "sprung": 8310,
      "cherry": 8311,
      "whipping": 8312,
      "rewards": 8313,
      "strangeness": 8314,
      "purchas": 8315,
      "vexation": 8316,
      "escap": 8317,
      "pilot": 8318,
      "dotage": 8319,
      "rashness": 8320,
      "discharg": 8321,
      "abuses": 8322,
      "admittance": 8323,
      "publicly": 8324,
      "martial": 8325,
      "statutes": 8326,
      "rushes": 8327,
      "winking": 8328,
      "melting": 8329,
      "trojans": 8330,
      "observation": 8331,
      "sola": 8332,
      "alexas": 8333,
      "ordinance": 8334,
      "humanity": 8335,
      "shrewdly": 8336,
      "choleric": 8337,
      "convert": 8338,
      "blasted": 8339,
      "complaints": 8340,
      "gripe": 8341,
      "pandar": 8342,
      "sinew": 8343,
      "revive": 8344,
      "accompany": 8345,
      "odious": 8346,
      "breadth": 8347,
      "subdue": 8348,
      "wheels": 8349,
      "wrestling": 8350,
      "sleeves": 8351,
      "correct": 8352,
      "beauties": 8353,
      "cozened": 8354,
      "characters": 8355,
      "frankly": 8356,
      "augment": 8357,
      "diligence": 8358,
      "jerusale": 8359,
      "overthrown": 8360,
      "centa": 8361,
      "measur": 8362,
      "spaniel": 8363,
      "perdition": 8364,
      "advert": 8365,
      "appointment": 8366,
      "conspiracy": 8367,
      "jaquenetta": 8368,
      "riotous": 8369,
      "goneril": 8370,
      "receives": 8371,
      "factious": 8372,
      "pulse": 8373,
      "reconcil": 8374,
      "gaping": 8375,
      "morsel": 8376,
      "moderate": 8377,
      "transported": 8378,
      "gorgeous": 8379,
      "wreath": 8380,
      "shriek": 8381,
      "tartar": 8382,
      "whistle": 8383,
      "eyelids": 8384,
      "merchants": 8385,
      "guildenster": 8386,
      "assembled": 8387,
      "impudent": 8388,
      "rehearse": 8389,
      "remembered": 8390,
      "influ": 8391,
      "divinity": 8392,
      "occupation": 8393,
      "stratagem": 8394,
      "dwarf": 8395,
      "abundance": 8396,
      "eloquence": 8397,
      "circumstances": 8398,
      "cedar": 8399,
      "ewes": 8400,
      "fidele": 8401,
      "gulf": 8402,
      "licence": 8403,
      "flinty": 8404,
      "compulsion": 8405,
      "attorney": 8406,
      "channel": 8407,
      "conception": 8408,
      "nightingale": 8409,
      "education": 8410,
      "crystal": 8411,
      "griffith": 8412,
      "reconcile": 8413,
      "cimber": 8414,
      "navy": 8415,
      "western": 8416,
      "disperse": 8417,
      "contracted": 8418,
      "cabin": 8419,
      "illyria": 8420,
      "calamity": 8421,
      "ethio": 8422,
      "mityl": 8423,
      "nicholas": 8424,
      "niggard": 8425,
      "ominous": 8426,
      "thaisa": 8427,
      "shillings": 8428,
      "members": 8429,
      "motley": 8430,
      "perplex": 8431,
      "headstrong": 8432,
      "controversy": 8433,
      "lucetta": 8434,
      "jerusalem": 8435,
      "guildenstern": 8436,
      "ara": 8437,
      "bau": 8438,
      "bout": 8439,
      "bated": 8440,
      "bagg": 8441,
      "bourn": 8442,
      "cer": 8443,
      "dion": 8444,
      "dane": 8445,
      "ess": 8446,
      "ecl": 8447,
      "fust": 8448,
      "fel": 8449,
      "gore": 8450,
      "hic": 8451,
      "hits": 8452,
      "hipp": 8453,
      "jet": 8454,
      "jig": 8455,
      "kick": 8456,
      "kites": 8457,
      "kitch": 8458,
      "lass": 8459,
      "mire": 8460,
      "nations": 8461,
      "oy": 8462,
      "oly": 8463,
      "oli": 8464,
      "pall": 8465,
      "pind": 8466,
      "pem": 8467,
      "pag": 8468,
      "pith": 8469,
      "rang": 8470,
      "rides": 8471,
      "til": 8472,
      "tink": 8473,
      "tang": 8474,
      "tullus": 8475,
      "vost": 8476,
      "ware": 8477,
      "wins": 8478,
      "yawn": 8479,
      "##pter": 8480,
      "##picious": 8481,
      "##onds": 8482,
      "##rite": 8483,
      "##ii": 8484,
      "##ex": 8485,
      "##equ": 8486,
      "##ugs": 8487,
      "##sues": 8488,
      "##gy": 8489,
      "##me": 8490,
      "##boy": 8491,
      "##dens": 8492,
      "##dges": 8493,
      "##fy": 8494,
      "##joy": 8495,
      "##zes": 8496,
      "##atory": 8497,
      "##ino": 8498,
      "##inies": 8499,
      "##isk": 8500,
      "##issed": 8501,
      "##arre": 8502,
      "tot": 8503,
      "injust": 8504,
      "iniquity": 8505,
      "heath": 8506,
      "hale": 8507,
      "haunts": 8508,
      "shell": 8509,
      "shru": 8510,
      "shrift": 8511,
      "##levile": 8512,
      "mechan": 8513,
      "issues": 8514,
      "##ird": 8515,
      "##ghan": 8516,
      "withered": 8517,
      "##ital": 8518,
      "##itud": 8519,
      "stony": 8520,
      "thisbe": 8521,
      "##adv": 8522,
      "##ading": 8523,
      "##adel": 8524,
      "##asph": 8525,
      "doit": 8526,
      "doves": 8527,
      "sojourn": 8528,
      "pranks": 8529,
      "##alled": 8530,
      "##iding": 8531,
      "##idity": 8532,
      "livers": 8533,
      "##omel": 8534,
      "depe": 8535,
      "deject": 8536,
      "decius": 8537,
      "##estic": 8538,
      "fron": 8539,
      "##amour": 8540,
      "anim": 8541,
      "herb": 8542,
      "herod": 8543,
      "##verse": 8544,
      "##races": 8545,
      "##ieving": 8546,
      "goats": 8547,
      "sunday": 8548,
      "map": 8549,
      "maim": 8550,
      "loses": 8551,
      "spots": 8552,
      "spright": 8553,
      "##andra": 8554,
      "chas": 8555,
      "chides": 8556,
      "fails": 8557,
      "brat": 8558,
      "brood": 8559,
      "brine": 8560,
      "briers": 8561,
      "mun": 8562,
      "orb": 8563,
      "oration": 8564,
      "moons": 8565,
      "##eart": 8566,
      "##eary": 8567,
      "sheathe": 8568,
      "heretic": 8569,
      "encl": 8570,
      "##ively": 8571,
      "unfe": 8572,
      "wasp": 8573,
      "##otted": 8574,
      "howsoever": 8575,
      "blasph": 8576,
      "lovell": 8577,
      "arrow": 8578,
      "whoe": 8579,
      "##pped": 8580,
      "severe": 8581,
      "seals": 8582,
      "madame": 8583,
      "##icing": 8584,
      "pless": 8585,
      "##ured": 8586,
      "##aste": 8587,
      "mary": 8588,
      "maria": 8589,
      "alm": 8590,
      "speaker": 8591,
      "##robe": 8592,
      "hearty": 8593,
      "##ffrey": 8594,
      "##ounded": 8595,
      "lends": 8596,
      "leont": 8597,
      "abound": 8598,
      "heave": 8599,
      "coffer": 8600,
      "colevile": 8601,
      "eyne": 8602,
      "aweary": 8603,
      "##urnish": 8604,
      "##cible": 8605,
      "##civil": 8606,
      "menas": 8607,
      "flash": 8608,
      "##ager": 8609,
      "grin": 8610,
      "grind": 8611,
      "scab": 8612,
      "scales": 8613,
      "wrote": 8614,
      "ador": 8615,
      "adorn": 8616,
      "plebe": 8617,
      "laur": 8618,
      "sweets": 8619,
      "joc": 8620,
      "serge": 8621,
      "sonnet": 8622,
      "##igne": 8623,
      "preach": 8624,
      "prelate": 8625,
      "glim": 8626,
      "presage": 8627,
      "contriv": 8628,
      "remed": 8629,
      "indu": 8630,
      "indian": 8631,
      "purity": 8632,
      "follower": 8633,
      "drugs": 8634,
      "harness": 8635,
      "dearth": 8636,
      "fortnight": 8637,
      "chariot": 8638,
      "mistaking": 8639,
      "mistaken": 8640,
      "smith": 8641,
      "quell": 8642,
      "endow": 8643,
      "litter": 8644,
      "consume": 8645,
      "queens": 8646,
      "resp": 8647,
      "residence": 8648,
      "belch": 8649,
      "obl": 8650,
      "kindle": 8651,
      "answering": 8652,
      "impression": 8653,
      "courtesies": 8654,
      "braver": 8655,
      "passages": 8656,
      "bedfellow": 8657,
      "parr": 8658,
      "trace": 8659,
      "travail": 8660,
      "asses": 8661,
      "assign": 8662,
      "hopeful": 8663,
      "justices": 8664,
      "justify": 8665,
      "carve": 8666,
      "overcome": 8667,
      "cran": 8668,
      "misled": 8669,
      "misbe": 8670,
      "farthing": 8671,
      "banners": 8672,
      "attrib": 8673,
      "edgar": 8674,
      "hitherto": 8675,
      "commanding": 8676,
      "exceeds": 8677,
      "darest": 8678,
      "intoler": 8679,
      "proved": 8680,
      "suns": 8681,
      "supplied": 8682,
      "discreet": 8683,
      "fitness": 8684,
      "doubtless": 8685,
      "buys": 8686,
      "distressed": 8687,
      "expir": 8688,
      "capon": 8689,
      "provision": 8690,
      "mines": 8691,
      "minst": 8692,
      "waits": 8693,
      "contention": 8694,
      "tenth": 8695,
      "gav": 8696,
      "starved": 8697,
      "surge": 8698,
      "surprise": 8699,
      "demean": 8700,
      "garb": 8701,
      "wooer": 8702,
      "appeared": 8703,
      "attendants": 8704,
      "watching": 8705,
      "lovest": 8706,
      "redempt": 8707,
      "suited": 8708,
      "walked": 8709,
      "basely": 8710,
      "snare": 8711,
      "extemp": 8712,
      "pettic": 8713,
      "construction": 8714,
      "plucked": 8715,
      "opposition": 8716,
      "opposed": 8717,
      "##lication": 8718,
      "messina": 8719,
      "traitorous": 8720,
      "dishes": 8721,
      "sports": 8722,
      "idiot": 8723,
      "commendation": 8724,
      "commendable": 8725,
      "relation": 8726,
      "reliev": 8727,
      "offending": 8728,
      "soldiership": 8729,
      "wildness": 8730,
      "bellario": 8731,
      "forego": 8732,
      "cheerfully": 8733,
      "salve": 8734,
      "salique": 8735,
      "christians": 8736,
      "filling": 8737,
      "worships": 8738,
      "casement": 8739,
      "spoils": 8740,
      "easier": 8741,
      "wheat": 8742,
      "verd": 8743,
      "disgrac": 8744,
      "drowning": 8745,
      "nurs": 8746,
      "effected": 8747,
      "tarqu": 8748,
      "urs": 8749,
      "urging": 8750,
      "hammer": 8751,
      "shipw": 8752,
      "breasts": 8753,
      "insulting": 8754,
      "invited": 8755,
      "forswore": 8756,
      "quietly": 8757,
      "wooden": 8758,
      "woodcock": 8759,
      "unhallow": 8760,
      "bitterly": 8761,
      "bitterness": 8762,
      "demanded": 8763,
      "usurer": 8764,
      "imports": 8765,
      "important": 8766,
      "importun": 8767,
      "corners": 8768,
      "geffrey": 8769,
      "riddle": 8770,
      "virgins": 8771,
      "credulous": 8772,
      "owen": 8773,
      "seventh": 8774,
      "equiv": 8775,
      "chastisement": 8776,
      "torches": 8777,
      "proclaims": 8778,
      "proclaimed": 8779,
      "utterly": 8780,
      "humbled": 8781,
      "philomel": 8782,
      "cato": 8783,
      "cater": 8784,
      "antonius": 8785,
      "wretchedness": 8786,
      "propos": 8787,
      "winters": 8788,
      "decreed": 8789,
      "claims": 8790,
      "fleance": 8791,
      "memor": 8792,
      "unpre": 8793,
      "##bbed": 8794,
      "briton": 8795,
      "britons": 8796,
      "uncles": 8797,
      "unborn": 8798,
      "fondly": 8799,
      "accordingly": 8800,
      "slanderous": 8801,
      "basil": 8802,
      "affects": 8803,
      "guiltiness": 8804,
      "seasons": 8805,
      "lychor": 8806,
      "incline": 8807,
      "mildly": 8808,
      "deceas": 8809,
      "conjunction": 8810,
      "iras": 8811,
      "swells": 8812,
      "earnestly": 8813,
      "disdainful": 8814,
      "cordial": 8815,
      "dunsin": 8816,
      "sprite": 8817,
      "cherub": 8818,
      "apprehended": 8819,
      "rules": 8820,
      "eagles": 8821,
      "building": 8822,
      "porp": 8823,
      "slightly": 8824,
      "pronounc": 8825,
      "martyr": 8826,
      "climate": 8827,
      "gratis": 8828,
      "gratify": 8829,
      "advancement": 8830,
      "rebellious": 8831,
      "swallowed": 8832,
      "ravenspur": 8833,
      "groaning": 8834,
      "esqu": 8835,
      "dissension": 8836,
      "nicely": 8837,
      "##flow": 8838,
      "expedient": 8839,
      "decline": 8840,
      "commonweal": 8841,
      "glean": 8842,
      "greekish": 8843,
      "juice": 8844,
      "pennyworth": 8845,
      "moulded": 8846,
      "perfections": 8847,
      "alehouse": 8848,
      "pedant": 8849,
      "pedlar": 8850,
      "rusty": 8851,
      "poetry": 8852,
      "adversary": 8853,
      "reserve": 8854,
      "transformed": 8855,
      "florentine": 8856,
      "endeavours": 8857,
      "turkish": 8858,
      "reveal": 8859,
      "wrinkles": 8860,
      "compounded": 8861,
      "spectacle": 8862,
      "miscarried": 8863,
      "frosty": 8864,
      "ornaments": 8865,
      "insolent": 8866,
      "continuance": 8867,
      "rarest": 8868,
      "tumult": 8869,
      "blaze": 8870,
      "confederates": 8871,
      "inferior": 8872,
      "conversation": 8873,
      "royally": 8874,
      "summons": 8875,
      "modern": 8876,
      "puissance": 8877,
      "dumaine": 8878,
      "enrag": 8879,
      "lackey": 8880,
      "unprov": 8881,
      "ceremonies": 8882,
      "entirely": 8883,
      "sympathy": 8884,
      "domestic": 8885,
      "europe": 8886,
      "havoc": 8887,
      "stumble": 8888,
      "drooping": 8889,
      "titania": 8890,
      "prettiest": 8891,
      "forgiveness": 8892,
      "dispraise": 8893,
      "discomfort": 8894,
      "tiber": 8895,
      "tubal": 8896,
      "industry": 8897,
      "discovered": 8898,
      "ignoble": 8899,
      "gonzalo": 8900,
      "cups": 8901,
      "release": 8902,
      "chapel": 8903,
      "sexton": 8904,
      "abode": 8905,
      "venetian": 8906,
      "ingenious": 8907,
      "therewithal": 8908,
      "coventry": 8909,
      "misdou": 8910,
      "barbary": 8911,
      "wheresoe": 8912,
      "navarre": 8913,
      "magist": 8914,
      "tabor": 8915,
      "polyd": 8916,
      "bestride": 8917,
      "calendar": 8918,
      "incorporate": 8919,
      "undeser": 8920,
      "baggage": 8921,
      "olymp": 8922,
      "pindarus": 8923,
      "pembroke": 8924,
      "vostre": 8925,
      "injustice": 8926,
      "blasphem": 8927,
      "leontes": 8928,
      "intolerable": 8929,
      "redemption": 8930,
      "lychorida": 8931,
      "dunsinane": 8932,
      "ravenspurgh": 8933,
      "bor": 8934,
      "balth": 8935,
      "boughs": 8936,
      "boult": 8937,
      "cicer": 8938,
      "dast": 8939,
      "fid": 8940,
      "fard": 8941,
      "fickle": 8942,
      "gay": 8943,
      "gem": 8944,
      "gout": 8945,
      "gany": 8946,
      "gartered": 8947,
      "hip": 8948,
      "hint": 8949,
      "hoop": 8950,
      "ic": 8951,
      "jars": 8952,
      "kite": 8953,
      "lous": 8954,
      "lart": 8955,
      "ober": 8956,
      "pages": 8957,
      "ry": 8958,
      "ree": 8959,
      "rook": 8960,
      "range": 8961,
      "rises": 8962,
      "sams": 8963,
      "tues": 8964,
      "teem": 8965,
      "vary": 8966,
      "vale": 8967,
      "##pen": 8968,
      "##pit": 8969,
      "##pers": 8970,
      "##ois": 8971,
      "##rine": 8972,
      "##rons": 8973,
      "##vius": 8974,
      "##eck": 8975,
      "##uge": 8976,
      "##cere": 8977,
      "##cles": 8978,
      "##calf": 8979,
      "##kers": 8980,
      "##gression": 8981,
      "##my": 8982,
      "##mber": 8983,
      "##mont": 8984,
      "##back": 8985,
      "##din": 8986,
      "##don": 8987,
      "##dur": 8988,
      "##dea": 8989,
      "##ditary": 8990,
      "##fle": 8991,
      "##full": 8992,
      "thund": 8993,
      "thump": 8994,
      "thaw": 8995,
      "threes": 8996,
      "##oric": 8997,
      "##lled": 8998,
      "##esome": 8999,
      "##isome": 9000,
      "toads": 9001,
      "##enu": 9002,
      "##ena": 9003,
      "##enish": 9004,
      "##anied": 9005,
      "whale": 9006,
      "##vels": 9007,
      "##rell": 9008,
      "beach": 9009,
      "##omb": 9010,
      "haz": 9011,
      "shin": 9012,
      "shock": 9013,
      "shuff": 9014,
      "##cels": 9015,
      "##utton": 9016,
      "forer": 9017,
      "forfend": 9018,
      "mead": 9019,
      "##ched": 9020,
      "##ldron": 9021,
      "isis": 9022,
      "##etition": 9023,
      "##urus": 9024,
      "##urbs": 9025,
      "##imo": 9026,
      "##ools": 9027,
      "##itaine": 9028,
      "##ittering": 9029,
      "stalk": 9030,
      "staves": 9031,
      "##keley": 9032,
      "sot": 9033,
      "pry": 9034,
      "deity": 9035,
      "dealt": 9036,
      "##ampton": 9037,
      "anch": 9038,
      "##vert": 9039,
      "##rav": 9040,
      "##rack": 9041,
      "goat": 9042,
      "goest": 9043,
      "gobb": 9044,
      "spill": 9045,
      "spices": 9046,
      "knots": 9047,
      "choo": 9048,
      "chant": 9049,
      "chick": 9050,
      "chuck": 9051,
      "chanc": 9052,
      "thereupon": 9053,
      "amp": 9054,
      "broo": 9055,
      "moth": 9056,
      "hereditary": 9057,
      "enow": 9058,
      "enroll": 9059,
      "unple": 9060,
      "unable": 9061,
      "uncl": 9062,
      "unlo": 9063,
      "unsc": 9064,
      "unrest": 9065,
      "uncivil": 9066,
      "##ershire": 9067,
      "swol": 9068,
      "sways": 9069,
      "sweeth": 9070,
      "aright": 9071,
      "using": 9072,
      "sect": 9073,
      "seigne": 9074,
      "##uman": 9075,
      "##ics": 9076,
      "##ically": 9077,
      "##asters": 9078,
      "##rious": 9079,
      "##rives": 9080,
      "##riving": 9081,
      "musty": 9082,
      "somebody": 9083,
      "progen": 9084,
      "twig": 9085,
      "##ounts": 9086,
      "grapes": 9087,
      "grapple": 9088,
      "lect": 9089,
      "lecher": 9090,
      "quince": 9091,
      "clip": 9092,
      "clime": 9093,
      "claw": 9094,
      "clog": 9095,
      "abides": 9096,
      "coy": 9097,
      "coven": 9098,
      "coals": 9099,
      "awful": 9100,
      "##urnia": 9101,
      "timeless": 9102,
      "##isting": 9103,
      "foster": 9104,
      "warp": 9105,
      "flay": 9106,
      "perus": 9107,
      "##aged": 9108,
      "gramer": 9109,
      "artific": 9110,
      "##ques": 9111,
      "scy": 9112,
      "scare": 9113,
      "scots": 9114,
      "praying": 9115,
      "erg": 9116,
      "erst": 9117,
      "erlook": 9118,
      "handed": 9119,
      "commence": 9120,
      "commotion": 9121,
      "partake": 9122,
      "partial": 9123,
      "##berate": 9124,
      "counted": 9125,
      "##igned": 9126,
      "slut": 9127,
      "slips": 9128,
      "duly": 9129,
      "glamis": 9130,
      "glittering": 9131,
      "eminence": 9132,
      "##phos": 9133,
      "##phurnia": 9134,
      "prescri": 9135,
      "contemn": 9136,
      "controll": 9137,
      "remn": 9138,
      "poorest": 9139,
      "##tshire": 9140,
      "begging": 9141,
      "showed": 9142,
      "replied": 9143,
      "repetition": 9144,
      "harfle": 9145,
      "charged": 9146,
      "##shill": 9147,
      "lieu": 9148,
      "engine": 9149,
      "smelt": 9150,
      "tongu": 9151,
      "servile": 9152,
      "servilius": 9153,
      "elves": 9154,
      "monkey": 9155,
      "cures": 9156,
      "hume": 9157,
      "##ensions": 9158,
      "pavil": 9159,
      "obdur": 9160,
      "accused": 9161,
      "imposition": 9162,
      "brake": 9163,
      "brands": 9164,
      "doubly": 9165,
      "seemeth": 9166,
      "drab": 9167,
      "bedlam": 9168,
      "suburbs": 9169,
      "needle": 9170,
[...]
