[PAD]
[UNK]
[CLS]
[SEP]
[MASK]
:
!
"
&
'
,
-
.
1
2
3
4
5
6
7
8
9
?
a
b
c
d
e
f
g
h
i
j
k
l
m
n
o
p
q
r
s
t
u
v
w
x
y
z
##i
##t
##s
##b
##o
##l
##e
##y
##h
##a
##n
##g
##r
##c
##u
##d
##f
##m
##p
##w
##k
##v
##z
##x
##j
##q
th
##ou
##er
the
##nd
##or
##at
##in
##ll
##es
and
##is
##ar
to
you
##en
##on
##th
##an
of
no
wh
wi
##ve
##re
be
##om
##ing
in
##st
my
he
##ow
ha
##se
that
sh
##ce
##le
##ut
for
##ay
me
##ch
##ld
##ere
is
##ir
##et
##ed
not
##ur
##gh
##im
##oo
it
with
##it
we
st
your
thou
##ke
this
##ad
his
as
##as
##al
do
but
so
pr
##all
##ent
have
##ght
##id
li
on
##ome
him
##ath
##ly
will
##ord
de
##est
fr
what
##ain
##ould
##am
##ess
an
##ood
##ee
re
##ore
##ck
her
##us
##ion
##ver
##ra
thy
##ie
go
su
ma
##ea
lo
all
##ge
##ter
##ther
##our
shall
by
sp
##ight
if
##and
are
kn
ne
our
ch
lord
tr
##il
##ard
##ct
thee
good
there
man
up
##ue
fa
at
now
am
br
##ich
sir
mu
or
let
##ill
com
##ell
mo
##ear
##fe
she
con
come
##ous
from
##ine
##art
here
ll
##sel
en
would
##ive
than
un
they
##ant
was
##ot
##one
more
know
##ble
##ers
well
can
##un
sw
how
bl
which
##ven
then
see
##ul
bo
them
love
ar
who
ta
when
say
##ry
their
##ame
##ate
wor
##pp
like
##ind
hath
##ence
us
##ish
se
##self
ho
##um
##row
did
##au
where
king
##ink
one
mad
upon
##ic
may
pl
##ong
##ure
sa
##ast
should
po
mar
make
##ri
gre
were
al
##ance
##ook
out
##ves
yet
must
##ather
dis
ag
had
##ort
some
pro
##are
##fore
##nds
why
too
##ol
tw
##eak
tis
##pe
##ice
##ig
tim
such
speak
##em
give
##ro
ex
these
##ity
hon
again
god
##oun
##pt
heart
gra
##ff
##ound
take
le
##to
qu
##ies
ever
think
##ick
##nder
look
cl
most
##ose
##ness
tell
##orn
day
ab
great
mine
hea
co
##ery
nor
ey
##wn
##ust
aw
##ise
father
bre
##urn
time
##other
##ist
str
##own
##ster
hear
##ady
##age
##ful
##ci
##ack
never
much
ro
##ire
bet
des
##ass
off
men
##ng
fo
gent
war
##ep
fl
##ation
frie
per
##ft
lea
##ag
ear
gr
##out
art
night
##qu
sc
fair
##ang
##ince
##thing
death
blood
wr
word
pray
##ase
##eet
call
er
gentle
ad
hand
##ide
comm
##igh
ple
##ak
la
fear
life
##io
heaven
##ull
##ile
##ither
doth
##ith
##ings
##ud
master
part
##per
foo
##ough
##ber
sweet
jo
hast
ser
away
made
any
##ip
##oul
very
##ress
son
##tle
coun
##ign
ay
cann
##el
##ree
true
honour
stand
thus
sl
cannot
##iv
own
##eed
app
##ment
##ite
other
im
##eep
lady
du
##ward
pre
##ans
been
##ss
bear
before
##ty
af
##aught
##ction
brother
gl
em
##ph
world
done
name
wom
head
leave
way
comp
might
pres
##orrow
cont
##end
could
##cc
eyes
##ach
##ap
noble
down
rem
poor
being
##ts
arm
into
long
fir
beg
##ief
old
nothing
fool
till
##ave
therefore
cour
##ace
##man
ind
##atter
though
##rown
thought
new
pur
##ied
grace
even
##sw
##les
whose
foll
comes
better
mer
keep
show
nay
##ious
##atch
both
##land
rep
two
##ouse
##ause
##ks
pea
dr
find
dead
har
myself
##ears
##ason
dear
soul
against
put
##less
peace
many
hold
fell
##kes
##ving
##tain
best
fort
char
first
tru
##ild
##aughter
##ple
##iss
live
every
duke
##come
mist
##sh
##uck
conf
lie
under
eng
those
set
##ces
still
nat
##li
##able
high
##ted
sm
thr
friends
##ower
##ew
madam
sle
##ought
que
##cy
end
wit
worth
fortun
lit
hel
stay
follow
fare
house
##ian
cons
wife
tong
##ia
##ake
little
serv
el
##ange
young
dev
die
##ors
mon
prince
bring
bes
queen
none
answ
faith
gone
hour
res
##os
##oud
bel
gi
boy
whom
cur
turn
friend
##alk
fall
##ier
##well
daughter
full
hum
rest
after
indeed
himself
gu
##ius
##ens
place
unto
pa
wel
##ield
mother
ob
##der
##iness
since
##alt
kind
rich
vir
answer
wo
bid
fal
woman
please
count
rome
beh
play
mind
sar
face
fellow
vill
present
else
##ock
tre
thine
##lt
##its
##esty
acc
##led
mistress
once
imp
words
court
tongue
bra
thing
mean
##eech
val
dou
hence
right
eye
dost
##for
##ps
##ison
pass
##ect
seem
ant
sword
dra
hus
##cl
forth
bed
about
##ling
said
##reat
back
pe
pat
##old
has
sub
need
par
tra
##sand
##ench
marry
ca
matter
ret
##lf
##red
meet
spir
crown
ere
##ret
child
nature
##ition
ass
##band
hor
kill
##we
three
wrong
dre
france
hope
##men
welcome
just
reason
##dy
husband
home
light
car
##asure
fortune
over
earth
farewell
##ouch
sure
tro
without
hang
fur
##ins
wear
##aint
lords
came
morrow
sleep
heard
##ister
power
thank
breath
cr
virt
##if
##ab
another
##ieve
use
##oke
thousand
cause
makes
##uty
law
get
##ost
##selves
mis
##xt
##ship
help
bus
##ory
break
far
pra
##ardon
gods
does
hands
letter
ban
##ience
##ken
##ows
pardon
sent
att
##ains
false
ed
##ru
forg
rather
things
sold
happ
shame
gold
truth
##pect
hither
news
enough
##cle
##fect
maid
##ail
##vy
lay
##yal
suff
wish
only
adv
within
mark
##ony
england
honest
remem
ill
last
##eel
##cious
##co
ye
state
##ceive
wilt
den
land
sil
##sed
disp
gentleman
##fort
bar
##int
##ute
maj
youth
inst
##ents
##rant
devil
op
want
bec
swear
command
##ial
##ried
cor
cous
tears
shalt
##eng
##any
born
##bt
pers
through
##esh
yourself
saw
care
exce
return
sign
##ily
stri
##gether
faul
enem
##ates
grief
fire
sea
##eal
##ash
purp
##hn
john
bur
dar
run
fight
strange
##gar
majesty
##ting
##ener
int
cousin
ph
##dd
##ester
send
##iz
oft
##ions
##ctor
deed
horse
mur
talk
joy
jud
vo
##vere
##ject
weep
##ms
while
wind
means
##anger
less
prove
lost
villain
spirit
sun
seen
##ub
near
free
kiss
ent
fly
##bour
seek
strong
##ey
prom
hard
together
yours
sick
##ues
##lo
##ons
##ides
##ner
##vour
beat
arms
draw
grow
##ary
reven
enter
left
##dom
body
half
deser
believe
tem
##ib
read
cry
itself
supp
gener
##lish
##ets
royal
sorrow
##und
##op
##air
##oney
##outh
bea
comfort
found
ra
##vers
di
sing
business
sit
quick
further
win
##oura
thoughts
foul
country
##ient
##ade
work
fie
beseech
##ween
told
says
disc
hen
##ning
met
##alth
sen
##ertain
##ork
au
fit
##ove
##ats
##ime
##ush
##ople
alas
lear
ty
proud
lies
between
lu
sister
service
same
prith
prithee
gave
late
save
desire
worthy
touch
cold
remember
sound
cond
bloody
##form
henry
york
doubt
dam
pity
bu
gro
##fend
prot
##ounds
bless
purpose
tit
##use
inf
people
murder
each
ask
air
lead
aff
cra
mus
oath
sad
ang
trust
danger
sight
##itor
soon
che
serve
cass
yes
dog
uncle
antony
te
sin
##ures
##unt
dream
meth
alone
dist
hate
##ered
stra
del
general
sk
yield
thyself
cut
certain
##ls
exp
cap
dare
charge
lose
vi
wat
##rew
times
common
drink
happy
cle
gall
ter
##oose
looks
banish
bir
prov
company
min
##up
knows
holy
days
foot
wa
##iet
prison
lives
favour
gracious
content
wise
brought
ten
##cess
som
years
##most
grave
warrant
virtue
bound
##king
known
behold
brave
ring
burn
ga
past
star
four
sat
dep
highness
patience
##retch
ba
money
prin
given
music
ac
field
sur
##be
##anc
nob
gentlemen
edward
lad
pay
ru
##let
##ury
loves
##ices
because
mort
ven
yea
##iers
##aim
dem
french
knight
report
act
div
eat
##ible
##ert
##ength
age
neither
capt
##ren
##wick
##ix
inc
##ump
poss
quest
hot
mouth
didst
writ
gar
##ift
##mer
hell
warwick
##ude
mercy
something
prof
pleas
learn
vis
##oth
##enty
deep
deli
requ
thanks
bold
est
##ated
mock
sec
black
pleasure
confess
knave
##els
women
open
ah
jew
woo
sum
appear
cast
##ipp
##by
##ont
canst
richard
##iant
##iece
##fection
attend
fault
watch
whil
lov
person
col
dro
red
##cius
either
##mb
##vent
toward
suit
quar
merry
morn
##br
##ond
hearts
ground
walk
fast
truly
servant
enemy
ange
goes
heavy
subject
base
mal
##ron
sake
##ments
beauty
tender
deliver
##ior
##gue
cham
ears
haste
wonder
justice
gain
##gn
##oward
##ceed
speech
worse
twas
appro
##oof
reg
next
##inks
took
valiant
entreat
revenge
sn
inter
almost
ext
ben
pen
pet
##oot
const
twenty
emb
english
side
##ac
##utus
##ooth
knew
moon
unt
pret
woe
straight
##ape
sovere
speed
change
leg
scar
question
##sue
##oman
desp
sovereign
lau
##uous
having
soft
##each
bos
pluck
course
praise
strike
voice
damn
##aff
town
short
##alm
hark
weak
rec
forb
brutus
excell
fe
opp
hair
note
##rah
unless
##ount
##lic
glad
soldier
fet
mess
point
counsel
traitor
water
bosom
coward
lam
##ready
##stand
hector
spoke
##ander
stands
prep
emp
duty
tal
##iest
##oc
##cester
coming
heavens
sons
methinks
cro
pom
##sc
##ities
themselves
already
ap
ach
wretch
##ne
def
ready
sirrah
plain
flesh
bad
##ixt
withal
married
scorn
##gg
liege
suffer
deny
judg
lest
page
wast
##anch
become
stir
##umber
##riage
harm
presently
und
##iff
##ring
##ally
chee
grant
##oy
##ones
##owers
##ours
close
##dden
laugh
action
bat
hur
wis
##ec
dish
teach
wall
##eness
wid
##aud
wherefore
labour
##ully
creat
sport
trou
strength
wars
glou
respect
lack
##iar
priv
##agg
add
witness
buck
dire
##ague
needs
##ourable
book
id
##uff
heir
amb
##umb
##ument
commend
city
five
##race
##feit
flatter
captain
##ised
##ank
##east
chr
proceed
##olk
signior
fetch
bit
feast
ri
white
got
loss
##ils
##une
begin
pale
gloucester
cam
low
pain
sim
vile
lips
bro
sworn
dark
chamber
ve
##av
##sters
lordship
##ott
##ung
##rice
rob
hours
morning
din
ev
jest
main
thir
##als
rel
##vern
sudden
wherein
resol
fam
offend
wouldst
kingdom
soldiers
quarre
excellent
##eth
##ys
##ern
wild
bell
beast
##ceiv
##cience
office
guil
romeo
hide
mil
throw
self
fat
pit
##ays
anon
reb
##unk
march
offer
adm
slave
letters
fore
##oop
stre
move
honourable
abs
beggar
understand
cheer
somet
sal
##ires
above
##ize
christ
##vel
receive
mot
whole
poison
marriage
conscience
det
fill
fash
##asc
chur
among
##empt
dread
cassio
pretty
feed
sigh
##ses
##arge
worship
##ries
slain
spirits
sense
ke
##of
##essed
speaks
double
children
lim
wed
##ser
##bs
##vol
##imes
##ask
host
twere
case
lust
rage
##ham
##hood
health
door
kings
guard
treason
acqu
fing
hund
##ines
##isf
##cept
##ution
steal
mod
safe
##roke
fortunes
hundred
ef
feel
form
##ool
spo
ourselves
harry
gives
passion
often
card
ut
lion
liber
##ants
along
ble
eas
saint
##od
##az
##pr
brief
affection
seems
fashion
ele
mir
wound
##ford
whe
beard
force
living
tale
offence
##ations
write
longer
##cover
mortal
judgment
bow
occ
sor
##ler
##ny
masters
loving
knock
choose
##antage
##ages
ladies
cross
##str
issue
chance
trump
join
mighty
souls
enemies
quickly
satisf
piece
ver
##ale
disg
exec
gift
##claim
forget
promise
princes
battle
drown
nur
##af
##aw
##ites
##ited
bond
claud
small
besides
valour
trouble
effect
died
hu
kate
match
##hile
##ancy
##ural
seco
breed
perform
consent
dangerous
wisdom
##ying
##inal
fresh
order
exc
##force
patient
deeds
cal
cup
fine
ign
tar
ur
inn
stud
##ider
trib
arg
presence
possess
won
##ead
##anio
ham
shar
enc
unw
blow
##aster
bears
emper
heads
moun
##gr
##mn
shad
ship
##ames
succ
##ourn
unk
troth
claudio
second
vow
went
##bly
##oss
##ety
##eem
##ility
##uel
hadst
timon
breast
parts
birth
emperor
jul
mid
ins
##set
cho
conqu
north
fools
foolish
behind
virtuous
whilst
bab
fee
year
##fully
##esy
inv
brain
saf
clar
adie
##pher
title
dull
six
##ners
##ught
shake
forsw
pride
govern
neigh
cloud
curse
humour
opin
dest
reign
##cked
##ular
green
counter
pract
##ealous
entertain
approach
quarrel
adieu
bast
port
##bury
##aves
##iev
going
##ilus
worst
seal
post
lend
quiet
perceive
contr
buy
church
horn
jack
pi
wood
##irm
stop
qual
awhile
##rupt
sus
wert
##bot
measure
##asion
sole
herself
shallow
wash
least
prayers
shows
obey
##ledge
angry
depart
hurt
dinner
cardinal
round
sch
thither
mel
stood
unh
helen
gainst
bitter
kept
clarence
cre
jealous
##ends
##ding
##wd
##ker
unf
##osition
carry
ath
roman
sever
plague
proper
imm
dispatch
pompe
av
gir
list
pains
vain
##ium
##uit
whither
##rem
ref
tast
earl
##ify
faults
judge
##ourage
scarce
sorry
pal
##ual
##ores
##ises
##rey
shr
##lex
proof
##cted
brook
blind
taken
sac
jove
drum
troilus
demand
colour
talbot
mut
ren
rasc
##ray
##zen
noise
##ingly
##cks
ours
try
concl
alive
offic
laid
fearful
dishon
bastard
pompey
gates
sort
##ges
thro
##ark
fors
trans
usur
ros
others
import
##airs
fled
vie
##so
##een
##jur
##edy
stor
##ided
trick
conce
hearing
calls
purse
drunk
##like
golden
hamlet
corn
ge
rid
##ife
##oly
##ror
shape
pros
honesty
contin
smil
virg
troy
auth
condition
viol
success
opinion
cir
cred
eg
ow
rough
##app
##cent
##ances
##chief
broke
##ots
seven
##ume
glory
monster
obser
cruel
forgot
nurse
ignor
sharp
catch
mere
tear
wench
##ek
friar
blame
blush
struck
boys
silence
instant
temp
innoc
neighbour
courage
##vey
manner
whence
hop
plant
dism
expect
clock
bestow
deserve
gross
clear
embrace
equ
pin
yo
##ram
thrice
held
liv
frown
##ease
chast
amen
##illes
##unning
holl
##ffer
greater
##perate
month
request
secret
forbid
odd
pub
tor
##right
##day
##ona
anci
moor
thence
takes
paris
suffolk
visit
whether
view
powers
##ians
##oin
##under
tow
##ingham
step
##entine
defend
lod
swift
proclaim
quite
rogue
smile
obed
drawn
delight
bird
utter
ancient
da
loud
rise
vouch
top
##omp
deal
loath
shepher
awake
commit
princely
humble
persu
phil
lucius
shepherd
tent
vol
wine
wicked
wealth
##usion
necess
goodly
blessed
whereof
marcius
greatness
##elve
honours
folly
endure
borne
protect
achilles
taste
cat
cunning
due
fish
vent
wounds
##iam
##den
ford
trium
##ical
desires
##phin
consider
paper
anton
becom
intend
wretched
motion
rosal
prosper
pun
rain
winds
##staff
hail
forward
meant
chang
enj
knowledge
##ult
alth
alack
prop
proph
compl
##ission
fellows
aught
cassius
prisoner
angelo
buckingham
third
author
dau
pot
west
##broke
threat
hap
##itors
deg
uns
margar
cost
##ustom
##bert
ways
holds
falstaff
drop
shadow
margaret
dur
sy
##via
##ze
##orous
wits
sto
stain
doing
priest
making
kneel
fail
roar
partic
forgive
grows
winter
extrem
bene
until
creature
private
bleed
yonder
triumph
bones
eld
fig
owe
##cus
##ane
shrew
yourselves
dec
revol
hero
##ieves
bod
greet
grand
claim
wrath
repent
tongues
weary
terms
wait
prepar
christian
excuse
choice
safety
melanch
although
fle
fain
large
rude
sear
tur
wal
##ives
##ever
##her
##ax
##ged
##cil
##vish
##stance
mem
mend
weigh
blows
twice
precious
army
charm
##loy
damned
messeng
employ
virgin
melancholy
hung
song
##vell
med
##chance
stock
stuff
neg
neck
amaz
bright
unp
##icious
twixt
##emn
##ounter
anything
imag
brothers
remain
summer
towards
malice
cheek
simple
finger
occasion
encounter
cried
few
##bb
##og
##ald
##mble
bend
heels
doctor
herm
knee
cliff
##ago
glass
keeps
stars
legs
cheeks
widow
dauphin
van
wak
##ndon
##utation
meat
anne
manners
brit
unb
unc
foes
called
##ierce
courtesy
wrongs
advantage
whiles
direct
trumpet
circ
tower
bare
fought
pure
##min
##ina
##ley
steel
prick
##ident
spring
brow
##icles
shouldst
fond
earn
fears
compan
maiden
remembr
phys
prote
somer
guilty
liberty
particular
dry
fame
py
rose
rans
##iance
##hip
nose
heat
mac
spend
chall
env
sav
sail
accord
assur
##ruction
corrupt
anger
minister
bened
lament
several
antonio
somerset
aud
dwell
kins
sau
##dain
##with
##ways
##orge
##read
##omach
london
boling
madness
quoth
slander
monstr
wanton
tyrant
protest
##otten
punish
physic
monstrous
big
hors
lanc
rare
sens
##leness
##night
thunder
##oral
##edom
weap
stone
story
##ards
conc
twill
cloth
slaughter
undert
swords
silver
instr
affairs
profess
forbear
sometime
enjoy
bolingbroke
custom
food
pu
##que
##enance
shut
shore
rever
receiv
chain
prod
perfect
##aps
witch
mont
assure
fury
tyr
prepare
##agger
idle
mountain
counterfeit
renown
becomes
search
clifford
cuck
dies
led
##ov
##eous
##cul
##vail
thief
##orth
##reh
hal
stomach
##eeth
##ourse
mov
plot
desperate
smell
throne
paid
fiend
oaths
easy
study
conquer
lancaster
bas
bass
fre
faint
tut
var
vows
##more
##orious
##ences
##ved
heed
former
##eds
weight
##athers
##ainted
chief
##unes
tail
always
leis
abro
leaves
##angu
duc
empt
meaning
reasons
condemn
express
venge
subjects
circum
ransom
aid
dance
dust
hit
squ
##ypt
##ense
##iment
start
doom
##allow
ones
fruit
##ract
lover
spent
convey
twelve
exam
betray
foe
##udge
thrust
valentine
crowns
breathe
miser
##verend
gallant
dishonour
egypt
remembrance
horses
ease
nine
niece
rank
tree
##sp
##bles
##wise
##ising
wives
sheep
##itude
spare
trial
##rows
##aked
humbly
kindness
griefs
weeping
differ
sooner
##ronic
evil
spoken
argument
solemn
leisure
aj
able
bard
cries
grown
hid
iago
line
number
wra
wol
##afe
##rest
##fer
bef
##urs
stol
allow
comb
mayst
disple
affect
natural
##ified
lawful
happiness
temper
supper
discourse
vict
princess
broken
dreadful
rascal
abroad
ajax
cure
dri
dign
gown
pick
tune
##yond
##gs
##wh
beyond
##erem
aside
##idge
fright
##ams
##ament
reverend
lovers
spite
sack
grey
##oler
##olph
flood
plead
dearest
charity
follows
countenance
tyb
sometimes
execution
forsworn
usurp
storm
##centio
bardolph
aim
borrow
gate
sooth
##go
stones
##ieur
##ourish
envy
discover
thinks
warm
percy
griev
slow
##aughters
condu
possible
walls
guilt
rosalind
cy
fancy
gh
hat
wing
##iful
##dle
thick
bew
shed
##ches
goodness
enforce
saying
season
imper
preser
remedy
firm
bids
seeming
traitors
silvia
except
purpos
freely
despair
undone
maintain
deter
mirth
clouds
##ointed
protector
tybalt
civ
dig
hy
hill
ly
langu
sore
teeth
##su
##bit
##pl
incl
forest
doors
deb
loyal
bride
quit
cover
flight
flowers
gentlew
confirm
guest
denied
buried
tempt
ruin
jewel
##umberland
acquaint
hopes
vouchs
messenger
proteus
benedick
bott
der
feet
mild
vice
##iol
##ging
##ua
##mit
##zard
##ars
##enet
##alf
dece
##very
##raid
##ters
therein
conj
swe
hol
leon
lean
heavenly
contempt
thrive
intent
single
capit
learned
constant
oppos
hollow
authority
daughters
giv
hun
ir
pound
pack
ride
tid
wings
##ees
##ca
##ann
whore
infect
##leep
press
render
swell
arch
peril
womb
begins
charles
falls
wond
tread
banqu
voices
sickness
titus
crack
unkind
quality
school
athens
earnest
bought
cit
cress
east
fil
furn
honey
nap
nought
naked
ted
##sieur
##lit
##wixt
thom
##ination
asleep
debt
knees
disdain
heav
betwixt
flies
flower
smooth
guess
lands
skill
rule
regard
wide
cupid
girl
credit
tempest
innocent
equal
durst
benef
ducats
vengeance
bottom
tedious
thomas
bull
boot
cord
dun
dian
rom
salt
wag
##ten
##cing
##iter
##ades
realm
spr
cher
unl
swore
sayst
seat
marcus
##riv
##rible
ali
prevent
##phrey
armour
confer
humphrey
minds
treach
accus
hanged
profit
drops
despite
streets
juliet
northumberland
throat
empty
tidings
cressid
apt
ber
bade
fi
ox
##ating
##iny
whipp
##cend
dew
reward
hers
##ands
##rius
outward
bred
strang
room
early
scot
##elt
appears
prevail
purch
villany
caius
mischief
angel
vex
suddenly
absence
obedience
ghost
ep
esc
fift
hie
loose
names
pie
pil
ran
rail
sits
wake
##oll
##aces
##ision
##ene
##anus
##cel
##ases
dot
##idius
##tern
brings
greatest
cock
##istol
commission
##ips
appreh
deadly
virtues
disposition
bark
coriol
divine
estate
empress
admir
##after
pict
suspect
officer
memory
pyram
conduct
vouchsafe
romans
cease
ends
miss
rul
rash
##con
##vin
andronic
##enge
whores
stab
staff
pron
##amp
recover
suck
lock
spe
knife
##ilt
faces
hereafter
##ishop
gree
disch
##igence
##ement
abh
flow
perchance
hastings
compass
begu
villains
exceed
burden
deserv
methought
banished
bawd
ambition
sighs
tarry
avo
challenge
civil
gentlewoman
eag
fix
tort
va
wont
wander
##aid
##nat
##kin
##isbury
tomb
##ced
##cher
##chant
##etrius
ital
##itious
stick
deceive
spake
seas
clo
##akes
parted
##ctions
devise
turns
imposs
sleeping
edm
beaten
build
blessing
burning
demetrius
salisbury
modesty
satisfied
disgrace
unkn
contrary
forsooth
violent
ignorant
kinsman
fiery
ape
fin
fun
length
nest
por
pour
sour
##bl
##oard
##hold
##folk
##jury
##inius
sho
shot
##uten
prize
reck
train
##ello
table
worm
sees
pos
##pend
##ption
abus
norfolk
stranger
grieve
slight
merit
repair
reputation
lieuten
object
behalf
hencefor
attempt
burg
dares
suppose
affli
crave
waste
admit
limbs
modest
gifts
unworth
horns
unhapp
public
degree
undertake
victory
leonat
pronoun
bill
bian
dying
gard
kath
mart
mass
numb
##iate
##bar
##bed
##act
whis
inform
##imer
herald
trif
##iliar
seeing
##ulous
seest
##icate
abuse
##ired
perforce
fairly
party
prefer
glorious
complex
merc
confound
treasure
dogs
venice
garments
shortly
painted
familiar
offended
sacred
george
reverence
andronicus
edmund
lieutenant
bianca
kathar
bind
boun
cerem
dst
eight
fate
fits
iron
oct
pistol
##haps
##na
##dra
##dem
thieves
invent
##oots
stat
stoop
fac
brows
brains
##ellow
lovely
taught
mars
thinking
clim
perhaps
grat
##elia
ladyship
##apes
friendship
device
account
assist
colours
ripe
according
pyramus
speci
octav
ball
cens
dumb
rh
tide
##dge
##pir
##ators
hazard
forfeit
##asy
##idence
liest
frame
super
chide
##ote
knowing
blunt
polic
graces
remove
pair
maids
##ails
advance
advice
market
raise
wax
##beth
servants
relig
fatal
rebell
haply
negle
calm
fathers
key
mourn
rag
rush
sell
sink
sides
ves
##sing
##head
##rain
##used
##oured
##inite
##ency
belike
shine
wither
ste
knaves
trade
##illo
ung
sway
swallow
loved
tells
dearly
puts
slender
followers
sentence
beatrice
raven
groan
dreams
mortimer
camillo
belly
practice
smiles
plantag
chaste
odds
bodies
hermia
macbeth
montague
displeasure
citiz
furnish
unknown
policy
ful
hind
mount
pill
root
tam
tend
wink
##oon
##com
##cri
##pent
##ining
##anct
##rees
##uted
melt
##ado
##aded
##ested
spur
sirs
blown
pock
speaking
rock
desdem
image
bearing
native
monsieur
troj
intell
infinite
sky
minute
accept
esteem
castle
##prise
observ
revolt
companion
cuckold
wrack
sweat
giving
##vinia
##natural
vessel
desdemona
es
etern
fant
mong
naught
pis
rt
##acle
##rous
##mp
##thur
##omed
##utes
william
deceiv
##iel
arrest
arthur
sends
##uments
alter
diss
##olute
clam
fairy
fairest
lavinia
council
afraid
finds
consul
resc
woes
impr
wears
misery
edge
advise
hardly
sorrows
##undy
delay
snow
creatures
disgu
tribunes
conceit
figure
prodig
alike
picture
abhor
impossible
henceforth
burgundy
bounty
plantagenet
bent
bite
crow
dim
dagger
fierce
ire
nice
rat
test
##ton
##born
##fl
##ator
whip
ingr
inher
isle
weeds
stroke
##ads
willing
repe
unnatural
worn
exch
desir
fox
wrought
joint
appar
prey
drive
mistake
below
impat
##sander
surely
##uteous
devils
wants
bury
countrymen
lucentio
favours
darkness
pitch
babe
susp
unfold
months
necessity
bassanio
purposes
lysander
whoreson
avoid
unhappy
don
kent
pear
pause
rum
south
sanct
tall
tame
vantage
yond
##ict
##mon
##jo
##ths
injur
stretch
sol
deer
spar
unse
arise
taking
marks
##arel
heartily
strain
fold
perish
leap
scr
prayer
##iled
glo
cursed
##ension
tremble
peers
meeting
cares
hanging
bush
commanded
window
promis
desert
diomed
craft
hateful
exped
knights
##ertes
secre
undo
ambitious
##asket
acquainted
midnight
britain
instrument
pieces
whisper
complexion
alex
rotten
scept
yester
##eg
##eld
##mond
##inct
##enz
ink
hall
##sequ
shift
island
##oops
withdra
##itable
reach
##iege
knit
##seless
boast
places
##rift
proc
cler
scape
handker
slew
substance
retire
hangs
runs
senate
banishment
mouths
secure
lamb
defence
privile
robb
##volio
fingers
destro
entertainment
creep
ignorance
pinch
elder
difference
language
capitol
reckon
numbers
katharine
citizens
felt
ja
mow
mill
##ope
##gues
##ric
##cest
##oment
##omio
##inger
habit
weather
decl
sup
##eap
neph
ord
hereford
exper
hearted
quench
coz
##cian
slaves
appet
otherwise
remains
repro
dromio
belong
turned
friendly
human
richmond
peas
barren
instru
stronger
promised
deserves
commonwe
gaunt
nobly
nobles
angels
peter
record
pomp
shrewd
weapons
befall
benefit
purchase
unworthy
special
nephew
bon
bag
fed
gle
journ
lent
luck
moment
rap
yoke
##ody
##action
##acy
##gl
##res
##ws
##zz
##just
##arch
toby
##anny
##omin
##semb
##chio
##eter
##ediate
ash
lip
franc
rejo
sple
knot
choler
thereof
amiss
conver
##ously
blast
greek
twain
looking
coll
breach
laun
serves
apparel
slept
stays
faithful
curr
pawn
kindly
behav
accuse
travel
laws
##ruchio
corp
discret
nobility
petruchio
constable
##scri
simp
resolv
milk
affections
huge
sacri
torment
complain
envious
senses
dignity
garden
withdraw
francis
band
cand
gri
ju
kin
mood
ner
oth
pad
sought
sins
tied
##lest
##ym
##uc
##orse
##atra
##arg
inqu
shun
##ldom
##itch
store
dozen
soci
willingly
hercul
trim
mult
poin
marvel
also
##ortion
abide
aboard
descend
pericles
nights
scene
fairer
ado
standing
began
harsh
monument
villan
killed
wishes
advent
##opatra
discont
cleopatra
bravely
bapt
incre
pleasant
pleasures
penny
feeling
immediate
concern
renowned
tailor
circumstance
wolf
wondrous
pocket
othello
hercules
bot
cool
dow
et
goose
hunt
je
jup
mould
non
pand
paint
rous
sine
zeal
##iour
##ta
##tles
##son
##lock
##uce
##fidius
##med
height
stern
priam
rev
chid
chase
tranio
wholes
tap
tooth
##ros
godd
looked
rod
robert
flat
flourish
score
laertes
partly
##ression
appointed
glove
younger
belov
accomp
courtier
drew
##vered
aufidius
murderer
skin
books
resolve
beasts
absolute
lusty
wounded
trumpets
hubert
jealousy
committed
wales
savage
clothes
tyranny
miserable
acquaintance
italy
censure
destroy
journey
sacrif
jupiter
bay
cou
couch
gid
gather
lat
nym
od
oak
task
ward
##oint
##liv
##rid
##pet
thrown
toil
whit
stan
stub
asham
lift
depend
frail
spurn
branch
conven
##ouses
unm
##otion
##bled
##amemn
hole
agamemn
##roll
bread
league
##outs
##aking
##tled
appl
armed
pursue
merri
confusion
higher
services
monarch
humours
passage
subd
travell
falsehood
silent
weeps
reveng
enterprise
temple
afford
prisoners
redeem
petition
message
wedding
calf
tricks
saucy
fifty
coriolanus
imprison
suspic
appetite
discretion
wholesome
goddess
agamemnon
bud
bount
cell
hort
mile
nation
pate
pace
rub
sic
sounds
##ok
##hem
##now
##wis
##kedom
thorn
##erous
##ora
##ative
##atio
tom
wheel
shown
##irt
stro
mak
spit
shoulders
##igo
lewis
coat
strive
design
##assad
perfection
wrest
err
serpent
dukedom
remorse
slee
beside
welsh
trees
passing
subtle
earthly
corre
beaut
lately
groans
provided
wisely
gait
written
malvolio
famous
rebels
stream
liberal
satisfaction
urge
julia
forswear
palace
continue
observe
westmore
freedom
conference
discharge
torture
rebellion
trojan
eternal
handkerchief
suspicion
hortens
westmoreland
bore
caught
dress
nim
nun
pee
vul
##bow
##hrew
##can
##cise
##llen
##arm
##arus
##aries
inh
inward
##semble
wept
stamp
deaf
suc
spot
spread
##ilia
conceive
arriv
seize
alb
graves
cozen
##ista
offices
gently
scur
scru
fairies
error
lap
couldst
charac
beshrew
kindred
needful
horatio
sleeps
misc
strife
burst
joyful
supply
senators
check
term
##iety
redress
woeful
towns
hairs
pitiful
foreign
amongst
hostess
troubled
possession
refuse
dismiss
birds
persuade
grandam
audience
example
combat
cloak
climb
ireland
exchange
sceptre
instruct
spleen
baptista
stubborn
hortensio
peevish
ale
afe
dame
hatch
lin
lower
mat
moral
ora
ped
palm
rouse
rime
sings
siege
wail
##teen
##rate
##ded
##way
##vest
##inate
##lly
##ening
##thum
##sell
forty
isab
notice
##urb
##asp
butcher
price
liqu
ancest
suits
alleg
chair
une
shoulder
grew
disease
grands
strump
perf
county
merchant
ended
helm
curst
curses
obsc
beheld
braw
dougl
drag
peer
advis
barbar
coron
signs
joys
ravish
leads
distra
delicate
waters
clean
provide
beholding
venom
visage
jewels
quarter
recomp
addition
ambassad
absent
easily
breeding
urg
destruction
officers
smiling
obedient
vols
directly
conjure
filth
naples
cherish
posthum
leonato
privilege
giddy
succeed
afeard
douglas
posthumus
fif
ger
gild
laughter
nails
patch
pierce
rate
rust
##vil
##enc
##reed
bee
shook
forc
week
sting
steed
strew
thisby
aspect
soil
liking
split
troops
theirs
semb
seldom
poet
##ria
ago
##emper
##osed
roder
scour
advers
parting
serious
slay
newly
following
reser
falling
tremb
value
fares
suffic
dispos
commands
corse
growing
beauteous
learning
terror
terrible
fields
ruff
estim
interp
interest
petty
cowards
apoll
granted
thirty
resolution
spoil
##aws
ships
conquest
immort
conclusion
transform
daily
proportion
stopp
extremity
bleeding
medic
assurance
weapon
beware
determin
pronounce
inherit
stanley
strumpet
sembl
roderigo
dut
event
hom
hated
nar
nam
ope
tick
wot
##sin
##lam
##ug
##upt
##mine
##atic
##ario
token
nod
beth
##leans
##chester
steep
liver
frank
goths
load
space
troop
manhood
orleans
unre
bohem
theme
dise
lep
telling
hears
warri
flor
flout
adam
commons
counsell
##ival
contract
repr
curs
paul
##clam
caus
justly
lights
crest
breaks
breaking
happily
youthful
murd
lesser
crying
working
mettle
aug
divor
##bray
feat
defy
milan
government
schol
drums
conclude
##soever
venture
preparation
fleet
preserve
oxford
scotland
rescue
apparent
mowbray
commonwealth
padua
points
grandsire
fifth
immortal
cates
cade
dil
eros
jer
lor
lying
ming
oce
pull
rack
rib
ug
vous
yellow
##noon
##gic
##rust
##par
##wife
threw
injury
share
shield
shines
shapes
medd
item
hist
dol
wills
##rase
##eavour
herein
unjust
swears
##ulate
likely
kingly
aloud
aged
twould
cop
coff
perpet
##ended
beget
begun
charg
endeavour
##oso
afternoon
##clus
killing
husbands
carried
overth
bank
phrase
kisses
rais
winchester
sisters
deliv
drinking
##bridge
feather
proceeding
camp
veins
satisfy
feeble
philoso
prophet
potent
eldest
turk
virginity
imagination
instruments
deceit
banquo
##celot
greeks
exceeding
eagle
ceremony
religious
neglect
scratch
rapier
launcelot
behaviour
villanous
discontent
increase
scurvy
oracle
recompense
apollo
ax
aar
aunt
boots
cent
casc
fret
gam
houses
lt
push
##tered
##uish
##kind
thin
##inent
##inous
##ese
##ano
shoot
##uts
meas
sty
solic
likes
front
##aine
rend
reve
reco
sue
span
neas
ourself
##arded
manif
orland
whereon
##asting
pole
disci
##roclus
exeter
lev
perjur
grass
scatter
fearing
begg
begot
pursu
keeping
reply
repose
throng
consum
elbow
curts
turning
bidding
plays
access
accident
doub
beds
patroclus
matters
thankful
praises
barn
barg
signify
strangely
strongly
draws
senseless
touching
infirm
distress
certainly
burns
saturn
##lete
divide
wooing
apart
apace
actions
##agged
rivers
rebu
beggars
safely
effects
##grim
shadows
athen
throats
conceal
conditions
merely
steps
windsor
meantime
##spur
grievous
diana
pilgrim
dote
tamora
intelligence
pisanio
rejoice
couple
allegiance
bohemia
delivered
aaron
casca
orlando
bere
basket
cudge
dat
dine
egg
fer
kee
lines
pest
sed
tun
tig
wore
##sion
##bishop
##ais
##ger
##zing
thers
##eral
wipe
##stain
##cell
stale
dove
##idus
willow
whate
rear
##geon
spy
thereby
bru
brown
thane
blue
seeks
tax
sayest
marvell
marina
alto
prolo
exh
exile
everl
clot
clapp
cox
coin
##owne
roses
perd
grum
wrink
adver
sweetly
appoint
duch
compound
harbour
sets
natures
conspir
resign
guide
rightly
subst
breathing
busy
instance
voy
kissing
prompt
royalty
metal
tyre
distemper
victor
contented
gaze
starve
fourteen
deputy
surfeit
pays
garland
requite
approve
weakness
fever
bosoms
closet
heirs
evils
kingdoms
received
##prus
eleven
hugh
tribute
portia
qualities
helena
conclud
owes
instantly
davy
roaring
charmian
hungry
##ogen
physician
varlet
cyprus
imperial
determine
loyalty
opposite
archbishop
treacherous
berowne
whipped
invention
##cription
expedition
secrets
yesterday
jaqu
society
nimble
isabel
medicine
##clamation
ocean
keeper
thersites
altogether
ack
bishop
cave
jes
net
pite
peep
ragged
yon
##some
##bon
##bus
##ris
##ping
thur
thread
##orough
##inary
##enes
beams
hey
sham
shade
forms
##ita
deck
goss
sugg
spect
trench
manage
upright
attain
amends
##illy
##unken
swain
block
box
likewise
madman
plac
grecian
outra
somewh
exer
level
betimes
##quish
scope
commod
slipp
imogen
compar
indign
purs
drunken
##shine
afterward
subscri
parley
careful
talking
entr
yielded
provost
depos
acts
eaten
dropp
wonderful
softly
feign
sufferance
direction
riot
forehead
street
doublet
miracle
forsake
owl
expectation
lodge
lodging
prosperous
decay
greeting
hunger
banquet
treachery
beguile
trifle
steward
##enzo
clerk
current
dowry
convenient
miscar
lepidus
lorenzo
ugly
axe
discipl
coxcom
thurio
batter
ce
cook
cel
gn
gon
game
jun
lark
mask
nourish
pier
rot
sands
##hol
##avery
##mant
##mio
##mark
##port
##esp
##isible
wil
inch
##eder
noted
notwith
##uring
stout
stead
##adle
##asing
liken
lions
livery
defe
frost
##eek
rece
herd
##rand
spark
##anders
nept
chin
trip
goods
mant
fact
amity
orn
moves
consequ
enr
enf
enm
knowest
##unch
bloss
##ateful
seiz
hose
##icle
mayor
pox
gremio
outl
agree
##igent
strat
offences
flock
deaths
##aken
sweetest
##ivity
##phy
mightst
contain
contents
everything
setting
household
youngest
hourly
resist
fallen
mothers
courteous
brace
bragg
assa
horrible
carries
praised
suffice
denmark
dispose
instruction
became
strict
burial
promises
suppos
comforts
diet
discord
soundly
doubtful
titles
infant
craves
sadness
disturb
explo
gallows
lads
writing
snatch
penit
##acles
sovereignty
recre
##standing
achieve
troubles
keen
drowned
insol
babes
invisible
mutiny
continu
neighbours
threaten
stocks
imagine
ministers
miseries
wager
apemant
octavia
rhe
superfl
mongst
prodigal
pearl
reproach
peasant
adventure
bottle
sinews
merrily
strokes
vulgar
scruple
narrow
diseases
grumio
voyage
acknow
notwithstanding
neptune
blossom
apemantus
bul
bach
cin
dor
danc
hare
jess
les
linger
ned
nupt
omit
pul
rar
roof
sith
tum
tush
##ique
##bation
##ez
##nes
##nicious
##gen
##father
##master
##enius
offe
##omm
##sey
shores
##lets
##utch
##chor
notes
its
##key
sov
##athe
deform
##verty
##andal
chat
trunk
fawn
amorous
brid
canker
##unts
blot
blaz
worms
##umer
whereto
polit
poverty
muster
process
##peci
evermore
coast
pernicious
leaving
slip
slumber
afoot
indiff
dearer
holding
charms
confeder
lief
##lier
fortunate
##ianus
curtain
riches
players
rights
hush
forthwith
parent
swearing
diam
touches
groom
infer
affright
straw
##upon
surpr
nobody
garter
require
champ
recon
tales
scorns
flattery
election
elements
bowels
verona
execute
breeds
create
wenches
torch
steph
walks
vanquish
waking
sensible
cuckoo
digest
deceived
octavius
especi
fantast
ingrat
impatient
rumour
inquire
sacrifice
sleeve
divorce
scholar
catesby
history
bargain
athenian
prologue
duchess
piteous
likeness
bachel
nuptial
politic
indiffer
bone
ces
dain
fem
gap
hue
il
jot
lun
mor
mas
mich
ost
ought
path
rites
vers
vast
vass
##ivers
##tance
##ties
##ogue
##light
##lied
##aus
##net
##ney
##cock
##pes
thrift
##ndower
##thorn
hedge
haw
forces
##chery
##ursed
##imony
stage
##asions
##ales
butter
fram
##raft
sugar
suitor
male
chos
trow
faction
amend
##illing
moving
conv
convers
conjur
unman
moreo
swagger
blest
##ulation
boar
works
seed
##umes
##ica
plan
marsh
##rib
proclamation
clos
abb
roy
rogues
flame
flint
grim
grain
grieves
joan
hasty
compare
presume
contend
confident
##lius
##liament
devour
restor
obtain
imped
antio
antip
backs
backward
park
parson
parliament
cawd
carriage
surety
hangman
crook
mischance
silk
wanting
careless
running
intents
phe
seeking
diest
served
baw
bait
survey
venus
division
writes
garment
pleasing
summ
##ipping
speeches
regent
embass
stirring
flattering
river
quarrels
hideous
rebel
salute
limb
briefly
sixth
departure
shroud
cruelty
innocence
chastity
negl
vanity
punishment
profession
pupp
conqueror
bassianus
infected
unkindness
cordelia
greece
beguil
injuries
reckoning
glendower
corporal
candle
concerns
correction
character
ancestors
barbarous
filthy
sufficient
estimation
bethink
perpetual
everlasting
jesu
ingratitude
dainty
chosen
cawdor
aumer
bounds
bully
dash
drows
ice
mour
oph
pang
rut
rip
tu
tie
tents
uly
vin
##iver
##ipt
##bast
##lings
##egr
##acious
##raint
##mission
##isement
##arum
##thren
hec
##sec
shy
##itation
##enton
defect
##aints
ann
anointed
relish
losing
cheap
tried
##ardy
##illon
moder
shel
bliss
bonds
pop
poins
awe
brethren
##cio
##cip
##ciful
perjury
nightly
scandal
commends
pledge
appeal
preced
##sses
headed
contem
fires
purge
mistook
mistrust
undergo
smoke
helic
resem
belove
meanest
kills
wronged
##ific
attends
integr
reading
##imely
capu
terr
fourth
bald
nobler
##gnant
untimely
despise
opport
messal
plainly
harmony
broad
beastly
miles
bondage
governor
destiny
practise
dismal
publius
persuaded
rosaline
stole
extreme
employment
vanish
puiss
mountains
inclin
bootless
prevented
funeral
nestor
shoes
affliction
hinder
dissol
alexander
procure
experience
multitude
immediately
liquor
coronation
semblance
duties
meddle
rebuke
pestil
marvellous
cloten
suggest
somewhat
commodity
entrance
coxcomb
juno
enmity
rheum
indifferent
moreover
antioch
aumerle
ulysses
beloved
balm
cri
dart
dang
dower
ebb
fan
hood
hates
hounds
lur
latter
mouse
rud
sow
taint
vig
zounds
##iot
##iction
##bling
##hire
##ael
##gro
##fast
##maid
##wart
thorough
##eres
##ories
##isp
##ares
toad
##onst
beque
heigh
shout
##utio
##chard
##urity
stuck
##advent
doll
butt
sober
##order
fro
##amy
##uss
sung
sustain
knavery
neat
tresp
manly
mankind
upb
cominius
sheets
enl
##unate
##unity
swim
blank
board
arr
##inder
##umn
##inking
plent
plight
plag
savour
sails
pope
alen
agreed
prover
heap
cove
coats
rocks
description
articles
article
##ullus
cannon
dukes
compell
complete
purg
evening
merciful
harvest
putting
engag
##lix
##lihood
consort
devotion
answers
obst
richer
fellowship
impart
trag
reasonable
powerful
crom
cram
displ
majest
nearer
beats
diff
sitting
countryman
luc
titinius
##beit
reports
divided
mocks
speedy
legions
address
robin
robes
maine
pitied
wedded
utmost
executed
middle
baby
invite
demands
transport
corner
violence
deserved
frowns
holla
necessary
prophesy
costard
shrews
challeng
stolen
affected
drift
preserv
guests
swelling
strangers
escape
finish
shoe
mercutio
ballad
raging
clamour
ashes
bounteous
german
reproof
curtsy
outrage
exercise
mantua
consequence
enrich
jessica
surpris
especially
bachelor
michael
verses
marshal
ophelia
vincentio
integrity
bequeath
trespass
cull
date
dum
dial
eats
esp
fow
fert
fenton
gor
gorge
hire
lame
lung
nigh
oh
row
rue
rig
vine
vap
wre
##iqu
##iades
##tic
##long
##cer
##ux
##mouth
##ples
##val
##zy
##anks
noon
infection
##stery
mystery
hab
haven
haught
##cet
fores
##iments
##itive
stake
assemb
lik
reap
##rac
mast
locks
allay
thereto
mang
mud
orchard
lets
ens
enra
##unted
sweep
sex
sequ
sap
alt
aloof
dissemb
lewd
lechery
abate
abomin
awak
stray
roll
desol
wring
errand
lac
aye
contag
##endom
indire
##issa
highest
endur
##iano
giant
restore
pleaseth
accursed
parents
assay
horrid
lightning
crush
##ably
used
prais
attach
strikes
judas
revenue
deserts
deserving
divers
blessings
murderous
trusty
sights
provoke
provok
waves
noblest
ladder
frenchmen
profane
visor
confession
attended
suitors
regan
penance
excellence
oppose
oppress
apr
ache
battles
relent
famish
milford
moved
understanding
cheerful
christendom
detest
treasons
occasions
knocks
joints
performance
safer
control
shrie
rascals
blushing
grossly
lodg
delights
dealing
persuasion
philip
intended
changes
degrees
beneath
grandfather
unpro
corrupted
dwells
kinsmen
tyrann
tutor
guiltless
debts
holp
holid
apprehend
stabb
porter
ceremon
fulvia
pillow
disguise
impatience
nerissa
pandarus
subdu
linen
ambassador
volsces
trembling
counsellor
solicit
bereft
substit
superfluous
acknowledge
cesario
phebe
mourning
shylock
precedent
messala
dangers
cromwell
shrewsbury
lungs
crows
foun
gilt
hook
lan
ning
pent
pounds
rab
rated
rising
sand
sire
silly
tart
vit
velve
##bol
##lain
##lot
##late
##lorn
##liness
##ean
##here
##nish
##craft
##mas
##kens
##vity
thurs
##eration
##incul
whir
whist
whel
##reg
heal
heel
heinous
hack
haunt
sher
forlorn
##iron
##urous
prat
print
##ids
##estial
fray
##aments
revel
##ione
maker
magic
##tery
spell
chose
trincul
fav
brass
moe
enchant
unlike
univers
##oted
##pple
likelihood
sebast
poster
exclaim
exact
leather
eyel
descent
gentleness
perio
wrang
prays
calling
adul
partner
pregnant
longing
foolery
courses
purple
merch
charitable
lived
confin
settled
monmouth
beseem
answered
curious
restrain
guild
minded
valu
wearing
thousands
handsome
falsely
lays
instead
persons
windows
entra
entire
flying
##eys
sickly
support
raw
saved
sounded
buzz
yielding
caps
minion
tenour
ruth
pleases
mocking
summon
counsels
cowardly
respects
##aggers
added
beginning
jests
thirst
relieve
motive
limit
knocking
verse
patiently
julius
pipe
##soe
visitation
philipp
symp
stops
messengers
bending
hermione
macd
corruption
produce
witchcraft
baseness
squire
wolves
##where
winged
bridegro
deriv
hunting
wonders
corioli
gratiano
gloves
rode
nuncle
inhab
alban
gilded
paulina
ribs
tiger
concluded
comparison
celestial
exploit
dancing
parentage
stephano
female
vassal
drowsy
rutland
contempl
##adventure
velvet
thursday
sebastian
period
sympath
bridegroom
afore
bi
bate
bona
dom
dried
eur
fath
fates
gage
lance
lute
lime
mates
pir
pine
pant
pig
puff
sans
tir
tire
tainted
##iard
##iven
##sus
##ops
##aunt
##ranch
##uch
##fellow
##mish
##pence
##nday
##inth
toe
whet
##rel
##reet
beau
hem
hav
sha
shames
meed
notorious
##itary
weed
weal
stum
##adem
assemble
priz
prime
sullen
magn
alliance
##geons
spurs
nell
chest
choke
##ilius
##ardine
faster
ample
mum
org
unth
unsh
##ulch
boat
bolt
arrant
worcester
worser
uses
plough
saving
polix
marble
alms
albeit
diso
dislo
dislike
##pel
quaint
club
strings
roan
robe
desc
leaf
##agon
scant
scold
bloods
slanders
emilia
courts
merr
dram
droop
truer
confine
confidence
smother
belie
humility
falcon
impud
##ected
crowned
horror
overt
crim
crimes
cradle
breakfast
silken
instinct
cousins
returns
returned
beating
revenges
built
titan
sadly
skull
expense
capable
drinks
burnt
gazing
nobleness
captains
hotspur
profound
deeply
requires
boldly
security
walking
region
prett
scarf
cowardice
empire
stirr
laughing
created
lacks
idly
flatterer
vilely
vein
bells
detested
churlish
smallest
tarsus
studied
practis
crept
avaunt
listen
scarcely
bastards
storms
succession
dismay
topas
prosperity
syll
wakes
companions
envoy
fruitful
driven
hatred
enforced
heaviness
duncan
fifteen
fixed
vault
wandering
function
afflict
religion
ungent
repeat
unseen
hallow
painting
accomplish
nymph
imprisonment
obscure
brawl
scourge
reserv
ruffian
homage
warriors
overthrow
style
revels
barnardine
infirmity
saturnine
cudgel
afterwards
wilful
enfranch
assault
penitent
covet
fertile
abominable
fountain
trinculo
macduff
fathom
polixenes
aust
aqu
bail
bands
cau
cities
ded
ec
eph
file
gun
hound
kern
lull
nut
oliv
pence
pap
patter
ram
race
sly
wet
wagg
##tis
##side
##oqu
##obar
##lar
##look
##eard
##yard
##ainder
##nel
##get
##gress
##rion
##rue
##ressed
##uary
##po
##jou
thumb
theft
andrew
toys
tokens
halt
shakes
shirt
##lebr
mell
##itate
states
stiff
stool
asunder
dole
prate
anjou
reh
rein
reform
sums
loft
##tering
##terbury
chaf
trad
goodman
muse
orsin
##ille
moiety
cong
enfor
enobar
unqu
##antages
canterbury
swound
bol
ariel
tavern
##pper
##icer
##iculous
plenty
##asted
alci
alarum
mustard
disorder
ague
proves
clay
clap
cob
coal
road
rope
menenius
flam
perse
peruse
peradventure
##ighth
parties
sweeter
serving
slack
apply
worldly
composition
mightily
nobleman
harms
highly
witty
worthless
worthiness
helps
consist
bringing
besp
resort
rests
welkin
obliv
presented
accent
brand
patric
parcel
homely
furious
banks
forgiven
shameful
rememb
landed
dispra
commandment
daring
intends
readiness
fiends
discom
grove
infl
asked
leaden
distance
yields
pastime
rug
reported
divin
vision
boldness
malicious
extend
scars
oppression
gladly
talents
apes
wasted
stirs
harmless
wiser
labouring
privy
idleness
proceedings
feasts
broach
resolute
feeds
wednes
acquit
model
blemish
mortality
bowl
occup
succour
melted
property
renew
ridiculous
publish
loathsome
threats
during
priests
triumphant
walter
lamentable
bigger
assured
stomachs
chiefest
twelvemon
frighted
usurping
imperious
debate
derive
epita
ranks
admirable
supposed
leonatus
trifles
mercury
statue
removed
rags
observance
naughty
repeal
belongs
latest
ashamed
branches
applaud
distracted
beef
causes
manifest
victorious
jaques
gossip
subscribe
discipline
##holus
defeat
outlive
stratage
unmanner
impediment
antipholus
shelter
opportunity
assembly
indirect
shaft
ephes
olivia
pattern
lofty
orsino
wednesday
twelvemonth
epitaph
bench
bub
coo
cad
cush
dw
eun
fut
fence
fang
gower
gains
guts
las
mute
oil
pud
pel
pup
perem
rive
riv
sall
saints
ti
torn
tub
tardy
vat
vest
vio
wart
##iable
##biades
##okes
##lies
##house
##awn
##gu
##rude
##fret
##pire
##poc
##pulch
##wall
##worth
##kins
thigh
##inu
##isc
toss
##thest
##anor
noses
beam
##stood
hew
##owder
mew
melo
##cho
##itan
wea
##assed
##alty
doct
##alls
##ida
lily
fraught
froth
whatsoever
##eems
##thern
chances
mantle
upward
amain
muff
##ella
moan
sheet
##antity
##unction
howl
array
arbit
sepulch
hob
hog
madly
plots
marian
disting
dissemble
tween
##igation
leth
quake
clown
abject
abund
norway
##civ
offered
gentry
warning
pert
permit
scap
adore
comment
footing
appell
pred
bearer
glow
wayward
compet
compact
remov
armado
indust
charges
truce
underne
##liest
worthies
worthier
worthily
eloqu
devis
belief
believ
fully
obsequ
played
faced
accurs
impress
impeach
brab
meaner
passions
patron
parch
assume
trod
misfort
forgotten
happier
suffered
lasting
devilish
rape
singing
mete
lux
coldly
buff
crab
watery
waist
gaoler
princip
surm
surgeon
##ancies
payment
frenchman
incur
mockery
##bras
fasting
approbation
interch
constancy
moonshine
despised
damnation
recount
feats
talks
##ocate
pomfret
badge
##umbling
commendations
losses
events
lustre
stealing
beards
tribune
mounted
ports
avouch
mutual
changed
complaint
figures
stockings
maidenhead
audrey
sauce
pucell
weighty
circumst
square
dignities
##whel
hypoc
hills
##suing
tempted
capital
hunts
heavier
springs
unlaw
cressida
apprehension
italian
bills
neglected
fulf
fantasy
pisa
secrecy
million
mouldy
tapster
traveller
sicilia
beautiful
spotted
dragon
interpre
murders
feature
philosophy
levied
doubts
pilgrimage
pursuit
miscarry
celebr
piercing
ornament
insolence
bulk
offender
diamond
champion
fantastical
lunatic
abbey
bawdy
pangs
annoy
helicanus
capulet
upbraid
enlarge
proverb
##iquity
dissembling
holiday
lanthorn
universal
philippi
disloyal
ecst
enobarbus
alcibiades
oblivion
patricians
rugby
eunuch
perempt
underneath
pucelle
bal
bide
ced
cas
daggers
ew
fol
fist
fide
fancies
gul
jade
jump
loo
leek
nick
nail
rings
rats
ranc
sixt
##ecy
##ned
##ridge
##ming
##ked
##ering
##erning
##orp
##ined
##inus
##inence
##inance
##lling
##isite
toy
##enor
##onstr
##aniel
##rement
##stone
##seth
shining
meal
notable
##imate
##imney
##ooted
##itiff
stew
stairs
ascend
##alus
dover
##ention
##idents
lic
frant
anchor
##usions
##racus
##eable
chival
trot
brim
orph
mole
enge
ensue
unch
unru
swif
howe
##ulting
boister
dido
whereby
whereupon
plants
##ripp
outside
disco
project
##roth
##ross
excess
##ounted
gravity
levy
quantity
##ickle
cloy
brew
##cians
foil
flin
arts
scale
adj
adder
##oughs
##elaus
owner
apple
duck
glance
gloss
compul
compos
presum
remun
longs
follies
showers
finding
harlot
peaceful
nativity
##lict
ending
worthiest
curb
restraint
welcom
##alties
richly
pleased
accidents
brag
brazen
rightful
antick
submit
parle
traff
caitiff
assail
husbandry
carrion
furthest
crisp
gets
mispr
attorn
happen
advanc
##fortunate
barr
throughly
##uba
nearest
growth
raz
diadem
fitted
proudest
infamy
leader
angiers
cheese
gallia
gallants
foursc
captive
incens
inconst
personal
tenderness
entreats
interim
interrupt
extra
constrain
##acity
feathers
wretches
suffering
judgments
laughed
hurts
wisest
strengthen
respected
proceeded
lowly
resolved
cheerly
motions
fills
feeding
verily
excus
igno
studies
insinu
sixpence
opinions
reigns
reignier
practices
approaches
girls
lists
shrill
proofs
dishonest
sorts
drunkard
cornwall
temples
bestowed
frowning
volunt
prophecy
unsp
syracus
extremes
wrathful
mended
songs
amazed
imagin
uncertain
protection
greyh
discovery
languish
holiness
napkin
accusation
admiration
##blood
admitted
assistance
keys
disguis
testimony
ingrateful
sanctuary
injurious
converse
collected
moody
rousillon
applause
steeds
mingle
coffin
bankrupt
discontented
recovered
battery
gonz
recreant
cinna
dorset
crooked
embassy
negligence
hecuba
pestilence
plagues
fowl
haughty
mangled
april
contemplation
beaufort
merriment
unmannerly
ephesus
future
lasciv
distinguish
misfortune
ecstasy
peremptory
sixteen
frantic
unruly
swifter
fourscore
lascivious
actor
bath
bour
bio
budge
cu
cow
cue
crew
cases
casket
dir
dit
dul
dally
domin
echo
fest
gest
gust
gull
gert
hides
jar
ken
ling
lane
mate
nix
rad
rout
rages
roots
si
sess
sblood
vices
wave
wages
yare
##sm
##bes
##bear
##bted
##lers
##yr
##hus
##ns
##came
##cli
##ule
##ually
##mand
##mans
##ky
##vile
##ndello
##orate
##inbras
##ism
##arf
tops
wheres
##rels
beads
##omy
##omen
shop
foret
meek
withhold
stare
doting
prim
prating
liar
frag
frenz
rele
##iend
loins
spain
spher
spacious
##andon
knighth
chap
chains
chape
chronic
chann
chimney
##ilful
mansion
##uellen
brib
ordain
moist
conceiv
concept
consec
una
unst
unarm
canop
however
boon
whoever
tak
usage
sew
sext
seated
separ
hoar
##ication
marqu
##rian
greets
outst
discl
ages
proffer
progress
##rog
exqu
grac
thinkest
abst
abod
abused
abandon
greatly
coil
betroth
menelaus
foh
flames
fluellen
leagues
nighting
scald
scroll
ert
handle
lazy
##ithe
precise
glories
downright
armies
purses
betters
merits
harp
fortinbras
truant
##shipp
conflict
understood
smart
smack
housewife
boyet
humorous
playing
presents
antenor
draught
suborn
parth
parish
paroll
retir
childish
lightly
carri
##ifies
##ablish
educ
wished
advised
denies
dispers
bars
commander
fights
##enerate
revenged
temperate
##ibly
cryst
generation
generally
comfortable
rapt
singular
quicken
infancy
asking
airy
affair
angle
unclean
text
cuts
expos
minutes
waft
pasture
surrey
venet
eating
incest
questions
deeper
establish
appearance
fasten
speechless
regal
entreaty
entreated
snake
penalty
speedily
scarlet
plucks
weaker
##licity
lambs
##ocation
defiance
plainness
teaching
labours
directed
idol
flatterers
chamberlain
##avish
relief
beggary
guarded
##odes
element
eleanor
calib
calais
##ossess
midwife
cloudy
posts
contrad
pigeons
importune
continent
continual
circle
requests
secretly
louder
necessities
fishes
changing
compliment
revolted
amazement
sailors
dwelling
concerning
smells
chiefly
condemned
starts
dooms
examine
egyptian
drives
picked
executioner
cymb
inclination
covert
hunter
irish
schoolmaster
unluck
stafford
compassion
eager
balls
arrested
rescu
ratcli
crafty
yesternight
suprem
ordinary
bags
ashore
simplicity
griff
descended
adopt
latin
frailty
affords
buds
thorns
ambassadors
interpret
inheritance
tickle
warrior
florence
jerkin
mingled
copy
coffers
centre
measures
wrinkled
adverse
gnaw
receipt
braggart
##ommod
deformed
reconci
ostent
antiochus
plenteous
tragedy
display
rowland
muddy
altar
tyrannous
rabble
sheriff
bias
disobed
crimson
syllable
ungentle
covetous
enforc
sepulchre
brabant
principal
folks
chivalry
boisterous
remuneration
voluntary
biondello
gertrude
frenzy
knighthood
exquisite
parolles
ratcliff
aut
bows
cim
dy
dice
dick
ditch
dirt
fen
gen
gad
gear
gash
gasp
hart
jades
larg
na
nan
ou
oman
pile
pip
pious
palt
russ
rooted
size
tired
vot
vau
wan
wester
yard
##tling
##bable
##board
##body
##oat
##oster
##oft
##lph
##gery
##rr
##resh
##rates
##riend
##col
##field
##fold
##mor
##met
##quel
thwart
##eril
##ater
##iner
##inish
##esies
##ensed
##enna
##once
##onish
nomin
wip
beet
inches
ingen
shear
shap
shaking
##uto
##chan
##irts
##ghill
ster
stinking
##adise
hiss
deem
froward
##amis
herbs
sunder
sulph
lot
spies
spider
sphere
knell
trash
therewith
uphold
broth
bridge
orator
comedy
moy
##feits
conject
##artered
unfortunate
##otent
canon
swing
swine
howling
blanch
boil
arra
arrog
tack
tawn
taper
worshipp
wherewith
madmen
plate
plum
poll
marr
##ribly
aloft
disper
agripp
##emp
##tock
quill
cod
covent
bree
offers
warn
erp
erth
##oult
##eline
contra
remainder
longav
indent
shower
showing
##iously
truest
smock
staying
followed
devout
faithfully
treas
treble
accommod
impl
eyeb
bedford
peck
submission
needless
paragon
paradise
marrying
cab
retain
retreat
meets
breathes
breathless
crutch
lawy
getting
misd
attire
goldsm
laying
suffers
illy
denial
dispro
barb
faulcon
fighting
intr
sending
horsemen
murm
void
##ubber
drawing
discern
fitter
lucil
lucio
dames
trusted
##itories
dreamt
distill
capacity
cleave
gape
stark
musician
musicians
surv
incense
incensed
profan
requir
attending
watchful
malady
malign
approved
englishman
damnable
preposter
achiev
defil
pageant
hurl
witnesses
cambridge
broils
veil
famine
offenders
wildly
marching
streams
detain
steals
mirror
chooseth
calam
argues
mounsieur
midst
invest
jealousies
unfit
refus
shrink
mutton
rascally
geld
geese
eglam
blushes
planted
loathed
volume
wickedness
wealthy
prospero
degenerate
triumphs
decree
waiting
prepared
pricks
companies
pyrr
baser
basest
solemnity
floods
bewitch
hymen
perilous
cords
dunghill
ghosts
recovery
sticks
preferr
preferment
clamorous
abhorr
abhorred
testament
pearls
sparrow
scroop
globe
corpse
simply
jugg
trimm
chiding
designs
perfume
distraction
adversaries
philosopher
exhib
trencher
slippery
indignation
lingering
planet
territories
puissant
vigour
frozen
arras
habits
desolation
contagious
substitute
whirl
whelp
favoured
adulter
beseeming
entrails
ruthless
inhabit
papers
unquiet
persever
pupil
##whelm
unlawful
balance
traffic
whereso
marquess
caliban
doomsday
cymbeline
paltry
tawny
agrippa
longaville
goldsmith
faulconbridge
lucilius
eglamour
pyrrhus
ast
dall
daint
dances
duteous
eth
eve
ely
fife
goot
ginger
hoo
jaws
len
link
mity
nich
nig
nav
oper
omin
pan
pins
powder
rent
rite
rimes
tough
vail
viz
vac
vicious
##test
##tish
##bers
##bian
##oes
##lin
##lant
##eon
##eas
##ection
##heard
##nam
##gard
##ugg
##face
##journ
thais
##oubted
##erity
##erog
##orter
##inction
##arn
##arged
##enster
##onna
##anim
wight
bees
beck
hay
hag
shill
shipp
##lend
##lect
memb
##chas
##chers
##imon
itch
##itimate
web
stings
##keys
aspir
##alo
##alms
soar
prerog
##allel
lick
fru
whatever
##amer
anat
revell
herne
##usale
##racious
mag
mand
spin
sped
spear
knives
necks
chop
chaff
##ilities
atone
compel
##ellus
motle
##earse
sheath
enth
ensuing
##antial
##unct
##unting
swan
blister
blade
##ula
arrows
tab
tables
##pping
sequel
holes
madonna
sale
pol
poly
greed
greasy
outr
disf
agent
probable
##ola
##olis
##olas
twin
##rovers
exempt
theseus
##pton
##ptuous
clout
daylight
ability
cog
cope
coach
northern
string
hearers
hearken
##fulness
betide
foam
gentler
wary
flag
flaw
perple
perceiv
##fted
earls
grudge
scra
scri
wrench
##aker
lab
footed
sweeten
jolly
serp
images
imitate
predom
precept
emulation
headstr
contains
controvers
fooling
##aved
repute
reputed
drench
bestr
lively
##shire
confines
witted
dieu
monsters
humb
##ensive
treat
impose
courtiers
passes
antique
caper
calend
lighted
overcame
wearied
sleepy
crime
##ifully
farm
praising
edict
wishing
advantages
##cod
yeoman
stately
barber
signal
freeze
harder
generous
metellus
proudly
lucet
infants
murderers
saddle
sinful
distract
distinct
distinction
strait
skins
vienna
cleon
birnam
provokes
gaol
depose
surly
demi
demonstr
actors
incont
incorp
visited
confessor
opening
chambers
entreaties
snail
snuff
intercept
construe
pretence
despis
lamp
crop
undes
commended
bites
biting
camb
simon
evidence
relate
wilder
throws
throwing
beggarly
poisonous
sighing
wedlock
stealth
formal
crosses
verity
bondman
finely
tribe
arguments
wonted
unwilling
chok
contrive
churchyard
woods
roundly
gird
girdle
refer
ridd
riding
catching
courageous
expected
torments
towers
utterance
ventidius
enjoin
propose
costly
syc
extremest
decrees
flee
member
medit
amaze
glasses
particulars
environ
lamentation
sauc
tyrants
rarely
plotted
faintly
expressly
different
allowance
displeas
temperance
hyper
##enetta
debtor
heavily
sprung
cherry
whipping
rewards
strangeness
purchas
vexation
escap
pilot
dotage
rashness
discharg
abuses
admittance
publicly
martial
statutes
rushes
winking
melting
trojans
observation
sola
alexas
ordinance
humanity
shrewdly
choleric
convert
blasted
complaints
gripe
pandar
sinew
revive
accompany
odious
breadth
subdue
wheels
wrestling
sleeves
correct
beauties
cozened
characters
frankly
augment
diligence
jerusale
overthrown
centa
measur
spaniel
perdition
advert
appointment
conspiracy
jaquenetta
riotous
goneril
receives
factious
pulse
reconcil
gaping
morsel
moderate
transported
gorgeous
wreath
shriek
tartar
whistle
eyelids
merchants
guildenster
assembled
impudent
rehearse
remembered
influ
divinity
occupation
stratagem
dwarf
abundance
eloquence
circumstances
cedar
ewes
fidele
gulf
licence
flinty
compulsion
attorney
channel
conception
nightingale
education
crystal
griffith
reconcile
cimber
navy
western
disperse
contracted
cabin
illyria
calamity
ethio
mityl
nicholas
niggard
ominous
thaisa
shillings
members
motley
perplex
headstrong
controversy
lucetta
jerusalem
guildenstern
ara
bau
bout
bated
bagg
bourn
cer
dion
dane
ess
ecl
fust
fel
gore
hic
hits
hipp
jet
jig
kick
kites
kitch
lass
mire
nations
oy
oly
oli
pall
pind
pem
pag
pith
rang
rides
til
tink
tang
tullus
vost
ware
wins
yawn
##ii
##sues
##boy
##onds
##ex
##equ
##gy
##rite
##ugs
##dens
##dges
##fy
##me
##pter
##picious
##zes
##joy
##atory
##ino
##inies
##isk
##issed
##arre
tot
injust
iniquity
heath
hale
haunts
shell
shru
shrift
##levile
mechan
issues
##ird
##ghan
withered
##ital
##itud
stony
thisbe
##adv
##ading
##adel
##asph
doit
doves
sojourn
pranks
##alled
##iding
##idity
livers
##omel
depe
deject
decius
##estic
fron
##amour
anim
herb
herod
##verse
##races
##ieving
goats
sunday
map
maim
loses
spots
spright
##andra
chas
chides
fails
brat
brood
brine
briers
mun
orb
oration
moons
##eart
##eary
sheathe
heretic
encl
##ively
unfe
wasp
##otted
howsoever
blasph
lovell
arrow
whoe
##pped
severe
seals
madame
##icing
pless
##ured
##aste
mary
maria
alm
speaker
##robe
hearty
##ffrey
##ounded
lends
leont
abound
heave
coffer
colevile
eyne
aweary
##urnish
##cible
##civil
menas
flash
##ager
grin
grind
scab
scales
wrote
ador
adorn
plebe
laur
sweets
joc
serge
sonnet
##igne
preach
prelate
glim
presage
contriv
remed
indu
indian
purity
follower
drugs
harness
dearth
fortnight
chariot
mistaking
mistaken
smith
quell
endow
litter
consume
queens
resp
residence
belch
obl
kindle
answering
impression
courtesies
braver
passages
bedfellow
parr
trace
travail
asses
assign
hopeful
justices
justify
carve
overcome
cran
misled
misbe
farthing
banners
attrib
edgar
hitherto
commanding
exceeds
darest
intoler
proved
suns
supplied
discreet
fitness
doubtless
buys
distressed
expir
capon
provision
mines
minst
waits
contention
tenth
gav
starved
surge
surprise
demean
garb
wooer
appeared
attendants
watching
lovest
redempt
suited
walked
basely
snare
extemp
pettic
construction
plucked
opposition
opposed
##lication
messina
traitorous
dishes
sports
idiot
commendation
commendable
relation
reliev
offending
soldiership
wildness
bellario
forego
cheerfully
salve
salique
christians
filling
worships
casement
spoils
easier
wheat
verd
disgrac
drowning
nurs
effected
tarqu
urs
urging
hammer
shipw
breasts
insulting
invited
forswore
quietly
wooden
woodcock
unhallow
bitterly
bitterness
demanded
usurer
imports
important
importun
corners
geffrey
riddle
virgins
credulous
owen
seventh
equiv
chastisement
torches
proclaims
proclaimed
utterly
humbled
philomel
cato
cater
antonius
wretchedness
propos
winters
decreed
claims
fleance
memor
unpre
##bbed
briton
britons
unborn
uncles
fondly
accordingly
slanderous
basil
affects
guiltiness
seasons
lychor
incline
mildly
deceas
conjunction
iras
swells
earnestly
disdainful
cordial
dunsin
sprite
cherub
apprehended
rules
eagles
building
porp
slightly
pronounc
martyr
climate
gratis
gratify
advancement
rebellious
swallowed
ravenspur
groaning
esqu
dissension
nicely
##flow
expedient
decline
commonweal
glean
greekish
juice
pennyworth
moulded
perfections
alehouse
pedant
pedlar
rusty
poetry
adversary
reserve
transformed
florentine
endeavours
turkish
reveal
wrinkles
compounded
spectacle
miscarried
frosty
ornaments
insolent
continuance
rarest
tumult
blaze
confederates
inferior
conversation
royally
summons
modern
puissance
dumaine
enrag
lackey
unprov
ceremonies
entirely
sympathy
domestic
europe
havoc
stumble
drooping
titania
prettiest
forgiveness
dispraise
discomfort
tiber
tubal
industry
discovered
ignoble
gonzalo
cups
release
chapel
sexton
abode
venetian
ingenious
therewithal
coventry
misdou
barbary
wheresoe
navarre
magist
tabor
polyd
bestride
calendar
incorporate
undeser
baggage
olymp
pindarus
pembroke
vostre
injustice
blasphem
leontes
intolerable
redemption
lychorida
dunsinane
ravenspurgh
bor
balth
boughs
boult
cicer
dast
fid
fard
fickle
gay
gem
gout
gany
gartered
hip
hint
hoop
ic
jars
kite
lous
lart
ober
pages
ry
ree
rook
range
rises
sams
tues
teem
vary
vale
##back
##ois
##eck
##gression
##rine
##rons
##cere
##cles
##calf
##uge
##din
##don
##dur
##dea
##ditary
##fle
##full
##my
##mber
##mont
##pen
##pit
##pers
##kers
##vius
thund
thump
thaw
threes
##oric
##lled
##esome
##isome
toads
##ena
##enu
##enish
##anied
whale
##vels
##rell
beach
##omb
haz
shin
shock
shuff
##cels
##utton
forer
forfend
mead
##ched
##ldron
isis
##etition
##urus
##urbs
##imo
##ools
##itaine
##ittering
stalk
staves
##keley
sot
pry
deity
dealt
##ampton
anch
##vert
##rav
##rack
goat
goest
gobb
spill
spices
knots
choo
chant
chick
chuck
chanc
thereupon
amp
broo
moth
hereditary
enow
enroll
unple
unable
uncl
unlo
unsc
unrest
uncivil
##ershire
swol
sways
sweeth
aright
using
sect
seigne
##uman
##ics
##ically
##asters
##rious
##rives
##riving
musty
somebody
progen
twig
##ounts
grapes
grapple
lect
lecher
quince
clip
clime
claw
clog
abides
coy
coven
coals
awful
##urnia
timeless
##isting
foster
warp
flay
perus
##aged
gramer
artific
##ques
scy
scare
scots
praying
erg
erst
erlook
handed
commence
commotion
partake
partial
##berate
counted
##igned
slut
slips
duly
glamis
glittering
eminence
##phos
##phurnia
prescri
contemn
controll
remn
poorest
##tshire
begging
showed
replied
repetition
harfle
charged
##shill
lieu
engine
smelt
tongu
servile
servilius
elves
monkey
cures
hume
##ensions
pavil
obdur
accused
imposition
brake
brands
doubly
seemeth
drab
bedlam
suburbs
needle
parl
tract
tragic
retort
horribly
lightness
carn
carc
thankfully
breaths
##ables
##abella
lawless
miscon
attent
hitherward
maidens
advocate
illust
lastly
##cob
silvius
wanted
corinth
carefully
strip
strives
##ashful
burdens
phry
##ized
lesson
sunshine
entered
##ibel
suppress
##ourably
fouler
discred
fitting
luci
desired
inflam
musk
tends
dreaming
method
cutting
certainty
cleft
galled
provin
waving
starv
satan
bale
acting
captives
possessed
hellish
profits
estates
mocked
openly
appearing
castles
coloured
drove
malcol
deliverance
approv
regions
revengeful
extort
extenu
penet
constance
embark
moonlight
pretend
legitimate
shorten
fetter
cros
cropp
harmful
closely
teaches
widows
adding
buckle
buckram
feasting
lowest
painful
broil
broker
military
poisons
detect
fashions
limits
healthful
guards
feels
uttered
##azar
wounding
forced
sorcer
verge
battlements
consented
fresher
freshly
orderly
calphurnia
argos
encomp
unwhol
blowing
mounting
inspir
counterpo
entertained
pikes
solely
helenus
creation
athwart
palate
shrunk
sacram
bastardy
forsook
translate
transgression
usurper
importing
conceited
equally
uttermost
dawn
consideration
##ulties
prophes
syn
stained
greetings
repentance
hermit
uncur
lamenting
audacious
tyrrell
halter
conveyance
hiding
lineal
befits
befriend
allowed
bewray
firmly
irons
packing
packet
regarded
bullets
sprites
unlook
berkeley
oxen
epil
escalus
railing
dotes
pictures
avoided
vaul
functions
porridge
objects
massac
heralds
confounded
katharina
forfeiture
superst
waxen
stepp
ungracious
alteration
clamours
##borne
sparks
bushy
britaine
clergy
creeping
jacob
##zzled
blasts
shunn
multip
nonny
##mede
reviv
tapers
unmatch
dukedoms
inhuman
albany
hatches
mater
liquid
perfum
succeeding
adversity
trembles
dolabella
religiously
gamester
doubted
ferdin
tunis
tigers
bruise
perdita
shamed
spectacles
feigned
bragging
troublesome
offends
bridal
blazon
confederate
swaggering
planets
negligent
puppet
ripen
popular
resemble
dissolve
suggestion
crick
arrive
savours
majestical
lucre
vapour
prattle
posterity
wrangling
thirsty
comparisons
pirate
pirates
magnanim
organ
clubs
courtship
overtake
nymphs
aquitaine
cauldron
dedicate
waggon
mellow
cobwe
bubble
rivals
violets
melody
doctrine
hobby
mariana
parchment
hypocrite
interpreter
inconstant
greyhound
radiant
foretell
spheres
chronicle
consecrate
ostentation
disobedience
gadshill
vaughan
malignant
lenity
prerogative
fruits
precepts
cambio
simonides
wilderness
fleece
influence
ethiop
mitylene
bauble
oyster
depends
plebeians
laurence
jocund
sergeant
remedies
cranmer
minstrels
tarquin
ursula
porpentine
polydore
cicero
ganymede
lousy
lartius
oberon
tuesday
thunders
swoln
sweetheart
harfleur
malcolm
unwholesome
sacrament
ferdinand
ave
aunch
bak
bower
cart
cate
cust
cage
cough
cows
cats
cuff
cask
dive
daff
dale
eb
eke
eff
gy
gal
genius
hir
hil
hild
iach
icy
james
kissed
lag
lud
lump
lances
mi
mall
mam
mix
nin
nath
neap
ot
oo
ol
oun
pell
pau
pend
passed
raught
rave
rates
rival
reek
sou
surn
tas
tew
tunes
tallow
tinct
tithe
vere
vag
via
vial
wage
##ipe
##ially
##iours
##iency
##sers
##bing
##oves
##off
##oci
##eks
##hand
##heet
##ah
##aph
##aled
##acted
##nis
##num
##gory
##rent
##cides
##uity
##ds
##done
##fall
##mo
##mary
##press
##pable
##wal
##wood
##work
##while
##za
##xter
##jure
thames
##nders
##orax
##iners
##inated
##arks
##oned
##onge
##thage
nov
nostr
whips
beest
beadle
ing
inve
myr
hagg
shak
shouts
forked
meals
##cheap
ish
##urre
##itus
##iture
stam
stem
station
stag
doe
butchers
prunes
pridge
##entious
##entimes
##idam
##idered
liable
ligar
liars
licio
dexter
fry
whatsoe
##amed
realms
gobl
spied
spade
##ighty
##anda
##andise
knavish
nether
chew
chaps
chiron
triv
tripp
trades
thereon
factions
fabian
amount
amiable
bran
letting
comest
monday
##femin
enven
unus
unpe
unity
unsw
unset
unadv
swer
swarm
howsoe
blots
##venal
##ulg
##ulk
boarded
arith
taunt
taunts
seeds
hoist
##umps
whereat
whereas
##ico
##icial
plains
plume
pluto
mare
marcell
greedy
grecians
gregory
alcides
disb
disclaim
dissu
probation
prolong
twink
##igon
timorous
speakest
exter
extern
honourably
##ounce
graze
heaps
copper
normand
awry
strains
##ciences
roasted
betake
fog
foils
gentles
flo
flows
pertain
perils
perpend
grounds
scapes
sconce
wren
ergo
erwhelm
##idel
commun
##aks
fearfully
##berry
##berries
hasten
counts
##reech
sloth
##ivo
appertain
brotherhood
glister
mightiest
contam
##apable
remote
india
induce
puritan
merited
mermaid
repreh
replete
##ksbury
pease
drudge
##asonable
charter
confounds
confisc
smok
endless
conspire
devised
devoted
besm
besiege
belmont
gibb
curt
guides
placed
kindled
womanish
womanhood
countries
behead
elsewhere
trebon
accost
accents
accounted
##ledg
imputation
courtly
brags
righteous
##isons
seemed
pecul
parallel
parcels
trail
caval
childhood
##weigh
threefold
wrongfully
hopeless
carthage
overlook
overheard
earthy
earthqu
trodden
thanked
crue
##aby
##ability
misuse
shameless
truths
honestly
ills
dispense
barge
instances
##rantz
tearsheet
throughout
excels
striving
##dded
oftentimes
talked
spiritual
strongest
hardy
sicken
##ibility
suppli
raiment
prouder
luce
lugg
infall
infring
leading
checks
sincere
distrust
delays
generals
skies
skip
skilful
expost
viper
viands
galls
gallop
boundless
staring
depth
baited
moneys
musical
mortals
acted
active
incertain
delivers
requital
jewry
wool
wooers
attendance
quarters
regards
regiment
sneak
intercess
peto
constraint
embrac
untie
straightway
changeling
legate
laud
soften
defac
scornful
##gging
laughs
##ecies
##ecary
direful
riband
riots
painter
darkly
robs
dined
family
quarrelling
admits
admired
salv
churl
effemin
passionate
lioness
libert
liberties
##azz
eleph
miracles
bearded
sores
verb
execut
hug
wisdoms
calchas
tribut
portly
portion
quietness
churchman
churchmen
jacks
qualify
qualified
washes
washed
departed
imminent
vainly
refresh
tasted
palaces
brooks
mutius
mutinous
conclusions
rosenc
temporal
innocency
mannerly
embraced
swiftly
shepherds
volumn
becoming
prophecies
threatens
hapless
durance
bleeds
bode
flew
turf
turks
weighs
stuffed
imaginary
bended
waken
rosemary
wantonness
punished
physicians
concord
clothe
professes
reverent
conquering
fainting
tailors
examples
differences
hidden
combine
frights
borrowed
##govern
enforcement
digg
hymn
inclining
covering
gentlewomen
confirmation
mildness
decease
leonine
treads
citadel
eastern
eastcheap
benefits
bullcalf
dungeon
despiteful
mischiefs
ghostly
epidam
suspected
missing
sucking
abhors
flowing
tortur
lengthen
source
attempts
afflicted
wasteful
complexions
steer
furnished
hinds
intellect
eternity
prodigious
testify
exchequ
apparell
ruminate
solace
alexand
robbers
robbery
millions
declare
reprove
peasants
recorded
bonf
bonny
bonnet
##zzle
launce
behaviours
bandy
juvenal
multitud
pointed
accompanied
depending
merrier
thorny
wrestler
errors
spotless
climbing
mature
uneven
helmet
brawling
peerless
tickling
counsellors
murdered
august
dolphin
unjustly
deceitful
recoil
manifold
coupled
eggs
garlands
pursues
disciplines
wiltshire
sparkling
strato
sufficeth
instructions
recreation
bulw
tumble
chatillon
curtains
diamonds
grooms
affrighted
masque
ostler
hawk
hawthorn
convince
convoy
summers
puppy
hecate
pestilent
darts
lurk
vigil
consorted
obstinate
tragical
diffic
lucullus
dialogue
rigour
vapours
foresee
ensign
sequent
desolate
contagion
ceremonious
sandy
wrangle
merchandise
organs
kerns
lullaby
congreg
flaminius
brandish
indirectly
cadwal
cushion
letharg
obsequies
luxury
interchang
fulfill
rancour
orphans
engender
welcomes
extraord
unspeak
syracusian
bourdea
dirty
gesture
session
unacc
canopy
disclos
ertake
parthia
carriages
supreme
adopted
brabantio
autumn
pipes
##metic
beetle
sulphurous
lottery
arraign
breeches
accommodated
eyeballs
murmur
survive
preposterous
astonish
dalliance
aspiring
outrun
disfig
serpents
humbleness
distinctly
incontinent
sycorax
centaur
eclip
kitchen
oliver
almighty
parrot
petticoat
esquire
unprovided
misdoubt
olympus
balthazar
fardel
samson
forerun
brooch
unclasp
seigneur
artificial
scyth
pavilion
obdurate
phryg
lucifer
baleful
epilogue
magnanimous
aunchient
cowsl
hilts
iachimo
nathaniel
neapol
tewksbury
ligarius
trivial
arithmetic
marcellus
normandy
trebonius
peculiar
effeminate
rosencrantz
epidamnum
bourdeaux
aus
aven
bits
bert
bathe
bashful
cot
cret
cash
cott
ceres
dan
ding
dus
daws
daniel
dazz
eel
eli
fum
fery
gum
gau
gig
gud
gins
games
hest
hats
hoof
iv
ili
jour
jester
ker
lee
lone
leak
lout
lang
lash
lubber
mit
mince
mated
nic
nile
nilus
ninth
os
ply
pities
pals
pool
piety
rim
rood
reel
rider
ramp
tat
tet
testy
vom
vall
vil
vic
vern
vult
yell
yew
yards
##iors
##sium
##bun
##bel
##oa
##ole
##oking
##lves
##eb
##yn
##yza
##ho
##hement
##actions
##gon
##gotten
##rors
##rade
##ront
##cast
##cils
##ugn
##dious
##foot
##mers
##mong
##miss
##pill
##pired
##zab
##jection
thra
##ermen
##erdon
theat
thetis
##atisf
##inc
##inant
##inted
##inals
##inher
##isen
##arily
##onius
whoop
##reth
beer
inj
incess
hemp
haps
haunted
shove
shoots
shilling
shipping
shorter
##lead
##lection
##utish
forn
forester
##ayer
issu
##eta
##etoric
##urious
##itied
##itute
##itution
weird
weeks
stou
stall
stink
stable
stif
stains
stung
stumbling
##asies
doff
button
soever
prud
deign
frog
anew
rely
reft
revers
herring
heresy
##rave
##rable
##raided
##iew
sund
maw
mace
mach
maced
lopp
logs
allies
##ourt
spart
spout
spec
chron
trudge
trunch
##iles
##ardo
upper
upli
amber
brick
brist
brier
brush
brutish
orld
orbs
##illingly
compt
moss
cony
conn
conge
enact
enkind
unv
unite
united
ungr
canary
cancel
blust
blab
##ulent
boats
boding
wholly
taff
taurus
##inders
usual
sem
sevent
severn
selves
hover
hovel
wherever
##icat
plack
plaster
saves
saith
##astly
poise
marg
mariners
##riz
grease
outface
disli
disaster
disinher
agony
agrees
##ortions
prostr
##icet
##igm
##igate
##eman
##ements
##roph
exil
##pture
graver
qui
quo
quir
quail
quond
clipp
clasp
abrid
covered
##ists
strut
stride
hearer
roger
desart
offsp
fling
flown
flap
leaven
##agre
##agate
grasp
grieving
scal
scoff
screech
##angled
ersw
ersh
erbear
plea
laz
lace
lavish
laced
partners
##berg
sweetness
##ipotent
slily
appli
dug
dues
prev
afric
eminent
namely
headlong
mightier
eyesight
##achio
downfall
poorly
longest
begs
graceful
mercil
keepers
repul
drug
putter
##pled
everywhere
##shead
confus
confessed
engage
engross
natur
thresh
consign
considered
devices
monk
beset
faiths
resides
cursing
curtis
humane
rested
##ensible
paces
kinder
richest
countess
counties
player
playfellow
village
##ocks
accout
accustom
mistresses
impious
brav
brach
brawn
bravery
values
passeng
antigon
subt
needy
travels
caves
caution
erect
dregs
homeward
cargo
carpent
carbun
overborne
overdone
cres
crust
##ifying
##about
misg
helping
breaker
bane
pardons
sentine
sentences
disposed
dispossess
barks
barons
commanders
##eshu
sawest
career
striking
sealed
darken
rung
horseback
voc
windy
lessen
spirited
promont
promising
hardness
drawer
enters
supple
supplant
beaver
comforted
foundation
raze
raising
businesses
workman
discours
discarded
discuss
metaph
senior
fitly
colder
doubting
bug
groves
affirm
craven
anguish
trusting
soonest
cassandra
sinister
sincer
skirts
expire
clement
galleys
providence
minola
waited
tenant
tennis
gaz
gavest
depriv
across
paying
venison
captivity
incision
writers
deliberate
bolder
mocker
woos
wooed
##bric
tenderly
register
interr
interv
extended
benvolio
pense
penury
##aculate
plucking
recall
##ountered
lamps
laments
empery
aches
defl
##gger
denying
judges
pageants
widower
strengths
gloucest
lacking
buckled
directions
ides
ambush
flatteries
chrish
proceeds
evident
excellently
bellow
marches
offering
admire
salutation
christen
mote
dreaded
worshipful
doubled
safegu
bleak
breeder
target
argu
sharper
encourage
encountered
unwillingly
mounts
births
inside
insurre
babbling
invites
brainford
safest
governed
posted
perceived
washing
cream
unfurnish
immaculate
listening
refuge
reflection
palpable
shrine
renounce
officious
dishonourable
transl
importunate
drunkards
##olyta
prospect
troyan
authors
successful
creditor
creditors
owls
roughly
strucken
tempor
hoping
expecting
grossness
embracements
forbids
forbidden
defended
delightful
daunt
persuades
necessaries
ventur
ventures
puny
proportions
authorities
potion
pottle
potency
westmin
threatening
unsure
unsatisf
syria
failing
roars
privately
decre
revolts
bodes
flea
faints
turb
weighing
charming
meditation
medlar
remaining
encounters
vanities
pricket
pricked
macmor
sailor
benediction
lamented
audit
thunderbol
forbearance
enjoys
customary
receiving
witches
searching
smelling
conquerors
basis
frets
varro
varnish
variable
formerly
ducat
starting
solemnly
lineaments
wrapp
wolsey
warmth
grievances
grievously
ghastly
imperfect
imperfection
firmament
excepted
exceptions
despairing
maintained
civility
digested
sorely
forestall
quittance
ruinous
vouchsaf
december
conjoin
sweating
constantly
irre
irks
whoremaster
infectious
unkindly
heaviest
aliena
prevention
accusers
accusations
aptly
berries
dews
strangle
strangled
epic
epith
rails
dispositions
admiring
ruler
discharged
deservings
bawds
cloven
cloister
builds
disgraced
finer
##blind
reckless
grieved
henceforward
##actors
whispers
eighteen
inventory
stooping
faculties
rhodes
rhetoric
advanced
mournful
rushing
swallowing
tending
pockets
acceptance
dissolute
consuls
imprim
disguised
dimin
desirous
sanctity
sanctified
folded
whispering
shifts
securely
declin
declining
orders
experi
expert
instructed
bagot
lucky
currents
complaining
candles
nerves
sociable
villanies
discontents
increasing
tapest
sacrifices
couched
spurns
monarchs
petitions
bountiful
sicily
makers
wrestle
welshman
vulcan
arrival
albion
pedro
unex
obscur
brawls
dragons
coronet
transformation
dutch
bethought
loaden
reprieve
scholars
diligent
dolour
fretted
gambol
spaniard
levity
throngs
consumm
consuming
curtsies
thankfulness
infirmities
seduc
exhal
clapper
clapped
distemperat
concludes
nettle
nettles
gossips
trenches
attaint
indignity
dropping
feigning
celerity
gnats
pierc
herds
containing
exploits
penitence
fawning
digestion
fantastic
ilion
paths
royalties
devouring
populous
terrors
lurking
shouting
blanket
plagu
purgation
cramm
challenger
challenged
preservation
germany
outrageous
wreak
ensues
detestable
unprof
enchanting
exclaims
exactly
eyeless
adultery
haviour
chests
unthrift
quaintly
descry
scolding
believing
accomplished
enfranchisement
austere
aqua
halting
reformation
chafed
bolts
bespeak
discomf
cooling
cushions
pudding
pelting
vestal
violet
melodious
weaver
weasel
doctors
muffled
arbitrement
hogshead
lethe
perturb
prede
obsequious
meteors
interchange
huntsman
celebrate
stewed
engenders
presumption
misprision
insinuate
dulcet
dominions
festival
gusts
kennel
bribe
conceiving
abstract
precisely
idolat
contradict
unlucky
unluckily
ouy
votar
shearing
arrogance
tackle
quillets
erthrown
treasury
implore
lawyer
exhibition
elysium
operation
anatom
mandra
treaty
sauciness
hyperion
dionyza
hippolyta
pagan
tinker
dejected
unfeigned
respite
obligation
verdict
shipwrack
equivoc
caterpill
magistrates
dastard
##penny
gobbo
enrolled
unpleasing
twigs
tractable
provinces
dawning
synod
massacre
superstitious
lucrece
cobweb
catech
caskets
hilding
olive
ounce
unusual
unpeople
unsettled
external
confiscate
beheaded
earthquake
intercession
salvation
elephant
volumnius
exchequer
neapolitan
auspicious
bertram
dusky
elizab
vernon
##missive
theatre
incessant
macedon
chronicles
truncheon
ungrateful
taffeta
seventeen
prostrate
quondam
abridg
offspring
merciless
antigonus
carpenter
promontory
sincerity
gloucestershire
safeguard
westminster
unsatisfied
macmorris
elizabeth
ace
bil
bish
bum
bier
bern
cain
core
cip
cake
cub
cert
cited
certes
dere
dard
diz
dank
ege
feal
fester
fated
fines
gin
gan
hing
hive
hies
hips
jur
jumps
keel
lath
lain
larum
lids
ment
mish
mice
malt
mash
mickle
nas
nee
nous
oats
ps
pon
pare
pto
pep
pied
puck
pew
pension
rial
rays
rams
risen
sard
siz
sib
sinks
sainted
sangu
tour
tight
tides
tilt
taints
ul
ump
vantages
wand
wards
yor
zealous
##iation
##ients
##icted
##iots
##iards
##tany
##bain
##bia
##brand
##las
##lie
##ege
##aver
##nery
##nings
##gom
##rom
##ration
##rated
##roof
##rases
##cal
##cap
##cont
##cises
##cension
##upp
##dest
##ders
##dame
##dains
##dler
##fare
##fathers
##mid
##portion
##wl
##wing
##wind
##water
##vils
##zzard
##xy
##jud
thal
##erce
##orm
##oring
##orus
##ority
##ato
##ativo
##incible
##llor
##llity
##lley
##isto
##arage
##arius
##arison
toast
##onet
noisome
wive
wilf
##reant
##render
inland
insc
##stock
##stru
hedges
##owick
##sez
thatch
shoo
shent
shone
shirts
##cends
##utions
forge
forem
meg
meads
meagre
##chy
##charg
##eties
##urd
##imach
##itar
##iting
##itting
##itated
stal
stee
stint
aspire
ascension
##asus
##albain
doers
doig
doings
buttock
soe
##iders
lione
frid
frust
fraud
anth
##eeling
reli
##raction
sues
sups
sucks
macc
##ealed
lob
loam
allied
spilt
nevils
chal
chill
chink
chatter
chairs
chafe
lordly
trull
tripping
##iless
upro
factor
bristol
mul
mule
orig
orange
orisons
##illery
moans
mots
##feu
comely
hereof
enam
thanes
unn
union
unne
unaw
unstain
ungovern
wass
canidius
##unge
##unto
swounds
blench
blithe
argue
sayings
##ppery
seats
hoard
hosp
##umny
madcap
##icates
plumes
plunge
sage
pond
poland
poesy
poict
marrow
margery
##rig
##rick
##river
alarm
musters
disqu
disdains
agate
prosec
##olic
##olog
##peian
timber
##rop
##rose
exit
honne
honoured
##ptions
grafted
leer
leans
quart
qualm
quote
quiver
quoted
clad
clust
clod
claps
clutch
tellus
abort
abbot
abilities
timely
hearse
##acks
roam
roast
betime
##asses
warr
warlike
##eph
flats
flav
flung
flax
perdy
lease
##aging
##agant
##agues
earldom
grud
grub
artillery
##qual
##quent
scre
scouts
fairs
##angling
blooded
bloodless
wrung
erring
adrian
handmaid
##akin
lake
lafeu
partis
##berd
sweeting
jollity
councils
cannons
cannib
##eless
##elcome
standard
standers
slough
slumb
slavish
appeas
prec
pref
prejud
glor
headless
compreh
compassed
mightiness
##apolis
remiss
arming
begets
begotten
older
courser
indies
indict
index
newest
purest
purblind
graceless
##swain
repay
repast
repaid
replies
peacock
drain
harb
##tainted
bestows
bestrid
fortify
fortitude
confron
stillness
highway
smear
smote
thrall
sleek
quean
endear
stayed
conser
consents
consciences
monast
monkeys
besie
##ossed
belied
giver
gibes
curer
curio
curled
guile
guided
pac
##derick
kinds
bidd
impro
impiety
courtez
valorous
validity
antic
antium
antiquity
husks
peg
patr
pated
patent
subjection
parado
paramour
trap
cape
cavil
lightens
carp
carous
carved
carbon
overween
overflow
trophy
furies
camel
crit
##abouts
mislead
busied
attract
attention
edified
##rup
forged
happiest
honester
denis
dispute
disparage
youths
excel
signieur
burr
darling
runaw
phar
phrases
talkest
judicious
winding
provender
nearly
entice
##lois
##nerable
revenues
entering
halfpenny
believed
##ibilities
sorrowful
beacon
comfortless
railed
dict
singly
winner
winnow
foulness
discol
luke
sisterhood
serviceable
touched
toucheth
sounding
damask
groat
groats
peopled
murdering
airs
affable
craz
cracks
anglois
cheat
cheval
cheater
dogged
team
sinn
distil
distant
distaff
distrib
distaste
straws
skipping
expound
expose
exposition
caparison
gallops
birding
minions
footman
waver
favourites
graciously
warranted
beholders
burned
gawd
paste
deputation
bac
baff
acorn
surges
surgery
surrender
ruled
ruins
mortified
demure
knighted
knightly
captiv
incite
incomp
incapable
hotter
mouthed
garnish
professed
visible
##othecary
requited
esteems
blacker
sumptuous
attendant
watches
colt
dross
redoubted
##gniz
approves
valiantly
snar
snores
snakes
snares
extent
extol
penn
embow
embossed
englishmen
untun
untaught
weaken
weakest
recant
fees
hairy
crocod
apish
apople
apolog
apothecary
define
defile
##ixture
##gged
undoubted
hurly
hurried
troubl
adds
adders
bucklers
iden
feasted
gotten
lowliness
vehement
jesting
thirteen
bellied
moveables
understands
salanio
motives
feeder
hostile
guardian
fingres
spoon
##odest
elected
miranda
crossing
chancellor
verified
disgraces
forgetting
forgetfulness
nursing
claudius
excused
excrement
calumn
calumny
tarpeian
urch
possessions
encamp
unwelcome
birthright
insult
conquered
foolishly
virtuously
baboon
yearly
invincible
duller
neighing
destinies
approaching
posture
contrar
churches
pike
obeying
sched
schools
carrying
immodest
refrain
refused
palter
palates
mutually
sorted
forsaken
transpar
usurers
importance
stories
conceits
geon
violate
egreg
observing
tearing
neighbouring
plantain
clocks
bestowing
grosser
clearly
pinion
pinches
chastise
secretary
visiting
lodges
lodowick
swiftest
delighted
utters
loathe
loathes
shepherdess
fishermen
venturous
raineth
forwardness
complices
daub
westward
unsk
roared
rudely
turtle
turtles
amazon
unpar
##aldo
kneeling
brittany
unbur
unbru
uncon
unconst
earned
remembrances
ransack
savag
sauf
protestation
undertook
undertaking
enjoying
shuts
montano
montjoy
montagues
tyrus
counterfeiting
counterfeited
desperately
freer
frederick
tutors
heedful
ransomed
examination
wrap
displease
victors
gowns
picking
pleading
aims
sooths
grievance
slowly
cypress
thicket
exception
hydra
debating
tempts
derives
derog
derision
sweats
holmed
hunted
cracking
files
furniture
unlock
unloose
strangest
vexed
admiral
stabbed
exceedingly
vaward
buildings
violently
wormwood
positive
modestly
billow
billows
massy
informed
heraldry
trifling
stature
ballads
dumbness
forfeited
sinking
ungu
ravens
ravenous
citizen
fulness
fulsome
pillage
##adoes
infinitely
esteemed
vessels
mongrel
deceiving
dimm
rattling
ingrate
desiring
jointure
apparition
suspicious
donalbain
solid
solus
sparing
unseal
undoing
sceptres
islanders
boasting
procule
clerks
retirement
privileg
robbing
creeps
reckonings
supers
peascod
purchased
nephews
momentary
rejoicing
converted
currish
##scription
simples
inquir
shuns
adventurous
feelingly
dowager
revoke
censured
couples
oaks
wardrobe
whiteness
convenience
unmeet
monarchy
subdues
travelling
travellers
bounties
rubs
rubb
welshmen
nunnery
combatants
instructs
wailing
isabella
ancestor
unequal
perfid
perfumes
obscene
peering
ravished
venomous
volscian
volscians
germans
patches
##encer
seriously
disposing
estimate
determination
semblable
homic
tickled
nods
liveries
diseas
augur
prophetic
gamut
pursuiv
saturninus
sedu
bruis
taxation
conspirator
prompts
starveling
surfeited
##risy
blocks
outrages
exercises
subscrib
conveniently
triple
resisted
dieted
discords
blossoms
cinque
tumbled
deformity
bridle
confederacy
affrights
stephen
vanquished
lunacy
masqu
masks
vasty
thrifty
framed
conjurer
swaggerers
closes
closing
abbess
contending
impediments
antipodes
carelessly
surveyor
embassage
defects
defective
annual
helicane
capulets
extremely
indifferently
cripple
rudeness
upbraided
proverbs
engaged
obstruction
impartial
majesties
bequeathed
rigg
vineyard
##valu
habil
foresaid
enraged
wringing
provoked
aprons
pentapolis
sherris
magician
spells
favourable
leathern
entrap
buzzing
sympathize
tiring
prizes
magnific
unthank
boatswain
descried
overture
prettily
scarfs
hallowmas
reservation
austria
doleful
rehears
traduc
flaming
bespoke
inflame
broached
derived
stratagems
cools
gainsay
pudd
vesture
thighs
arbitrate
appellant
competitors
luxurious
buffet
buffets
surmise
hypocrisy
fulfil
celebration
annoyance
enlargement
rancorous
adjud
presumptuous
inconstancy
unspotted
syracusa
greyhounds
dulness
siward
primrose
unapt
hoarse
outstretch
uncleanly
incestuous
contradiction
supremacy
interpretation
dye
genoa
gashes
larger
russian
waning
sterile
brothel
conjecture
swinged
lawyers
juggling
exhibit
whirlwind
vizards
vacant
enthr
enthron
polonius
foaming
predominant
demonstrate
reference
riddles
meditating
dwarfish
arabia
cerimon
heathen
animals
sprightly
glimmer
smithfield
attribute
extempore
nursery
unprepar
basilis
reeking
anchors
progeny
lecture
gramercy
remnant
parlous
attentive
discredit
extenuate
penetrate
crossed
argosy
encompass
counterpoise
prophesied
multiply
material
perfumed
crickets
gyves
galen
ooze
pauca
vagab
myrmid
dexterity
goblins
envenom
dissuade
exterior
contaminated
smoky
besmear
suppliant
luggage
infallible
infringe
expostulate
libertine
tributary
alexandria
bonfires
multitudes
augustus
lethargy
extraordinary
unspeakable
unaccustom
disfigure
cowslip
crete
danish
gaudy
ilium
leeks
##monger
thracian
congeal
margent
repulse
threshold
interview
deflower
insurrection
imprimis
experienc
tapestry
distemperature
unprofitable
predecess
idolatry
caterpillars
bishops
bernardo
dardan
egeus
fealty
ptole
pepin
rialto
siby
touraine
thaliard
wilfully
foremost
##imachus
doigts
lionel
frustrate
maccab
unawares
poictiers
honneur
flavius
paradox
carbonado
crocodile
apology
transparent
unconstant
holmedon
proculeius
ald
aery
astr
bust
bough
bores
borough
bunch
cive
cable
cors
cumberland
cakes
cote
cinders
cicat
datch
dia
dates
dung
ell
ean
ewe
eaves
eton
fou
fade
fuel
flex
fume
fading
gab
gardon
gips
gnat
hight
hann
hilt
hired
hulk
ip
ivy
jay
jeph
kil
kib
lis
lank
lys
larded
mes
mord
mard
mason
mint
mention
nave
nuts
ov
oily
oub
pam
pion
pard
pish
pink
piss
pint
pester
panc
pont
pander
punk
pines
pots
paved
rake
rounds
rift
rote
sce
soo
ske
sam
sci
soud
sift
tan
tere
tore
tish
ties
tires
tiny
tug
tumbling
vell
vener
vines
videl
##iates
##tied
##tail
##tons
##teth
##sum
##sity
##bo
##bard
##bble
##oving
##osh
##oided
##low
##lude
##lots
##ev
##eath
##eus
##ext
##ections
##yards
##yton
##hear
##held
##aos
##ault
##aunted
##nut
##nets
##gone
##gets
##grav
##ral
##rus
##rity
##rains
##rcan
##core
##cies
##uble
##ucus
##dling
##fly
##fter
##fied
##mast
##mother
##mines
##msey
##ped
##pur
##pic
##pare
##pipe
##wink
##wack
##wives
##kest
##kward
##vir
##vous
##vial
##join
##jections
thrives
thwack
##oubled
##ero
##erals
##orc
##oras
##orum
##atives
##atiate
##inency
##isions
##isander
##ared
##arable
topp
##thag
##thah
nodd
noises
nook
whiter
whining
wield
##reast
##reement
beld
##ompt
##omenes
inly
inex
inev
##stones
myster
heb
heady
heif
heated
##owl
hac
haud
hacked
hags
shears
shins
shaken
shiver
##cease
##ceives
##leon
##leucus
##utor
##utches
fork
forew
forfeits
##cham
##chus
##chion
##chew
##chets
issuing
##irch
##irms
##etical
noting
##urable
##ims
withheld
wean
wether
stow
stup
stagger
staggers
stalls
##keth
##keep
##adles
asia
ascri
##asps
##asseth
##alogue
butts
butler
sop
sodden
sobs
pror
prent
prome
prone
prave
prab
prior
##allows
##entic
liby
licent
##orders
deci
##estine
franch
##ained
reins
recept
##uses
##ieth
goth
goal
suis
mab
mail
magg
##eaf
##eably
lop
lots
loser
loiter
lolling
losers
logger
allure
allows
allons
##terre
##terate
spl
spong
spice
spouse
spits
splin
sponge
spiders
knits
knead
knoll
knaver
neut
chir
chame
chalk
chins
choughs
cheshu
chaos
trent
tram
trun
trice
##ctify
thereabouts
mann
manacles
fable
fabric
amended
bray
bruit
brisk
mules
orient
orators
oratory
##ills
comet
comfor
##elled
##ellows
##few
convent
conrade
cometh
ense
ench
enamour
enacted
uny
unar
unle
unbe
unmer
unav
untainted
##antle
##otions
##otchets
canv
cankers
##untle
##unches
swath
swoon
swallows
blad
blanks
seel
##ulnerable
bob
bove
lovel
ard
arose
arden
whoso
seam
sender
seyton
seleucus
hogs
##umel
##icester
plo
plat
plies
plash
plutus
plod
plaus
sag
sable
saff
##astingly
##astroph
pois
poets
marring
##rip
##riety
alight
alice
alman
alps
alac
alisander
outb
outright
disse
disable
disasters
aginc
aggrav
agreement
##olv
twist
twins
##igree
##igious
exas
expend
exclamation
expel
exorc
godly
godhead
grape
graff
leas
leash
leop
quis
quaff
quod
quips
looker
clink
clitus
abrah
abjure
covers
cocks
eyed
awakes
awkward
brevity
strugg
ross
desk
desist
desper
descri
foison
foppery
wares
flush
fliers
flaws
perch
perfor
permission
perverse
perceives
leander
leaps
##agn
gris
gray
grate
grateful
scor
scent
scath
scum
scout
scenes
scutch
fairness
##anged
bloodily
wrested
erflow
ercharg
handled
handling
commerce
pleach
pledges
##akings
lave
lapp
laps
feared
lifeless
masterly
partition
##perance
##berus
jovial
hastily
##ipation
##iphile
slide
slime
slaughters
slavery
slugg
##ivol
owners
appease
approof
imitation
prem
preys
premed
precip
afar
afores
afresh
glut
glide
glib
glutton
emulous
##phet
##phies
worlds
comple
compounds
comprom
presages
prescription
contriver
contumel
##aching
downy
downward
remit
remission
poorer
armours
indisc
indulg
newer
repos
repossess
##oused
drone
finder
hares
bestir
fortress
fortified
misty
##shot
confirms
engines
sett
setter
##lily
smoking
thron
witting
witten
housekeep
consult
servitude
elf
elsin
monuments
beseems
faithless
##osity
believes
belarius
gib
curate
curbs
curfew
resting
restless
restitution
guise
guider
guerdon
welfare
woful
bides
falchion
counten
behoves
minding
villages
accompt
impet
impos
impost
impotent
tongueless
braves
braving
braken
bravest
meanly
valer
valent
antiates
drave
bedcham
peat
peal
pebb
pepper
patrick
submissive
needed
paras
trapp
travers
traged
traverse
caut
retires
meetest
erewhile
associ
horrors
##wept
justified
husbanded
carl
carpet
overb
overpe
overboard
overwhelm
trophies
hangings
furrow
morrows
sleepers
breathed
cru
crouch
crutches
crotchets
##iferous
useth
mislike
mispl
helpful
farmer
banner
pardonne
attest
attainder
forges
shamefully
##pected
##pective
suffra
marking
marked
lasts
##coal
yeomen
denote
silks
silenc
disput
major
install
opens
wanteth
##ials
cormor
persist
saws
returning
stripes
seacoal
fighter
##izel
voic
volley
winded
entit
promotion
##ibal
readiest
supposition
supplies
supplication
comforting
founder
raised
ravin
singer
singled
situ
winning
beseeching
fittest
tying
lucy
touchstone
coldest
remembering
conduit
condole
doubtfully
pitying
purposed
purposely
infus
affin
affiance
affront
craving
musing
musco
angers
trusts
cheers
cassibel
teen
sinner
sinners
delicious
skir
commonly
cleomenes
gallow
gallery
galliard
province
mincing
minority
prisons
tenants
gravel
gauntle
pastoral
satin
acres
surfeits
rugged
morton
divul
divines
divisions
incarn
possibly
hotly
garr
garlic
hellesp
visages
deepest
required
blackness
casts
fasts
mala
malmsey
tendering
delivery
delivering
wondering
regreet
intermission
interlude
extant
benison
penth
petter
embat
embraces
untru
untrue
speeds
speeding
legacy
scarr
scared
laund
bosk
shortness
recourse
recomm
oppressed
apron
defied
defences
default
plainer
scorning
stirrup
undaunted
##iffs
closed
teachest
walled
creating
sportful
respecting
respective
privily
buckles
buckler
ambles
flatters
christo
fetches
bitten
painfully
similes
vehem
lordships
robbed
evasion
mainly
##ernal
wildest
bellows
milks
milius
pitifully
pitiless
offerings
admonish
absurd
salutes
christening
sighed
doublets
limp
limed
limited
hostages
hostility
lusts
lustful
healths
acquire
hundreds
spokes
cardinals
blew
bleat
elect
knocked
joiner
veriest
forgetful
drowns
bondmen
smaller
effectual
matches
matching
seconds
performed
consenting
dangerously
ordering
ignomy
tarried
targets
innov
student
possesses
shares
unwise
inspired
insupp
insatiate
chopped
northampton
yearn
invested
invocation
claribel
sixty
clouded
destin
counterch
approacheth
portent
portend
portents
posting
contraries
horned
departing
rounded
melun
unheed
unholy
unhands
unheard
unfirm
unfeeling
severity
severally
properly
properties
avail
reflect
tastes
palf
pales
blinded
blindness
mutter
mutinies
dishonesty
throes
usurps
importunes
concealed
shapeless
authentic
violation
successive
credo
owest
observed
sharply
catches
blushed
innocents
hopkins
clears
embracement
equity
pinn
holly
oddly
viewing
lodov
swiftness
dais
daunted
committing
philot
volumes
endured
cattle
catalogue
catastroph
cunningly
duell
considering
changeable
propagate
complot
unsay
unsafe
kneels
elders
figs
figur
revolve
revolting
heroical
bodied
bodily
grandmother
repented
largely
turkey
charmed
brightest
unpaid
unpitied
fingering
##bbler
waked
british
brittle
unbuck
circled
barely
pricking
pythag
envied
savages
sailing
benedict
slanderer
sensual
sensibly
professions
customs
customers
perfectly
mountaine
searched
varied
varlets
ducdame
squar
squad
squires
started
fruitless
examined
betrayed
thrusts
thrusting
gallantly
kindnesses
solemniz
wracked
combin
victu
cured
dignified
pickle
greybe
stormy
borrows
borrowing
soothe
hating
thickest
shedding
excepting
digress
hyrcan
languages
##plus
debosh
confirmed
derby
milder
conjunct
leaning
leanness
opposing
irreg
infects
presses
unkindest
schoolboy
earnestness
filch
napkins
nakedness
disdaining
tempests
benefactors
tediousness
bulls
bullen
sprink
armourer
accuser
profitable
outwardly
scotch
prevails
escapes
cockle
suspects
rashly
stabs
flowery
beguiled
tarrying
tortures
vaulting
vaunting
sticking
impossibility
unknit
porch
sourest
position
burgonet
afflictions
unworthiness
unhappily
pronounced
gardiner
mercen
familiarly
familiarity
binds
statute
gratitude
gratulate
assistant
specify
rhenish
superf
mounteb
pillars
taming
tended
tenders
tendance
##coming
spurr
rocky
intellig
intelligent
cuckolds
esperance
fantasies
monger
dissentious
prodigy
prodigies
crowd
diminish
ireful
ratify
ratified
##flies
##atories
inheritor
jointly
unfolded
donation
kentish
southampton
sanctify
sanctimony
sparrows
unseason
straining
trembled
crafts
expedience
shifted
islands
reaching
handkercher
habitation
appetites
belonging
records
bagpipe
rapine
converting
simpleness
gardeners
nero
inquis
inquired
societies
adoption
adventures
botch
nonino
nonpare
chidden
##rosy
rods
flatly
flattered
flourishes
odours
odorous
goddesses
rubies
remorseful
beautify
nimbly
conceived
cozening
cozenage
scurr
scruples
lapwing
miscreant
cloaks
matron
matrons
pedigree
ancestry
uneasy
helmets
barbarism
cleanly
patched
aspects
splitted
splitting
poetical
sufficiency
ruffle
determinate
naming
unreasonable
leprosy
florizel
flouted
diles
##parable
meddling
dolours
prophetess
neglecting
fretful
fretting
renders
rendez
spanish
manifested
consumption
distressful
rebukes
athenians
concealment
bereave
cudgelled
fervour
tuned
rearward
bruised
bruising
everlastingly
wrinkle
substantial
prompted
victories
surfeiting
suggested
spectators
slipper
indignities
drunkenness
decayed
clerkly
coxcombs
nourishment
frosts
sparkle
outlaw
agreeing
flocks
bracelet
assaul
supposing
snatches
achievements
superfluity
acknowledg
cinable
doricles
omitted
puling
pulpit
rarer
rarity
roofs
champions
politician
morris
vassals
hawking
butterflies
malef
amendment
conjuration
unmanly
restored
bawcock
baiting
limbo
shrouded
puppies
beguiles
tuft
resembles
##ification
vanished
dissolv
rheumatic
hoodwink
thoroughly
crammed
differs
finished
enriched
dumain
dumps
espouse
gorg
lamely
rigorous
likest
sequence
sequester
rolls
rolling
lackeys
controlment
shrieks
subdued
soliciting
substitutes
rabbit
vital
whistling
enchanted
likelihoods
curiously
restrained
inhabits
domine
euriphile
panting
pantler
whetstone
stumbled
disob
scanted
falconbridge
impudence
skulls
obscured
enfranchise
fathoms
kernel
lulla
wagging
##pole
chafes
traders
tradition
congealed
swounded
bolted
alarums
cobham
consists
remembers
assuredly
fangs
sallet
muffler
abundant
scaped
appellez
competitor
industrious
eloquent
meteor
surmises
incurable
huntsmen
loos
unchaste
discovers
harlotry
crispin
crispian
extrav
excuses
ignobly
insinuating
imaginations
gonzago
bourbon
ditty
jarring
lingers
foretold
meekness
fragrant
fragments
chaplain
consecrated
separation
separated
disclose
abstinence
betrothed
parthian
temperately
angleterre
established
disobedient
covetousness
fencing
largess
thwarting
thwarted
beetles
sulphur
upholds
conjectures
arrogant
breech
indenture
indentures
disprove
disproportion
intrusion
murmuring
preposterously
gelding
gelded
panth
vacancy
anatomy
mandate
polack
greediness
twinn
scraps
scripture
laboured
intercepted
meditations
environed
hyperbol
escaped
sinewy
advertisement
niggardly
cerberus
essent
fustian
felon
tangle
tottering
shrug
mechanic
mechanical
fronts
munch
enclosed
waspish
flashes
scabbard
endowments
misbegotten
demeanour
memorable
basilisk
spritely
cherubin
cherubins
tumultuous
borachio
teeming
varying
threescore
hazel
hazards
choosing
chickens
lecherous
covenant
covenants
##istinguish
flayed
sluttish
prescribe
carcass
misconstru
illustrious
unmatchable
avez
effusion
ninny
ott
southern
nostril
ingred
inveterate
haggard
stamps
unadvis
swerve
floor
pertains
glistering
reprehend
gibbet
curtal
cavalier
cruelly
deceased
bulwark
interchangeably
eclipse
phrygian
aveng
cottage
hoofs
vomit
vilest
vicar
vulture
fornication
stoup
prudent
reversion
sundry
sparta
uplifted
bristle
enkindled
quirks
naturally
passengers
crescent
sentinels
vocation
discourses
metaphor
translated
dauntless
thunderbolt
imperfections
epithet
diminut
dutchman
consummate
discomfited
perturbation
anatomize
abridgment
cipher
dizzy
masham
neeld
poniards
sanguine
umpire
shooting
uproar
unnecess
disquiet
prosecute
abortive
cannibals
slumbers
prefix
indictment
confronted
monastery
besieg
curiosity
patrimony
overweening
discolour
gawds
incomparable
##gnizance
apoplexy
troublous
schedule
egregious
unskilful
soothsayer
derogate
perfidious
homicide
habiliments
unthankfulness
adjudg
basilisks
multiplying
vagabond
myrmidons
predecessors
civet
datchet
foully
hannibal
jephthah
lysimachus
mordake
mardian
tereus
venerable
videlicet
inevitable
mysteries
prometh
prabbles
libya
licentious
spongy
knaveries
chameleon
trunks
comforter
unavoided
saffron
alacrity
agincourt
aggravate
abraham
desperation
aforesaid
wittenberg
elsinore
brakenbury
bedchamber
pebbles
pardonnez
cormorant
cassibelan
hellespont
christopher
unhandsome
lodovico
catastrophe
pythagoras
benedictus
nonpareil
rendezvous
az
aer
aur
aile
bom
boo
bans
biss
balk
bled
bats
bung
bots
border
bomb
cite
cister
cels
caud
cement
celia
dad
dight
dand
dong
dout
dough
dip
dump
dries
eighth
fay
fad
fied
fier
fins
fub
font
folk
faded
fug
gil
gory
gatories
hes
hent
hous
hull
ii
ib
ild
jut
jell
jury
june
jaded
jamy
jangling
ket
kid
kine
lou
latch
loop
lunes
lisp
larks
leman
math
maint
mush
masc
mixture
nill
noun
nag
nip
nets
nipp
nnight
nips
oven
osw
omn
oars
pes
pome
pight
peak
pies
porn
pia
pens
pouch
pash
pork
pump
pours
poop
pants
pann
piled
ray
ral
rus
rand
rice
reech
rents
rago
rapes
sip
sieve
sally
sque
tad
tard
tout
tip
tatter
tuck
tester
tours
tourn
tinder
vor
vip
vane
vicer
wy
wade
##iw
##ien
##iad
##iath
##iave
##iory
##iences
##ictions
##iwork
##tice
##tary
##tels
##sl
##sest
##ball
##bine
##bows
##bub
##bels
##bler
##bane
##oom
##osel
##oise
##lon
##lent
##laid
##lenish
##ender
##eathe
##yon
##yan
##hall
##hill
##hap
##aving
##avour
##nus
##name
##nance
##nker
##ga
##gan
##gate
##rence
##romach
##cot
##city
##ceness
##cerous
##uan
##uities
##dg
##dock
##drew
##diction
##dnus
##fry
##fellows
##ma
##mies
##mens
##mock
##masters
##pri
##pick
##pond
##powder
##word
##wine
##watch
##woman
##know
##vis
##vice
##venty
##voc
##ville
##zine
##zwater
##jor
tho
thon
thim
thie
thiev
##eron
##eries
##erits
thess
##nded
##orable
##orical
##orseless
##atine
##atical
##inue
##inqu
##inado
##initive
##lla
##esnes
##esseth
andromach
##iser
##isle
##iseration
##issez
##arr
##arned
toll
toes
tost
topple
toasted
younker
##encing
##onven
##onians
##there
##tham
##thol
##anery
noont
novel
whey
whipt
wider
wizard
##rear
##rements
##regn
beak
bewept
##omies
##omfort
##omites
inse
inest
inund
##stantial
hect
##owess
hams
haunting
##seilles
shack
shire
shave
shotten
shanks
##leg
foren
forage
foreth
forrest
forcing
forcible
mec
mender
meats
##chem
##chool
##erel
##erets
isid
isbel
##irrel
##iramis
##irched
##eted
##eteen
notion
##urg
##uries
##urbed
##imy
##imm
##imp
##imation
##imable
##imitar
withdrew
##ito
##itted
##itory
##itches
##ittish
##ittary
wend
weav
stile
stench
stanch
stakes
stoops
steter
stools
stigm
thistle
asks
ascends
aspic
##asant
##alion
##alted
butchery
sob
soles
sophy
softer
prest
prun
pries
prains
primer
prowess
##ently
##idable
##idian
lipp
libr
lizard
onion
onset
willough
deip
deities
deanery
##estion
##estration
fring
frames
frivol
##amor
##amore
##amage
##amond
reed
reclaim
reeds
reyn
rectify
##cken
##ioness
##verent
##veril
##verted
##rands
##raff
##racing
gos
gond
goble
sull
sult
sully
mah
maz
maze
maug
##eased
loads
losest
allot
##geia
sph
sper
spet
spra
spun
spak
spru
spends
spouts
##ights
##andered
knog
nem
nevil
chea
chough
chert
chipp
chants
chorus
trains
trots
goodw
goodliest
thereat
thereunto
manor
manes
manors
manacle
mannish
upr
facing
ate
atomies
nowhere
amounts
brats
mudd
mulier
muzzle
ort
moll
molt
moys
molest
mobled
confection
##ineth
hereby
hereabout
ensh
ensc
enigm
unr
unat
unic
unco
unking
unlet
unac
unpr
uncover
unres
##anto
##anta
##antas
wasps
cancell
##unities
swor
swar
swam
swart
swash
howbeit
blur
bladed
blamed
bloom
##uls
##uling
##uline
##ulty
boils
bogs
loveth
arc
arbour
aroint
whosoever
whosoe
whenas
##ppered
usest
usher
##ished
semp
seventy
hoy
holily
##ums
madding
madded
##ican
##icers
##icient
##icated
##icular
##icament
plaint
plung
sax
sakes
##asty
popp
ponder
poys
mares
marri
marries
mariner
marjor
marseilles
ales
alar
alph
alab
altered
alchem
outsw
outli
distain
disjo
disarm
disrobe
disjoin
disorders
diseased
agen
agents
agues
##ortable
prose
prolix
proscription
##areth
tool
tools
##olfe
tisick
##peth
##peius
timandra
##emen
##ember
##ematic
##rob
##rogr
exist
exult
exaction
exigent
exactions
exalted
godfather
godfathers
grav
graft
gravy
leven
levell
leicester
quin
quid
quand
quot
quire
quint
thinkings
lookest
clift
clouts
claws
abated
abrupt
abram
abreast
copp
coign
coated
coher
cogging
cophet
cognizance
norman
norwe
normans
awa
fatherly
breather
##urnt
strides
strays
hearth
roe
ropes
rogu
betid
betting
##assus
offal
menace
fogg
fogs
foams
foemen
warms
flute
persec
periw
leagu
##agio
earliest
grange
grains
grumbling
##outez
nightwork
##quy
##quainted
scan
scam
scone
scull
screw
scaff
scott
scann
scoured
scrib
scorp
scowl
scimitar
##angle
bloodsh
wrings
callest
erh
ercome
erfl
erupt
erboard
erheard
adri
adher
handiwork
commiss
commits
commune
commiseration
##akers
lawn
laissez
fearless
##ilet
##ileth
##udes
##uding
partaker
##pert
sont
sonnets
standest
standeth
standards
slo
slink
slower
slug
sliver
##ivor
##iving
apples
appert
appeach
dub
ducks
dubb
dugs
bearers
brotherly
glances
##phis
##phon
##phne
nameless
comply
pressed
prescience
contrib
contriving
##ache
remark
removes
removing
remorseless
armipotent
armagn
begone
oldest
nothings
foolh
coursers
inde
indig
induc
newt
newness
purer
graced
evenly
meritor
keepest
repents
repays
repairs
repres
replication
replenish
twos
peach
drest
drud
drones
droops
harlots
puttock
bestial
bestrew
charters
chariots
firstlings
liveth
livelong
mistak
##shell
confl
confused
conform
underw
undermine
engl
settle
smokes
thrill
throned
queasy
endamage
witt
witless
fortuna
helms
conson
consol
servitor
elm
elbows
eltham
devours
devoured
bringer
reside
resume
residing
curl
curd
curds
friended
##alkin
fallow
hums
resteth
guiding
##ensation
pah
paw
paci
paunch
##ieldy
oblo
objections
kindest
answerable
woven
biding
fals
womanly
countless
behove
sars
presenteth
treats
trebles
accum
accounts
impute
impawn
impregn
brandon
meanings
meanwhile
passado
passport
antiqu
drach
##cloth
forthcoming
bedew
bedded
saidst
backing
peard
pebble
peppered
pates
subs
paring
parings
cav
capp
retail
retention
meetings
crowner
erection
erected
erebus
assum
horum
horace
##weth
wronger
justicer
lighter
lighten
carv
cared
carters
carouses
carping
hangers
furred
weariness
wearisome
thankings
thankless
cramp
crassus
##ifice
caused
lawfully
misch
misused
helped
helpless
banns
sentenc
sententious
attires
attired
edges
##rups
##rupter
forgets
suffocate
advant
markets
illum
illusion
##cox
denoun
denier
silius
disport
barric
barthol
instigation
wantest
wantons
swearers
corin
corres
coragio
signet
signified
signories
signifies
signiors
stripp
stricken
faulty
firebrand
johns
burgh
burying
darnel
intimate
phee
phantas
##izing
murrain
joyfully
sunk
sunny
##ubstantial
entail
entomb
promotions
hardiment
##onso
##onsider
enterpr
##ibb
##ibus
##ibble
##opa
beaum
foundations
##versary
dives
diable
divert
singe
furtherance
foulest
workmen
discard
metals
metamor
senis
senator
fitteth
fitchew
fitzwater
luces
sounder
damm
damsel
damage
damosel
bugs
buzzard
protract
infam
infold
infuse
infidel
infernal
affability
crabbed
crawl
sadder
angling
sighted
sightless
chequ
cheated
cheveril
dogg
sinon
dreamer
dreamed
hateth
delphos
skim
skirm
skittish
cutter
cutpur
certainties
capet
capers
capilet
cleaving
galling
terribly
provident
minx
minim
mineral
footboy
wav
warrants
bounded
gale
gaited
gault
gazes
gaberd
satire
satiety
baits
bacon
acre
acute
academ
surer
surcease
laden
lading
mortally
venuto
demerits
demesnes
activity
divides
divination
divining
eater
incred
incident
inconven
possibility
garg
garters
warwickshire
learns
visag
visits
visions
##othy
deeps
estes
blackest
confesses
confessing
confessions
jewell
summit
casting
faultless
watched
personage
personally
colic
colts
coloss
reduce
redeems
redoubled
quarry
grounded
fastolfe
malcont
##ronom
##ronius
regia
snore
snout
snip
snap
snapp
sneap
snug
interior
exton
extir
extract
pencil
constrains
embold
##aculous
untr
untir
untoward
untutor
untender
woefull
speediest
legg
legion
legged
scarcity
laurel
##uously
softest
shortens
weakly
excellency
##lications
gladness
messes
pointing
traitorously
lammas
talent
talons
apost
aching
acheron
defer
deface
defunct
plaints
badness
badges
wasting
undis
undiv
undistinguish
grants
hurry
##ecost
teacher
teacheth
sportive
privacy
##agging
addle
bucket
bookish
idea
ambig
ambling
##umblest
bitch
campeius
lowness
simois
broom
darkling
chambermaid
##erns
milch
milia
marchioness
forehand
foreknow
streak
streaks
absolv
cheering
sala
salad
christmas
motto
detraction
fillip
feeders
casements
lustier
lustily
treasonous
stealer
spoons
easiness
briefness
eleg
miraculous
bowls
occur
occident
mastership
chanced
jointed
satisfying
verges
disgorge
promiseth
nurt
matched
freshest
excomm
caliver
ignomin
tarre
urn
urine
urged
inns
studying
argal
argus
hammers
unwash
unwieldy
seconded
vowed
midway
midsum
insensible
conquers
northward
babble
babies
inviol
inviting
invulnerable
dullest
counters
countermand
counterfeits
practising
bastinado
portable
portends
sealing
lending
pigeon
woodman
woodbine
susan
measured
schoo
unhand
bitterest
unfix
unfriend
unfinish
unfledg
athversary
severals
properer
propertied
dispatched
pompeius
avar
girt
##remov
paly
paler
shrive
shrinks
shrinking
dishonours
transgress
importunity
conceives
gender
continues
virginal
viola
successfully
successively
credent
credence
sharpest
sharpness
friars
blameful
neighbourhood
dismember
expects
clearer
clearness
equals
pining
yok
livest
chastis
requested
torrent
defendant
uttering
daphne
topmast
dealer
loathing
loathly
loathness
persuading
volupt
voluble
blessedness
protects
intendment
rainy
rainbow
prophets
complots
potions
unsought
unsuit
unsanct
unsavour
##zebub
extremities
triumphing
shrewish
decays
decision
decorum
revolution
bodkin
grandpr
preparations
fleer
memories
mending
stuffs
unpol
unpriz
fewer
##bbing
glassy
unbol
unbound
unbated
unbutton
fondness
maidenhood
accords
angerly
protests
undertakes
undertakings
professors
reverse
produ
produc
perfected
montgom
freed
freck
frequent
varrius
heedfully
weightier
emptiness
emptying
condemns
condemnation
expressure
circumvent
circumfer
danced
squeak
squash
squirrel
startle
startles
conveyed
egyptians
ranker
rankness
##spread
trials
differing
befell
allowing
combination
combating
affecting
victual
driving
dignifies
frighting
spiteful
pleads
pleaded
usurped
usurpation
aiming
borrower
discoveries
conducted
cyn
cygn
cydnus
cythere
thicker
beweep
bewail
impert
preserver
preserving
preserved
maintains
determines
protectorship
sorel
debase
debated
tempting
temptation
conjures
contempts
learnedly
opposites
hollowness
hungar
hunters
iris
irrel
rendering
archer
archers
treading
schoolmasters
filial
furnace
skills
skilless
beneficial
bullet
wags
sprays
alias
armoury
conferr
berwick
fiction
rooms
prevailing
purchasing
epist
escoutez
dotard
cockat
apprehends
apprehensive
apprehensions
misshap
andronici
stables
suckle
locking
compassing
deservest
bawdry
tombs
impossibilities
buildeth
finest
fineness
funerals
lengthens
##blance
shops
training
trained
seese
posset
abusing
slighted
slightest
unworthiest
pronouncing
martext
mercies
confounding
##nawn
inventor
inventions
statues
facility
assisted
censures
bluntly
waxed
neglection
calmly
withering
sentenced
chastely
hindered
pillar
pillows
spurring
accepted
cuckoldly
mongers
clamber
dimensions
dimpled
testimon
inherited
repeated
repeals
desirest
foxes
pitchy
pitched
donc
rumin
rumours
tamely
stretches
spares
unseasonable
leaping
gloze
bushes
inky
halloo
reaches
procur
destroying
pinched
jaun
millstones
weathercock
declined
ordnance
experiment
quenching
pompous
befallen
lenten
##resseth
spleens
knotty
knotted
blasting
collect
collection
college
discretions
milky
candy
candied
grize
gripes
jule
july
moods
harshly
harshness
monumental
baptism
botcher
nonce
pandars
priami
revives
tapsters
toothpick
flourishing
journeys
couching
gidd
lattice
odour
warder
whitmore
lifts
lifted
dependants
applied
merriest
redeeming
petitioner
budget
sicyon
strove
spital
wrestled
errs
errun
beautified
liberality
nuns
inhib
inwardly
stamped
spreading
cozeners
lapis
exampled
stubbornness
lincol
mattock
moralize
oracles
palmers
coronets
recompens
additions
succeeds
gerard
rustic
stinging
scouring
reserved
tremblest
disposer
ruffians
stopping
medicines
narbon
##ugal
noddy
steeple
unreverend
unrelent
unreverent
florent
flouting
adamant
##clamations
causer
crests
divorc
features
fleeting
pulls
pulled
ribb
historical
copied
perpetually
perpetuity
begetting
potentates
scratching
scratched
gaming
measuring
solicited
rendered
polec
levies
leviath
scatters
pursuing
accidental
barns
bargains
concealing
pilgrims
ferret
sedition
sedges
seduce
bruited
browner
prologues
exhort
clotp
perdu
advertis
appointments
harbours
conspirators
feverous
jesus
peeps
somewhere
commodities
comparative
deposing
dropped
hungerly
batters
ceas
cooks
gnar
nourished
stoutly
steads
defeated
tripolis
mantuan
consequently
enfee
seized
seizure
resistance
supposes
achieved
achievement
continually
threatened
rheims
narrowly
dorothy
rareness
chattels
bridget
blotted
procession
fortunately
inferr
strawberries
surprised
especial
impatiently
bachelors
females
morgan
masques
pathetical
thriftless
hawks
butterfly
conversant
swaggerer
grained
obtaining
obtained
quarrelsome
shrouds
sufficiently
ripens
popilius
contemning
mistrusted
resembled
resemblance
opportunities
inclined
dissolution
suggestions
crier
darted
lurks
tainting
shouted
froze
swims
plentiful
plentifully
plighted
compelled
cramps
displac
majestic
diffus
lucina
trespasses
culling
espy
espous
espies
espials
fowls
vinegar
liked
mastiffs
ensn
sweeps
sequestration
sapling
altitude
altars
lewdly
abatement
straying
crushed
shrieking
lodgings
tyrannize
stabbing
pentecost
whelps
unlikely
postern
posterns
confined
guildford
handsomely
ruthful
contemplative
bien
europa
hemlock
stumps
mummy
unthought
unsheathe
bolting
ploughman
descant
criminal
ungently
enfranchis
austerity
causeless
dedication
gunner
gunpowder
reformed
unquestion
taverns
perseus
consistory
branded
disprais
divinest
maliciously
resolutely
acquitted
acquittance
blemishes
triumphantly
epitaphs
bubbles
cooled
fangled
pelican
riveted
tike
beamed
muffle
arbitr
prediction
predicament
glowing
impressure
patroness
parching
incurr
maidenheads
circumstantial
unlawfully
upbraids
casque
fidel
gules
ratsbane
brimful
brimstone
orphan
orpheus
molehill
cloyed
glanced
compuls
composure
misprising
attorneys
happened
razed
interrupted
interruption
constrained
insinuation
amazedly
uncertainty
dominator
sigeia
sessa
##manship
withholds
fragment
releas
spherical
chronicled
bribes
unstaid
canopied
sextus
separate
outstrip
harpy
draughts
subornation
childishness
carrier
rapture
singularity
coverture
eagerly
gnawing
braggarts
genitive
gasping
russia
russians
votary
nominate
nomination
nominated
shapen
sterling
canoniz
boiling
arragon
plumed
plummet
erpingham
erthrow
smocks
devoutly
treasures
implor
distilled
profanation
requiring
defiles
refusing
bewitched
juggler
favouredly
adulteress
adulterate
astronom
dainties
hooting
panther
beckons
soaring
revelling
disfurnish
flags
scrape
predominance
humbler
capering
incontinency
unwillingness
riddling
sycamore
augmented
centaurs
advertised
perplexity
arabian
essence
fusty
felic
pallas
pagans
ranges
tilting
tinkers
yawning
animal
enclos
unfelt
grinning
grinding
presageth
queller
farthingale
expiration
extemporal
hammering
shipwright
magistrate
undeserver
undeserved
blaspheme
blasphemy
fiddle
fiddler
icicles
icarus
rye
reeling
shuffle
shuffling
anchises
chooses
amply
ampli
progenitors
lectures
gramercies
scarec
ergrown
controlling
remnants
carnal
inflaming
crosby
sorceress
sorcerers
argosies
counterpois
uncurrent
vaulty
vaults
clergymen
cricket
arrived
waggoner
foretells
minstrelsy
custody
ebony
ebbs
ludlow
nineteen
otter
pendent
ravel
surnam
surname
tasks
vials
novice
nostrils
tripped
unadvised
disbursed
twinkling
communicate
appertaining
inducement
reprehended
gibbets
##weighs
sincerely
viperous
sneaking
ribands
verbal
executing
executors
reverently
abhorson
bulwarks
vigilant
vigilance
difficulty
congregation
eclipses
forerunner
scythe
phrygia
cashier
dazzle
gamesome
ivory
kerchief
kersey
langley
mitigation
mitigate
osric
palsy
reels
ramping
tattling
tetter
tetchy
valley
valleys
##ynna
##hobus
injunction
hempen
shovel
stifle
stifled
frogmore
machiave
specul
speculation
blustering
semiramis
plackets
dislikes
disinherit
disinherited
scoffs
erswell
lazar
appliance
appliances
preva
prevents
subtly
carbuncle
misgives
bugle
arguing
temporize
turbulent
irrevoc
irksome
epicure
dissolutely
gambols
unthrifty
votaress
mandrake
unfeignedly
equivocator
mental
pewter
sardis
ulcerous
yorks
stalks
steeled
friday
reliques
lobby
origin
wassail
hospitable
roaming
grudging
adriana
partisans
prejudice
glorify
harbinger
conserves
courtezan
anticip
pegasus
burrs
runaway
pharamond
dictynna
wavering
baffled
embowell
calumnious
urchins
unparallel
unbruised
unconf
savageness
unguarded
inquiry
augurers
pursuivant
seduced
puddings
enthralled
glimmering
ptolemy
sibyl
alder
bustle
cicatrice
gabble
gipsy
kiln
lisping
ovid
pamper
pancakes
sciatic
hebrew
heifer
ascribe
prorogue
prentice
decipher
receptacle
splinter
neutral
chalky
convented
unarmed
bladders
platform
plashy
plausive
sagittary
alighted
almanack
dissever
exasperate
leopard
sluggard
premises
premeditated
compromise
contumelious
reposing
wittingly
guiderius
impostor
valeria
valentinus
parasite
cautel
carlisle
overpeer
crupper
suffrages
entitle
muscov
gauntlet
garrison
malapert
penthouse
untruths
boskos
vehemency
innovation
insupportable
countercheck
portentous
pinnace
philoten
squadrons
victuals
irregular
sprinkle
mercenary
mountebank
assaults
disobey
extravagant
essentially
ottomites
cavaliero
unnecessary
promethean
bombast
booty
bisson
cistern
celsa
caudle
dighton
fierceness
fubbed
fugitive
gilbert
hesper
ibat
jelly
mathematic
maintenance
masculine
oswald
omnipotent
peseech
ralph
russet
random
reechy
ragozine
vipers
viceroy
wye
thievery
thievish
thessal
andromache
noontide
novelty
inestimable
inundation
isidore
steterat
library
willoughby
deiphobus
frivolous
reynaldo
##raffed
maugre
spruce
chertsey
muddied
molten
unicorn
unacquainted
unprun
sempronius
marriages
marjoram
alabaster
outlives
clifton
cophetua
norweyan
foggy
periwig
scaffold
scottish
bloodshed
eruptions
adheres
commissions
armagnac
meritorious
represent
obloquy
impregnable
enterprises
skirmish
gaberdine
colossus
excommun
ignominious
midsummer
inviolable
unsanctified
unsavoury
montgomery
circumference
cytherea
irreligious
misshapen
lincoln
unrelenting
machiavel
irrevocable
mathematics
ai
ail
ains
aub
auss
bou
bin
bess
bang
bake
bates
bons
bals
bask
baked
bisc
bunches
cere
cul
cum
cice
cack
cree
cumber
cites
cuc
cantle
dile
dens
dint
dalm
dowers
dully
dern
daw
dites
dapp
eter
eft
eels
ebon
fere
fout
fans
fens
fund
fount
fern
fann
filed
fumes
fencer
gord
gill
gurn
gel
gens
gaud
gapes
gagged
gilly
gimm
gnawn
hou
hud
hange
hoops
ion
ith
iii
jan
jord
jill
jart
jau
jure
jol
jason
jac
jaw
jane
janus
jeshu
kir
kit
kend
keech
lid
lus
lard
lure
lown
louse
leech
lated
links
lards
lining
longe
lakin
mous
mows
mesh
mores
menton
malkin
nit
ness
nio
nib
nape
napp
nipping
ninus
nasty
om
oat
ore
operate
pow
pid
pore
pic
pout
pans
pave
peel
pipp
pelt
poured
poult
pensive
pumps
passeth
rou
rin
rant
rind
ration
rony
rump
ripp
rural
rann
routs
sere
sill
salm
science
samp
sandal
sciences
sfoot
tus
tel
tench
tory
tib
tipp
tully
tumb
tank
tips
teems
umb
umber
vl
vet
vel
viv
vend
vied
vents
veal
vides
vaud
vray
wad
wain
wry
wist
wince
winks
wots
wann
wails
waded
yer
yel
yesty
ycle
yarn
zen
zur
zod
##iare
##iered
##ihood
##ikins
##tim
##tal
##tus
##tony
##si
##som
##sil
##spect
##ssed
##bur
##bell
##bone
##bate
##bish
##bare
##bts
##bears
##bures
##bark
##bread
##bleness
##bulous
##basket
##burnt
##oi
##oh
##oble
##occ
##oder
##oison
##oats
##oils
##lg
##lay
##lim
##lord
##lins
##lains
##lars
##lips
##layer
##eis
##ept
##eges
##yrian
##hers
##horn
##hib
##houses
##homm
##heath
##acc
##aian
##aeth
##aired
##ainders
##auling
##aoh
##nest
##nard
##nows
##naw
##got
##grown
##gia
##gates
##gays
##gora
##giving
##rive
##rum
##rings
##rench
##rions
##rices
##rations
##rane
##rinth
##cas
##cery
##cake
##cled
##cenet
##cote
##cative
##casus
##ued
##uus
##uic
##unds
##uist
##ucon
##ualties
##uerdon
##dis
##down
##dia
##dled
##dities
##fes
##far
##fth
##fish
##fern
##mar
##mut
##mur
##main
##mus
##mill
##mire
##mel
##meg
##maker
##pan
##pse
##path
##pose
##pass
##pret
##poke
##pered
##piece
##pina
##pitude
##pulous
##pitable
##prop
##wer
##wor
##wear
##wling
##wif
##wark
##warm
##wsey
##wauling
##va
##vre
##vise
##vors
##vident
##vres
##zards
##xen
##xom
##xico
thriv
thriving
##ouple
##erga
##erva
thews
theoric
##nde
##ndour
##ndice
##orb
##orre
##orish
##orals
##orters
##oriferous
##atians
##ateral
##inst
##inter
##ints
##inable
##inents
##inations
##inarily
##ller
##llery
##esby
##escend
##isdiction
##arb
##arse
##arging
ton
tofore
toils
toler
topping
##enia
##enets
##enomin
##onis
##onious
##onted
##onition
##onne
##onnet
##onshire
##then
##thood
##thia
##thead
##thume
##thog
##thread
##thrift
##thecary
##anes
##anth
##anate
##anqu
nois
noah
nodded
nointed
whin
whine
whits
whiff
whites
whales
wharf
wiv
wick
wiles
wiving
wived
##velo
##veying
##reas
##reath
##reus
##reys
##reux
##requent
bez
bends
beto
beag
bevy
becks
bechance
bemo
beadles
bemock
##oms
##omon
##ombed
##ingled
##ingling
inord
inmost
inforce
inscri
infortunate
invert
inlaid
inacc
##stle
##sted
##start
##stool
##stenance
##stitute
hege
heure
hewn
hedg
##owls
hales
haled
hacks
haunch
##sets
shes
shro
shady
shag
shud
shred
shaf
shunning
shog
shards
shov
sheds
shaked
shivers
shriving
sheaf
##ceding
##lemain
##uting
##utter
##utted
##utations
forci
forts
foresh
mends
mexico
##che
##chered
##chards
##cheek
##charged
##ereth
isles
isbels
##ircle
##edg
##edst
notary
notify
##urt
##urst
##urse
##urath
##imers
##imau
##oothing
itches
iteration
withers
withstand
##itage
##itless
##itius
##itled
##itations
##itably
##itements
ween
weke
weave
weaves
weening
stith
stap
stair
stump
stages
stoned
stinted
stitches
thisne
##adation
##adio
hissing
aspen
asketh
##asis
##asiness
##ality
##alment
##aloon
##alanta
doer
docks
dobb
butto
buttered
butchered
soph
sops
solit
soaking
soho
prain
prig
prist
prings
prib
prank
prune
prenz
prenomin
##alling
##allels
##entive
##entieth
##idom
##idled
##idden
##idences
lied
liker
lilies
lichas
onward
onions
##omew
deum
degr
deuc
deux
delect
frat
fran
frize
fracted
fractions
frolic
frugal
##ammar
##esses
##essence
##essible
anoint
anvil
##eemer
##eezing
rex
real
reave
rector
relic
recks
recip
##ckle
herbert
heresies
herrings
heritage
##usive
##uspected
##ioners
##ionable
##verness
##rale
##ractions
thyme
thyreus
##iell
##iever
##ieces
goers
goli
goaded
golg
suum
sustenance
maur
maul
maud
maps
maws
mazzard
loy
log
loan
locked
logic
lopped
local
ally
alla
allig
alley
allusion
alleys
##teries
##therly
##oursed
shallows
spous
spav
spites
spying
spawn
spangled
knack
knapp
knacks
neb
nect
chine
chart
chime
chaud
lordings
tray
trink
trist
trident
traded
tripe
tranqu
tresses
##ilty
##ilian
##ilfully
##ilhomm
goodnight
goodlier
mans
mane
manfully
mantled
manned
manured
manager
managed
managing
upside
upshot
uprear
upstart
faust
faci
facul
fables
fabulous
faucon
ates
atlas
atalanta
amid
amort
amaim
amities
ampl
amurath
bras
brink
brute
brides
brinish
siren
mumb
muzzled
mudded
ork
orts
orbed
orthog
lett
##illity
##illius
comf
comer
comed
comic
comets
comical
comrade
mose
mope
moles
mops
movers
moping
monde
sheer
sheen
conger
##inem
##inew
hereto
enn
enw
ensu
enorm
envelo
wouldest
unve
unra
unear
unass
unction
unfor
unken
unbr
unready
unright
unmit
unroll
unweigh
unvalu
unurg
unremov
##antly
##otle
##otiate
##oneer
##oneous
knower
knowingly
wells
canaries
canakin
##unn
##unal
##unci
##unctions
sware
swab
swains
swoop
switch
swinish
swinst
howled
blent
blam
blames
blades
blunts
blinking
blunted
blubber
##veng
##vener
##venny
seeth
##ulph
##ulap
##ulted
##ulsion
bog
boist
bogg
bobb
boards
boiled
lovelier
arist
arrives
arvir
ariad
ariell
whoa
tah
tag
tape
tabour
tails
taker
taunting
whene
whenever
whensoever
##ately
worry
worts
##ppo
##indle
##inded
usance
usury
usually
seld
severed
select
hoa
hoc
holo
hoarded
holier
##umed
whereunt
whereabout
whereunto
mads
madrig
##icut
##icest
##icite
##icos
##icock
##iculate
##icraft
##icially
plood
plus
plind
plump
plated
plessed
plural
sapp
sacks
sabb
sables
pold
pother
pody
pothecary
marig
maries
marrows
maketh
##rial
##riously
alonso
outc
outd
outgo
outliv
outsell
outcast
outweighs
mustachio
disem
disann
disadv
agone
agitation
##orting
proff
props
progn
proser
proclamations
prohib
prostitute
##oles
##olier
twit
twine
twel
twangling
twentieth
##pels
##igated
##igations
##igero
##igibb
##emning
##emont
##emperate
##emaker
##roc
##ropo
exion
exting
honor
godliness
##ounting
##ptures
grapp
grazing
lees
leig
lender
leper
leasing
quag
quip
quits
quails
cling
clang
clause
clipt
clients
clasps
teller
aby
abase
abel
abys
abjur
abridge
aberga
heaves
heaving
healed
heaved
heaping
coins
coining
coasting
cobbler
coarse
##ustion
##ustious
awl
awards
awaking
awaken
aweless
##isel
fatherless
breton
breese
bretons
##istinct
##istration
strung
hearest
hearsed
hearkens
##cial
##cily
##ciqu
##ciple
roads
roping
betr
betook
beteem
bettered
offensive
menac
foi
fob
foy
foin
fois
foix
foining
fobbed
foeman
focative
gentility
gentilhomm
warble
warily
warmer
warbling
flib
flask
flutes
flouts
flanders
flux
float
perge
perig
pervert
perjure
leavy
##agus
##agates
earlier
grime
grunt
grated
grating
grasps
gradation
grammar
##outing
artist
articulate
nighted
##quit
##quoi
scion
scuse
scores
scathe
scaled
sculap
##anging
bloodied
wrist
wrens
prayed
callat
erm
erto
erween
erta
ermaster
erjoy
ercles
ercast
erwatch
errands
erspread
erbears
adage
adores
adram
adult
adhere
adonis
handful
handless
handicraft
##idels
comma
commixt
commenc
##aky
lav
laby
lavol
##ilemon
##uder
##uded
masterless
parti
partlet
partridge
##pering
##percal
##berds
sweetme
job
jog
joins
hastes
sermon
anywhere
anybody
##ipes
##ipate
##oulter
cannoneer
##elter
##elius
slid
slice
slings
slaught
slash
slop
slays
sluts
slops
slubber
slimy
slandered
sluic
##ivals
##eeded
appal
appals
otherwhere
imple
imbr
preceding
bearest
afear
glu
glides
glares
emble
emul
emph
emulate
##phs
##phers
##phag
worldlings
wombs
compose
compost
computation
composed
presumes
contest
##achum
##apse
noblemen
remotion
remainders
armenia
armigero
longed
firk
firing
begnaw
tilly
cours
couriers
coursing
##acet
##mances
indited
indisp
indistinct
purr
purged
purging
##swich
##swold
##swoman
bettering
merlin
showering
nayword
reputes
repugn
twopence
dray
drank
dressed
harrow
harper
harping
harbing
##asonical
putre
peaceable
peaceably
fellest
charnel
charlemain
truckle
##issim
livelihood
everyone
mista
mistakes
##shines
##uckold
confutes
confusions
confront
underbear
underhand
undervalu
underprop
engros
engirt
enginer
engrav
engraffed
seteb
##lique
highways
smite
smites
smug
smirch
smirched
smoothing
thrum
thrash
thrones
thrasonical
madams
sleave
##cyon
endue
endings
endanger
witnes
helper
housewives
housewif
consangu
conspired
##iac
servest
servite
servitors
elbe
elvish
youngling
devant
mons
monachum
bringeth
besort
resident
##ospitable
belt
belzebub
belgia
gibing
boyish
curve
curing
curls
curbed
turnco
fallible
fuller
humbl
humming
humidity
guy
guitless
##enses
pax
paus
pail
pacing
paws
paphos
obeis
oblique
kindling
falter
falser
behest
behaved
playhouse
playfellows
mindless
sarion
sarcenet
villi
presentation
presentment
accurst
impure
impair
imposed
imponed
impugn
braz
braid
brakes
brabbler
valance
##forms
##pside
passable
antid
sworder
draff
dragg
draweth
huswife
##cling
##clops
bedeck
peu
peise
param
parks
parric
parallels
trait
track
traps
cavern
capel
caulk
caphis
retired
retinue
retrogr
retentive
meeter
crownets
##retion
assent
assays
assails
assumes
assyrian
killer
wrongful
justle
reasoning
reasonless
lightest
lightnings
carat
caret
carver
carol
carouse
carving
carrions
overr
overbl
overta
overwhel
overbear
overjoy
overhear
overshot
overplus
overcharged
farewells
trop
hangmen
furr
furlong
furbish
wearer
wearies
sleepest
crumb
crann
cranny
cradles
##ifs
##abbled
##abreth
useful
thousandth
gett
##ostrate
##ostication
misth
misus
misers
misdem
misadventure
misgovern
misbel
misinter
buss
busily
pardoning
pardonner
attir
attraction
edg
edifice
##ruent
forgery
forgave
forgeries
solder
maidhood
wishest
advises
illeg
illusions
lasted
##ciously
denay
landing
landlord
dispensation
barking
barne
bareness
barley
barbed
institute
instalment
opes
opulent
swearest
swearings
commandments
cork
coral
coram
corriv
corrig
coranto
corrupter
persian
perspect
perspective
returneth
signific
strik
striv
strikest
strifes
burton
darlings
runagate
runagates
intemper
intrude
intestine
intemperate
phaeth
philemon
##dding
##dders
##izzing
horseman
horsemanship
murk
talker
joyous
joyless
jude
weepest
windmill
lessens
lessons
proveth
sunken
sunset
sunburnt
##ubility
nearness
freezes
enticing
entangled
prompter
hardest
hardiness
hardening
sickens
##onsive
drawers
revenging
deserver
reads
suppler
supporter
supplie
supplications
sorrowing
founded
rav
raves
diverted
sitt
quickens
quickening
quicksil
furthermore
winners
wincot
workings
discand
discase
discoursed
mett
metre
mettled
fitment
type
tyrian
typhon
lug
lucian
lupercal
coldness
soundest
condign
condescend
condemning
dams
damp
buoy
buxom
grovel
purposeth
titled
infix
infusion
infused
infidels
leaders
affy
crav
crabs
cracked
crawling
musings
saddest
saddler
checked
teat
sinfully
metheg
distrain
distemp
disturbed
strand
stragg
delve
deluge
deluding
delabreth
skipp
yielder
expell
expounded
explication
expulsion
capons
loseth
commoner
commoners
commonalty
drinkings
cleans
cleitus
gallian
tert
tera
terra
terrest
termed
provocation
provoking
minerva
football
footpath
##ieties
favourer
favouring
favourers
favourite
contentious
warranty
bounden
bounding
braved
ringlets
burnish
burneth
gawsey
pasty
starr
stares
starlight
depl
depra
deposed
deprav
deprive
baes
bais
printed
principle
musics
surest
surgeons
surplus
##beck
##beams
##ancer
##ancing
mortar
mortifying
demon
demois
frenchwoman
reporting
actual
divest
eaters
incony
incurs
inconsider
possibilities
quests
hottest
writer
writings
garish
garners
profited
pleasest
learnt
visors
##otha
requites
thanksgiving
bolden
boldest
estr
mockers
blackberries
jewish
woollen
woolly
appeareth
castaw
watchers
watchman
watchmen
colted
columb
colbrand
drollery
redeemer
mornings
fastest
angelic
subjected
males
gained
reguerdon
snorting
interred
interming
extinct
bennet
penalties
pett
constitution
embro
emboss
embassad
embracing
##aca
##acent
##acies
##acinate
untent
untro
untied
untouch
untread
untrain
untwine
speeded
speedier
questionless
despairs
despising
##uousness
reciter
recomfort
forbade
excelling
feu
feod
fetters
fetlock
messages
waterish
lamed
empir
empoison
croak
apter
apric
defensive
defensible
definitive
deficient
plainest
scorned
scornfully
liegeman
liegemen
sufference
judging
judged
judgest
lestrale
wastes
##anched
harming
harmonious
undid
undrown
##ringer
granting
batten
battal
hurries
hurric
##ecu
teachers
wallow
walloon
labourer
laboursome
creator
troubler
strengthless
lackest
privates
##aggered
addrest
addiction
addicted
witnessing
buckets
idiots
##uffic
##raced
captainship
bitumed
beginners
camest
cambric
lowing
pained
simular
simpering
brokers
darker
darkest
robber
robustious
dines
dining
dinners
evilly
jesters
relapse
resolves
famously
bellies
bellman
fatted
fattest
pitt
marcheth
admin
admonition
forefend
forefathers
foregone
moveable
salutations
detract
detected
filled
dreads
dreading
dreadfully
limping
limitation
wedges
wedged
##volence
hosts
hostage
hostilius
lustrous
lustihood
healthy
guardant
fingre
modo
formed
formless
formally
spok
spoiled
cards
cardecu
utens
bleared
bleaching
blended
easing
##odied
##odils
##aze
fashioning
fashionable
miry
mirrors
beardless
bowing
sorri
sorcery
##stril
trumpery
joined
pieced
verier
verify
disgracious
execrations
nursed
nurses
effectless
hugg
matchless
breeders
performing
performers
freshness
excite
excitements
calves
calcul
cupboard
tarries
urinal
urinals
studious
tribes
tribunal
argier
possessor
hampton
shark
sharing
unwind
unwitting
unwonted
emperial
##gressed
##granate
shades
shipman
shipboard
succours
secondary
vowing
breasted
insist
insert
inspire
insoci
insuffic
choir
chopp
chops
choking
choked
yearns
invade
invades
invocate
brained
adieus
dullard
governs
neighs
destitute
reigning
reignty
greenly
countervail
practised
basting
portal
portra
portance
portage
##ievous
postures
postscri
postmaster
lendings
buyer
churchyards
horner
woodvile
woodstock
##irmed
suspend
measureless
obeys
melts
unhack
unhatch
unhair
unhoused
creaking
unfill
unfrequent
severing
immur
immured
immoder
avow
avails
vainness
reflex
refined
tasting
palms
palmer
palestine
palatine
shrilly
shrimp
blinding
demanding
talbots
mutine
mutines
mutability
muttons
noiseless
dishonoured
throstle
forspent
transm
transpose
transgressed
usuring
usuries
rosy
roscius
importeth
fledged
corns
cornish
cornelia
cornelius
geck
rids
ridges
ridden
##olycus
continents
continency
smilingly
successes
successors
circe
circling
eglant
owing
owed
rougher
roughest
observer
sharpens
catcher
catched
blameless
tempers
tempters
neighbourly
courageously
hoped
dismall
dismount
dismission
dismounted
dismantle
expectancy
cleared
equall
equino
pined
pinfold
yokes
yoked
livia
chastised
holland
hollander
monthly
visitors
views
##oints
defending
smiled
ancientry
vouches
vouchers
dealings
loathsom
persuasions
philostrate
voltim
volubility
wealthily
blessedly
protected
protectors
cataian
fishers
fishmonger
vented
fordone
fordoes
triumvir
considerate
considerations
intending
prosperously
punto
althea
proposition
proposed
propriety
compliments
thirdly
potations
potpan
unsounded
unsolic
unschool
unsubstantial
unsuspected
##bertigibb
shadowy
shadowing
syrups
stocc
stogs
stainless
particle
participation
participate
figo
figuring
decide
revolving
heroes
boded
bodements
grande
wraths
repentant
preparing
excusez
fleas
fleeter
fainted
turret
turmo
turpitude
walnut
weighed
employments
virginius
medea
media
mediter
meditate
mediation
stocking
stuffing
negotiate
brightly
brightness
unpl
unpin
unpur
unpract
unpossess
remaineth
encountering
criedst
fewest
hermits
cliffs
##agogue
annex
unbl
unbar
unbow
unbind
unbonnet
unbraced
uncaught
uncrown
uncouth
uncont
uncomp
unconstr
uncapable
uncouple
advantageous
directitude
trumpeter
trumpeters
circuit
towering
barefoot
##inacy
springe
springing
maidenly
remembrancer
physical
particularly
particularities
rosed
nosegays
spending
spendthrift
envies
corrupting
benedicite
lamentably
auditor
audible
audacity
saunder
saucily
protestations
physics
bigg
bigot
concur
concave
concup
cloths
clothier
slaughtering
slaughtermen
undertaker
enjoyed
customer
puis
puzz
reverted
reverenc
reverberate
perfectest
perfectness
leda
halts
halters
halidom
halberds
halcyon
stomachers
basin
bases
faintness
variation
heedless
weights
leisures
abroach
empties
emptier
expressing
vengeful
circumscri
circumspect
ransomless
aiding
dusty
hitting
squares
fruitfully
##udgeon
rankle
rankest
sheeps
sheepcote
solemnize
solemnized
leisurely
lineament
numbering
numberless
wolvish
befit
combined
combustion
displeasing
affectation
tempering
cureless
drier
drizzled
dignify
frightful
##amental
sackcloth
usurpers
##gobl
envying
warming
slowness
conduce
conduits
guiltier
cyclops
hatfield
thickens
firmness
digs
digression
hybl
hillo
lydia
##place
includes
inclusive
forests
debile
debitor
flights
confirmers
confirmations
ruinate
bottles
deracinate
mildest
mildew
deceits
deceives
conjoint
swept
contemptible
contemptuous
intention
capitulate
opposer
opposers
hollowly
packed
packets
packthread
pressing
arched
archery
banquets
film
filths
debtors
disdained
flowering
smoothed
smoothly
smoothness
cupids
tempestuous
equality
bottoms
bottomless
tediously
bullens
bullocks
corded
dungeons
wagers
##iterate
sprang
unlaid
alien
armourers
conferring
accuses
accusing
accusativo
profiting
profitless
profitably
julietta
aptness
berry
berri
bergom
oxlips
rewarded
strangles
strangling
vexing
vexations
epile
escus
escanes
hiems
loosely
piles
pilate
pilfer
cockney
cockerel
divinely
admiringly
rasher
##concil
stablish
recoveries
sucker
speciously
flowerets
exceeded
fixing
fixure
torturing
tortoise
vaunt
vaunts
wanderer
wanderers
##natur
edmunds
finch
nests
porters
porringer
pouring
pourquoi
sources
shoon
posy
repairing
attempting
attempted
modesties
unworthily
unhappiness
publicola
leonati
billeted
gardens
gardener
martlet
##acts
information
preferments
lieutenantry
bounce
invented
statua
facit
climber
accountant
assistants
specially
specialties
censer
censor
censur
dumbly
hazarded
forfeiting
supernatural
supervise
pairs
marketable
marketplace
waxes
mourns
mourned
seller
selling
steers
ungain
ungartered
ungalled
ravening
plantagenets
hindmost
pills
pillory
pillicock
tamed
tameness
melteth
spurio
observant
observances
companionship
sweaty
esse
deceivable
arrests
consulship
edgeless
delaying
disguises
disguising
abhorring
crowing
crowding
dimension
whipstock
inherits
willingness
exchang
pitchers
suspire
unfolds
unfolding
donn
donner
ruminated
southam
southward
southwark
sanctimon
taller
tallest
stretching
stretched
solomon
sparingly
unseem
folds
perishing
leaped
gloster
gloomy
diomedes
craftily
undoes
ambitiously
whisperings
rottenness
sceptred
inkle
inkling
inkhorn
withdrawn
boasts
procre
procures
procrus
handkerchers
privileged
pinching
mowing
mills
miller
milliner
declines
declension
ordered
experiments
quenched
reprov
reprobate
recorder
recorders
recordation
pompion
bonne
glee
gleek
journal
lentus
luckless
rapiers
##glasses
ashford
rejoic
rejoices
splendour
converts
conversed
collied
collop
colliers
collateral
breaches
faithfulness
corporate
simpler
simpcox
milkmaid
sacrileg
tormenting
francisco
bandying
griping
grizzled
kinswoman
nerve
paddling
paddock
##lestick
trimming
descending
villanously
adventur
concernings
bottled
dowlas
pandulph
paintings
roussi
priamus
revil
chased
toothache
absolutely
destroyed
sacrific
sacrificing
baynard
gathering
later
odoriferous
warders
toiling
stanz
stubble
lifting
dependant
dependancy
frailties
conveniency
conveniences
unmu
unmake
unmask
unmeas
unmingled
petitioners
petitionary
weddingday
tricksy
budding
bountifully
cellar
paced
ruby
rubbing
sicils
sicinius
sicilius
strond
erroneous
forswearing
tortured
inwards
deafness
deafening
scrubbed
scrupulous
lapse
miscall
termagant
redresses
townsmen
spleenful
aleppo
lowering
butcheries
liquors
grandsires
barbara
barbarian
ravisher
ravishing
distraught
distractions
cleanse
venomously
urgent
urgest
volsce
conjured
cherishing
cherished
succeeders
germens
patchery
pierced
rustling
estimable
interpose
stopped
determined
semblances
dutiful
homes
named
tickles
steeples
franklin
manhoods
unreg
unrec
unreal
unreveng
unreconcil
bohemian
reprieves
auger
augury
divorced
featly
dilate
dilated
dilatory
jerkins
loraine
lyingest
mingling
oceans
racks
ribbed
uglier
shields
meddler
copies
copulation
coffins
killingworth
prophetically
potently
potential
increaseth
axle
century
thinly
styx
solicits
solicitor
frontier
recoll
recovers
pursued
replying
thronging
accessary
accidentally
doubling
barnes
barnet
distresses
bereaved
cudgell
cudgels
ferr
ferry
pestiferous
seditious
tuns
tuneable
taxing
taxations
marvellously
exhale
exhales
clotens
clapping
coinage
perdurable
grumble
duchies
substances
voyages
prompting
eleventh
nettled
piteously
peeping
threadbare
shambles
gossamer
trenched
attainted
boxes
placing
slippers
pursy
subscribed
entrench
hungerford
banqueting
stewardship
battering
cookery
gnaws
junius
nourisheth
pierces
rotted
stoutness
defends
defender
sparkles
seizes
##icleer
outlaws
households
bracelets
assailed
strictly
disturbers
recreants
continued
continuate
reproaches
reproachful
blossoming
dancer
jessical
nedar
omitting
pulp
sithence
##genorth
fawns
bridled
bridges
bridgenorth
blazing
coasts
vanquisher
digestions
fantastically
politicly
indifferency
morocc
##auspicious
buttery
malecont
convocation
conversing
conversion
conjuring
conjurers
conjurations
unmann
planks
closer
closure
grimly
confidently
pheasant
summary
embassies
saluteth
puppets
beguiling
charactery
dashing
dashed
iceland
mourner
ripest
ripeness
ripening
tugg
cheapen
cheapest
shelves
scandalous
scandaliz
precedence
undergoes
resembling
territory
despiseth
opportune
messaline
broader
vanishest
inclinable
dissolves
dissolved
suggests
balmy
darting
dowerless
ebbing
fanning
hooded
hoodman
lurch
ruder
rudder
rudiments
rudesby
buttons
sustaining
enlarg
swimming
savoury
purgatory
obstacle
obstacles
obstinacy
displant
displace
diffidence
babylon
transporting
hollaing
shoeing
michaelmas
bequeathing
cullion
cullions
dateless
dials
espied
fertility
gormand
gorgon
rowel
vineyards
vaporous
habited
forespent
assemblies
likings
allaying
mangle
enrage
sweepers
sapless
dissembler
lewdness
indirection
endurance
horridly
attached
oppressing
relenting
detests
lodgers
unproper
tyrannical
holidame
holidays
substituted
hooks
lanes
tartness
whirling
whirls
whistles
healing
hacket
hackney
prattling
printing
enchantment
university
posterior
purpled
restraining
guilders
guildhall
valued
valuation
supportance
relieved
philippe
derivation
periods
sympathized
domitius
pantaloon
pigmy
puffing
puffed
whetted
hemm
notoriously
prized
unshak
unshaken
scolds
practiser
syllables
afflicts
hallowed
wilfulness
enfranchised
fountains
caucasus
dedicates
dedicated
guns
kernels
lulls
nutshell
nutmeg
rambures
waggish
thefts
statesman
congruent
enforces
bolster
aguecheek
slackness
consisting
bespake
dispraising
occupy
debatement
applauding
beefs
manifests
gossiping
defeatures
shafts
patterns
benches
dwelt
dwindle
puddle
pelf
pelion
pupils
rivet
rivets
rivall
sallets
tithing
vater
vestments
tossing
fraughtage
hobgobl
dissembled
pertly
pertinent
permitted
commenting
competent
competency
impeachment
brabble
patronage
avouches
interprets
interpreted
interpreters
celebrated
lunatics
upbraidings
disloyalty
cedars
casual
casualties
ewer
fisting
loosed
nickname
stews
ascended
anchoring
trotting
levying
brewer
brewing
flinch
adjourn
adjoin
adjunct
adjacent
ducking
presuming
traffick
assailing
misprised
dishonestly
amazedness
languishes
ditches
ditties
dallying
echoes
festinate
festivals
gestures
lingered
linguist
radish
radiance
sessions
yarely
primal
chapless
chapmen
channels
ordained
unstate
canopies
takest
sewing
outstare
abandoned
nightingales
scalding
ertook
erturn
conflicting
smarting
smacks
parishioners
retiring
carriers
advisedly
exposing
exposure
wafts
waftage
venetia
irishman
compassionate
griffin
reconciled
autolycus
fennel
harts
ousel
ouphs
piping
vaux
nominativo
wiped
shearers
##chanals
sterner
conjectural
swinge
worshipped
worshippers
wherewithal
pollution
polluted
quills
warnings
erpast
erpower
eyebrows
misdeed
denials
barbason
intruder
survives
survivor
investments
planetary
whelped
adulterous
inhabitants
unquietness
perseverance
wheresoever
dallies
daintily
daintiest
gingerbread
lena
operant
vailing
vizarded
beckon
shipped
itching
prerogat
reveller
revellers
spinsters
spinners
atonement
sheathing
sheathed
blisters
outran
clouted
coaches
betideth
scrip
scribe
wrenching
laban
label
serpigo
predominate
drenched
treatise
edicts
demonstration
cambria
contrived
girdles
girdled
riddance
enjoined
displeasures
corrects
augmenting
advertise
reconciles
moderately
wreaths
wreathed
influences
mitylen
eclips
felony
hipped
kitchens
ranging
tilth
tilter
tilts
tangled
total
shells
shrub
shrubs
fronted
fronting
sprighted
munition
heretics
severely
adoration
adornment
glimpse
induction
induced
belching
parrots
travails
assigns
misbecome
farthings
attributes
discreetly
garbage
garboils
petticoats
verdure
woodcocks
importunacy
equivocation
philomela
caterwauling
unpregnant
martyrs
esquires
gleaned
pennyworths
released
misdoubts
undeserving
olympian
blaspheming
dastards
gems
gouty
icicle
rooks
beached
shocks
shuffled
meadows
gobbets
spills
chanticleer
chicken
unlov
unload
unscarr
sects
sectary
clogs
coystril
flaying
ergrow
commencement
sluttery
prescript
prescriptions
contemned
controller
parlour
retorts
carnation
carcases
misconster
hitherwards
illustrate
stripling
discredited
provincial
extorted
penetrable
pretending
shortened
encompassed
inspiration
prophesying
synagogue
hermitage
uncurable
befriended
vaulted
massacres
superstition
multiplied
reviving
unmatched
blazoning
popularity
cobwebs
ethiopian
custard
coughing
cuffs
daffodils
hiren
mamillius
pendant
tassel
tasking
tincture
verefore
novices
invect
myrtle
stags
goblin
trippingly
tradesmen
envenomed
unsway
unswear
unswept
swerving
swarming
disclaiming
dissuaded
floating
perpendicular
communication
glisters
contaminate
besmirch
curtail
cavaliers
overlooks
infallibly
laudable
tributaries
hymns
torturer
steerage
intellectual
alexandrian
bonfire
multitudinous
difficulties
ensigns
congregated
interchanging
fulfilled
extraordinarily
scythian
scythia
cowslips
cotus
cotswold
cashiered
cottages
dazzled
fumble
giglot
hests
jourdain
lonely
loneliness
leaky
nicanor
osiers
palsied
riming
rimed
vultures
yellows
injunctions
prudence
sundays
spartan
uplift
bricklayer
bristled
brushes
enacts
enkindle
blabb
placket
dislik
quailing
strutting
desarts
leavening
scalp
ersway
ershot
ershades
erbearing
lazars
humanely
countesses
accoutred
accoutrement
accoutrements
accustomed
passenger
subtilty
carbuncles
sentinel
metaphys
tenantless
tenantius
gazer
mockeries
bellowing
encouragement
temporiz
decrease
decrepit
thunderbolts
vouchsafed
epithets
diminution
expertness
unexpected
consummation
exhalation
exhalations
herdsmen
wreakful
austerely
votarist
mandragora
equivocal
superstitiously
catechize
catechism
unpeopled
bilbo
certified
hinge
hinges
jurors
jurisdiction
larums
mishap
mishaps
naso
psalm
psalms
pensioners
sizes
tightly
ulcer
yorick
toasts
inscul
steely
fridays
anthem
anthropo
chalice
chattering
mulberry
mulmut
muleters
original
enamell
enamoured
unnumber
unnoted
unstained
wassails
hoarding
hospital
##ropos
clusters
screen
partisan
glorified
comprehend
comprehends
harbourage
endeared
guileful
improvident
courtezans
carousing
critic
critical
misleader
attracts
attractive
disparagement
runaways
pharaoh
lukewarm
chevalier
distribute
distribution
bacchus
bacchanals
baffle
demurely
captivate
untuneable
recanting
recantation
hurlybur
urchin
contrarious
amazonian
unparagon
unburied
unbruis
unconqu
savagery
positively
unguided
privilegio
superscription
rubbish
obscenely
augurer
pursuivants
seducing
masquing
masquers
magnificent
rehearsal
puddled
outstretched
whirlwinds
enthrall
unprepared
dardanius
ptolemies
paradoxes
carbonadoed
astray
corses
dialect
dungy
eaning
flexure
flexible
ipse
ipswich
kibe
kibes
oubli
oublie
pioners
pissing
sceler
scepter
soothing
skein
tanner
topples
nodding
beldam
beldams
inexorable
shivering
forewarn
priority
maggot
maggots
splits
kneading
chirrah
trample
enseign
enchants
enchaf
unyoke
unyok
unlearn
unlearned
unmeritable
canvas
canvass
ardour
seamen
plodded
disabled
twisted
exorcist
struggle
struggling
describes
performs
performances
grisly
scorch
scutcheon
pleached
precipitation
gluttony
complement
complements
indiscreet
indiscretion
indulgence
housekeeper
countenanc
countenances
impetuous
imposthume
trappings
tragedians
associate
misplac
situate
skirr
skirted
gallowglasses
divulged
incarnate
laundress
recommends
unheedful
palfrey
palfreys
daisies
duello
duellist
unbuckle
sensuality
mountaineer
mountaineers
greybeard
greybeards
digressing
hyrcanian
conjunctive
filching
superficial
superficially
intelligencer
inquisition
inquisitive
scurril
scurrility
malefactors
pantheon
panthino
hyperboles
hyperbolical
ingredient
ingredients
diminutive
diminutives
neelds
christophero
azur
aurora
bombard
dandle
fadge
jutty
kettle
kidney
louvre
nouns
nipple
pomegranate
pannonians
rayed
squeal
tadpole
tourney
##viceable
thimble
wheyface
inseparable
hectors
shackles
forenoon
stigmatic
sobriety
pruning
priesthood
primero
gosling
gondola
goblet
sultry
mahu
sprawl
nemean
cheapside
goodwin
uprise
mollis
ensconce
enigma
unatt
uncovered
unlettered
unrespective
swarth
swashing
plaintiff
plunged
saxons
ponderous
alarbus
alphab
alchemist
outswear
disjoint
prolixity
quiddities
quotidian
quintessence
awaits
roguery
scambling
scullion
scribbled
scorpion
erflows
adriano
sloven
appertinent
contribution
remarkable
foolhardy
indebted
indigest
replenished
drudges
conformable
englutted
consonancy
consolation
pacified
falseness
drachmas
subsid
mischievous
denounc
barricado
bartholomew
correspond
burghers
pheeze
beaumont
metamorphos
infamous
cutpurse
gaultier
academes
incredulous
gargrave
jeweller
malcontent
snapper
sneaping
extirp
extracting
embolden
undiscover
undistinguishable
ambiguities
chambermaids
foreknowing
elegies
nurture
unwashed
unhandled
unfriended
avarice
transgressing
voluptuousness
unsuitable
unpolish
unbolt
producing
freckled
circumvention
cynthia
cygnet
impertinent
hungary
epistles
cockatrice
clambering
testimonies
doncaster
ruminates
jauncing
giddily
inhibited
florentines
polecats
leviathan
clotpoll
gnarling
enfeebled
arbitrator
fidelicet
compulsive
felicity
amplify
scarecrow
speculative
prevailed
epicurean
yorkshire
unconfirmed
alderman
sciatica
cautelous
muscovites
hesperides
thessaly
unicorns
unpruned
excommunicate
ainsi
aussi
bouciqu
balsam
biscuit
cicely
cackling
cucullus
dilem
dalmatians
eterne
foutra
fundamental
gordian
gillyvors
houseless
hangeth
ithaca
january
jordan
jaundice
jolthead
jasons
kitten
kendal
luscious
longeth
mousing
nessus
nibbling
napping
omne
picardy
pavement
rinaldo
rational
ronyon
rannest
sampler
tuscan
telam
toryne
umbra
vlouting
vendible
vaudemont
vrayment
yerk
yelping
ycleped
zodiac
##fernes
tolerable
whitsun
##reasur
inordinate
inaccessible
shrove
shreds
shafalus
forcibly
foreshow
##imaufry
dobbin
buttocks
solitary
pristine
pribbles
prenzie
prenominate
degraded
deucalion
delectable
relics
golgotha
spousal
knapped
nectar
chartreux
trinkets
tristful
faculty
fauconberg
amaimon
amplest
mumbling
orthogra
mopsa
envelop
unassail
unkennel
unbridled
swabber
swinstead
blubbering
aristotle
arviragus
ariadne
tabourines
holofernes
whereuntil
madrigals
sabbath
marigold
disembark
disadvantage
proffers
prognostication
proserpina
twelfth
quagmire
abysm
abergavenny
gentilhomme
flibbertigibb
sculapius
adramadio
labyrinth
lavolt
sweetmeats
implements
imbrue
emphasis
harbingers
engrossed
setebos
witnesseth
housewifery
humblest
obeisance
retrograde
overblown
furlongs
misdemean
misinterpret
illegitimate
corrigible
intemperance
phaethon
quicksilver
luciana
distempered
terrestrial
demoisell
incursions
inconsiderate
intermingle
feodary
apricocks
hurricano
calculate
unwittingly
insociable
postscript
unfrequented
eglantine
voltimand
unsolicited
mediterrane
unpractis
unbonneted
hybla
conjointly
bergomask
edmundsbury
sanctimonious
sacrilegious
unmeasurable
morocco
hobgoblin
anthropophag
mulmutius
hurlyburly
bouciqualt
flibbertigibbet
aver
aves
aick
aio
aided
akin
aired
aunts
aeas
avert
aunci
bis
bord
bence
bick
batch
bason
bony
bents
bash
bump
bowers
bays
basc
bards
ballow
bakes
bouts
baking
bunting
baker
borders
banged
bibble
cn
cet
cath
cly
cess
cil
cine
cant
cun
cout
cak
cower
coud
cents
cues
cne
cowers
coop
cinal
casion
cots
cades
ciel
coops
ceter
casing
crib
coted
caged
cicester
cerns
coulter
dly
dore
dich
drow
dio
dans
dace
dild
dought
dows
dated
dips
dorse
douts
dulch
dagon
dalus
dicers
dibble
dabbled
dudgeon
eo
eu
eau
eves
eject
eale
easter
ellen
eche
eisel
fu
fas
fart
fick
fatter
fia
fides
fats
fumb
fane
fives
fenc
fumbling
fico
fixture
fumblest
gou
gat
gis
ging
gath
gour
gast
gag
gang
gend
gated
gask
gaps
gathers
gelt
gouts
gales
gasted
gatory
gaged
gaging
gills
gagn
gutter
gipes
gudgeon
hin
hra
hul
hig
hick
hens
hench
hoot
hives
hoots
harel
hirt
hutch
hooted
hinc
hibb
hizzing
io
ig
ist
ise
ira
ils
jen
jam
jum
jose
joul
jave
jets
jays
junk
jakes
jangled
jills
jingling
jowls
jacet
kh
kere
kim
kam
kild
kates
kated
lar
lir
lour
lem
lorn
lint
lade
lush
loof
lumber
lakes
lutes
louses
louts
lomb
lagging
mim
mome
mic
mio
mith
moul
mite
mower
mought
mister
mains
mered
mixt
mites
moult
ni
nu
nere
num
nance
nak
nub
nons
naps
nicer
nazar
neaf
nieces
oc
oes
ois
oar
oss
omen
osc
oils
ostr
osp
omission
omans
pere
pim
poo
pas
pus
pich
poun
pree
pears
pius
pits
piz
piers
pible
peds
parel
pella
pashful
pasies
pibble
poulter
rere
roo
rit
ras
ress
rers
rance
rother
rak
rio
rins
rif
rains
ragg
rford
rots
raps
rating
rakes
rously
ripping
rakers
sd
san
sut
sord
sest
sain
sould
sie
sant
sate
sance
seak
satch
souse
sours
sided
sicles
sallow
saine
sipping
sutton
sized
soused
tin
tous
tant
tic
tile
tith
touse
tors
tens
tition
tund
tup
tally
targe
tames
tua
tann
tna
tested
tipt
tanta
tingling
ub
um
udge
useless
uvres
udders
ved
vur
vid
vord
vour
vive
vant
vind
vort
vist
vide
voud
volk
vald
vina
vails
vaded
vouts
vita
vivo
wen
wow
wri
woun
wains
wolk
wingham
wane
wands
wanders
wroth
xanth
yed
yest
yra
yau
yaw
ysl
zo
zw
zan
zed
zone
zany
zeph
##iut
##iere
##iber
##iach
##iap
##iens
##iated
##iations
##iating
##ikin
##iators
##iused
##iasses
##te
##tes
##tre
##tto
##turn
##tress
##tree
##tiss
##time
##tler
##tances
##tlest
##tlings
##tieth
##tinents
##tereth
##sk
##sun
##sol
##suck
##sides
##sop
##suff
##sset
##sley
##smore
##sidge
##sseth
##sights
##ba
##ban
##bas
##bal
##bind
##book
##bery
##bull
##bud
##bite
##bier
##bold
##bru
##blo
##bered
##brace
##bod
##buts
##balls
##boat
##boes
##bird
##breast
##brands
##bdis
##oe
##oan
##oing
##oid
##oge
##opt
##oks
##oins
##oons
##obs
##oker
##offer
##oever
##oiled
##oseless
##obled
##oineth
##ophon
##lv
##lter
##live
##lance
##lto
##lick
##lough
##lap
##lief
##lace
##lab
##lory
##lary
##lime
##lices
##luous
##liege
##lagon
##lubber
##lasses
##laze
##eo
##eer
##eing
##ele
##eers
##eith
##eius
##eens
##eons
##ecked
##eged
##echo
##yers
##yance
##yles
##yris
##ydon
##ybdis
##ylv
##hi
##hs
##hor
##hil
##hun
##hort
##hound
##halt
##hab
##hipp
##hav
##hires
##hives
##hoard
##horse
##hiades
##heers
##ai
##aol
##aire
##aqu
##aith
##aber
##actor
##aime
##autus
##aider
##aurs
##aunch
##aunts
##aigne
##nn
##nal
##nell
##nose
##nown
##nia
##nier
##nock
##nize
##nines
##nife
##nails
##neter
##nuts
##nomy
##nerets
##nheers
##gm
##gor
##gere
##gam
##good
##give
##gare
##gles
##gian
##gons
##gots
##guish
##guts
##greg
##galls
##rs
##rat
##rut
##rim
##rit
##ras
##ril
##rook
##round
##rough
##ratch
##rits
##rents
##rung
##rines
##rites
##rider
##ricious
##riment
##rising
##rades
##riel
##rarch
##rative
##rinking
##rists
##riting
##rangle
##cu
##car
##cre
##cit
##cie
##cter
##card
##cive
##cate
##corn
##cust
##cull
##crown
##catch
##cause
##ciss
##cret
##cried
##cade
##count
##cument
##cised
##cility
##caps
##crest
##cters
##cakes
##cule
##crates
##cadel
##crack
##cadoes
##cchus
##curg
##cionable
##crs
##uf
##uk
##uv
##uar
##uld
##uas
##uent
##uest
##uard
##uence
##uage
##uild
##uits
##uled
##uys
##ucul
##uced
##uption
##ugnant
##uosity
##dance
##dro
##dles
##diss
##dder
##diness
##dered
##days
##dale
##docks
##dlestick
##fre
##fas
##ffe
##fol
##fig
##fire
##ffect
##fond
##fac
##fters
##finger
##frid
##fares
##fitting
##mes
##mere
##mad
##math
##mness
##mise
##mation
##mouse
##mits
##mons
##mets
##mix
##mooth
##mires
##mask
##maf
##mek
##mands
##matic
##monds
##miles
##mpled
##mirched
##makers
##malkin
##mounting
##macet
##py
##pa
##pra
##pery
##pful
##pos
##paint
##post
##pated
##plic
##pires
##pool
##pane
##pierce
##paps
##pences
##porter
##pics
##priz
##passeth
##pieces
##pipes
##ponsive
##points
##wes
##war
##went
##wich
##worn
##wist
##wls
##wald
##women
##wedst
##writing
##ka
##kan
##ket
##kink
##kiss
##kitch
##kirt
##knife
##vio
##vier
##vouch
##vated
##vally
##vado
##viend
##vii
##vato
##vonshire
##viated
##zar
##zle
##zet
##zur
##zand
##zant
##zers
##zel
##zens
##zonet
##zadoes
##xes
##xim
##xit
##xena
##xicates
##jay
##jus
##jour
##jock
##jaz
##jointed
##jug
##jeres
##junction
##jured
ther
thre
thill
thass
thaws
thero
tharb
##oux
##ousel
##oubt
##erer
##erat
##erit
##erly
##erra
##erate
##eric
##erance
##erings
##eros
##errant
##erner
##erary
##erne
##ereness
##erald
##erously
##erica
##erds
##erza
##erizing
##erviceable
##ercie
thes
theor
theise
theif
thebes
theban
thewes
##ndre
##ndle
##ndane
##orch
##oration
##orps
##orister
##orily
##oriz
##orary
##orally
##orges
##ata
##atur
##atim
##atain
##atus
##atant
##attle
##atures
##atulate
##attered
##atoes
##atibus
##inx
##inse
##init
##inea
##inine
##inity
##inian
##inia
##inople
##inoc
##inally
##inorous
##inously
##inaries
##inquish
##innings
##inhab
##injay
##lls
##lless
##llors
##esis
##esar
##eson
##esus
##essel
##esile
##esel
##esnut
andir
andren
##iso
##isy
##isar
##isse
##isit
##isal
##isans
##isition
##isco
##isms
##iseness
##isites
##isited
##isque
##iscian
##ischard
##isky
##iscible
##isadoes
##isnomy
##ara
##aring
##arian
##arried
##arning
##arque
##armon
##aritable
##arnish
##aritably
##aracts
##arvonshire
tod
toge
toled
toged
toasting
tods
tossed
toaze
tosseth
yound
##eno
##enit
##enum
##enew
##enian
##enible
##enne
##enissim
##ennines
##onit
##onate
##onian
##onia
##onair
##onize
##oniam
##oncing
##onoured
##onnes
##oncer
##onimy
##onwald
##thly
##thill
##thook
##thew
##thens
##thled
##thoriz
##anie
##anter
##anel
##anian
##ania
##anapes
##anquish
ofrence
noes
nost
noster
noces
nosed
noised
noseless
nooks
noyance
whor
whoo
whare
whew
whoring
wheeling
whorish
wheezing
whizzing
wire
wiry
wiping
wipes
wizards
wimpled
##veys
##ream
##reble
##reate
##reak
##reasure
##relish
##reets
##reedom
##report
##reared
##reviated
##rendre
bean
bech
bead
bever
beel
beans
befort
bepr
bewh
beliest
beaks
bevis
beareth
bemad
bepaint
##omer
##oming
##omet
##omile
##omper
##omeness
##omuch
##omasters
##omitus
##omuld
##ingo
##inge
##ingst
##ingoes
##inglory
init
inure
inro
inurn
inber
inoc
inaud
inser
inaid
ingl
ingro
iniqu
inciv
inshipp
inequ
incivil
injure
inscription
inshell
inlay
inverness
informs
inauspicious
inmask
##ston
##step
##steep
##stable
##stake
##stered
##string
##stroke
##struction
##stinate
mynheers
hed
heft
hems
heats
heals
hews
hefted
heareth
heinously
##owing
##owered
haut
haver
haill
haling
hagar
hailed
haberd
haunches
hauf
##sea
##seed
shir
shard
shive
shorn
shatter
shank
shod
shaw
shrows
shriv
shiny
sharded
shales
shoughs
shaved
shrives
shealed
shriver
##ceable
##ceiver
##cepter
##leth
##leather
##leto
##leap
##lemen
##lected
##lemas
##leading
##uties
##utors
##utting
##utify
##utual
##utiful
##uteless
forag
forks
forec
forres
forwear
meus
mement
meph
melf
meac
meher
meeds
meiny
meanders
melius
meille
meisen
##chal
##child
##chia
##chos
##chford
##chaw
##chapp
##choll
##chimney
##charging
##ldwar
##ereal
##eretto
isra
iscar
ispy
##ira
##irical
##iroes
##ircled
##etas
##etter
##edia
##edos
##educ
##editated
##edral
notre
notably
notched
##urer
##urance
##urdy
##urial
##urions
##urday
##urden
##urgeon
##urably
##urcho
##urism
##uriously
##urmur
##urmise
##urisy
##iman
##imber
##imited
##immed
##imurcho
##oos
##oopeth
##oosted
iterance
withstood
##itis
##iton
##itas
##itome
##itine
##itant
##itto
##itans
##itime
##itters
##itating
##itaries
##itoes
##itifully
##itivo
##itutions
##itimation
##ituled
##itzers
weet
weals
weedy
weathers
weeder
wezand
stave
strown
stinks
stunk
stitch
stacks
stelled
stumblest
stints
stiut
staider
sturdy
thousun
##kept
##keying
##keared
thistles
##ader
##adus
##adine
##adies
##adled
##adne
##addling
##adrangle
hisper
hisses
hisname
asse
ascent
asher
ascan
aslant
aspicious
aspers
assez
asmath
aspics
##asi
##asar
##asive
##asied
##asily
##alts
##alia
##aluted
##alitied
##alteries
doath
doest
dock
doted
dolt
doits
doters
dodge
doxy
document
dozens
sod
soit
soly
soto
soak
soss
sots
soled
soils
socks
soars
soiled
soaks
sobbing
socrates
sojour
prid
prie
pric
prise
prief
prester
prides
prated
prague
prying
prene
priory
priser
pragging
prancing
priap
priscian
##allas
##alline
##allers
##allian
##allia
##allible
##alliest
##allums
##entum
##entio
##entrion
##idid
##idue
##idant
##idery
##idency
##idulch
##idicut
##idatus
lig
lien
lius
lither
lict
ligg
licked
libb
livered
lifter
libels
libell
lizards
ongles
##athy
##atham
##athenian
##lybon
##lytes
##lygood
willed
willers
willeth
##ordo
##orde
##ordered
deo
deft
deco
deals
decept
decks
decent
deuce
deigned
deifying
##esting
##estone
##estate
##esteem
##estinate
##estories
frock
frush
fripp
frays
frances
framp
fraction
frisk
frutify
fritters
##aining
##amin
##amas
##amble
##amia
##amander
##amuff
##ambles
##essen
ansel
ancle
ancus
anna
##oodied
##eeled
reject
really
reaps
rears
reclus
rejourn
reche
rebeck
reiterate
##cking
##ckley
##ckerel
##cknock
herble
hercule
##usse
##usium
##usical
##uscadoes
##ionate
##verin
##verts
##vergn
##raign
##raps
##raught
##railles
##ragon
##rastinate
thyathenian
##iem
##iels
##ieurs
goer
goad
gosp
gogs
goads
governess
goffe
sug
sued
suive
suret
sueth
sucked
sunders
suerly
mais
maces
maled
maison
mails
mailed
mazes
mapped
mappery
mauv
maxim
mackerel
##eaux
##eagu
##eaketh
##eaceable
loa
loon
loth
loather
loff
loach
logg
loaf
loaves
lobb
loquit
locust
lozel
lolls
alls
allur
allich
allays
alluring
allotted
allege
alleged
##gemont
##thers
##theran
byes
byzant
spil
spic
spri
spig
spire
spans
spears
spited
spray
spann
spelt
spaces
spilling
spencer
spero
spangle
speaketh
##ightly
ifs
##andall
##andler
##andums
knobs
nec
neant
neif
nebour
neopt
nefas
ourchimney
chi
chus
chry
chic
chare
chol
churn
chud
chans
chester
changer
chats
chinks
chuff
chimes
chines
chapp
china
chaces
chasing
chilling
chien
chito
chisel
chorister
chesnut
chetas
chimurcho
chatham
chandler
lording
lorded
lordliness
trill
trance
trol
trout
trough
trier
tranc
tramp
trouts
trigon
tressel
tromper
triton
##ilon
##ilial
##iliest
##iliano
##ilhus
##ilitud
##ilarian
##arden
##ardiness
##ardinate
##ardism
##cto
##ctus
##ctial
##ctuous
goodwife
goodfellow
goodrig
goodlim
thereafter
thereabout
manus
manure
manning
manual
manlike
manna
mantles
manakin
mansl
manka
upsw
upsh
upmost
upturn
uphoard
upreared
fao
fap
fais
faut
fait
fagg
faites
failed
fagots
fausse
atomy
atropos
nowl
ames
amour
amble
amase
amph
amint
ambled
amerce
amiens
america
brance
brock
brund
brunt
broc
briare
brinded
briber
brisky
brambles
mure
muck
muli
mumble
mugs
mulled
mugger
mundane
orden
orodes
orifice
orchards
lettered
##illez
##illiades
##illida
##illanim
comen
compe
comag
comings
comfect
comrades
##ellation
##elligent
##ellished
mop
moat
mois
mover
moone
moors
moins
moated
moths
mopping
molley
molto
moldwar
##earts
##earied
##earsed
##earten
##feer
##feather
##feoff
##fecter
shew
sheff
shelf
conster
congr
convin
conveying
comeliness
##ousus
##inel
##ineal
##inever
##ineous
##inego
##arted
##artite
hereupon
hereabouts
enwh
encel
enrid
ensemble
enchas
enrobe
enrob
enpierce
ensteep
enfeoff
unow
unau
unri
unper
unans
uncome
unband
unsed
unfort
unint
ungar
unner
ungue
unlic
unser
unclaim
unforce
unso
unapp
unbroke
unread
unque
unriv
unact
unused
univer
unripp
unagre
unroof
unaching
unwept
unimp
unvener
unnatur
unauspicious
unjointed
uninhab
unanel
uneduc
unkept
unctuous
##antos
##antled
##antities
##antations
##antua
##otes
##otence
##ottle
##otement
##otinus
##otaurs
##otamia
knowings
##erson
##erspur
##erskink
cane
canis
canons
cancer
cancels
canzonet
##unter
##unite
##unned
swill
swum
swag
swith
swans
swung
swills
switches
swelter
swaggered
sweno
switzers
swaddling
howls
howlet
howsome
howlings
blink
blither
blith
blains
blues
blanc
blowers
blurs
bluish
bloat
blois
blesseth
bluest
blomer
##veness
##vency
##venoms
seely
seething
seeling
##ulo
##ules
##ulis
##ulus
##ulence
##ulity
##ulking
##ulated
##ulged
##ulkin
##ulency
##ulatives
boor
boss
bosw
boors
bobt
boars
bobbed
boorish
bohun
bocchus
boitine
themes
loveliness
ark
arion
arto
aries
arouse
arises
artery
arriving
aroused
arrear
arteries
ariach
whoses
tapp
taber
taph
tavy
tacked
tawd
tailed
taunted
tacit
whences
##amels
wort
worried
worries
##ppen
##ppers
##ppish
##ppado
##ppele
likeliest
##indure
##indful
##enced
user
usances
ushers
##ishonoured
seer
sept
severs
seams
seym
seamy
segreg
secking
hois
hoth
hoise
hoary
hovers
hobb
hoars
hodge
hoxes
##umble
##umond
##rowl
diddest
##aub
##aust
whereout
oneyers
madest
##icam
##icter
##icia
##ications
##icative
##icums
##icircle
##icorde
##iculo
mayest
mayday
maypole
plow
plue
plied
plows
plates
plats
pliant
plantage
planched
plautus
plurisy
##ongles
sacked
sailed
saba
##asten
##astrous
pose
poke
ponds
poem
poper
poles
poli
polt
pops
polish
poking
posters
poising
marl
marle
marge
marish
marred
marbled
marullus
marcians
marvels
marmo
marcade
maritime
##rix
##rike
##riance
##riff
##ricks
greens
greener
greaves
greases
greasily
alit
alime
alters
alton
almond
alorum
##ookish
outro
outsc
outsp
outworth
outstood
outdone
outwork
outfly
outgrown
outwear
outsides
outpriz
outwent
outvenoms
disag
disab
disbr
disapp
disallow
disanim
disability
disvalu
dislim
disorb
disedg
disnatur
disvouch
disjunction
disrelish
disordered
disunite
disastrous
agu
agood
agile
aglet
agaz
aggr
agenor
agnize
aground
##orted
propp
procl
propend
proscri
projection
probal
##oli
##ols
##oling
##olver
##olate
##olies
##olted
##olois
##oluble
##ologe
##olinel
tway
tware
tweak
twits
twitting
twanged
tissue
##pecters
##icehood
##igre
##iged
##igance
##igig
##igies
##igable
##igled
##igram
##igrates
timor
timbered
speakers
##emious
giveth
##rois
##roons
##roved
##roths
##ropes
##ropped
##rocal
##roaching
##rooms
##royles
exto
exalt
exits
excl
exequ
exacted
exclamations
expels
exsuff
expecters
honi
hons
##ouna
##ouncing
##pts
##ptic
hearten
heartless
heartiness
heartstr
heartlings
heartblood
graz
gracing
gravest
grafters
graveness
##ounding
##oundrels
taketh
leo
leve
leet
leur
lege
leers
leets
levers
leases
levinia
lequel
lechers
levels
leicest
leaining
##topp
##tolly
quat
quam
quare
quak
quatch
quern
quaked
quilt
quakes
quired
quoint
quivers
quartered
quoniam
quadrangle
quasi
quantities
everesteem
##icked
##ickly
##ickering
lookers
clare
clack
clatter
cluck
client
clung
clov
clipping
clinking
clowder
clinqu
##oseth
##osella
tellest
##orne
daybed
abet
abates
abash
abler
abuts
abais
absey
abrook
abutting
coster
coag
cocy
cogn
cohere
colebr
cosm
codding
cohort
coctus
norial
norways
northerly
norbery
eyld
eyas
eyases
##wns
##uster
##ustres
award
awaked
breff
brewh
brews
breah
brevis
brecknock
##urnal
##urnity
timelier
##istress
##isticated
struts
striding
stricter
##sterica
hearings
hearths
##cia
##ciled
##cifully
roes
rove
rover
ropet
rochester
roisting
roguish
ropery
rochford
betted
betram
bettre
betreble
betroths
dese
descends
##assination
##assionate
menon
menec
menaces
menaph
foal
fonder
fops
foins
fosters
foals
foiled
foamy
foisons
fosset
fodder
fostered
foppish
gentile
gentlest
warren
warring
warned
warns
##epence
flour
flail
flann
flakes
flote
flora
flirt
flagon
flieth
flagging
flutter
flaky
flaunts
fluent
flaring
flickering
fluster
frieze
perk
perman
perkes
peria
pervers
percus
perused
peradvent
permissive
percies
perverted
permaf
perjured
peroration
perfecter
leah
leav
leaver
##agu
##agery
##agation
##agons
##agancy
##ageable
earing
grates
grund
grumb
gruel
grumblest
artus
artless
artists
##quar
##quam
##quents
##quote
##quais
##quoise
##quessen
scut
scall
sciss
scions
scuff
scants
scram
scripp
scoring
scoffer
scattered
scandall
scamels
scrowl
scroyles
scoundrels
fairings
##angor
##angles
deathful
bloodier
bloodiest
writs
wreng
wringer
wrists
praygive
callet
callot
erud
erper
erwe
ermen
erru
errant
erset
errest
erbl
ergl
ershine
erval
erwhel
ercame
erborne
erweigh
erhear
ersl
erweighs
ersk
erlab
eruption
eringoes
erleap
ercharging
gentlehear
gentlefol
adown
adulation
adsum
adallas
handy
handles
handlest
handwriting
##idevil
comme
comments
commix
commences
community
commixture
commotions
commencing
commutual
##ighbour
plebs
pleines
laus
laces
labe
labras
fearfull
lifelings
##ullied
##udy
masterdom
masterpiece
partest
partakes
partaken
partially
partakers
##perience
##perates
##pertied
##pernell
fooll
##berts
##berates
jole
josh
joinder
jogging
joineth
hasting
hasted
hastliv
hastening
server
sermons
serenissim
aways
madeira
anyone
##ipage
##ipolis
##ressive
sonance
sonties
sonneter
##tlet
ayez
##elis
##elier
##elieve
##eliest
##elope
##eliver
##elophon
##elpful
##reeing
truebe
honouring
stander
slit
sland
slish
slake
slab
slides
slaim
slunk
slope
slipt
sliding
slaver
##ividable
owns
owning
appall
append
appren
appris
apperil
appalled
apprent
applications
appurt
appoints
apprendre
##iteth
##itect
##iteous
otherwh
othergates
imman
imbe
imbar
imitar
imitated
imitations
ladybird
duer
dupp
duff
dubbed
##warded
preed
pread
pregn
preface
##ansdale
##ssers
##ssop
beforehand
afield
aflo
affeer
glar
glue
glare
glose
glist
glost
glows
glues
glaz
glided
glanders
gliding
glancing
glansdale
ember
emman
embras
emerald
##phere
##phire
##phel
##philus
##phical
##phosed
##phlets
##phrates
##phlagon
womby
heading
headland
headier
waylaid
waylay
compil
compile
comprem
compters
compiled
compris
compunct
compensation
comprising
mights
mightest
mightful
president
presences
presupp
presaging
presurmise
contre
contends
contume
contended
contusions
contrives
##endo
##endre
##endum
##ccicos
##aped
##apets
##apso
##apalus
##aplas
downs
downfeather
remise
remediate
remonstr
remercie
arme
arma
intoxicates
longly
longings
longboat
firago
firenew
begged
begnawn
begrim
##iefed
olden
oldness
oldcast
fooleries
tilled
courted
courier
couronne
##aced
##acels
indue
indite
indiss
indub
indues
indigent
indicted
indistinguish
indrench
indurance
individable
thoughten
thoughtful
newts
newgate
newcrown
purus
pursed
purvey
purifies
purifying
purlie
##sword
##lessed
merest
mervail
merops
meridian
mercifully
keepdown
showest
nayward
##lands
repin
repine
repass
repining
repliest
replant
reporter
repured
repaired
reputing
repugnant
reputeless
peaces
peaches
drought
drains
drouth
drugg
droopeth
findest
findings
harum
harried
harrows
##asonably
dears
dearness
putt
puttest
peacemakers
holder
holden
holdeth
fells
felled
fellies
##kesly
bested
bestained
bestraught
forted
fortifies
fortification
chares
charon
charing
chariness
charmer
chariest
charities
charne
charging
charbon
charitably
characts
charybdis
charolois
truie
trundle
##ilds
##ilded
##plets
##issar
##issart
livelier
everytime
mists
mistful
mistread
mistemper
mistakings
mistleto
##show
##shades
##shouses
##shaws
##showl
confed
confix
confutation
confining
confesseth
lieth
undermin
underlings
underborne
underfoot
undergone
underpri
undercrest
engraft
engrave
engaol
enguard
engilds
settling
stilly
stiller
stillest
natus
natifs
##liction
##lipping
##libind
highmost
smit
smatter
smatch
smoth
smutch
smalus
smulkin
thrush
thrilling
thralls
thrills
thromuld
throttle
##ewail
sleight
sleided
sledded
sleights
queas
queub
queasiness
endu
endart
endows
endures
endym
enduring
witcrack
wittolly
worths
worthied
fortuned
littered
litigious
littlest
literat
helter
helmed
followest
housed
##iana
##ianc
conspect
considers
conscionable
conspires
tongs
servility
youngly
younglings
devises
devising
devote
devonshire
devoid
devesting
monks
monop
monstru
bringest
bringings
besom
beseek
besotted
beslubber
bescre
besfrid
faithfull
resum
resounds
resumes
resurre
resorters
residue
resounding
##osm
##oser
##osom
##ouded
belock
belches
beloving
belfry
giber
givers
gibe
giants
curan
curry
curster
curtle
curling
currant
curso
turneth
turnips
turnbull
friending
friendless
friendliness
fally
fallows
falleth
fallacy
##ierre
fullest
fullam
fullers
humbles
humoured
humbling
resty
restful
restores
restrains
aftersu
guys
guiled
guien
guerra
guinea
guischard
guallia
guinever
guiana
untold
pav
paction
paled
paby
pails
pavin
pailful
pabble
pauses
paunches
pajock
paisans
paphlagon
welking
welov
obidicut
##dering
kindless
kindlier
richmonds
answerest
woll
woed
biddy
bidden
falorous
falsing
womankind
counting
behave
behoof
behowls
playeth
playcrs
sarum
sarac
fellowly
villager
villagery
presenting
##ocking
treys
tremp
trebled
tremor
accite
accites
accited
accidence
acclam
accrue
##ledged
imply
impaint
impale
impenet
impasted
implies
impounded
impaled
impaired
impieties
impotence
courtney
brac
bracy
meaneth
vales
valence
doubl
hencego
rightfully
eyeing
eyegl
##forc
##psy
##pses
##pson
passy
passive
passant
passio
seemth
seemly
seemest
seemers
seemingly
antres
antmo
swordmen
drake
drabs
dragged
drabbing
huswives
##clout
##clangor
forthright
forthlight
bede
bedward
bedash
bedazz
bedfellows
bedimm
bedrench
bedabbled
bedaub
backed
backare
backbite
backsword
peop
peals
pecks
pecus
pegs
peized
peereth
pecause
peesel
patay
pattle
patents
patines
patrons
patients
paternal
##oldings
hasie
subvers
submer
subsequ
submits
subverts
needer
needst
needly
needles
pared
parles
parable
parfect
parler
paritors
parca
parcell
parsley
paraqu
parmacet
paragons
parapets
paracels
traces
traject
traunt
##enchant
caco
cabb
cables
cawing
cautions
caesar
retier
retourn
retract
retails
##lfellows
meetly
spirt
crowning
crownet
##retia
##retierre
childing
childed
childness
childbed
childeric
natured
assub
assures
asschool
assuage
assinego
assassination
horsed
horiz
horrider
horologe
killen
killest
killeth
wronging
wrongly
dreg
dreaint
dreary
##mency
justs
justest
justness
justles
justled
justling
justification
justicers
justeius
reasoned
reasonably
husbandless
cars
carest
carves
carper
carman
carmen
caraw
carlot
carrack
caracks
carkan
overset
overgo
overhold
overfl
overgl
overstain
overshine
overpress
overweigh
overcast
overcharg
overgone
overwatch
overspread
overgrown
overfar
overpass
overshines
oversights
overlive
overgor
overfond
overmounting
overworn
overleather
overtopp
overshades
earthen
earthlier
surecard
troat
troll
trovato
furor
furze
furzes
##insicate
wearers
wearily
weariest
camels
camelot
sleeper
heardest
powerless
powerfully
thanking
crone
crare
crash
crants
crams
crested
cranks
cringe
cradled
crumble
crudy
##ifes
##ifices
##ifiers
##ifiest
##ifical
##ificate
##ifluous
##abble
##abel
##abited
##abris
##abbas
##abras
##abilitud
causeth
lawrence
getter
missed
misapp
misadvent
misorder
misgu
misuses
misanth
misenum
misreport
misleading
misquote
helpers
busiest
busses
buskin
bussing
busky
farer
farrow
farms
farced
farnish
farthest
prawls
prawns
##ardonable
godson
godsbody
handsaw
handsomeness
banister
banning
banbury
bannerets
pardoner
pardoned
attask
attested
attractions
eden
edition
edged
edifies
edifices
##ruct
##rubb
##ruvio
forgone
ratherest
soldat
soldest
shamefast
newsmong
##fectness
layer
layest
suffices
suffoc
suffocation
suffigance
wisher
wishers
wishful
advocation
honestest
illness
illume
illiades
illiterate
##covered
##conded
yead
yeas
statelier
##ceived
deniest
denny
denoted
dennis
denounce
denunci
denotement
landless
landmen
silencing
dispark
disputation
disputed
disputes
disponge
dispriz
dispenses
dispiteous
gentlemanlike
barm
baron
baring
bared
barter
barrow
barful
barony
barson
barrel
barrels
barabbas
##inture
##intida
majority
instate
insteep
installed
instigate
instigated
instigations
institutions
opal
opener
opulency
swearer
commande
coroll
corros
corky
corrup
corbo
corrob
corantos
persia
persists
perspic
throughfare
throughfares
sawed
sawpit
careers
careires
signum
signifying
signiory
stripl
stripping
stripped
strikers
firewor
firebrands
seafar
##asher
##ashionable
purport
purples
burs
burly
burier
burrows
burthen
burdocks
burthens
dared
darter
darks
darius
darking
darraign
runn
runner
runners
runnest
fightest
fighteth
##garnet
##gartering
intil
integ
intimation
intitled
intenible
intreasure
intituled
intestate
phib
phars
phleg
phisnomy
phillida
photinus
sendeth
oftener
deedless
horsetail
mural
murray
murrion
murky
talkers
joyed
judases
vox
voce
voided
weepings
windring
windlasses
windgalls
provexit
villained
spiriting
spiritless
sunbeams
##ubine
##ubtle
##ublish
##ubarb
freezing
entre
entry
entame
entombed
entreasur
entwist
entangles
entendre
promulg
harden
hardiest
sicker
sicklied
sickliness
sicklemen
##log
##loaf
##onsidered
##onsolate
drawest
drawling
drawbridge
groweth
revenous
bodykins
halfpence
deservers
temps
##ibell
##ibald
reader
readins
readily
supping
supped
suppers
suppliest
suppresseth
supporters
generall
generations
generative
generosity
royalize
sorrowed
sorrowest
##undo
##undity
##opulate
##opardy
##oponnes
##opotamia
beavers
foundered
rah
raft
raises
razing
raileth
dii
diver
dipp
diction
dieter
dipping
diverse
diurnal
singest
singeth
singleness
quicker
quickness
quicksand
quicklier
furtherer
winnows
##ourag
worky
workers
workmanship
beseeched
discomm
discerning
discourt
discerner
disconsolate
henric
henned
metres
mettest
metrop
senoy
senec
senna
seniory
auld
aucan
auvergn
fitt
fitful
##imecu
tymb
types
prouds
proudlier
lutheran
luccicos
sisterly
coldspur
rememberest
soundness
soundless
soundpost
condoling
damon
damasc
damosella
buz
buying
gros
grop
groin
grocious
grovell
groping
protester
blesses
tittle
tittles
infest
infusions
inflict
infinitive
infliction
asker
askance
airless
affied
affron
affray
affictions
affaire
affianc
craver
craved
crazy
muss
muses
muscle
muscles
muscadel
oathable
saddles
anges
angus
angli
angled
angered
angler
angalo
truster
trusters
sightly
chez
cheats
cheered
cheating
cheator
serveth
cassado
cassocks
dogberry
dogfish
unclew
tether
teams
teips
tevil
sinning
sinned
dreamest
dreamers
distasted
straits
straps
straited
straiter
strachy
strappado
delver
delated
delations
delicates
delinqu
deluded
skog
skilfully
skamble
skulking
yielders
cutt
cuttle
cutlers
certainer
expal
expires
expiate
explain
expuls
expresseth
expenses
capite
capac
capoc
capric
capability
capricious
dareful
chargeth
chargeful
viand
viii
vixen
watered
watert
##rewed
commonty
clef
clew
clepe
clept
clepeth
clemency
gallus
galley
gallimaufry
galliasses
terre
terren
terram
termin
tercel
banishers
birch
provand
provides
provider
provoker
proviso
mining
mints
minces
minos
minime
minnow
minimo
minerals
minnows
ministration
minikin
minotaurs
##upois
footmen
footstool
footstep
waul
wafer
wauling
wappen
waiteth
prisonment
prisonnier
contento
contenta
contentless
contenteth
wiselier
tenable
tenures
tenours
tenement
tenths
tenements
tenedos
somme
gravely
graveless
gravelled
warrantise
warranteth
warrantize
boundeth
beholds
beholder
beholdest
ringing
ringwood
ringlead
burnet
pastry
pasties
pastors
pastures
pastimes
pasterns
pastorals
starry
starves
starings
starving
starling
starbl
satis
sated
satiate
satyr
saturd
satirical
saturday
depress
depute
deputed
depths
deprave
deputing
deputies
depopulate
baa
baily
bavin
baseless
baiser
bajaz
baillez
prints
princox
acides
acida
acuckold
aconit
acordo
fielded
surance
surpl
surpass
surveying
surgere
surpasseth
surveys
nobis
ladders
payments
rugs
rupture
ruptures
mortis
mortise
mortimers
veni
venit
venew
venial
veneys
venereal
demise
demuring
demonst
demidevil
knighterrant
reportest
reportingly
actium
actively
divulg
dividable
dividant
captum
captious
##rences
##renean
incites
incaged
incorre
incorps
incidency
incardinate
incantations
possitable
possesseth
questant
questrists
mouthful
garret
garner
garlick
##ifted
##mering
##merian
hellhound
proface
proficient
pleaser
pleasers
pleasance
learnings
visitor
visibly
visaged
viscount
requit
requisite
requisites
requiem
bolds
estre
estime
estrid
estridge
mockable
mockwater
securing
secundo
blacks
blackberry
blackheath
blackmere
opened
openness
jews
jewess
woof
wooes
wooingly
sumless
sumpter
appearer
caster
casted
castigation
castigate
castilian
castiliano
##ippe
##byses
##ontic
canstick
attendeth
faultiness
watchings
watchword
personate
personates
personated
personages
personating
colourable
coloqu
colme
colmek
colchos
droven
droict
drovier
droplets
rede
redound
redness
redder
redime
redressed
reddest
redbreast
redeliver
##mbols
##vented
##ventry
towardly
suiting
suitable
quarries
##brics
##brained
groundlings
fasted
servanted
servantmaid
malvol
malchus
maladies
tenderkiss
wonderous
wonderfully
gainer
approvers
appropri
regress
regular
regina
regiments
regenerate
regreets
valiantness
entreating
entreatments
revengement
snaff
snails
snipt
sneck
snipe
snoring
snaky
interess
intermit
interrog
intermissive
interjoin
interjections
interdiction
interrupter
intertiss
intermix
intercepter
extends
extortion
extinc
benign
benumb
pences
penning
penker
penned
pencils
penurious
penknife
penelope
petar
petit
pettish
petrarch
constring
constancies
constables
constellation
embay
embers
embalm
embalms
embounded
embarks
emballing
embodied
emblaze
embarque
embellished
embrewed
englished
englishwoman
##acs
##acable
##acled
##acute
knewest
moonish
mooncalf
moonshines
moonbeams
untalk
untried
untune
untemper
untasted
untangled
untrus
untangle
untitled
untreasur
untimber
pretia
pretences
pretended
pretext
straightest
sovereingly
speediness
changeful
changelings
leges
legerity
legatine
legacies
leginnings
legitimation
scaring
questioning
questionable
despoiled
sovereigns
laurels
softness
softens
boson
bosky
plucker
praiseworth
damns
damnably
township
towngates
shortcake
weakens
weakling
recure
recited
recounted
recounts
recounting
recanter
forbad
forbears
forborne
excelled
excellences
fev
fends
feith
feud
fevers
feated
fecks
fehement
febru
opprest
oppugn
opprob
oppresseth
opposeless
hairless
unlesson
##licate
glads
gladding
gladded
fettle
fettering
pointz
pointless
pointbl
traitorly
watering
waterford
waterdro
cowarded
cowardship
lames
laming
lamord
lameness
lambert
##andering
empale
talon
##ocrates
comingled
crost
croaking
croaks
pomps
pomander
pommel
pomgarnet
##scomb
apennines
achieves
achieving
achito
achiever
defam
defies
defying
definite
defiled
defunction
plaining
plainings
fleshes
fleshed
fleshly
fleshment
badg
badly
sufferances
lestibus
wasters
stirrest
stirreth
stirrups
undress
unduteous
undeter
undisp
undressed
undisc
undeck
undinted
undeaf
undeeded
undoubt
undream
undutiful
underskink
undishonoured
##ringed
grantess
##onesa
laugher
laughest
laughable
bating
batty
batler
battail
hurling
hurting
hurdle
hurtled
wisp
##ecuted
##ecrable
disheart
dishearten
dishclout
dishabited
wallet
wallets
widens
##audred
labourers
creates
sporting
strengthening
respectively
lacked
privity
addict
bucks
bucking
buckbasket
booked
idem
idles
ideas
heirless
ambula
ambuscadoes
commending
##feited
proceeders
signiories
fetching
biter
rien
ript
riper
whitehall
gott
beginnings
camlet
camomile
cambyses
cambrics
paints
simile
simony
simulation
lipsbury
brokes
broking
broads
broiled
brogues
darkens
chamberers
chamberlains
veiled
veux
veget
vehor
##avory
##avities
roba
robed
robas
diner
evans
evade
evades
evasions
evitate
evidences
jested
mained
mainmast
thirties
thirtieth
relents
relates
relations
relume
relieves
relating
relative
relieving
relinquish
whereinto
resolutes
famed
offendress
offendeth
offendendo
quarrelled
quarreller
##ernible
wilds
wildfire
belle
bellona
beastliness
beastliest
guilts
hideth
hideously
milo
milking
militar
thrower
throwest
fatness
fatting
fatally
fatigate
fatuus
fatguts
fatbrained
piti
pittance
rebate
rebound
rebused
marchpane
admission
forever
foreward
forefather
forehorse
forefinger
##ooping
moveth
absque
absyr
absolver
understandings
understandeth
cheerer
cheerless
salter
salary
saluted
salads
salamander
salicam
christom
receiveth
motes
poisoner
poisoning
conscienced
detains
detention
detection
detractions
filly
fillet
##ascule
churis
##empted
feedeth
worshipfully
kecks
keisar
limn
limber
limps
limander
limbeck
wedg
wedd
##volent
##volences
lusted
lustig
lustiest
rageth
healthsome
guardage
guardians
treasonable
acquir
acquired
acquaints
acquisition
stealers
mode
modes
module
modena
modicums
hundredth
feeler
spokest
passioning
carded
carders
carduus
cardmaker
cardinally
utis
utility
uttereth
blear
bleach
bleats
bleated
eases
easiest
easiliest
##odly
##odope
##odorus
##prit
##priev
briefer
briefest
affectioned
affectionate
affectionately
elevated
mirable
woundings
woundless
wheeson
forceful
forceless
taleporter
offenceful
offenceless
##coverable
bowed
bowling
bowler
bowget
occulted
sorer
lovingly
crossly
crossest
crossness
crossings
crossgartering
issueless
satisfies
verities
verbs
vermin
veritable
veroles
veronesa
##aleable
##aleiroes
disgracing
disgorges
execrable
##claimed
forgetive
battled
nursh
nurser
bondmaid
smallness
effectually
diedst
hued
hugs
hugger
hujus
performer
freshes
freshlily
orderless
excites
excited
excrements
##forcement
calv
calen
calms
calydon
calaber
calipolis
cupbear
finem
fineless
tares
tarred
targes
tarentum
tarriance
urges
urns
innumer
studs
students
studded
studiously
tribulation
argo
argentine
##eadfast
hames
hamper
hamstring
sharers
sharps
encore
encave
encumber
encaged
encircle
encircled
encroaching
encourag
unwed
unwish
unwip
unwatch
unwares
unwarily
unwitted
unwished
unwedg
unweeded
unwhipp
unwrung
unwearied
blowse
blowed
headsman
##grinate
shipmen
unkiss
unkissed
troths
trothed
secondarily
vowel
vowels
##ossa
##ossible
breasting
breastpl
birthdom
birthday
julio
midas
middest
midwives
midriff
insane
insisting
insubstantial
insinew
insulted
insanie
insomuch
chokes
chopping
choicest
chollors
northeast
foolishness
babbled
baboons
feebly
feebled
feebling
feebleness
invoke
invasion
invitation
invitis
invasive
brainish
brainless
safeties
claret
clarissim
titleless
dulls
dulling
sixpenny
sixpences
governance
governors
cloudiness
greenwood
greenwich
countermines
countermands
counterpoints
practic
practises
entertainer
entertaining
entertainest
entertainments
approached
approachers
quarrelous
basta
bastes
basted
porto
portugal
portcull
worsted
lenders
quieter
quietus
contrite
horning
hornbook
hornpipes
jackanapes
piu
piper
woodland
woodmonger
woodville
qualit
qualifies
qualifying
qualification
suspir
wertking
solemness
shallowly
shallowest
washer
washford
obeyedst
hurtless
hurtling
rounder
rounding
roundest
roundure
roundel
thitherward
unhop
unhope
unhorse
unharm
unhanged
unhurt
unhidden
unhospitable
unhousel
unharden
unhearts
unhelpful
keptst
creed
crevice
unfed
unfam
unfee
unfather
unfought
unfool
unfellow
unfaith
unfallible
unfilial
unfenced
unfasten
unfashionable
athol
athans
romano
romanos
severest
properest
immures
immoment
imminence
immater
immedia
avis
avised
girth
girding
girded
vainer
##remeditated
refin
refell
refract
earliness
paleness
palating
paltering
palamed
palisadoes
palabras
shrieve
brooked
blinds
blindly
blindfold
sacring
drumble
drummer
drumming
troiluses
colouring
talbotites
mutes
mutest
mutation
mutable
mutations
muttered
mutiners
reneg
renege
reneges
renouncing
rascalliest
conclave
official
fearfulness
bastardly
bastardizing
sorting
sortance
throb
throe
throbs
throca
throbbing
forslow
forspoke
transcend
transcends
transylv
transfig
imported
importless
importancy
vieweth
##soons
stored
tricking
trickling
conceals
drunkest
goldenly
cornets
cornuto
ridest
ridge
riders
prosp
prospers
prospered
continence
virgo
virgilia
troyans
conditionally
violates
violated
violator
successor
successantly
opinioned
credible
credulity
ego
eget
egal
egress
egally
egma
owse
owches
roughness
sevenfold
observers
sharpen
tearful
wenching
wenchless
blushest
silenced
tempter
tempered
hopdance
plantation
planteth
dismes
dismask
dismissed
dismantled
expectance
expectations
clearest
equival
equipage
pinse
livings
frowningly
hollanders
requesting
oddest
torcher
ancients
moorship
moorfield
parisians
visitings
visitations
viewest
viewless
stepdame
defenders
lode
smilets
birdlime
daventry
loudly
loudest
riseth
voucher
vouching
topful
topless
##ompanied
dealest
dealers
committ
philario
philadel
philarmon
tented
volant
volable
volivor
volquessen
wealthiest
necessarily
necessitied
protectress
caters
catling
catlike
catlings
catarr
cataracts
cataplas
fisher
fishified
fishpond
ventages
ventric
venturing
##iams
##iament
fordo
fordid
triumpher
considerance
considerings
antoniad
becomed
becomings
intendeth
motionless
prosperities
punched
raining
rainold
hailstone
hailstones
forwarding
changest
enjoineth
propre
propension
propounded
propugn
propinqu
propagation
propontic
complotted
thirds
authoriz
potch
potter
potable
potents
potting
potato
potatoes
threatener
unsur
unsound
unspo
unsisting
unsinew
unsunn
unsmirched
unsaluted
unsightly
unsorted
unsquar
unsullied
unsphere
unslipping
unsifted
unsavory
costs
costlier
falstaffs
syrac
symbols
##zebel
stog
stover
stopt
stoics
stokesly
staines
staining
priestly
roarers
winterly
benevolence
benevolences
bleedeth
triumphers
oweth
decides
decimation
decerns
revolutions
heroic
bodg
bodiless
bodikins
greeted
grandchild
claiming
wrathfully
repenting
prepares
choicely
melancholies
fleers
fleec
flecked
flemish
fleming
fleering
fainter
turd
turvy
turkeys
turfy
turlygood
turquoise
##axes
##vished
memphis
preciously
charmeth
charmingly
employer
employed
virginities
virginalling
mede
medal
medice
medlars
mediators
stockish
stockfish
negro
negation
negative
negoci
negatives
necklace
amazes
amazing
amazons
brighten
unpay
unpath
unpink
unpack
unpress
unpoll
unpaved
unpolic
unpitifully
unpeeled
unpeaceable
unpicked
unpardonable
unpublish
unpossible
unpremeditated
imagery
imagining
remained
cheeked
encounterers
fewness
##bbery
##bbling
##ogues
##ogism
##ogued
hermes
widowed
widowhood
widowshowl
wakest
unbent
unbid
unback
unbend
unbatter
unbaked
unblest
unbrac
unbounded
unbashful
unbreech
unbraided
unbitted
unburnt
unbreath
unbidden
unbodied
unbuild
unbookish
unbelieve
unblessed
unbewail
unbosom
uncase
uncape
uncurb
uncasing
uncross
uncounted
uncourt
uncomfort
unconsider
uncorre
uncuckold
uncolted
uncropped
unconsidered
directs
directing
directive
trumpetclangor
circa
barefac
foughten
purely
##minar
springes
springeth
springhalt
browse
browsed
earns
maidenliest
somerville
particularise
dryness
dryfoot
pygm
pyrenean
heating
heatest
maculate
maculation
spendest
savory
savoy
saviour
sailmaker
accordant
accordeth
corrupts
corruptly
corruptible
corruptibly
angering
ministering
lamentings
lamentations
audis
auditors
sauced
londoners
slandering
slanderers
protesting
protested
punishes
punishments
monstrously
monstrousness
bigness
bigamy
horsing
thunderer
thundering
thunderstroke
concert
concurs
concerne
concolinel
concubine
concavities
twilled
clothed
clothair
clothiers
clotharius
slaughterer
slaughterous
slaughterman
underta
silverly
professest
customed
puking
puzzled
pugging
puzzle
pukest
puerit
shuttle
reverbs
reverberates
proditor
witching
montant
montfer
montez
montacute
mountainous
mountainers
counterfeitly
renowns
searches
searchers
cliffords
ledd
ledge
##eously
##vailing
##rehensive
##rehensible
halves
halberd
stomaching
movousus
plotter
basan
basins
basingst
basimecu
frees
freeness
freeman
freestone
frequents
freelier
tutto
vara
varld
varies
variest
variance
variety
variations
heeded
heedfull
weightless
abrogate
emptied
expressive
vengeances
circumscription
circummur
circumcised
ransoms
ransoming
aids
aidant
aidance
aidless
danceth
dusted
squier
squint
squiny
squandered
squints
squeezing
squabble
squandering
startled
startingly
fruiterer
##ractors
conveyers
conveyances
examin
examines
examinations
betraying
thrusteth
miserably
misericorde
gallantry
easeful
rankly
sheepbit
differency
solemnities
lineally
wrapt
wraps
wracks
befitting
befitted
##ursors
stolest
combed
combless
combated
combinate
affecteth
affectations
naturalize
temperality
victress
brokenly
driv
drily
drizz
drizzle
dribbling
pickers
picklock
pickbone
pickaxes
sackbuts
sackerson
pleader
pleaders
countenanced
tyburn
tybalts
executioners
usurpingly
stormed
stormest
aimed
aimest
warmed
conductor
guiltian
guiltily
rosalinda
cyrus
hater
hatest
haters
wingfield
thicken
bewet
bewails
bewasted
imperator
imperceiver
preservers
exceptless
purposing
mirthful
civilly
digt
digged
digging
hyen
hysterica
hyssop
hilloa
lym
lyca
lymo
lynn
lycurg
languor
include
inclines
inclips
included
forestal
foresters
forestalled
debted
debility
debora
debonair
quitted
quitting
coverlet
flighty
confirming
confirmities
temptations
derides
dercet
viceger
##iolated
##enetive
deceivers
deceiver
conjoins
holborn
leonardo
leaner
contemptuously
intentively
capitaine
constantine
constantinople
opposes
givest
givings
irres
irremov
packs
packings
rideth
tidy
tiddle
whoremonger
infecting
infectiously
presser
pressure
pressures
swelled
swellings
archelaus
archdea
architect
archibald
wombed
banquest
cracker
citing
cital
cittern
cressy
filz
filius
filches
filberts
furnaces
furnival
honeying
honeyless
honeycom
honeysuck
napes
napless
disdaineth
disdainfully
heavings
smooths
guesses
guessingly
skillet
regarding
regardance
regardfully
equalness
equalities
benefice
benefited
booties
cordis
dunnest
dunsmore
dunstable
romish
romage
saltness
saltiers
saltpet
wagered
wagtail
sprat
sprout
cherries
unlink
unlick
unlace
unlimited
unloos
unlineal
preventions
treachers
treacherously
accusative
dropsy
dropsies
dropsied
northumberlands
cressids
aptest
bergam
bermooth
berattle
whippers
dewy
dewberries
dewlap
rewarder
rewarding
strangler
scotches
scotched
prevailment
purchases
vexes
vexest
vexeth
ghosted
epida
epitome
epigram
escoted
escolier
fifteens
piec
piecing
pilch
pilates
pilots
pilcher
pilchards
ranking
railer
railest
wakefield
dotant
doteth
dotards
cocker
cockles
cockled
cockpit
commissioners
barky
barkest
barklough
admirer
picturing
suspecting
pyramis
pyramid
pyramides
pyramises
pyramids
conducting
ceaseth
misses
missive
missions
missingly
missives
misspoke
ruling
rulers
##conciled
whoresons
stableness
prononce
prononcer
recoverable
suckers
suckles
lockram
speken
##ilties
discharging
abhomin
flowed
flowered
compasses
exceedeth
burdening
burdened
burdenous
methoughts
ambitions
avoird
fixes
tortive
vais
vailed
vaunted
vainglory
vaunter
vaumond
wanderingly
tombless
##cedant
##chante
stickler
deceiveth
seaside
clover
cloves
clothing
clogging
cloistress
builded
disgraceful
unknowing
violentest
violenteth
apex
finn
finless
finally
finny
finical
lengths
lengthening
poring
porches
sourly
##blame
shoal
shoals
shoemaker
recking
tablet
tabled
wormy
posse
posies
possets
abuser
slights
slightness
lieutenants
objected
behalfs
attemptable
burglary
burgomasters
craveth
admitting
unworthier
unhappied
publican
publication
pronouns
billing
billets
billiards
garde
gardez
marts
martin
marted
martem
martino
martlemas
masses
numbness
numbered
whispered
informal
informations
trifled
trifler
preferred
preferring
preferreth
gloriously
mercer
mercatio
mercuries
mercatant
mercurial
familiars
bindeth
bouncing
bounced
eighty
pistols
##drawer
##dragons
##demon
inventors
status
statist
statures
statilius
statists
statuas
facere
facinorous
browsing
brainsickly
climbed
climbeth
climatures
gratii
gratillity
ladyships
friendships
assisting
assistances
ripely
ballast
ballasting
censuring
dumbs
dumbshow
rhinoc
rhesus
rhapso
rhubarb
rhodope
forfeiters
forfeitures
superior
supervis
supernal
superpra
bluntest
bluntness
policies
advancements
waxing
religions
rebelling
calmest
calmness
mournest
mourners
mournings
mournfully
ragamuff
rushy
rushling
sells
vesper
##heads
##rained
shineth
steering
stepping
ungor
ungot
ungrown
ungotten
ungird
ungrave
ungenit
ungodly
swaying
swayed
slenderer
slenderly
bellyful
bellyfull
furnishings
hinders
mounte
mountant
mounteth
mountanto
rooteth
tamer
tamworth
winked
##cript
##adocia
pocky
intelligo
skyish
skyey
minutely
accepts
esteemest
esteemeth
observants
observations
observancy
cuckoldy
sweaten
sweatest
eschew
eschapp
eterniz
eternally
fantasied
monging
mongrels
naughtily
pismires
altering
dissensions
dissipation
consulting
rescues
impressed
imprinted
snowy
snowball
snowballs
conceitless
prodigally
prodigals
prodigiously
pictured
bentii
bentivol
crowded
dims
dimples
dimming
fiercely
nicety
rato
rattle
rattles
ratifiers
testiness
testril
##atorship
whipster
inherent
inheritors
repel
repeats
repeating
unnaturalness
desirers
foxship
jointing
jointress
preyful
drivel
driveth
drivelling
mistaketh
unfoldeth
avoids
avoiding
donne
rumble
rumination
southwell
sancta
sanctities
sanctifies
sanctuar
injurer
stretchmouth
solon
solum
solinus
solidity
unsex
unseam
unsever
unsearch
unseparable
unseeing
unsecret
unseconded
unseminar
ariseth
##arelon
strained
perishen
perished
perishest
perisheth
scrimers
gloz
glover
glozes
glooming
bushels
diomede
crafted
craftied
craftier
expeditious
instrumental
alexanders
yesterdays
inkles
hallown
halloing
shifting
islander
reacheth
knitters
knitteth
boasted
boastful
procne
procuring
procreant
procrastinate
clerestories
runsgate
lambkin
lambkins
privileges
destroys
languageless
japhet
mille
declares
declensions
ords
ordure
ordinant
ordinaries
herefordshire
quenchless
cozener
coziers
slavesmiles
reproves
reproving
reprobation
dromios
belonged
belongings
barrenness
promisedst
noblesse
shrewdness
befalls
purchaseth
specialty
boned
bonum
bonos
bonville
federary
gleeks
luckier
luckily
luckiest
momentany
yoketh
##zzar
##archus
ashy
rejoindure
blastments
collar
collier
collusion
collars
colleges
colleagu
launch
launces
currance
pawns
pawned
accuseth
corpulent
corporals
milked
milkpaps
hugely
tormente
tormenta
tormented
tormentors
complainer
complainest
complainings
enviously
withdrawing
franciscan
banding
bandied
banditto
candlestick
candidatus
grip
gripple
grizzle
jug
jugs
nervy
neroes
nervii
padus
paddle
shunless
shunned
storehouse
storehouses
trims
trimly
trimmed
adventuring
discontinu
discontinue
baptiz
increas
increases
pleasantly
concernancy
wolfish
wondrously
pocketing
botches
botchy
dowle
dowdy
dowries
etna
gooseberry
huntress
hunteth
jeer
jeering
jeopardy
jezebel
moulds
mouldeth
nonage
panders
sinel
zeals
##taunt
##tailed
##uceus
##ucement
heighten
sternest
sternness
sternage
revile
revok
review
revisit
revania
chidd
chiders
chaseth
wholesom
toothdrawer
godded
flatness
flourisheth
accomplices
aufidiuses
skinny
resolveth
savagely
destroyer
destroyers
journeying
journeyman
journeymen
sacrificial
sacrificers
baying
bayonne
coupe
couper
couches
couchings
latten
ods
ode
odes
oaken
tasker
warden
warded
##ridates
whiting
whitest
whittle
whitsters
stanze
staniel
depended
dependent
dependance
dependents
dependances
dependency
branched
branchless
unmade
unmix
unmaster
unmov
unmellow
unminded
unmoan
unmarried
unmusical
unmindful
##bledon
##rollers
applies
applaus
monarcho
monarchies
monarchize
travellest
silently
revenger
revengers
revengingly
affordeth
redeemed
imprisoning
imprisoned
suspicions
budded
budger
rubied
rubious
sicil
sicilian
thornier
tomyris
##irtuous
stroy
strok
stronds
strossers
makest
makings
spitted
spitting
designment
designments
welshwomen
corrected
beautied
streaming
streamers
freedoms
hortensius
boreas
dresser
dressings
nimbler
nimbleness
nuncio
vulgo
vulnerable
inhoop
inhospitable
inhearsed
inwardness
deafs
deafen
succedant
spreads
arrivance
lapland
lapsed
kindreds
miscreate
bursts
bursting
supplying
supplyant
supplyment
checker
checking
foreigner
foreigners
dismissing
combatant
spleeny
stubbornly
stubbornest
peevishly
alehouses
alecto
hatching
hatchet
hatched
hatchment
linens
linsey
linstock
matin
maturity
mattress
matthew
moraler
morality
pedlars
pedascule
palmy
roused
wailful
butcherly
allegation
allegiant
allegations
uneath
uneasiness
uneffect
unelected
shouldering
shoulderbone
strumpets
perfumer
curstest
curstness
obscures
obscuring
obscurity
brawler
advisings
barbarians
coroners
ravishments
cleanliest
quartering
destructions
cherisher
cherishes
succeeded
fifes
pierceth
rusts
rustle
rusted
rustics
rustically
beeves
beehives
weekly
stingless
strewing
strewed
strewings
strewments
soilure
scourg
scourged
adversities
slayer
slaying
slayeth
reserves
valueless
sufficing
sufficit
ruffs
ruffling
estimations
interposer
apollinem
apollodorus
conquests
immortally
transformations
proportionable
medicinable
determinations
inheriting
inheritrix
strumpeted
semblative
semblably
eventful
homo
homily
homager
hominem
hommes
narines
narciss
namest
wotting
bethump
steeps
steepy
steeped
franker
frankness
frankfort
franklins
loading
trooping
unrevers
unrewarded
unreasonably
unrepriev
unreclaimed
hearsay
contracting
reprisal
cursorary
causal
causest
crestless
augurs
auguring
divorcing
feater
featur
oxfordshire
apparently
immortalis
immortality
dilucul
jerks
jeronimy
lorum
puller
pulling
pullet
racking
racket
rackers
rackets
ribald
ribaudred
ugliest
yellowness
##parate
shielded
meddlers
items
dolts
dolorous
coped
copious
copatain
copulatives
begett
overthrows
raisins
camping
philosophers
philosophical
neglectingly
scratches
discontenting
centuries
centurions
gammon
gamboy
gambold
pushes
pushed
measles
styl
styga
stygian
solicitation
frontiers
reveals
recogniz
recognizance
spaniels
polemon
disciples
discipled
perjuries
grassy
grassho
scattering
pursuers
reposeth
consumes
consumed
consumptions
curtsied
accessible
doubler
doubleness
barnacles
bargulus
divideth
rebuk
rebuked
concealments
rejoiceth
couplet
couplement
couplets
bereaves
cudgelling
fervency
pestered
sedg
sedge
sedgy
tuners
bruises
brownist
taxes
taxed
exhaust
coiner
perdonate
perdurably
duchy
harbouring
conspiring
conspirant
conspirers
resignation
substractors
prompture
promptement
distempering
starveth
surfeiter
paysan
concluding
concludest
##ogenitive
varletry
varletto
archbishopric
acknown
caveto
netted
peeped
raggedness
threaden
threading
shaming
decking
spectanda
spectacled
spectatorship
trenching
trenchant
trenchers
trenchering
uprightness
uprighteously
attains
attained
blockish
placentio
somewhither
commodious
slipped
comparing
compared
indigne
indignations
pursents
drunkenly
subscription
subscribes
entranc
entrances
depositaries
dropper
droppings
droppeth
rioting
foreheads
forsaketh
decayer
decaying
banqueted
miscarries
disciplin
disciplined
ceases
ceilliades
ceinture
cooked
junior
masked
maskers
nourisher
nourishes
nourishing
rotting
rotundity
inched
incharitable
notedly
steaded
steadier
steadfast
defeats
receiver
triplex
tripartite
tripoli
mantus
factors
consequences
enrings
enrank
enrooted
enrounded
enfreed
enfreedom
enfetter
enfoldings
enmew
enmesh
enmities
seizing
seizeth
outlook
outlustres
stratford
deathsman
deathsmen
householder
householders
resists
resisting
courteously
bragged
braggardism
assaileth
stricture
supposal
supposest
discordant
disturbing
disturbances
gallowses
snatching
snatched
snatchers
penitents
recreate
keenness
continuer
continuing
continuantly
threateningly
superflux
prodigality
reproachfully
[...]
