{
  "version": "1.0",
  "truncation": null,
  "padding": null,
  "added_tokens": [
    {
      "id": 0,
      "content": "[PAD]",
      "single_word": false,
      "lstrip": false,
      "rstrip": false,
      "normalized": false,
      "special": true
    },
    {
      "id": 1,
      "content": "[UNK]",
      "single_word": false,
      "lstrip": false,
      "rstrip": false,
      "normalized": false,
      "special": true
    },
    {
      "id": 2,
      "content": "[CLS]",
      "single_word": false,
      "lstrip": false,
      "rstrip": false,
      "normalized": false,
      "special": true
    },
    {
      "id": 3,
      "content": "[SEP]",
      "single_word": false,
      "lstrip": false,
      "rstrip": false,
      "normalized": false,
      "special": true
    },
    {
      "id": 4,
      "content": "[MASK]",
      "single_word": false,
      "lstrip": false,
      "rstrip": false,
      "normalized": false,
      "special": true
    }
  ],
  "normalizer": {
    "type": "BertNormalizer",
    "clean_text": true,
    "handle_chinese_chars": true,
    "strip_accents": null,
    "lowercase": true
  },
  "pre_tokenizer": {
    "type": "BertPreTokenizer"
  },
  "post_processor": {
    "type": "TemplateProcessing",
    "single": [
      {
        "SpecialToken": {
          "id": "[CLS]",
          "type_id": 0
        }
      },
      {
        "Sequence": {
          "id": "A",
          "type_id": 0
        }
      },
      {
        "SpecialToken": {
          "id": "[SEP]",
          "type_id": 0
        }
      }
    ],
    "pair": [
      {
        "SpecialToken": {
          "id": "[CLS]",
          "type_id": 0
        }
      },
      {
        "Sequence": {
          "id": "A",
          "type_id": 0
        }
      },
      {
        "SpecialToken": {
          "id": "[SEP]",
          "type_id": 0
        }
      },
      {
        "Sequence": {
          "id": "B",
          "type_id": 1
        }
      },
      {
        "SpecialToken": {
          "id": "[SEP]",
          "type_id": 1
        }
      }
    ],
    "special_tokens": {
      "[CLS]": {
        "id": "[CLS]",
        "ids": [
          2
        ],
        "tokens": [
          "[CLS]"
        ]
      },
      "[SEP]": {
        "id": "[SEP]",
        "ids": [
          3
        ],
        "tokens": [
          "[SEP]"
        ]
      }
    }
  },
  "decoder": {
    "type": "WordPiece",
    "prefix": "##",
    "cleanup": true
  },
  "model": {
    "type": "WordPiece",
    "unk_token": "[UNK]",
    "continuing_subword_prefix": "##",
    "max_input_chars_per_word": 100,
    "vocab": {
      "[PAD]": 0,
      "[UNK]": 1,
      "[CLS]": 2,
      "[SEP]": 3,
      "[MASK]": 4,
      "!": 5,
      "$": 6,
      "'": 7,
      "(": 8,
      ")": 9,
      "-": 10,
      "1": 11,
      "2": 12,
      "3": 13,
      "4": 14,
      "5": 15,
      "6": 16,
      "7": 17,
      "8": 18,
      "9": 19,
      ":": 20,
      "<": 21,
      ">": 22,
      "?": 23,
      "[": 24,
      "]": 25,
      "a": 26,
      "b": 27,
      "c": 28,
      "d": 29,
      "e": 30,
      "f": 31,
      "g": 32,
      "h": 33,
      "i": 34,
      "j": 35,
      "k": 36,
      "l": 37,
      "m": 38,
      "n": 39,
      "o": 40,
      "p": 41,
      "q": 42,
      "r": 43,
      "s": 44,
      "t": 45,
      "u": 46,
      "v": 47,
      "w": 48,
      "x": 49,
      "y": 50,
      "z": 51,
      "##a": 52,
      "##d": 53,
      "##e": 54,
      "##o": 55,
      "##s": 56,
      "##t": 57,
      "##r": 58,
      "##i": 59,
      "##g": 60,
      "##n": 61,
      "##m": 62,
      "##v": 63,
      "##b": 64,
      "##l": 65,
      "##h": 66,
      "##p": 67,
      "##u": 68,
      "##c": 69,
      "##k": 70,
      "##y": 71,
      "##w": 72,
      "##x": 73,
      "##f": 74,
      "##q": 75,
      "##z": 76,
      "##j": 77,
      "th": 78,
      "##er": 79,
      "##ou": 80,
      "##os": 81,
      "##nd": 82,
      "the": 83,
      "eos": 84,
      "##or": 85,
      "##at": 86,
      "##es": 87,
      "##ll": 88,
      "and": 89,
      "##is": 90,
      "##ar": 91,
      "##en": 92,
      "to": 93,
      "you": 94,
      "##on": 95,
      "##th": 96,
      "##an": 97,
      "##in": 98,
      "of": 99,
      "no": 100,
      "wh": 101,
      "wi": 102,
      "##ve": 103,
      "##om": 104,
      "##re": 105,
      "be": 106,
      "in": 107,
      "he": 108,
      "my": 109,
      "##as": 110,
      "##ow": 111,
      "##ce": 112,
      "sh": 113,
      "that": 114,
      "ha": 115,
      "##et": 116,
      "##ut": 117,
      "##ch": 118,
      "for": 119,
      "##ay": 120,
      "##le": 121,
      "##ld": 122,
      "me": 123,
      "is": 124,
      "##ir": 125,
      "##ere": 126,
      "##us": 127,
      "##it": 128,
      "not": 129,
      "with": 130,
      "##ur": 131,
      "##ter": 132,
      "##gh": 133,
      "##im": 134,
      "it": 135,
      "##oo": 136,
      "we": 137,
      "st": 138,
      "your": 139,
      "##se": 140,
      "##ke": 141,
      "as": 142,
      "thou": 143,
      "##ad": 144,
      "##al": 145,
      "his": 146,
      "this": 147,
      "but": 148,
      "pr": 149,
      "so": 150,
      "##ent": 151,
      "##id": 152,
      "##all": 153,
      "have": 154,
      "do": 155,
      "on": 156,
      "him": 157,
      "li": 158,
      "##ome": 159,
      "##ath": 160,
      "##ght": 161,
      "##ly": 162,
      "will": 163,
      "##am": 164,
      "##ee": 165,
      "##ess": 166,
      "an": 167,
      "##ord": 168,
      "fr": 169,
      "##est": 170,
      "##ain": 171,
      "re": 172,
      "what": 173,
      "##ould": 174,
      "en": 175,
      "de": 176,
      "her": 177,
      "##ood": 178,
      "##ore": 179,
      "##ck": 180,
      "##ver": 181,
      "##ion": 182,
      "##ie": 183,
      "##ra": 184,
      "##ge": 185,
      "thy": 186,
      "##ther": 187,
      "go": 188,
      "su": 189,
      "all": 190,
      "##our": 191,
      "##st": 192,
      "by": 193,
      "sp": 194,
      "shall": 195,
      "##and": 196,
      "##ea": 197,
      "##ight": 198,
      "##ake": 199,
      "if": 200,
      "##ard": 201,
      "kn": 202,
      "##il": 203,
      "lo": 204,
      "are": 205,
      "tr": 206,
      "##ct": 207,
      "ch": 208,
      "our": 209,
      "lord": 210,
      "ne": 211,
      "thee": 212,
      "at": 213,
      "##ue": 214,
      "##ast": 215,
      "there": 216,
      "good": 217,
      "man": 218,
      "up": 219,
      "br": 220,
      "##un": 221,
      "ex": 222,
      "##ich": 223,
      "or": 224,
      "##ill": 225,
      "am": 226,
      "now": 227,
      "##ell": 228,
      "let": 229,
      "com": 230,
      "##ant": 231,
      "sir": 232,
      "she": 233,
      "##fe": 234,
      "fa": 235,
      "con": 236,
      "##ear": 237,
      "##ust": 238,
      "##art": 239,
      "from": 240,
      "##ine": 241,
      "##ous": 242,
      "##ost": 243,
      "enter": 244,
      "##ot": 245,
      "come": 246,
      "they": 247,
      "here": 248,
      "##sel": 249,
      "ll": 250,
      "un": 251,
      "##ing": 252,
      "would": 253,
      "than": 254,
      "##ers": 255,
      "##ive": 256,
      "##ul": 257,
      "##one": 258,
      "was": 259,
      "know": 260,
      "more": 261,
      "##ol": 262,
      "bl": 263,
      "can": 264,
      "##ven": 265,
      "sw": 266,
      "how": 267,
      "which": 268,
      "well": 269,
      "then": 270,
      "##ose": 271,
      "see": 272,
      "##um": 273,
      "ar": 274,
      "##ble": 275,
      "them": 276,
      "love": 277,
      "##ry": 278,
      "##ame": 279,
      "##ish": 280,
      "their": 281,
      "when": 282,
      "say": 283,
      "##ate": 284,
      "##ind": 285,
      "bo": 286,
      "se": 287,
      "##pp": 288,
      "wor": 289,
      "##ic": 290,
      "##ence": 291,
      "##self": 292,
      "hath": 293,
      "us": 294,
      "mar": 295,
      "like": 296,
      "##row": 297,
      "pl": 298,
      "one": 299,
      "did": 300,
      "##ink": 301,
      "where": 302,
      "mad": 303,
      "##ri": 304,
      "##ong": 305,
      "may": 306,
      "upon": 307,
      "al": 308,
      "sc": 309,
      "##ure": 310,
      "##op": 311,
      "should": 312,
      "make": 313,
      "##ak": 314,
      "gre": 315,
      "##other": 316,
      "out": 317,
      "##ance": 318,
      "ca": 319,
      "sa": 320,
      "##ves": 321,
      "were": 322,
      "##fore": 323,
      "ag": 324,
      "##ort": 325,
      "dis": 326,
      "yet": 327,
      "##ook": 328,
      "##ather": 329,
      "some": 330,
      "had": 331,
      "must": 332,
      "tw": 333,
      "##ound": 334,
      "##are": 335,
      "why": 336,
      "##em": 337,
      "who": 338,
      "##ig": 339,
      "too": 340,
      "##eak": 341,
      "tis": 342,
      "le": 343,
      "tim": 344,
      "speak": 345,
      "such": 346,
      "##ice": 347,
      "cl": 348,
      "##ff": 349,
      "give": 350,
      "these": 351,
      "##oun": 352,
      "again": 353,
      "##ity": 354,
      "##ide": 355,
      "la": 356,
      "##pt": 357,
      "hon": 358,
      "##ies": 359,
      "god": 360,
      "##nds": 361,
      "heart": 362,
      "gra": 363,
      "##io": 364,
      "##nder": 365,
      "fl": 366,
      "take": 367,
      "##ick": 368,
      "qu": 369,
      "##old": 370,
      "##ise": 371,
      "gr": 372,
      "##orn": 373,
      "ever": 374,
      "po": 375,
      "think": 376,
      "look": 377,
      "ab": 378,
      "##ed": 379,
      "nor": 380,
      "tell": 381,
      "##ness": 382,
      "most": 383,
      "##ip": 384,
      "pro": 385,
      "##to": 386,
      "##uch": 387,
      "day": 388,
      "##ass": 389,
      "great": 390,
      "##ist": 391,
      "hea": 392,
      "##ius": 393,
      "str": 394,
      "mine": 395,
      "ey": 396,
      "##age": 397,
      "aw": 398,
      "##ady": 399,
      "##wn": 400,
      "##ud": 401,
      "##urn": 402,
      "##own": 403,
      "##ag": 404,
      "##ery": 405,
      "off": 406,
      "father": 407,
      "time": 408,
      "##aster": 409,
      "des": 410,
      "##ful": 411,
      "hear": 412,
      "gent": 413,
      "bre": 414,
      "ser": 415,
      "war": 416,
      "men": 417,
      "##ings": 418,
      "much": 419,
      "never": 420,
      "bet": 421,
      "##qu": 422,
      "##ng": 423,
      "per": 424,
      "##ire": 425,
      "##out": 426,
      "##ft": 427,
      "fo": 428,
      "##ase": 429,
      "exit": 430,
      "##ation": 431,
      "ro": 432,
      "frie": 433,
      "ear": 434,
      "gentle": 435,
      "fair": 436,
      "mo": 437,
      "##ene": 438,
      "##ince": 439,
      "art": 440,
      "ad": 441,
      "er": 442,
      "##eep": 443,
      "pray": 444,
      "wr": 445,
      "##ang": 446,
      "master": 447,
      "##el": 448,
      "death": 449,
      "##ber": 450,
      "night": 451,
      "hand": 452,
      "##ious": 453,
      "blood": 454,
      "##eet": 455,
      "word": 456,
      "du": 457,
      "##ack": 458,
      "##ress": 459,
      "call": 460,
      "other": 461,
      "part": 462,
      "comm": 463,
      "##end": 464,
      "ple": 465,
      "##igh": 466,
      "fear": 467,
      "##ree": 468,
      "heaven": 469,
      "lea": 470,
      "foo": 471,
      "life": 472,
      "##ith": 473,
      "hast": 474,
      "##au": 475,
      "##ither": 476,
      "##ough": 477,
      "coun": 478,
      "sweet": 479,
      "##ap": 480,
      "away": 481,
      "##oul": 482,
      "##iv": 483,
      "dr": 484,
      "ma": 485,
      "made": 486,
      "##ces": 487,
      "##use": 488,
      "doth": 489,
      "##ign": 490,
      "jo": 491,
      "##ile": 492,
      "any": 493,
      "before": 494,
      "co": 495,
      "gl": 496,
      "##ep": 497,
      "lady": 498,
      "##unt": 499,
      "ay": 500,
      "son": 501,
      "##ian": 502,
      "##ward": 503,
      "##mp": 504,
      "very": 505,
      "stand": 506,
      "true": 507,
      "scene": 508,
      "cann": 509,
      "honour": 510,
      "sl": 511,
      "##ace": 512,
      "app": 513,
      "##ia": 514,
      "##tle": 515,
      "thus": 516,
      "own": 517,
      "##ull": 518,
      "##ite": 519,
      "cannot": 520,
      "##ect": 521,
      "bear": 522,
      "##ro": 523,
      "pre": 524,
      "af": 525,
      "##ment": 526,
      "##oss": 527,
      "ant": 528,
      "serv": 529,
      "been": 530,
      "##ty": 531,
      "##ouse": 532,
      "brother": 533,
      "arm": 534,
      "##ach": 535,
      "##man": 536,
      "mean": 537,
      "world": 538,
      "done": 539,
      "two": 540,
      "down": 541,
      "wom": 542,
      "name": 543,
      "duke": 544,
      "comp": 545,
      "cont": 546,
      "way": 547,
      "##bl": 548,
      "##ction": 549,
      "leave": 550,
      "pres": 551,
      "head": 552,
      "eyes": 553,
      "could": 554,
      "fir": 555,
      "foll": 556,
      "might": 557,
      "##orrow": 558,
      "long": 559,
      "##cc": 560,
      "fool": 561,
      "beg": 562,
      "rem": 563,
      "noble": 564,
      "cour": 565,
      "poor": 566,
      "into": 567,
      "rep": 568,
      "##sw": 569,
      "##ief": 570,
      "keep": 571,
      "noth": 572,
      "##rown": 573,
      "house": 574,
      "##gl": 575,
      "##atter": 576,
      "till": 577,
      "##ghter": 578,
      "therefore": 579,
      "##li": 580,
      "even": 581,
      "ho": 582,
      "old": 583,
      "que": 584,
      "show": 585,
      "though": 586,
      "pur": 587,
      "##atch": 588,
      "exe": 589,
      "comes": 590,
      "nay": 591,
      "mer": 592,
      "thought": 593,
      "whose": 594,
      "ind": 595,
      "##ks": 596,
      "dau": 597,
      "both": 598,
      "##uck": 599,
      "wit": 600,
      "##aint": 601,
      "grace": 602,
      "better": 603,
      "mist": 604,
      "find": 605,
      "myself": 606,
      "char": 607,
      "new": 608,
      "##ild": 609,
      "queen": 610,
      "##ave": 611,
      "##iss": 612,
      "dead": 613,
      "##ors": 614,
      "##ons": 615,
      "put": 616,
      "soul": 617,
      "dear": 618,
      "first": 619,
      "##able": 620,
      "##ert": 621,
      "##ears": 622,
      "against": 623,
      "hold": 624,
      "##ph": 625,
      "fort": 626,
      "follow": 627,
      "##ens": 628,
      "har": 629,
      "many": 630,
      "##less": 631,
      "lie": 632,
      "lords": 633,
      "best": 634,
      "sle": 635,
      "fell": 636,
      "pea": 637,
      "hel": 638,
      "att": 639,
      "##der": 640,
      "gu": 641,
      "under": 642,
      "tru": 643,
      "still": 644,
      "peace": 645,
      "set": 646,
      "rich": 647,
      "madam": 648,
      "##ower": 649,
      "live": 650,
      "sm": 651,
      "##akes": 652,
      "those": 653,
      "nat": 654,
      "every": 655,
      "##come": 656,
      "bel": 657,
      "high": 658,
      "##cy": 659,
      "thr": 660,
      "##ought": 661,
      "friends": 662,
      "##ds": 663,
      "##ange": 664,
      "worth": 665,
      "daughter": 666,
      "conf": 667,
      "fortun": 668,
      "stay": 669,
      "end": 670,
      "##ew": 671,
      "el": 672,
      "cons": 673,
      "cr": 674,
      "wife": 675,
      "lit": 676,
      "young": 677,
      "fare": 678,
      "##esar": 679,
      "exeunt": 680,
      "die": 681,
      "dev": 682,
      "rome": 683,
      "tong": 684,
      "gi": 685,
      "within": 686,
      "count": 687,
      "##per": 688,
      "engl": 689,
      "em": 690,
      "##ier": 691,
      "little": 692,
      "boy": 693,
      "answ": 694,
      "prince": 695,
      "caesar": 696,
      "fall": 697,
      "##ield": 698,
      "bes": 699,
      "##ason": 700,
      "imp": 701,
      "none": 702,
      "place": 703,
      "##les": 704,
      "res": 705,
      "hour": 706,
      "mistress": 707,
      "cur": 708,
      "play": 709,
      "##ience": 710,
      "faith": 711,
      "after": 712,
      "##ock": 713,
      "##well": 714,
      "gone": 715,
      "himself": 716,
      "##ope": 717,
      "beh": 718,
      "rest": 719,
      "##alk": 720,
      "answer": 721,
      "par": 722,
      "##alt": 723,
      "friend": 724,
      "fal": 725,
      "hum": 726,
      "court": 727,
      "turn": 728,
      "##be": 729,
      "whom": 730,
      "another": 731,
      "mother": 732,
      "pass": 733,
      "vir": 734,
      "dra": 735,
      "wel": 736,
      "full": 737,
      "##dy": 738,
      "##int": 739,
      "bid": 740,
      "kind": 741,
      "wo": 742,
      "##ows": 743,
      "unto": 744,
      "aside": 745,
      "since": 746,
      "##iness": 747,
      "woman": 748,
      "bra": 749,
      "mind": 750,
      "##ret": 751,
      "tre": 752,
      "ret": 753,
      "##its": 754,
      "present": 755,
      "else": 756,
      "vill": 757,
      "##cl": 758,
      "val": 759,
      "ed": 760,
      "sword": 761,
      "acc": 762,
      "three": 763,
      "ii": 764,
      "pa": 765,
      "once": 766,
      "eye": 767,
      "words": 768,
      "inde": 769,
      "thine": 770,
      "dou": 771,
      "face": 772,
      "pat": 773,
      "##ench": 774,
      "##esty": 775,
      "tongue": 776,
      "right": 777,
      "##men": 778,
      "dost": 779,
      "pe": 780,
      "sold": 781,
      "please": 782,
      "##ult": 783,
      "seem": 784,
      "hence": 785,
      "##for": 786,
      "meet": 787,
      "france": 788,
      "hus": 789,
      "##reat": 790,
      "hor": 791,
      "##ison": 792,
      "##ans": 793,
      "child": 794,
      "has": 795,
      "##eech": 796,
      "ta": 797,
      "about": 798,
      "kill": 799,
      "forth": 800,
      "##eel": 801,
      "crown": 802,
      "##ains": 803,
      "##sand": 804,
      "##hip": 805,
      "back": 806,
      "di": 807,
      "tra": 808,
      "##oke": 809,
      "##lt": 810,
      "##ition": 811,
      "act": 812,
      "ere": 813,
      "anton": 814,
      "matter": 815,
      "##ants": 816,
      "over": 817,
      "##lf": 818,
      "##ouch": 819,
      "tro": 820,
      "nature": 821,
      "##we": 822,
      "sub": 823,
      "##band": 824,
      "car": 825,
      "ass": 826,
      "spir": 827,
      "far": 828,
      "mon": 829,
      "##oud": 830,
      "pleas": 831,
      "letter": 832,
      "said": 833,
      "husband": 834,
      "dre": 835,
      "sleep": 836,
      "##ix": 837,
      "marry": 838,
      "lu": 839,
      "wrong": 840,
      "welcome": 841,
      "##eng": 842,
      "fe": 843,
      "##ins": 844,
      "light": 845,
      "home": 846,
      "read": 847,
      "without": 848,
      "ban": 849,
      "hope": 850,
      "vi": 851,
      "earth": 852,
      "fortune": 853,
      "##ets": 854,
      "help": 855,
      "attend": 856,
      "farewell": 857,
      "##bt": 858,
      "sure": 859,
      "makes": 860,
      "heard": 861,
      "just": 862,
      "##ister": 863,
      "mark": 864,
      "disp": 865,
      "suff": 866,
      "thank": 867,
      "breath": 868,
      "hang": 869,
      "came": 870,
      "power": 871,
      "##if": 872,
      "wear": 873,
      "##ctor": 874,
      "##uty": 875,
      "pra": 876,
      "virt": 877,
      "##gar": 878,
      "hands": 879,
      "law": 880,
      "cause": 881,
      "disc": 882,
      "gods": 883,
      "morrow": 884,
      "does": 885,
      "hen": 886,
      "pard": 887,
      "##ury": 888,
      "##selves": 889,
      "break": 890,
      "cor": 891,
      "mis": 892,
      "##ab": 893,
      "thousand": 894,
      "##ieve": 895,
      "##ps": 896,
      "op": 897,
      "gentleman": 898,
      "##ail": 899,
      "ye": 900,
      "false": 901,
      "rather": 902,
      "use": 903,
      "##cle": 904,
      "shame": 905,
      "henry": 906,
      "bus": 907,
      "gold": 908,
      "maid": 909,
      "pardon": 910,
      "lay": 911,
      "sent": 912,
      "adv": 913,
      "lov": 914,
      "##ca": 915,
      "##ates": 916,
      "forg": 917,
      "##pect": 918,
      "##ient": 919,
      "things": 920,
      "fellow": 921,
      "sil": 922,
      "get": 923,
      "##fect": 924,
      "truth": 925,
      "hither": 926,
      "wish": 927,
      "##ond": 928,
      "happ": 929,
      "enough": 930,
      "fight": 931,
      "sound": 932,
      "##yal": 933,
      "##cious": 934,
      "state": 935,
      "only": 936,
      "england": 937,
      "stri": 938,
      "reason": 939,
      "same": 940,
      "last": 941,
      "##ial": 942,
      "sec": 943,
      "##land": 944,
      "mus": 945,
      "##iz": 946,
      "##ute": 947,
      "den": 948,
      "near": 949,
      "wilt": 950,
      "bar": 951,
      "##any": 952,
      "luc": 953,
      "##fort": 954,
      "##ents": 955,
      "remem": 956,
      "news": 957,
      "sen": 958,
      "devil": 959,
      "land": 960,
      "run": 961,
      "ph": 962,
      "##av": 963,
      "##eal": 964,
      "##rant": 965,
      "shalt": 966,
      "honest": 967,
      "##ru": 968,
      "purp": 969,
      "inst": 970,
      "swear": 971,
      "command": 972,
      "##ily": 973,
      "##ory": 974,
      "ill": 975,
      "ob": 976,
      "##ions": 977,
      "sign": 978,
      "beat": 979,
      "sea": 980,
      "##ork": 981,
      "youth": 982,
      "tears": 983,
      "##und": 984,
      "exce": 985,
      "return": 986,
      "##dd": 987,
      "##gether": 988,
      "pers": 989,
      "yourself": 990,
      "saw": 991,
      "maj": 992,
      "born": 993,
      "kiss": 994,
      "mur": 995,
      "##ib": 996,
      "##bour": 997,
      "##esh": 998,
      "##eeds": 999,
      "##ash": 1000,
      "##ount": 1001,
      "##dom": 1002,
      "marri": 1003,
      "draw": 1004,
      "body": 1005,
      "strange": 1006,
      "york": 1007,
      "##cester": 1008,
      "enem": 1009,
      "through": 1010,
      "dar": 1011,
      "im": 1012,
      "fire": 1013,
      "##ener": 1014,
      "care": 1015,
      "##ove": 1016,
      "##ides": 1017,
      "tit": 1018,
      "oft": 1019,
      "cous": 1020,
      "cry": 1021,
      "lost": 1022,
      "##vy": 1023,
      "fly": 1024,
      "jud": 1025,
      "int": 1026,
      "sun": 1027,
      "send": 1028,
      "talk": 1029,
      "vo": 1030,
      "fault": 1031,
      "grief": 1032,
      "wind": 1033,
      "weep": 1034,
      "cla": 1035,
      "##anger": 1036,
      "horse": 1037,
      "##iers": 1038,
      "##ject": 1039,
      "joy": 1040,
      "villain": 1041,
      "antony": 1042,
      "##ms": 1043,
      "arms": 1044,
      "free": 1045,
      "less": 1046,
      "##vere": 1047,
      "means": 1048,
      "emp": 1049,
      "seek": 1050,
      "##ner": 1051,
      "##ues": 1052,
      "together": 1053,
      "prom": 1054,
      "##vers": 1055,
      "seen": 1056,
      "majesty": 1057,
      "bless": 1058,
      "fur": 1059,
      "prove": 1060,
      "spirit": 1061,
      "hard": 1062,
      "pal": 1063,
      "##ey": 1064,
      "##ceive": 1065,
      "yours": 1066,
      "##ump": 1067,
      "strong": 1068,
      "cass": 1069,
      "reven": 1070,
      "cousin": 1071,
      "mess": 1072,
      "ent": 1073,
      "music": 1074,
      "##ary": 1075,
      "left": 1076,
      "au": 1077,
      "ba": 1078,
      "cle": 1079,
      "win": 1080,
      "yes": 1081,
      "##oucester": 1082,
      "##ade": 1083,
      "gloucester": 1084,
      "richard": 1085,
      "country": 1086,
      "bur": 1087,
      "tem": 1088,
      "want": 1089,
      "quick": 1090,
      "lear": 1091,
      "##outh": 1092,
      "half": 1093,
      "##ken": 1094,
      "bea": 1095,
      "murder": 1096,
      "grow": 1097,
      "##air": 1098,
      "supp": 1099,
      "believe": 1100,
      "gener": 1101,
      "sorrow": 1102,
      "ty": 1103,
      "##iet": 1104,
      "##hn": 1105,
      "while": 1106,
      "prop": 1107,
      "doubt": 1108,
      "sit": 1109,
      "itself": 1110,
      "prot": 1111,
      "comfort": 1112,
      "business": 1113,
      "##by": 1114,
      "sick": 1115,
      "dep": 1116,
      "royal": 1117,
      "john": 1118,
      "found": 1119,
      "##lo": 1120,
      "##ween": 1121,
      "foul": 1122,
      "touch": 1123,
      "met": 1124,
      "##oney": 1125,
      "bir": 1126,
      "##vour": 1127,
      "rec": 1128,
      "##iph": 1129,
      "fit": 1130,
      "lies": 1131,
      "cap": 1132,
      "prov": 1133,
      "thoughts": 1134,
      "fie": 1135,
      "##ats": 1136,
      "som": 1137,
      "##wick": 1138,
      "##oura": 1139,
      "##alth": 1140,
      "dist": 1141,
      "servant": 1142,
      "told": 1143,
      "##omp": 1144,
      "##ush": 1145,
      "between": 1146,
      "##ertain": 1147,
      "bu": 1148,
      "king": 1149,
      "worthy": 1150,
      "cast": 1151,
      "work": 1152,
      "warwick": 1153,
      "sister": 1154,
      "beseech": 1155,
      "##ple": 1156,
      "alas": 1157,
      "##ople": 1158,
      "service": 1159,
      "edward": 1160,
      "##form": 1161,
      "says": 1162,
      "pity": 1163,
      "##oot": 1164,
      "remember": 1165,
      "each": 1166,
      "field": 1167,
      "late": 1168,
      "##anc": 1169,
      "proud": 1170,
      "bloody": 1171,
      "ap": 1172,
      "ru": 1173,
      "gave": 1174,
      "lad": 1175,
      "##fend": 1176,
      "foot": 1177,
      "people": 1178,
      "prith": 1179,
      "exp": 1180,
      "desire": 1181,
      "prithee": 1182,
      "bound": 1183,
      "dog": 1184,
      "lead": 1185,
      "air": 1186,
      "cold": 1187,
      "sk": 1188,
      "dem": 1189,
      "##olus": 1190,
      "cond": 1191,
      "purpose": 1192,
      "dam": 1193,
      "oath": 1194,
      "antiph": 1195,
      "antipholus": 1196,
      "cra": 1197,
      "##itor": 1198,
      "ask": 1199,
      "uncle": 1200,
      "pu": 1201,
      "sight": 1202,
      "trust": 1203,
      "further": 1204,
      "inf": 1205,
      "cut": 1206,
      "danger": 1207,
      "sin": 1208,
      "##utus": 1209,
      "##ures": 1210,
      "prison": 1211,
      "cho": 1212,
      "alone": 1213,
      "gar": 1214,
      "page": 1215,
      "ang": 1216,
      "french": 1217,
      "aff": 1218,
      "sad": 1219,
      "te": 1220,
      "soon": 1221,
      "dare": 1222,
      "hate": 1223,
      "stre": 1224,
      "stra": 1225,
      "dream": 1226,
      "certain": 1227,
      "pet": 1228,
      "sat": 1229,
      "##cess": 1230,
      "meth": 1231,
      "save": 1232,
      "learn": 1233,
      "general": 1234,
      "wat": 1235,
      "##ls": 1236,
      "thyself": 1237,
      "##ior": 1238,
      "gentlemen": 1239,
      "lose": 1240,
      "liv": 1241,
      "che": 1242,
      "brutus": 1243,
      "looks": 1244,
      "gall": 1245,
      "brought": 1246,
      "##liver": 1247,
      "##ible": 1248,
      "gracious": 1249,
      "company": 1250,
      "banish": 1251,
      "yield": 1252,
      "##oth": 1253,
      "charge": 1254,
      "##let": 1255,
      "##ime": 1256,
      "cam": 1257,
      "four": 1258,
      "min": 1259,
      "ter": 1260,
      "drink": 1261,
      "holy": 1262,
      "##xt": 1263,
      "cham": 1264,
      "grave": 1265,
      "common": 1266,
      "given": 1267,
      "soldiers": 1268,
      "wound": 1269,
      "prin": 1270,
      "knows": 1271,
      "content": 1272,
      "ven": 1273,
      "##ars": 1274,
      "behold": 1275,
      "virtue": 1276,
      "wise": 1277,
      "##ude": 1278,
      "happy": 1279,
      "ten": 1280,
      "##sh": 1281,
      "##most": 1282,
      "favour": 1283,
      "point": 1284,
      "burn": 1285,
      "col": 1286,
      "ra": 1287,
      "loves": 1288,
      "deser": 1289,
      "brave": 1290,
      "iii": 1291,
      "patience": 1292,
      "days": 1293,
      "##retch": 1294,
      "ga": 1295,
      "lives": 1296,
      "knight": 1297,
      "known": 1298,
      "##olk": 1299,
      "serve": 1300,
      "others": 1301,
      "mort": 1302,
      "years": 1303,
      "##ugh": 1304,
      "beca": 1305,
      "warrant": 1306,
      "because": 1307,
      "mal": 1308,
      "sur": 1309,
      "side": 1310,
      "ange": 1311,
      "black": 1312,
      "capt": 1313,
      "times": 1314,
      "highness": 1315,
      "money": 1316,
      "poss": 1317,
      "deliver": 1318,
      "##ott": 1319,
      "writ": 1320,
      "mouth": 1321,
      "pay": 1322,
      "##ron": 1323,
      "##mer": 1324,
      "past": 1325,
      "wa": 1326,
      "hell": 1327,
      "sovere": 1328,
      "del": 1329,
      "neither": 1330,
      "report": 1331,
      "mercy": 1332,
      "sovereign": 1333,
      "whil": 1334,
      "open": 1335,
      "age": 1336,
      "jew": 1337,
      "##up": 1338,
      "confess": 1339,
      "ac": 1340,
      "##ship": 1341,
      "##ren": 1342,
      "##asure": 1343,
      "women": 1344,
      "don": 1345,
      "inc": 1346,
      "someth": 1347,
      "##ength": 1348,
      "div": 1349,
      "watch": 1350,
      "##ne": 1351,
      "reg": 1352,
      "thanks": 1353,
      "eat": 1354,
      "hot": 1355,
      "requ": 1356,
      "trump": 1357,
      "quest": 1358,
      "prof": 1359,
      "woo": 1360,
      "##aff": 1361,
      "##ipp": 1362,
      "mock": 1363,
      "pleasure": 1364,
      "fast": 1365,
      "sal": 1366,
      "##ift": 1367,
      "goes": 1368,
      "est": 1369,
      "yea": 1370,
      "hav": 1371,
      "##ices": 1372,
      "didst": 1373,
      "buck": 1374,
      "tal": 1375,
      "##ys": 1376,
      "##eed": 1377,
      "marc": 1378,
      "ground": 1379,
      "deep": 1380,
      "##gue": 1381,
      "##enty": 1382,
      "##aste": 1383,
      "bold": 1384,
      "ev": 1385,
      "##ac": 1386,
      "##rew": 1387,
      "##ceiv": 1388,
      "##iece": 1389,
      "suit": 1390,
      "english": 1391,
      "morn": 1392,
      "##iant": 1393,
      "change": 1394,
      "##els": 1395,
      "appear": 1396,
      "card": 1397,
      "toward": 1398,
      "##inal": 1399,
      "##ooth": 1400,
      "canst": 1401,
      "hearts": 1402,
      "either": 1403,
      "##over": 1404,
      "##iff": 1405,
      "##oman": 1406,
      "##ander": 1407,
      "##fection": 1408,
      "const": 1409,
      "##ape": 1410,
      "beauty": 1411,
      "tender": 1412,
      "vis": 1413,
      "unt": 1414,
      "march": 1415,
      "emb": 1416,
      "wonder": 1417,
      "wall": 1418,
      "walk": 1419,
      "knave": 1420,
      "ext": 1421,
      "quar": 1422,
      "ears": 1423,
      "revenge": 1424,
      "##br": 1425,
      "hector": 1426,
      "sum": 1427,
      "next": 1428,
      "twas": 1429,
      "haste": 1430,
      "truly": 1431,
      "person": 1432,
      "sn": 1433,
      "##dge": 1434,
      "##sc": 1435,
      "appro": 1436,
      "subject": 1437,
      "enemy": 1438,
      "sake": 1439,
      "inter": 1440,
      "##ourish": 1441,
      "##ments": 1442,
      "guard": 1443,
      "messeng": 1444,
      "chamber": 1445,
      "colour": 1446,
      "bat": 1447,
      "cow": 1448,
      "##no": 1449,
      "##oof": 1450,
      "##ally": 1451,
      "entreat": 1452,
      "ah": 1453,
      "##inks": 1454,
      "took": 1455,
      "soldier": 1456,
      "ros": 1457,
      "desp": 1458,
      "pret": 1459,
      "praise": 1460,
      "ach": 1461,
      "base": 1462,
      "##sue": 1463,
      "##iar": 1464,
      "speech": 1465,
      "almost": 1466,
      "heavy": 1467,
      "valiant": 1468,
      "justice": 1469,
      "strike": 1470,
      "straight": 1471,
      "bos": 1472,
      "gain": 1473,
      "soft": 1474,
      "leg": 1475,
      "##ague": 1476,
      "cal": 1477,
      "iv": 1478,
      "##iest": 1479,
      "town": 1480,
      "short": 1481,
      "hark": 1482,
      "suffer": 1483,
      "opp": 1484,
      "spe": 1485,
      "##each": 1486,
      "worse": 1487,
      "pluck": 1488,
      "heavens": 1489,
      "drum": 1490,
      "stands": 1491,
      "##ixt": 1492,
      "cardinal": 1493,
      "twenty": 1494,
      "forb": 1495,
      "rel": 1496,
      "above": 1497,
      "prep": 1498,
      "voice": 1499,
      "palace": 1500,
      "question": 1501,
      "pen": 1502,
      "sim": 1503,
      "##uous": 1504,
      "##anio": 1505,
      "hair": 1506,
      "scar": 1507,
      "course": 1508,
      "claud": 1509,
      "water": 1510,
      "knew": 1511,
      "##like": 1512,
      "merry": 1513,
      "fet": 1514,
      "##ont": 1515,
      "note": 1516,
      "##tern": 1517,
      "##rah": 1518,
      "labour": 1519,
      "traitor": 1520,
      "bosom": 1521,
      "duty": 1522,
      "lam": 1523,
      "##bs": 1524,
      "##anch": 1525,
      "##stand": 1526,
      "unless": 1527,
      "sons": 1528,
      "damn": 1529,
      "feel": 1530,
      "pomp": 1531,
      "##bly": 1532,
      "wid": 1533,
      "plain": 1534,
      "coward": 1535,
      "cri": 1536,
      "wretch": 1537,
      "##uff": 1538,
      "##ask": 1539,
      "moon": 1540,
      "glad": 1541,
      "romeo": 1542,
      "bad": 1543,
      "##kes": 1544,
      "##ready": 1545,
      "weak": 1546,
      "def": 1547,
      "methinks": 1548,
      "cre": 1549,
      "##jo": 1550,
      "inv": 1551,
      "stir": 1552,
      "scorn": 1553,
      "room": 1554,
      "counsel": 1555,
      "excell": 1556,
      "city": 1557,
      "lest": 1558,
      "ready": 1559,
      "themselves": 1560,
      "harm": 1561,
      "presently": 1562,
      "messenger": 1563,
      "tak": 1564,
      "ver": 1565,
      "throw": 1566,
      "##ones": 1567,
      "##owers": 1568,
      "spoke": 1569,
      "sirrah": 1570,
      "already": 1571,
      "liege": 1572,
      "cassio": 1573,
      "dish": 1574,
      "##umber": 1575,
      "laugh": 1576,
      "##bb": 1577,
      "thir": 1578,
      "##eness": 1579,
      "##ities": 1580,
      "flesh": 1581,
      "ladies": 1582,
      "mons": 1583,
      "wis": 1584,
      "##ford": 1585,
      "##ires": 1586,
      "withal": 1587,
      "##ument": 1588,
      "deny": 1589,
      "##dden": 1590,
      "und": 1591,
      "sport": 1592,
      "chee": 1593,
      "hur": 1594,
      "needs": 1595,
      "teach": 1596,
      "##vol": 1597,
      "amb": 1598,
      "##rice": 1599,
      "##ully": 1600,
      "judg": 1601,
      "dire": 1602,
      "flourish": 1603,
      "offer": 1604,
      "host": 1605,
      "mot": 1606,
      "saint": 1607,
      "priv": 1608,
      "trou": 1609,
      "witness": 1610,
      "respect": 1611,
      "woe": 1612,
      "id": 1613,
      "pol": 1614,
      "jul": 1615,
      "##gn": 1616,
      "become": 1617,
      "chr": 1618,
      "##une": 1619,
      "lack": 1620,
      "flatter": 1621,
      "grant": 1622,
      "begin": 1623,
      "creat": 1624,
      "five": 1625,
      "nur": 1626,
      "heir": 1627,
      "lips": 1628,
      "got": 1629,
      "knock": 1630,
      "##ils": 1631,
      "wherefore": 1632,
      "pale": 1633,
      "feast": 1634,
      "signior": 1635,
      "action": 1636,
      "mount": 1637,
      "##eth": 1638,
      "##ina": 1639,
      "##feit": 1640,
      "proce": 1641,
      "wars": 1642,
      "commend": 1643,
      "guil": 1644,
      "dark": 1645,
      "##ourable": 1646,
      "fetch": 1647,
      "##ank": 1648,
      "sworn": 1649,
      "strength": 1650,
      "loss": 1651,
      "pit": 1652,
      "ve": 1653,
      "white": 1654,
      "door": 1655,
      "bro": 1656,
      "sever": 1657,
      "add": 1658,
      "lucius": 1659,
      "bit": 1660,
      "book": 1661,
      "##gg": 1662,
      "##bury": 1663,
      "timon": 1664,
      "speaks": 1665,
      "resol": 1666,
      "somet": 1667,
      "captain": 1668,
      "low": 1669,
      "sudden": 1670,
      "spr": 1671,
      "wherein": 1672,
      "clar": 1673,
      "consc": 1674,
      "gives": 1675,
      "humour": 1676,
      "christ": 1677,
      "##pr": 1678,
      "##eror": 1679,
      "offend": 1680,
      "##vel": 1681,
      "ham": 1682,
      "##ool": 1683,
      "##oop": 1684,
      "disg": 1685,
      "drop": 1686,
      "claudio": 1687,
      "fat": 1688,
      "jest": 1689,
      "##rel": 1690,
      "beast": 1691,
      "##ilus": 1692,
      "##unk": 1693,
      "##bles": 1694,
      "attendants": 1695,
      "hide": 1696,
      "##mn": 1697,
      "##com": 1698,
      "##ays": 1699,
      "##ourn": 1700,
      "wouldst": 1701,
      "understand": 1702,
      "hours": 1703,
      "letters": 1704,
      "kingdom": 1705,
      "vile": 1706,
      "##of": 1707,
      "##he": 1708,
      "##ches": 1709,
      "chur": 1710,
      "##ung": 1711,
      "offic": 1712,
      "office": 1713,
      "slain": 1714,
      "slave": 1715,
      "marriage": 1716,
      "bast": 1717,
      "mil": 1718,
      "wild": 1719,
      "##itt": 1720,
      "##iev": 1721,
      "##race": 1722,
      "self": 1723,
      "##empt": 1724,
      "beggar": 1725,
      "clarence": 1726,
      "din": 1727,
      "##bot": 1728,
      "##ingh": 1729,
      "star": 1730,
      "##ider": 1731,
      "alar": 1732,
      "twere": 1733,
      "honourable": 1734,
      "behind": 1735,
      "sense": 1736,
      "battle": 1737,
      "mir": 1738,
      "port": 1739,
      "pap": 1740,
      "fore": 1741,
      "lion": 1742,
      "##vern": 1743,
      "abs": 1744,
      "children": 1745,
      "dread": 1746,
      "cheer": 1747,
      "conscience": 1748,
      "##ingham": 1749,
      "det": 1750,
      "kings": 1751,
      "mak": 1752,
      "sing": 1753,
      "sigh": 1754,
      "steal": 1755,
      "whole": 1756,
      "adm": 1757,
      "mac": 1758,
      "helen": 1759,
      "##ize": 1760,
      "pretty": 1761,
      "excellent": 1762,
      "fam": 1763,
      "fill": 1764,
      "fash": 1765,
      "##cut": 1766,
      "##ines": 1767,
      "bell": 1768,
      "anon": 1769,
      "among": 1770,
      "cross": 1771,
      "troilus": 1772,
      "suffolk": 1773,
      "ke": 1774,
      "##az": 1775,
      "##hood": 1776,
      "##erd": 1777,
      "##cept": 1778,
      "lordship": 1779,
      "second": 1780,
      "quickly": 1781,
      "mortal": 1782,
      "fing": 1783,
      "lust": 1784,
      "rage": 1785,
      "##tain": 1786,
      "##isf": 1787,
      "##lex": 1788,
      "##ites": 1789,
      "liber": 1790,
      "exc": 1791,
      "safe": 1792,
      "poison": 1793,
      "##agg": 1794,
      "fortunes": 1795,
      "passion": 1796,
      "spirits": 1797,
      "##cent": 1798,
      "##arge": 1799,
      "kneel": 1800,
      "gro": 1801,
      "seems": 1802,
      "viol": 1803,
      "lim": 1804,
      "spo": 1805,
      "brief": 1806,
      "##ages": 1807,
      "##bey": 1808,
      "buckingham": 1809,
      "talbot": 1810,
      "bastard": 1811,
      "hund": 1812,
      "ourselves": 1813,
      "##ingly": 1814,
      "margar": 1815,
      "write": 1816,
      "margaret": 1817,
      "bow": 1818,
      "corn": 1819,
      "ef": 1820,
      "ele": 1821,
      "##hile": 1822,
      "##ters": 1823,
      "##imes": 1824,
      "##eem": 1825,
      "close": 1826,
      "offence": 1827,
      "mighty": 1828,
      "tale": 1829,
      "secret": 1830,
      "often": 1831,
      "possess": 1832,
      "alarum": 1833,
      "##ram": 1834,
      "##ny": 1835,
      "pros": 1836,
      "order": 1837,
      "seal": 1838,
      "along": 1839,
      "##ations": 1840,
      "##aught": 1841,
      "fashion": 1842,
      "ble": 1843,
      "ut": 1844,
      "##aim": 1845,
      "##od": 1846,
      "##gr": 1847,
      "##ym": 1848,
      "beard": 1849,
      "issue": 1850,
      "friar": 1851,
      "mod": 1852,
      "gift": 1853,
      "besides": 1854,
      "promise": 1855,
      "satisf": 1856,
      "acqu": 1857,
      "hamlet": 1858,
      "drown": 1859,
      "eas": 1860,
      "##dit": 1861,
      "ford": 1862,
      "##ames": 1863,
      "tri": 1864,
      "worship": 1865,
      "longer": 1866,
      "small": 1867,
      "##claim": 1868,
      "whilst": 1869,
      "nurse": 1870,
      "ben": 1871,
      "kate": 1872,
      "wood": 1873,
      "##ser": 1874,
      "##que": 1875,
      "ship": 1876,
      "form": 1877,
      "stop": 1878,
      "fresh": 1879,
      "##antage": 1880,
      "##umb": 1881,
      "masters": 1882,
      "##ians": 1883,
      "prev": 1884,
      "affection": 1885,
      "souls": 1886,
      "choose": 1887,
      "hurt": 1888,
      "sor": 1889,
      "ur": 1890,
      "##ndon": 1891,
      "##ona": 1892,
      "##ural": 1893,
      "reb": 1894,
      "trib": 1895,
      "unk": 1896,
      "bond": 1897,
      "paris": 1898,
      "enemies": 1899,
      "ath": 1900,
      "cup": 1901,
      "dies": 1902,
      "horn": 1903,
      "match": 1904,
      "##rous": 1905,
      "##ises": 1906,
      "shar": 1907,
      "anc": 1908,
      "presence": 1909,
      "consent": 1910,
      "valour": 1911,
      "publ": 1912,
      "dangerous": 1913,
      "princes": 1914,
      "pompey": 1915,
      "hundr": 1916,
      "occ": 1917,
      "sy": 1918,
      "noise": 1919,
      "whe": 1920,
      "health": 1921,
      "force": 1922,
      "chance": 1923,
      "leon": 1924,
      "perform": 1925,
      "move": 1926,
      "heads": 1927,
      "patient": 1928,
      "wisdom": 1929,
      "effect": 1930,
      "fine": 1931,
      "##ancy": 1932,
      "sole": 1933,
      "unw": 1934,
      "awhile": 1935,
      "parts": 1936,
      "bears": 1937,
      "forget": 1938,
      "bol": 1939,
      "vow": 1940,
      "##ale": 1941,
      "##rey": 1942,
      "stud": 1943,
      "enc": 1944,
      "##ility": 1945,
      "##unn": 1946,
      "conqu": 1947,
      "blow": 1948,
      "arg": 1949,
      "breast": 1950,
      "antonio": 1951,
      "emperor": 1952,
      "deeds": 1953,
      "went": 1954,
      "##af": 1955,
      "##sp": 1956,
      "##ses": 1957,
      "tom": 1958,
      "govern": 1959,
      "london": 1960,
      "north": 1961,
      "mov": 1962,
      "adie": 1963,
      "curse": 1964,
      "judgment": 1965,
      "ly": 1966,
      "mid": 1967,
      "##under": 1968,
      "##fully": 1969,
      "##esy": 1970,
      "receive": 1971,
      "##illes": 1972,
      "dull": 1973,
      "reads": 1974,
      "rosal": 1975,
      "post": 1976,
      "roman": 1977,
      "takes": 1978,
      "vol": 1979,
      "##aw": 1980,
      "succ": 1981,
      "green": 1982,
      "hadst": 1983,
      "fools": 1984,
      "birth": 1985,
      "approach": 1986,
      "adieu": 1987,
      "case": 1988,
      "gates": 1989,
      "six": 1990,
      "##ov": 1991,
      "##ony": 1992,
      "title": 1993,
      "depart": 1994,
      "marcius": 1995,
      "piece": 1996,
      "##og": 1997,
      "##ern": 1998,
      "##asc": 1999,
      "shake": 2000,
      "##urs": 2001,
      "##als": 2002,
      "pride": 2003,
      "doctor": 2004,
      "herself": 2005,
      "sav": 2006,
      "##ago": 2007,
      "shows": 2008,
      "##beth": 2009,
      "judge": 2010,
      "paper": 2011,
      "whether": 2012,
      "tent": 2013,
      "##oly": 2014,
      "forsw": 2015,
      "##irm": 2016,
      "neigh": 2017,
      "##erset": 2018,
      "blind": 2019,
      "contr": 2020,
      "carry": 2021,
      "##ify": 2022,
      "opin": 2023,
      "##ealous": 2024,
      "somerset": 2025,
      "castle": 2026,
      "angelo": 2027,
      "prosper": 2028,
      "cit": 2029,
      "dest": 2030,
      "ld": 2031,
      "mut": 2032,
      "round": 2033,
      "song": 2034,
      "wert": 2035,
      "##ald": 2036,
      "##aves": 2037,
      "##ges": 2038,
      "##ners": 2039,
      "tow": 2040,
      "entertain": 2041,
      "lend": 2042,
      "qual": 2043,
      "virg": 2044,
      "treason": 2045,
      "pract": 2046,
      "virtuous": 2047,
      "phil": 2048,
      "angry": 2049,
      "church": 2050,
      "list": 2051,
      "tor": 2052,
      "##osition": 2053,
      "##ledge": 2054,
      "##entine": 2055,
      "worst": 2056,
      "saf": 2057,
      "least": 2058,
      "##rupt": 2059,
      "protect": 2060,
      "buy": 2061,
      "quarrel": 2062,
      "achilles": 2063,
      "sus": 2064,
      "year": 2065,
      "##con": 2066,
      "##inius": 2067,
      "stood": 2068,
      "red": 2069,
      "plague": 2070,
      "prayers": 2071,
      "counter": 2072,
      "foolish": 2073,
      "mont": 2074,
      "ign": 2075,
      "sch": 2076,
      "##ends": 2077,
      "##asion": 2078,
      "shad": 2079,
      "forward": 2080,
      "stor": 2081,
      "step": 2082,
      "earl": 2083,
      "fellows": 2084,
      "jack": 2085,
      "jealous": 2086,
      "obey": 2087,
      "##oe": 2088,
      "thither": 2089,
      "##asons": 2090,
      "ref": 2091,
      "brain": 2092,
      "unh": 2093,
      "##ishop": 2094,
      "##icles": 2095,
      "crue": 2096,
      "troth": 2097,
      "kept": 2098,
      "leonat": 2099,
      "av": 2100,
      "hu": 2101,
      "won": 2102,
      "##bro": 2103,
      "##uit": 2104,
      "sheph": 2105,
      "wash": 2106,
      "quiet": 2107,
      "rob": 2108,
      "join": 2109,
      "demand": 2110,
      "scarce": 2111,
      "acquaint": 2112,
      "##broke": 2113,
      "##ict": 2114,
      "##rem": 2115,
      "shr": 2116,
      "measure": 2117,
      "brook": 2118,
      "sac": 2119,
      "perceive": 2120,
      "jove": 2121,
      "charm": 2122,
      "smil": 2123,
      "faults": 2124,
      "gainst": 2125,
      "taken": 2126,
      "bitter": 2127,
      "cir": 2128,
      "gir": 2129,
      "pains": 2130,
      "vain": 2131,
      "wast": 2132,
      "##ror": 2133,
      "##ray": 2134,
      "##iam": 2135,
      "##ife": 2136,
      "whither": 2137,
      "anne": 2138,
      "herm": 2139,
      "##staff": 2140,
      "ours": 2141,
      "##ello": 2142,
      "concl": 2143,
      "unf": 2144,
      "alive": 2145,
      "laid": 2146,
      "calls": 2147,
      "fearful": 2148,
      "import": 2149,
      "falstaff": 2150,
      "imm": 2151,
      "titus": 2152,
      "cassius": 2153,
      "trumpet": 2154,
      "visit": 2155,
      "dishon": 2156,
      "third": 2157,
      "dinner": 2158,
      "hop": 2159,
      "pain": 2160,
      "vie": 2161,
      "##ax": 2162,
      "##her": 2163,
      "##ark": 2164,
      "proof": 2165,
      "train": 2166,
      "##icul": 2167,
      "usur": 2168,
      "cliff": 2169,
      "dispatch": 2170,
      "sorry": 2171,
      "bass": 2172,
      "cost": 2173,
      "catch": 2174,
      "iago": 2175,
      "oct": 2176,
      "tar": 2177,
      "##iol": 2178,
      "##via": 2179,
      "##ual": 2180,
      "##ught": 2181,
      "##wd": 2182,
      "##jur": 2183,
      "##chief": 2184,
      "trick": 2185,
      "plant": 2186,
      "glory": 2187,
      "army": 2188,
      "execut": 2189,
      "troy": 2190,
      "carri": 2191,
      "##ourage": 2192,
      "octav": 2193,
      "rid": 2194,
      "rise": 2195,
      "thro": 2196,
      "inno": 2197,
      "##ley": 2198,
      "reign": 2199,
      "dec": 2200,
      "hero": 2201,
      "##ract": 2202,
      "manner": 2203,
      "clock": 2204,
      "drawn": 2205,
      "golden": 2206,
      "sharp": 2207,
      "opinion": 2208,
      "ge": 2209,
      "hat": 2210,
      "ow": 2211,
      "sort": 2212,
      "var": 2213,
      "##oint": 2214,
      "##zen": 2215,
      "thunder": 2216,
      "##ths": 2217,
      "##vey": 2218,
      "ins": 2219,
      "fors": 2220,
      "##cks": 2221,
      "##rac": 2222,
      "trans": 2223,
      "conce": 2224,
      "blame": 2225,
      "seven": 2226,
      "honesty": 2227,
      "##eds": 2228,
      "drunk": 2229,
      "contin": 2230,
      "purse": 2231,
      "forgot": 2232,
      "monster": 2233,
      "ignor": 2234,
      "cruel": 2235,
      "gh": 2236,
      "pin": 2237,
      "tear": 2238,
      "wal": 2239,
      "##ek": 2240,
      "##een": 2241,
      "frown": 2242,
      "try": 2243,
      "##ume": 2244,
      "dism": 2245,
      "##aps": 2246,
      "harry": 2247,
      "simple": 2248,
      "tower": 2249,
      "fle": 2250,
      "ri": 2251,
      "van": 2252,
      "##anus": 2253,
      "held": 2254,
      "ste": 2255,
      "blush": 2256,
      "servants": 2257,
      "##phin": 2258,
      "##perate": 2259,
      "##force": 2260,
      "coriol": 2261,
      "instant": 2262,
      "auth": 2263,
      "temp": 2264,
      "forbid": 2265,
      "success": 2266,
      "neighbour": 2267,
      "paint": 2268,
      "rough": 2269,
      "##cul": 2270,
      "hail": 2271,
      "mel": 2272,
      "priest": 2273,
      "amen": 2274,
      "##ots": 2275,
      "whence": 2276,
      "gross": 2277,
      "##bert": 2278,
      "banqu": 2279,
      "obser": 2280,
      "proper": 2281,
      "direct": 2282,
      "shepherd": 2283,
      "view": 2284,
      "clifford": 2285,
      "dri": 2286,
      "mere": 2287,
      "wench": 2288,
      "yo": 2289,
      "receiv": 2290,
      "defend": 2291,
      "broke": 2292,
      "##rius": 2293,
      "sail": 2294,
      "##ffer": 2295,
      "proclaim": 2296,
      "struck": 2297,
      "bestow": 2298,
      "wounds": 2299,
      "deserv": 2300,
      "citiz": 2301,
      "cat": 2302,
      "kath": 2303,
      "##eus": 2304,
      "##ts": 2305,
      "bed": 2306,
      "thence": 2307,
      "bod": 2308,
      "quite": 2309,
      "greater": 2310,
      "awake": 2311,
      "moor": 2312,
      "clear": 2313,
      "camp": 2314,
      "delight": 2315,
      "embrace": 2316,
      "widow": 2317,
      "macbeth": 2318,
      "utter": 2319,
      "trium": 2320,
      "bened": 2321,
      "kathar": 2322,
      "bene": 2323,
      "cunn": 2324,
      "courage": 2325,
      "equ": 2326,
      "fish": 2327,
      "vouch": 2328,
      "wine": 2329,
      "##day": 2330,
      "##iful": 2331,
      "thrice": 2332,
      "top": 2333,
      "shape": 2334,
      "##usion": 2335,
      "wealth": 2336,
      "deal": 2337,
      "expect": 2338,
      "swift": 2339,
      "##ounds": 2340,
      "##elia": 2341,
      "consider": 2342,
      "boys": 2343,
      "double": 2344,
      "obed": 2345,
      "persu": 2346,
      "condition": 2347,
      "request": 2348,
      "walls": 2349,
      "trouble": 2350,
      "ghost": 2351,
      "hol": 2352,
      "pos": 2353,
      "wol": 2354,
      "##ease": 2355,
      "##gy": 2356,
      "##mbl": 2357,
      "##pl": 2358,
      "##zard": 2359,
      "##oses": 2360,
      "##ators": 2361,
      "##ances": 2362,
      "mem": 2363,
      "loath": 2364,
      "amaz": 2365,
      "whereof": 2366,
      "##elve": 2367,
      "folly": 2368,
      "holl": 2369,
      "trumpets": 2370,
      "triumph": 2371,
      "##ker": 2372,
      "winds": 2373,
      "##iel": 2374,
      "##emn": 2375,
      "cloth": 2376,
      "smile": 2377,
      "promis": 2378,
      "tyr": 2379,
      "prisoner": 2380,
      "street": 2381,
      "wait": 2382,
      "pun": 2383,
      "powers": 2384,
      "vent": 2385,
      "##oll": 2386,
      "threat": 2387,
      "##isbury": 2388,
      "becom": 2389,
      "meant": 2390,
      "stock": 2391,
      "##ustom": 2392,
      "knowledge": 2393,
      "##ical": 2394,
      "alth": 2395,
      "desires": 2396,
      "dauphin": 2397,
      "holds": 2398,
      "##airs": 2399,
      "salisbury": 2400,
      "until": 2401,
      "ancient": 2402,
      "dur": 2403,
      "due": 2404,
      "dance": 2405,
      "taste": 2406,
      "##bo": 2407,
      "##bar": 2408,
      "##etrius": 2409,
      "##idius": 2410,
      "##ieves": 2411,
      "##unes": 2412,
      "fail": 2413,
      "compl": 2414,
      "##ission": 2415,
      "princely": 2416,
      "intend": 2417,
      "demetrius": 2418,
      "creature": 2419,
      "encoun": 2420,
      "although": 2421,
      "bones": 2422,
      "eld": 2423,
      "rasc": 2424,
      "west": 2425,
      "##ores": 2426,
      "hap": 2427,
      "stain": 2428,
      "##alm": 2429,
      "enjo": 2430,
      "neck": 2431,
      "necess": 2432,
      "goodly": 2433,
      "unp": 2434,
      "alack": 2435,
      "caius": 2436,
      "grand": 2437,
      "ways": 2438,
      "wits": 2439,
      "forgive": 2440,
      "borne": 2441,
      "aught": 2442,
      "towards": 2443,
      "motion": 2444,
      "juliet": 2445,
      "rosalind": 2446,
      "melanch": 2447,
      "yonder": 2448,
      "aj": 2449,
      "boot": 2450,
      "gard": 2451,
      "od": 2452,
      "sear": 2453,
      "##night": 2454,
      "##ze": 2455,
      "##ane": 2456,
      "forest": 2457,
      "##aughter": 2458,
      "remain": 2459,
      "falls": 2460,
      "curs": 2461,
      "valentine": 2462,
      "claim": 2463,
      "grows": 2464,
      "extrem": 2465,
      "private": 2466,
      "several": 2467,
      "author": 2468,
      "melancholy": 2469,
      "ajax": 2470,
      "cas": 2471,
      "faint": 2472,
      "main": 2473,
      "py": 2474,
      "##bus": 2475,
      "##ety": 2476,
      "yourselves": 2477,
      "sol": 2478,
      "revol": 2479,
      "deg": 2480,
      "shallow": 2481,
      "brit": 2482,
      "##ingbroke": 2483,
      "blows": 2484,
      "##icious": 2485,
      "greet": 2486,
      "twixt": 2487,
      "greatness": 2488,
      "slaughter": 2489,
      "repent": 2490,
      "endure": 2491,
      "courtesy": 2492,
      "weary": 2493,
      "choice": 2494,
      "terms": 2495,
      "prepare": 2496,
      "bolingbroke": 2497,
      "citizens": 2498,
      "hunt": 2499,
      "tur": 2500,
      "##dain": 2501,
      "##ub": 2502,
      "##cil": 2503,
      "##chance": 2504,
      "mend": 2505,
      "##itors": 2506,
      "stars": 2507,
      "unc": 2508,
      "glass": 2509,
      "honours": 2510,
      "precious": 2511,
      "tongues": 2512,
      "edm": 2513,
      "advantage": 2514,
      "silver": 2515,
      "silence": 2516,
      "emplo": 2517,
      "princess": 2518,
      "malice": 2519,
      "whiles": 2520,
      "profess": 2521,
      "marcus": 2522,
      "christian": 2523,
      "virgin": 2524,
      "employ": 2525,
      "aud": 2526,
      "bian": 2527,
      "bishop": 2528,
      "giv": 2529,
      "hung": 2530,
      "large": 2531,
      "ren": 2532,
      "rude": 2533,
      "##right": 2534,
      "##orge": 2535,
      "##vell": 2536,
      "meat": 2537,
      "##ilius": 2538,
      "bright": 2539,
      "uns": 2540,
      "twice": 2541,
      "wrath": 2542,
      "keeps": 2543,
      "proteus": 2544,
      "summer": 2545,
      "finger": 2546,
      "liberty": 2547,
      "excuse": 2548,
      "bare": 2549,
      "fig": 2550,
      "ir": 2551,
      "nose": 2552,
      "owe": 2553,
      "root": 2554,
      "##ives": 2555,
      "##ua": 2556,
      "bend": 2557,
      "##utation": 2558,
      "debt": 2559,
      "##stance": 2560,
      "seat": 2561,
      "##opat": 2562,
      "shouldst": 2563,
      "slander": 2564,
      "charles": 2565,
      "victor": 2566,
      "discour": 2567,
      "silvia": 2568,
      "except": 2569,
      "prepar": 2570,
      "cheek": 2571,
      "cheeks": 2572,
      "guilty": 2573,
      "occasion": 2574,
      "encounter": 2575,
      "kent": 2576,
      "pot": 2577,
      "rain": 2578,
      "rose": 2579,
      "rans": 2580,
      "sings": 2581,
      "sooth": 2582,
      "##oc": 2583,
      "##ler": 2584,
      "##oral": 2585,
      "heels": 2586,
      "shore": 2587,
      "stone": 2588,
      "steel": 2589,
      "##ident": 2590,
      "##ilia": 2591,
      "rogue": 2592,
      "##ierce": 2593,
      "imag": 2594,
      "cleopat": 2595,
      "protest": 2596,
      "deserve": 2597,
      "colours": 2598,
      "lament": 2599,
      "solemn": 2600,
      "safety": 2601,
      "edmund": 2602,
      "bianca": 2603,
      "cleopatra": 2604,
      "big": 2605,
      "der": 2606,
      "dry": 2607,
      "few": 2608,
      "loud": 2609,
      "need": 2610,
      "##iance": 2611,
      "##with": 2612,
      "heat": 2613,
      "weigh": 2614,
      "ash": 2615,
      "env": 2616,
      "spend": 2617,
      "chall": 2618,
      "chain": 2619,
      "chang": 2620,
      "manners": 2621,
      "lav": 2622,
      "fond": 2623,
      "foes": 2624,
      "fears": 2625,
      "brothers": 2626,
      "humble": 2627,
      "swords": 2628,
      "accord": 2629,
      "wrongs": 2630,
      "maiden": 2631,
      "anger": 2632,
      "legs": 2633,
      "public": 2634,
      "dishonour": 2635,
      "benedick": 2636,
      "dwell": 2637,
      "fought": 2638,
      "fury": 2639,
      "lanc": 2640,
      "pure": 2641,
      "rh": 2642,
      "rare": 2643,
      "##dem": 2644,
      "##folk": 2645,
      "##omach": 2646,
      "##ads": 2647,
      "##idge": 2648,
      "madness": 2649,
      "twill": 2650,
      "quoth": 2651,
      "norfolk": 2652,
      "##ipe": 2653,
      "##iana": 2654,
      "remed": 2655,
      "assure": 2656,
      "monst": 2657,
      "discover": 2658,
      "corrupt": 2659,
      "remembr": 2660,
      "##ruction": 2661,
      "minister": 2662,
      "##ronic": 2663,
      "sometime": 2664,
      "study": 2665,
      "shadow": 2666,
      "punish": 2667,
      "bas": 2668,
      "cuck": 2669,
      "custom": 2670,
      "fame": 2671,
      "kins": 2672,
      "squ": 2673,
      "##more": 2674,
      "##orous": 2675,
      "hab": 2676,
      "weap": 2677,
      "start": 2678,
      "stuff": 2679,
      "brow": 2680,
      "conc": 2681,
      "##oler": 2682,
      "clou": 2683,
      "earn": 2684,
      "phys": 2685,
      "instr": 2686,
      "condemn": 2687,
      "athens": 2688,
      "circ": 2689,
      "monstrous": 2690,
      "aid": 2691,
      "alex": 2692,
      "cord": 2693,
      "cress": 2694,
      "egy": 2695,
      "fain": 2696,
      "food": 2697,
      "mourn": 2698,
      "ox": 2699,
      "rat": 2700,
      "sens": 2701,
      "tree": 2702,
      "##app": 2703,
      "##eous": 2704,
      "##uc": 2705,
      "##ways": 2706,
      "thief": 2707,
      "##orth": 2708,
      "##enet": 2709,
      "shut": 2710,
      "##iment": 2711,
      "story": 2712,
      "doom": 2713,
      "knee": 2714,
      "convey": 2715,
      "unb": 2716,
      "griev": 2717,
      "prod": 2718,
      "desert": 2719,
      "desperate": 2720,
      "desdem": 2721,
      "particul": 2722,
      "compan": 2723,
      "follows": 2724,
      "undert": 2725,
      "throne": 2726,
      "winter": 2727,
      "forbear": 2728,
      "idle": 2729,
      "counterfeit": 2730,
      "storm": 2731,
      "search": 2732,
      "lancaster": 2733,
      "egypt": 2734,
      "desdemona": 2735,
      "fre": 2736,
      "tut": 2737,
      "vows": 2738,
      "##orious": 2739,
      "##enc": 2740,
      "##inia": 2741,
      "##read": 2742,
      "shrew": 2743,
      "##eter": 2744,
      "stab": 2745,
      "rever": 2746,
      "##rows": 2747,
      "perfect": 2748,
      "foe": 2749,
      "roar": 2750,
      "cover": 2751,
      "smell": 2752,
      "wanton": 2753,
      "tyb": 2754,
      "express": 2755,
      "oaths": 2756,
      "venge": 2757,
      "##otten": 2758,
      "practise": 2759,
      "becomes": 2760,
      "renown": 2761,
      "ransom": 2762,
      "physic": 2763,
      "circum": 2764,
      "niece": 2765,
      "wre": 2766,
      "##ense": 2767,
      "reasons": 2768,
      "lover": 2769,
      "leis": 2770,
      "flowers": 2771,
      "grat": 2772,
      "##udge": 2773,
      "betray": 2774,
      "pericles": 2775,
      "leaves": 2776,
      "##orses": 2777,
      "paid": 2778,
      "tail": 2779,
      "miser": 2780,
      "fiend": 2781,
      "sometimes": 2782,
      "lavinia": 2783,
      "cressid": 2784,
      "tybalt": 2785,
      "fee": 2786,
      "gown": 2787,
      "lang": 2788,
      "pis": 2789,
      "tune": 2790,
      "##eat": 2791,
      "##ogue": 2792,
      "whis": 2793,
      "wives": 2794,
      "sheep": 2795,
      "hal": 2796,
      "##erem": 2797,
      "stomach": 2798,
      "##entio": 2799,
      "dot": 2800,
      "ones": 2801,
      "herald": 2802,
      "##ied": 2803,
      "lod": 2804,
      "trial": 2805,
      "exam": 2806,
      "twelve": 2807,
      "betw": 2808,
      "duc": 2809,
      "hastings": 2810,
      "##verend": 2811,
      "recover": 2812,
      "gallant": 2813,
      "montague": 2814,
      "execution": 2815,
      "coriolanus": 2816,
      "bab": 2817,
      "dun": 2818,
      "dust": 2819,
      "gate": 2820,
      "hid": 2821,
      "horses": 2822,
      "number": 2823,
      "##afe": 2824,
      "##wise": 2825,
      "##enance": 2826,
      "##ences": 2827,
      "##ination": 2828,
      "wick": 2829,
      "##cel": 2830,
      "former": 2831,
      "weight": 2832,
      "##ades": 2833,
      "##allow": 2834,
      "##athers": 2835,
      "##raid": 2836,
      "spare": 2837,
      "fac": 2838,
      "mayst": 2839,
      "warlike": 2840,
      "armour": 2841,
      "natural": 2842,
      "kindness": 2843,
      "crowns": 2844,
      "differ": 2845,
      "breathe": 2846,
      "lawful": 2847,
      "senators": 2848,
      "sooner": 2849,
      "subjects": 2850,
      "oppos": 2851,
      "guilt": 2852,
      "disgu": 2853,
      "easy": 2854,
      "discourse": 2855,
      "remembrance": 2856,
      "leisure": 2857,
      "betwixt": 2858,
      "bott": 2859,
      "ease": 2860,
      "feet": 2861,
      "grown": 2862,
      "hit": 2863,
      "line": 2864,
      "nest": 2865,
      "pick": 2866,
      "rank": 2867,
      "hall": 2868,
      "##itude": 2869,
      "stol": 2870,
      "stones": 2871,
      "##ament": 2872,
      "##eeth": 2873,
      "fruit": 2874,
      "spent": 2875,
      "chief": 2876,
      "##riv": 2877,
      "always": 2878,
      "abus": 2879,
      "abro": 2880,
      "affect": 2881,
      "guest": 2882,
      "humbly": 2883,
      "accus": 2884,
      "lucentio": 2885,
      "capit": 2886,
      "regard": 2887,
      "##volio": 2888,
      "dreadful": 2889,
      "argument": 2890,
      "forsworn": 2891,
      "nine": 2892,
      "##erm": 2893,
      "bef": 2894,
      "##cend": 2895,
      "isab": 2896,
      "##ams": 2897,
      "reverend": 2898,
      "envy": 2899,
      "deceiv": 2900,
      "##ieur": 2901,
      "lovers": 2902,
      "comb": 2903,
      "##ement": 2904,
      "flower": 2905,
      "warm": 2906,
      "percy": 2907,
      "drom": 2908,
      "slow": 2909,
      "appoint": 2910,
      "witch": 2911,
      "charity": 2912,
      "empt": 2913,
      "assur": 2914,
      "disple": 2915,
      "affairs": 2916,
      "evil": 2917,
      "cries": 2918,
      "credit": 2919,
      "broken": 2920,
      "spoken": 2921,
      "usurp": 2922,
      "octavius": 2923,
      "cure": 2924,
      "dy": 2925,
      "fancy": 2926,
      "pand": 2927,
      "tam": 2928,
      "##su": 2929,
      "##yond": 2930,
      "##erv": 2931,
      "##reh": 2932,
      "bew": 2933,
      "beyond": 2934,
      "staff": 2935,
      "prick": 2936,
      "spite": 2937,
      "kne": 2938,
      "goodness": 2939,
      "arr": 2940,
      "grey": 2941,
      "clo": 2942,
      "thinks": 2943,
      "##elt": 2944,
      "plead": 2945,
      "thrive": 2946,
      "traitors": 2947,
      "supper": 2948,
      "possible": 2949,
      "jewel": 2950,
      "##umberland": 2951,
      "officers": 2952,
      "cupid": 2953,
      "protector": 2954,
      "enjoy": 2955,
      "revolt": 2956,
      "dromio": 2957,
      "dig": 2958,
      "ep": 2959,
      "maint": 2960,
      "oth": 2961,
      "wak": 2962,
      "##dle": 2963,
      "##gs": 2964,
      "##mble": 2965,
      "##mond": 2966,
      "##ution": 2967,
      "melt": 2968,
      "press": 2969,
      "doors": 2970,
      "fright": 2971,
      "allow": 2972,
      "loyal": 2973,
      "therein": 2974,
      "bride": 2975,
      "flood": 2976,
      "contempt": 2977,
      "bids": 2978,
      "##ails": 2979,
      "burg": 2980,
      "tempt": 2981,
      "tyrant": 2982,
      "condu": 2983,
      "peter": 2984,
      "despair": 2985,
      "proceed": 2986,
      "officer": 2987,
      "mirth": 2988,
      "admir": 2989,
      "vouchs": 2990,
      "remedy": 2991,
      "abroad": 2992,
      "othello": 2993,
      "dign": 2994,
      "esc": 2995,
      "fun": 2996,
      "hill": 2997,
      "nap": 2998,
      "rom": 2999,
      "sore": 3000,
      "table": 3001,
      "teeth": 3002,
      "##leep": 3003,
      "asleep": 3004,
      "##very": 3005,
      "##ands": 3006,
      "flight": 3007,
      "flies": 3008,
      "richmond": 3009,
      "below": 3010,
      "humph": 3011,
      "happiness": 3012,
      "freely": 3013,
      "capul": 3014,
      "undone": 3015,
      "school": 3016,
      "leonato": 3017,
      "particular": 3018,
      "bottom": 3019,
      "aim": 3020,
      "able": 3021,
      "bard": 3022,
      "dagg": 3023,
      "wag": 3024,
      "##act": 3025,
      "andronic": 3026,
      "nobl": 3027,
      "incl": 3028,
      "##uten": 3029,
      "dece": 3030,
      "ali": 3031,
      "disdain": 3032,
      "heav": 3033,
      "gentlew": 3034,
      "heavenly": 3035,
      "compass": 3036,
      "firm": 3037,
      "begins": 3038,
      "lieuten": 3039,
      "thrust": 3040,
      "daughters": 3041,
      "countenance": 3042,
      "account": 3043,
      "lands": 3044,
      "voices": 3045,
      "buri": 3046,
      "temper": 3047,
      "ruin": 3048,
      "crack": 3049,
      "venice": 3050,
      "constant": 3051,
      "determ": 3052,
      "single": 3053,
      "unkind": 3054,
      "hollow": 3055,
      "pyram": 3056,
      "langu": 3057,
      "humphrey": 3058,
      "borrow": 3059,
      "mild": 3060,
      "pour": 3061,
      "sits": 3062,
      "ted": 3063,
      "wings": 3064,
      "##den": 3065,
      "##uce": 3066,
      "##fer": 3067,
      "thick": 3068,
      "##arus": 3069,
      "toby": 3070,
      "##ann": 3071,
      "render": 3072,
      "arch": 3073,
      "lean": 3074,
      "abh": 3075,
      "##ips": 3076,
      "##ivil": 3077,
      "joint": 3078,
      "merit": 3079,
      "dearest": 3080,
      "slender": 3081,
      "guess": 3082,
      "confer": 3083,
      "treach": 3084,
      "beatrice": 3085,
      "griefs": 3086,
      "##iety": 3087,
      "proph": 3088,
      "rule": 3089,
      "petr": 3090,
      "profit": 3091,
      "despite": 3092,
      "##asket": 3093,
      "tribunes": 3094,
      "horns": 3095,
      "northumberland": 3096,
      "girl": 3097,
      "hermia": 3098,
      "hopes": 3099,
      "benef": 3100,
      "clouds": 3101,
      "vengeance": 3102,
      "knees": 3103,
      "romans": 3104,
      "lieutenant": 3105,
      "tedious": 3106,
      "bought": 3107,
      "fil": 3108,
      "hy": 3109,
      "mart": 3110,
      "nought": 3111,
      "por": 3112,
      "pil": 3113,
      "wake": 3114,
      "##aces": 3115,
      "##opp": 3116,
      "##pe": 3117,
      "##cri": 3118,
      "##enge": 3119,
      "whore": 3120,
      "infect": 3121,
      "##imer": 3122,
      "reward": 3123,
      "realm": 3124,
      "hers": 3125,
      "##illo": 3126,
      "blunt": 3127,
      "plot": 3128,
      "##rible": 3129,
      "sack": 3130,
      "##uchio": 3131,
      "strang": 3132,
      "cock": 3133,
      "belov": 3134,
      "confirm": 3135,
      "##sander": 3136,
      "bark": 3137,
      "streets": 3138,
      "camillo": 3139,
      "tomb": 3140,
      "lysander": 3141,
      "tempest": 3142,
      "durst": 3143,
      "garden": 3144,
      "authority": 3145,
      "earnest": 3146,
      "ducats": 3147,
      "empty": 3148,
      "petruchio": 3149,
      "da": 3150,
      "dom": 3151,
      "furn": 3152,
      "pack": 3153,
      "sic": 3154,
      "salt": 3155,
      "vice": 3156,
      "##ten": 3157,
      "##lock": 3158,
      "##chant": 3159,
      "##lect": 3160,
      "wedd": 3161,
      "##amour": 3162,
      "spake": 3163,
      "lock": 3164,
      "neg": 3165,
      "faces": 3166,
      "blest": 3167,
      "swore": 3168,
      "swell": 3169,
      "outward": 3170,
      "laun": 3171,
      "peril": 3172,
      "appears": 3173,
      "smooth": 3174,
      "devise": 3175,
      "imper": 3176,
      "wond": 3177,
      "minds": 3178,
      "vii": 3179,
      "##undy": 3180,
      "intent": 3181,
      "bapt": 3182,
      "sickness": 3183,
      "bird": 3184,
      "provost": 3185,
      "skill": 3186,
      "angel": 3187,
      "suddenly": 3188,
      "drops": 3189,
      "prevent": 3190,
      "innocent": 3191,
      "challenge": 3192,
      "burgundy": 3193,
      "conduct": 3194,
      "apt": 3195,
      "bade": 3196,
      "cease": 3197,
      "pound": 3198,
      "tid": 3199,
      "wander": 3200,
      "##dic": 3201,
      "##oid": 3202,
      "##go": 3203,
      "##na": 3204,
      "##iny": 3205,
      "##iter": 3206,
      "wither": 3207,
      "dew": 3208,
      "knife": 3209,
      "cher": 3210,
      "##olph": 3211,
      "flor": 3212,
      "greatest": 3213,
      "womb": 3214,
      "purch": 3215,
      "deadly": 3216,
      "villany": 3217,
      "disposition": 3218,
      "empress": 3219,
      "estate": 3220,
      "wide": 3221,
      "vex": 3222,
      "suspect": 3223,
      "throat": 3224,
      "george": 3225,
      "equal": 3226,
      "maintain": 3227,
      "vouchsafe": 3228,
      "bardolph": 3229,
      "andronicus": 3230,
      "eag": 3231,
      "fi": 3232,
      "fix": 3233,
      "hort": 3234,
      "honey": 3235,
      "pie": 3236,
      "pict": 3237,
      "rul": 3238,
      "ride": 3239,
      "rail": 3240,
      "##ault": 3241,
      "##fidius": 3242,
      "thom": 3243,
      "##thum": 3244,
      "shot": 3245,
      "##cher": 3246,
      "pron": 3247,
      "tranio": 3248,
      "brings": 3249,
      "exeter": 3250,
      "seas": 3251,
      "##igo": 3252,
      "##igence": 3253,
      "perchance": 3254,
      "early": 3255,
      "commission": 3256,
      "council": 3257,
      "begu": 3258,
      "##ertes": 3259,
      "turns": 3260,
      "retire": 3261,
      "virtues": 3262,
      "object": 3263,
      "aufidius": 3264,
      "mortimer": 3265,
      "ambition": 3266,
      "absence": 3267,
      "sighs": 3268,
      "violent": 3269,
      "prevail": 3270,
      "conquer": 3271,
      "quality": 3272,
      "bassanio": 3273,
      "obedience": 3274,
      "posthum": 3275,
      "rascal": 3276,
      "capulet": 3277,
      "gentlewoman": 3278,
      "pyramus": 3279,
      "tidings": 3280,
      "hortens": 3281,
      "thomas": 3282,
      "posthumus": 3283,
      "cy": 3284,
      "ends": 3285,
      "gon": 3286,
      "hie": 3287,
      "ped": 3288,
      "rash": 3289,
      "##ta": 3290,
      "##ton": 3291,
      "##kin": 3292,
      "##wh": 3293,
      "##ano": 3294,
      "##ino": 3295,
      "ital": 3296,
      "prol": 3297,
      "suck": 3298,
      "loose": 3299,
      "##ella": 3300,
      "##ote": 3301,
      "##oles": 3302,
      "##ria": 3303,
      "gree": 3304,
      "stranger": 3305,
      "##apes": 3306,
      "appar": 3307,
      "repair": 3308,
      "merc": 3309,
      "imposs": 3310,
      "##ifi": 3311,
      "prais": 3312,
      "mischief": 3313,
      "deni": 3314,
      "beaten": 3315,
      "darest": 3316,
      "affli": 3317,
      "helena": 3318,
      "modesty": 3319,
      "gifts": 3320,
      "unkn": 3321,
      "tarry": 3322,
      "kinsman": 3323,
      "bill": 3324,
      "cerem": 3325,
      "dumb": 3326,
      "fift": 3327,
      "length": 3328,
      "miss": 3329,
      "nak": 3330,
      "names": 3331,
      "sour": 3332,
      "tort": 3333,
      "##iate": 3334,
      "##nat": 3335,
      "##atio": 3336,
      "##ision": 3337,
      "##enz": 3338,
      "##thur": 3339,
      "whipp": 3340,
      "inform": 3341,
      "hazard": 3342,
      "##ado": 3343,
      "william": 3344,
      "##amp": 3345,
      "eng": 3346,
      "##ilt": 3347,
      "hereaf": 3348,
      "arthur": 3349,
      "season": 3350,
      "clos": 3351,
      "clown": 3352,
      "followers": 3353,
      "villains": 3354,
      "bawd": 3355,
      "apart": 3356,
      "methought": 3357,
      "raise": 3358,
      "divine": 3359,
      "mountain": 3360,
      "portia": 3361,
      "unworth": 3362,
      "contrary": 3363,
      "unhapp": 3364,
      "plantag": 3365,
      "forsooth": 3366,
      "conceit": 3367,
      "ignorant": 3368,
      "observ": 3369,
      "concern": 3370,
      "baptist": 3371,
      "pronoun": 3372,
      "hortensio": 3373,
      "hereafter": 3374,
      "bind": 3375,
      "cates": 3376,
      "east": 3377,
      "sides": 3378,
      "ti": 3379,
      "##vent": 3380,
      "##haps": 3381,
      "##jury": 3382,
      "thieves": 3383,
      "##onius": 3384,
      "##inate": 3385,
      "##itious": 3386,
      "prize": 3387,
      "franc": 3388,
      "reck": 3389,
      "trif": 3390,
      "worm": 3391,
      "scot": 3392,
      "clim": 3393,
      "quit": 3394,
      "perhaps": 3395,
      "roder": 3396,
      "glorious": 3397,
      "prefer": 3398,
      "reputation": 3399,
      "puts": 3400,
      "attempt": 3401,
      "tread": 3402,
      "hencefor": 3403,
      "horatio": 3404,
      "troj": 3405,
      "maids": 3406,
      "dogs": 3407,
      "crave": 3408,
      "garments": 3409,
      "modest": 3410,
      "sacr": 3411,
      "memory": 3412,
      "habit": 3413,
      "undertake": 3414,
      "pisanio": 3415,
      "fiery": 3416,
      "baptista": 3417,
      "roderigo": 3418,
      "ball": 3419,
      "bag": 3420,
      "bury": 3421,
      "eight": 3422,
      "fin": 3423,
      "mag": 3424,
      "ran": 3425,
      "##tl": 3426,
      "##rain": 3427,
      "##ric": 3428,
      "##erve": 3429,
      "##ora": 3430,
      "##cell": 3431,
      "##leans": 3432,
      "stat": 3433,
      "##alf": 3434,
      "##idence": 3435,
      "brows": 3436,
      "orleans": 3437,
      "ung": 3438,
      "ariel": 3439,
      "lovely": 3440,
      "##amemn": 3441,
      "sees": 3442,
      "mars": 3443,
      "agamemn": 3444,
      "fairly": 3445,
      "ladyship": 3446,
      "appreh": 3447,
      "complex": 3448,
      "##ctions": 3449,
      "behalf": 3450,
      "treasure": 3451,
      "sleeps": 3452,
      "bush": 3453,
      "advise": 3454,
      "dares": 3455,
      "build": 3456,
      "raven": 3457,
      "knights": 3458,
      "spec": 3459,
      "fatal": 3460,
      "avoid": 3461,
      "bodies": 3462,
      "victory": 3463,
      "rhym": 3464,
      "plantagenet": 3465,
      "agamemnon": 3466,
      "boun": 3467,
      "civil": 3468,
      "fits": 3469,
      "hugh": 3470,
      "ja": 3471,
      "key": 3472,
      "pad": 3473,
      "south": 3474,
      "waste": 3475,
      "##aid": 3476,
      "##res": 3477,
      "##rate": 3478,
      "##change": 3479,
      "forfeit": 3480,
      "stick": 3481,
      "lik": 3482,
      "liest": 3483,
      "##ards": 3484,
      "brains": 3485,
      "alb": 3486,
      "cave": 3487,
      "laertes": 3488,
      "##istol": 3489,
      "##ques": 3490,
      "friendship": 3491,
      "confound": 3492,
      "device": 3493,
      "month": 3494,
      "market": 3495,
      "runs": 3496,
      "##avish": 3497,
      "window": 3498,
      "dreams": 3499,
      "shortly": 3500,
      "limbs": 3501,
      "##ogen": 3502,
      "smiles": 3503,
      "degree": 3504,
      "reverence": 3505,
      "francis": 3506,
      "cens": 3507,
      "duch": 3508,
      "fathers": 3509,
      "iron": 3510,
      "rag": 3511,
      "rush": 3512,
      "ripe": 3513,
      "sell": 3514,
      "tide": 3515,
      "taught": 3516,
      "##dra": 3517,
      "##eas": 3518,
      "##net": 3519,
      "##mit": 3520,
      "##hold": 3521,
      "##pir": 3522,
      "##inite": 3523,
      "shout": 3524,
      "island": 3525,
      "frame": 3526,
      "##verse": 3527,
      "knaves": 3528,
      "chaste": 3529,
      "orland": 3530,
      "sirs": 3531,
      "disch": 3532,
      "lew": 3533,
      "##ption": 3534,
      "graces": 3535,
      "pock": 3536,
      "party": 3537,
      "dearly": 3538,
      "pair": 3539,
      "assist": 3540,
      "senate": 3541,
      "imogen": 3542,
      "reveng": 3543,
      "gaunt": 3544,
      "malvolio": 3545,
      "accept": 3546,
      "esteem": 3547,
      "polic": 3548,
      "##prise": 3549,
      "##chester": 3550,
      "groan": 3551,
      "satisfi": 3552,
      "hubert": 3553,
      "banquo": 3554,
      "katharina": 3555,
      "threaten": 3556,
      "cuckold": 3557,
      "wreck": 3558,
      "whisper": 3559,
      "capitol": 3560,
      "unknown": 3561,
      "orlando": 3562,
      "cell": 3563,
      "cool": 3564,
      "ful": 3565,
      "fate": 3566,
      "hind": 3567,
      "sink": 3568,
      "##acle": 3569,
      "##bel": 3570,
      "##ug": 3571,
      "##eret": 3572,
      "##esus": 3573,
      "##ency": 3574,
      "belike": 3575,
      "shine": 3576,
      "##utes": 3577,
      "forc": 3578,
      "stoop": 3579,
      "##sey": 3580,
      "##vert": 3581,
      "super": 3582,
      "chide": 3583,
      "##ellow": 3584,
      "conj": 3585,
      "unl": 3586,
      "##inger": 3587,
      "sway": 3588,
      "sweat": 3589,
      "swallow": 3590,
      "alter": 3591,
      "scr": 3592,
      "proc": 3593,
      "serp": 3594,
      "slight": 3595,
      "afraid": 3596,
      "finds": 3597,
      "woes": 3598,
      "misery": 3599,
      "advice": 3600,
      "sorrows": 3601,
      "infinite": 3602,
      "prisoners": 3603,
      "wax": 3604,
      "relig": 3605,
      "monsieur": 3606,
      "julia": 3607,
      "##head": 3608,
      "urg": 3609,
      "clothes": 3610,
      "haply": 3611,
      "odds": 3612,
      "displeasure": 3613,
      "dagger": 3614,
      "alike": 3615,
      "catesby": 3616,
      "lewis": 3617,
      "policy": 3618,
      "etern": 3619,
      "ner": 3620,
      "rt": 3621,
      "test": 3622,
      "##ever": 3623,
      "##ws": 3624,
      "##essel": 3625,
      "##lys": 3626,
      "trade": 3627,
      "unnat": 3628,
      "blown": 3629,
      "##uments": 3630,
      "seest": 3631,
      "diss": 3632,
      "flow": 3633,
      "stroke": 3634,
      "desir": 3635,
      "robb": 3636,
      "fairest": 3637,
      "slew": 3638,
      "resc": 3639,
      "intell": 3640,
      "sky": 3641,
      "saturn": 3642,
      "minute": 3643,
      "delay": 3644,
      "constable": 3645,
      "snow": 3646,
      "drums": 3647,
      "invent": 3648,
      "pitch": 3649,
      "resolve": 3650,
      "famil": 3651,
      "midnight": 3652,
      "charmian": 3653,
      "oxford": 3654,
      "abhor": 3655,
      "furnish": 3656,
      "neglect": 3657,
      "##olesome": 3658,
      "impossible": 3659,
      "bounty": 3660,
      "aar": 3661,
      "aene": 3662,
      "bon": 3663,
      "crow": 3664,
      "cree": 3665,
      "esp": 3666,
      "fant": 3667,
      "fierce": 3668,
      "ire": 3669,
      "naught": 3670,
      "numb": 3671,
      "ol": 3672,
      "pill": 3673,
      "pear": 3674,
      "tend": 3675,
      "wants": 3676,
      "yond": 3677,
      "##ec": 3678,
      "##obar": 3679,
      "##mon": 3680,
      "##ator": 3681,
      "nob": 3682,
      "ingr": 3683,
      "isle": 3684,
      "##tery": 3685,
      "weeds": 3686,
      "enforce": 3687,
      "enobar": 3688,
      "deer": 3689,
      "speed": 3690,
      "unse": 3691,
      "sends": 3692,
      "places": 3693,
      "cler": 3694,
      "grum": 3695,
      "grieve": 3696,
      "tells": 3697,
      "perforce": 3698,
      "fairy": 3699,
      "handker": 3700,
      "guild": 3701,
      "native": 3702,
      "consul": 3703,
      "impr": 3704,
      "edge": 3705,
      "monument": 3706,
      "sounds": 3707,
      "devils": 3708,
      "babe": 3709,
      "winchester": 3710,
      "countrymen": 3711,
      "garter": 3712,
      "calm": 3713,
      "creatures": 3714,
      "resolv": 3715,
      "disgrace": 3716,
      "susp": 3717,
      "prodig": 3718,
      "lodg": 3719,
      "tamora": 3720,
      "unhappy": 3721,
      "henceforth": 3722,
      "duchess": 3723,
      "##ereto": 3724,
      "unnatural": 3725,
      "familiar": 3726,
      "aaron": 3727,
      "aeneas": 3728,
      "bent": 3729,
      "band": 3730,
      "bull": 3731,
      "bite": 3732,
      "et": 3733,
      "mat": 3734,
      "mong": 3735,
      "mass": 3736,
      "taint": 3737,
      "vessel": 3738,
      "wink": 3739,
      "##fl": 3740,
      "##anct": 3741,
      "##inct": 3742,
      "##inous": 3743,
      "whip": 3744,
      "forces": 3745,
      "withdra": 3746,
      "priam": 3747,
      "spar": 3748,
      "chast": 3749,
      "unm": 3750,
      "##olute": 3751,
      "arise": 3752,
      "marina": 3753,
      "##arel": 3754,
      "heartily": 3755,
      "descend": 3756,
      "perish": 3757,
      "fox": 3758,
      "rock": 3759,
      "prayer": 3760,
      "committ": 3761,
      "prey": 3762,
      "mistake": 3763,
      "emilia": 3764,
      "doubl": 3765,
      "peers": 3766,
      "months": 3767,
      "surely": 3768,
      "hangs": 3769,
      "sentence": 3770,
      "lucilius": 3771,
      "banishment": 3772,
      "favours": 3773,
      "ambitious": 3774,
      "darkness": 3775,
      "fingers": 3776,
      "syrac": 3777,
      "unfold": 3778,
      "pinch": 3779,
      "elder": 3780,
      "necessity": 3781,
      "figure": 3782,
      "instrument": 3783,
      "pieces": 3784,
      "picture": 3785,
      "enobarbus": 3786,
      "dim": 3787,
      "dress": 3788,
      "eph": 3789,
      "gle": 3790,
      "pistol": 3791,
      "rap": 3792,
      "vin": 3793,
      "##erous": 3794,
      "##llen": 3795,
      "##arg": 3796,
      "##enius": 3797,
      "nobles": 3798,
      "##rees": 3799,
      "inher": 3800,
      "##asy": 3801,
      "##itable": 3802,
      "##oops": 3803,
      "##sequ": 3804,
      "decl": 3805,
      "spur": 3806,
      "chair": 3807,
      "ord": 3808,
      "boast": 3809,
      "worn": 3810,
      "marks": 3811,
      "##rift": 3812,
      "grec": 3813,
      "##assad": 3814,
      "strain": 3815,
      "wrought": 3816,
      "drive": 3817,
      "contract": 3818,
      "remains": 3819,
      "belong": 3820,
      "impat": 3821,
      "pause": 3822,
      "wears": 3823,
      "advance": 3824,
      "secure": 3825,
      "##uteous": 3826,
      "kisses": 3827,
      "image": 3828,
      "hardly": 3829,
      "hateful": 3830,
      "ambassad": 3831,
      "privile": 3832,
      "milk": 3833,
      "ignorance": 3834,
      "weapons": 3835,
      "benefit": 3836,
      "complexion": 3837,
      "padua": 3838,
      "felt": 3839,
      "mill": 3840,
      "nice": 3841,
      "odd": 3842,
      "scept": 3843,
      "tame": 3844,
      "##eg": 3845,
      "##okes": 3846,
      "##soe": 3847,
      "##bast": 3848,
      "##can": 3849,
      "##enes": 3850,
      "##oment": 3851,
      "ink": 3852,
      "##ced": 3853,
      "shoot": 3854,
      "stretch": 3855,
      "##idus": 3856,
      "reach": 3857,
      "rejo": 3858,
      "deb": 3859,
      "##iege": 3860,
      "neph": 3861,
      "bring": 3862,
      "##icate": 3863,
      "scape": 3864,
      "sau": 3865,
      "clot": 3866,
      "abuse": 3867,
      "fairies": 3868,
      "leap": 3869,
      "joan": 3870,
      "coll": 3871,
      "##roy": 3872,
      "repro": 3873,
      "##ension": 3874,
      "behe": 3875,
      "behav": 3876,
      "edgar": 3877,
      "##ruct": 3878,
      "draws": 3879,
      "burth": 3880,
      "murderer": 3881,
      "record": 3882,
      "craft": 3883,
      "rais": 3884,
      "deserves": 3885,
      "oppress": 3886,
      "lamb": 3887,
      "stirr": 3888,
      "undo": 3889,
      "belly": 3890,
      "amongst": 3891,
      "##centio": 3892,
      "entertainment": 3893,
      "banquet": 3894,
      "katharine": 3895,
      "companion": 3896,
      "difference": 3897,
      "unworthy": 3898,
      "reckon": 3899,
      "special": 3900,
      "nobility": 3901,
      "ephesus": 3902,
      "vincentio": 3903,
      "nephew": 3904,
      "basket": 3905,
      "cym": 3906,
      "dow": 3907,
      "fold": 3908,
      "gather": 3909,
      "journ": 3910,
      "lor": 3911,
      "moment": 3912,
      "rotten": 3913,
      "sanct": 3914,
      "task": 3915,
      "##acy": 3916,
      "##oard": 3917,
      "##so": 3918,
      "##vish": 3919,
      "##pidus": 3920,
      "##way": 3921,
      "##just": 3922,
      "nobly": 3923,
      "whores": 3924,
      "inqu": 3925,
      "injur": 3926,
      "weather": 3927,
      "lip": 3928,
      "hercul": 3929,
      "spl": 3930,
      "sple": 3931,
      "knit": 3932,
      "chid": 3933,
      "cominius": 3934,
      "hereford": 3935,
      "blast": 3936,
      "sayest": 3937,
      "##ica": 3938,
      "maria": 3939,
      "mayor": 3940,
      "greek": 3941,
      "disse": 3942,
      "twain": 3943,
      "lepidus": 3944,
      "quench": 3945,
      "breed": 3946,
      "eros": 3947,
      "wrest": 3948,
      "commit": 3949,
      "coz": 3950,
      "slaves": 3951,
      "appet": 3952,
      "apparel": 3953,
      "slept": 3954,
      "stays": 3955,
      "curr": 3956,
      "faithful": 3957,
      "friendly": 3958,
      "human": 3959,
      "welsh": 3960,
      "accuse": 3961,
      "pleasures": 3962,
      "discret": 3963,
      "discont": 3964,
      "strikes": 3965,
      "instruct": 3966,
      "temple": 3967,
      "exped": 3968,
      "angels": 3969,
      "mouths": 3970,
      "defence": 3971,
      "troubl": 3972,
      "destroy": 3973,
      "sacri": 3974,
      "wales": 3975,
      "britain": 3976,
      "envious": 3977,
      "shrewd": 3978,
      "##celot": 3979,
      "arrest": 3980,
      "language": 3981,
      "launcelot": 3982,
      "handkerchief": 3983,
      "withdraw": 3984,
      "hercules": 3985,
      "cade": 3986,
      "diana": 3987,
      "gri": 3988,
      "jup": 3989,
      "mood": 3990,
      "mult": 3991,
      "vantage": 3992,
      "yoke": 3993,
      "##action": 3994,
      "thur": 3995,
      "##arch": 3996,
      "shift": 3997,
      "haunt": 3998,
      "front": 3999,
      "trim": 4000,
      "choler": 4001,
      "amiss": 4002,
      "##ously": 4003,
      "##rib": 4004,
      "poet": 4005,
      "aboard": 4006,
      "breach": 4007,
      "err": 4008,
      "otherwise": 4009,
      "##ivia": 4010,
      "coat": 4011,
      "glo": 4012,
      "glove": 4013,
      "##ianus": 4014,
      "##roll": 4015,
      "begg": 4016,
      "began": 4017,
      "remor": 4018,
      "##glas": 4019,
      "paroll": 4020,
      "kindly": 4021,
      "tremble": 4022,
      "##clus": 4023,
      "paul": 4024,
      "douglas": 4025,
      "corp": 4026,
      "advis": 4027,
      "silent": 4028,
      "purposes": 4029,
      "stronger": 4030,
      "biron": 4031,
      "distress": 4032,
      "petition": 4033,
      "term": 4034,
      "commonwe": 4035,
      "incre": 4036,
      "books": 4037,
      "rebell": 4038,
      "immed": 4039,
      "costard": 4040,
      "senses": 4041,
      "circumstance": 4042,
      "combat": 4043,
      "pandarus": 4044,
      "prologue": 4045,
      "pocket": 4046,
      "numbers": 4047,
      "olivia": 4048,
      "jupiter": 4049,
      "thurio": 4050,
      "parolles": 4051,
      "bay": 4052,
      "kin": 4053,
      "lent": 4054,
      "oak": 4055,
      "sought": 4056,
      "tall": 4057,
      "##ok": 4058,
      "##gues": 4059,
      "##leness": 4060,
      "##hem": 4061,
      "thrown": 4062,
      "##anny": 4063,
      "whit": 4064,
      "##ldom": 4065,
      "##irt": 4066,
      "##itch": 4067,
      "store": 4068,
      "soc": 4069,
      "lift": 4070,
      "willingly": 4071,
      "sup": 4072,
      "##ouses": 4073,
      "##umer": 4074,
      "sebast": 4075,
      "marvel": 4076,
      "also": 4077,
      "##ortion": 4078,
      "godd": 4079,
      "##edom": 4080,
      "serves": 4081,
      "fairer": 4082,
      "partly": 4083,
      "##roclus": 4084,
      "remove": 4085,
      "pursue": 4086,
      "merchant": 4087,
      "harsh": 4088,
      "younger": 4089,
      "courtier": 4090,
      "passage": 4091,
      "patroclus": 4092,
      "substance": 4093,
      "cares": 4094,
      "pleasant": 4095,
      "laws": 4096,
      "advent": 4097,
      "wishes": 4098,
      "provide": 4099,
      "skin": 4100,
      "gait": 4101,
      "hostess": 4102,
      "beasts": 4103,
      "detest": 4104,
      "groans": 4105,
      "savage": 4106,
      "leonatus": 4107,
      "huge": 4108,
      "miserable": 4109,
      "disguis": 4110,
      "dignity": 4111,
      "wondrous": 4112,
      "italy": 4113,
      "##beline": 4114,
      "cymbeline": 4115,
      "journey": 4116,
      "sacrif": 4117,
      "immediate": 4118,
      "sebastian": 4119,
      "bio": 4120,
      "bud": 4121,
      "je": 4122,
      "lat": 4123,
      "luck": 4124,
      "moral": 4125,
      "oh": 4126,
      "sine": 4127,
      "ulys": 4128,
      "ward": 4129,
      "##son": 4130,
      "##mio": 4131,
      "##bow": 4132,
      "##zz": 4133,
      "thing": 4134,
      "##ndello": 4135,
      "wheel": 4136,
      "wholesome": 4137,
      "height": 4138,
      "shown": 4139,
      "frail": 4140,
      "goose": 4141,
      "spit": 4142,
      "##eap": 4143,
      "thereof": 4144,
      "branch": 4145,
      "exchange": 4146,
      "conven": 4147,
      "gremio": 4148,
      "caus": 4149,
      "tooth": 4150,
      "strive": 4151,
      "perp": 4152,
      "adam": 4153,
      "nights": 4154,
      "league": 4155,
      "##iano": 4156,
      "appl": 4157,
      "services": 4158,
      "charg": 4159,
      "slee": 4160,
      "confusion": 4161,
      "villan": 4162,
      "accomp": 4163,
      "diom": 4164,
      "travell": 4165,
      "subd": 4166,
      "coron": 4167,
      "falsehood": 4168,
      "barren": 4169,
      "message": 4170,
      "suppose": 4171,
      "birds": 4172,
      "afford": 4173,
      "calf": 4174,
      "polonius": 4175,
      "milan": 4176,
      "affections": 4177,
      "jealousy": 4178,
      "acquaintance": 4179,
      "tricks": 4180,
      "casca": 4181,
      "stolen": 4182,
      "conference": 4183,
      "##enzo": 4184,
      "creep": 4185,
      "grumio": 4186,
      "lorenzo": 4187,
      "discretion": 4188,
      "goddess": 4189,
      "biondello": 4190,
      "ulysses": 4191,
      "afe": 4192,
      "aumer": 4193,
      "bore": 4194,
      "bot": 4195,
      "bert": 4196,
      "couch": 4197,
      "fret": 4198,
      "jess": 4199,
      "non": 4200,
      "rous": 4201,
      "rum": 4202,
      "ravish": 4203,
      "sins": 4204,
      "zeal": 4205,
      "##ais": 4206,
      "##ole": 4207,
      "##tles": 4208,
      "##lish": 4209,
      "##ubb": 4210,
      "##came": 4211,
      "thers": 4212,
      "thorn": 4213,
      "##ative": 4214,
      "##aries": 4215,
      "toil": 4216,
      "medic": 4217,
      "##urb": 4218,
      "item": 4219,
      "stan": 4220,
      "stamp": 4221,
      "butcher": 4222,
      "dol": 4223,
      "goths": 4224,
      "spurn": 4225,
      "knot": 4226,
      "chase": 4227,
      "##illon": 4228,
      "##antus": 4229,
      "enterprise": 4230,
      "##seless": 4231,
      "arriv": 4232,
      "seize": 4233,
      "##oph": 4234,
      "##emantus": 4235,
      "flat": 4236,
      "design": 4237,
      "bread": 4238,
      "menenius": 4239,
      "cozen": 4240,
      "anti": 4241,
      "hole": 4242,
      "##enstern": 4243,
      "conspir": 4244,
      "beside": 4245,
      "plays": 4246,
      "trees": 4247,
      "travel": 4248,
      "monarch": 4249,
      "earthly": 4250,
      "signs": 4251,
      "exceed": 4252,
      "weeps": 4253,
      "beaut": 4254,
      "depend": 4255,
      "apemantus": 4256,
      "regan": 4257,
      "absolute": 4258,
      "liberal": 4259,
      "urge": 4260,
      "torch": 4261,
      "torment": 4262,
      "redeem": 4263,
      "steph": 4264,
      "bassianus": 4265,
      "dismiss": 4266,
      "rivers": 4267,
      "observe": 4268,
      "persuade": 4269,
      "wolf": 4270,
      "tyranny": 4271,
      "freedom": 4272,
      "gratiano": 4273,
      "nestor": 4274,
      "isabella": 4275,
      "purchase": 4276,
      "climb": 4277,
      "trojan": 4278,
      "serpent": 4279,
      "eternal": 4280,
      "guildenstern": 4281,
      "imprison": 4282,
      "suspic": 4283,
      "sceptre": 4284,
      "saucy": 4285,
      "cloten": 4286,
      "burthen": 4287,
      "appetite": 4288,
      "remorse": 4289,
      "aumerle": 4290,
      "bertram": 4291,
      "thersites": 4292,
      "bount": 4293,
      "cou": 4294,
      "cand": 4295,
      "mow": 4296,
      "pee": 4297,
      "pate": 4298,
      "pull": 4299,
      "tap": 4300,
      "##lain": 4301,
      "##cke": 4302,
      "##za": 4303,
      "##inus": 4304,
      "##rels": 4305,
      "inh": 4306,
      "##iron": 4307,
      "wed": 4308,
      "wept": 4309,
      "stubb": 4310,
      "asse": 4311,
      "rev": 4312,
      "deceive": 4313,
      "##geon": 4314,
      "exper": 4315,
      "##umn": 4316,
      "plac": 4317,
      "scour": 4318,
      "shoulders": 4319,
      "##emper": 4320,
      "abide": 4321,
      "perfection": 4322,
      "error": 4323,
      "dukedom": 4324,
      "merri": 4325,
      "helm": 4326,
      "higher": 4327,
      "players": 4328,
      "pawn": 4329,
      "peas": 4330,
      "subtle": 4331,
      "drew": 4332,
      "attendant": 4333,
      "dispos": 4334,
      "strife": 4335,
      "runn": 4336,
      "fields": 4337,
      "garland": 4338,
      "waters": 4339,
      "wisely": 4340,
      "bravely": 4341,
      "towns": 4342,
      "pitiful": 4343,
      "lusty": 4344,
      "spoil": 4345,
      "satisfaction": 4346,
      "refuse": 4347,
      "innoc": 4348,
      "continue": 4349,
      "vanish": 4350,
      "grandam": 4351,
      "cordelia": 4352,
      "tailor": 4353,
      "fifty": 4354,
      "ireland": 4355,
      "grecian": 4356,
      "spleen": 4357,
      "jessica": 4358,
      "suspicion": 4359,
      "peevish": 4360,
      "stubborn": 4361,
      "nim": 4362,
      "nation": 4363,
      "pace": 4364,
      "rust": 4365,
      "rib": 4366,
      "stern": 4367,
      "siege": 4368,
      "vul": 4369,
      "##oy": 4370,
      "##oes": 4371,
      "##now": 4372,
      "##cce": 4373,
      "##wl": 4374,
      "##eril": 4375,
      "##encon": 4376,
      "fores": 4377,
      "stage": 4378,
      "prat": 4379,
      "suits": 4380,
      "alleg": 4381,
      "troop": 4382,
      "comest": 4383,
      "##ulous": 4384,
      "bohem": 4385,
      "alencon": 4386,
      "score": 4387,
      "cloud": 4388,
      "graves": 4389,
      "strump": 4390,
      "hears": 4391,
      "gently": 4392,
      "##iously": 4393,
      "coff": 4394,
      "couldst": 4395,
      "charac": 4396,
      "drag": 4397,
      "kindr": 4398,
      "lights": 4399,
      "corre": 4400,
      "barbar": 4401,
      "obsc": 4402,
      "palm": 4403,
      "suppos": 4404,
      "supply": 4405,
      "recomp": 4406,
      "fitt": 4407,
      "lately": 4408,
      "leads": 4409,
      "pucell": 4410,
      "stream": 4411,
      "camest": 4412,
      "written": 4413,
      "delicate": 4414,
      "quarter": 4415,
      "##bridge": 4416,
      "penny": 4417,
      "addition": 4418,
      "foreign": 4419,
      "absent": 4420,
      "macd": 4421,
      "possession": 4422,
      "satisfy": 4423,
      "varro": 4424,
      "directly": 4425,
      "obedient": 4426,
      "needful": 4427,
      "cloak": 4428,
      "naples": 4429,
      "torture": 4430,
      "rhyme": 4431,
      "inherit": 4432,
      "privilege": 4433,
      "beheld": 4434,
      "afeard": 4435,
      "pucelle": 4436,
      "ax": 4437,
      "ale": 4438,
      "hatch": 4439,
      "houses": 4440,
      "los": 4441,
      "mask": 4442,
      "nam": 4443,
      "nails": 4444,
      "oph": 4445,
      "pi": 4446,
      "wail": 4447,
      "##aus": 4448,
      "##aunt": 4449,
      "##rid": 4450,
      "##hrew": 4451,
      "##cise": 4452,
      "##orough": 4453,
      "##lly": 4454,
      "andrew": 4455,
      "##isons": 4456,
      "##isible": 4457,
      "##aniel": 4458,
      "##asp": 4459,
      "shy": 4460,
      "shook": 4461,
      "shield": 4462,
      "shapes": 4463,
      "forty": 4464,
      "notice": 4465,
      "aspect": 4466,
      "thisby": 4467,
      "price": 4468,
      "soil": 4469,
      "dozen": 4470,
      "liqu": 4471,
      "##eek": 4472,
      "succe": 4473,
      "spy": 4474,
      "space": 4475,
      "load": 4476,
      "##otion": 4477,
      "alc": 4478,
      "scur": 4479,
      "scru": 4480,
      "shoulder": 4481,
      "grew": 4482,
      "caught": 4483,
      "lap": 4484,
      "grands": 4485,
      "flout": 4486,
      "warri": 4487,
      "advers": 4488,
      "commons": 4489,
      "##issa": 4490,
      "crest": 4491,
      "countess": 4492,
      "beshrew": 4493,
      "curses": 4494,
      "parley": 4495,
      "value": 4496,
      "accurs": 4497,
      "peer": 4498,
      "kills": 4499,
      "fares": 4500,
      "feat": 4501,
      "corse": 4502,
      "lovest": 4503,
      "commands": 4504,
      "joyful": 4505,
      "burst": 4506,
      "beauteous": 4507,
      "apoll": 4508,
      "strew": 4509,
      "petty": 4510,
      "venom": 4511,
      "jewels": 4512,
      "estim": 4513,
      "visage": 4514,
      "interp": 4515,
      "interest": 4516,
      "hairs": 4517,
      "defy": 4518,
      "invisible": 4519,
      "resolution": 4520,
      "humours": 4521,
      "famous": 4522,
      "easily": 4523,
      "ships": 4524,
      "athen": 4525,
      "ancest": 4526,
      "forswear": 4527,
      "prospero": 4528,
      "destruction": 4529,
      "conclusion": 4530,
      "octavia": 4531,
      "conceal": 4532,
      "audience": 4533,
      "befall": 4534,
      "beware": 4535,
      "daily": 4536,
      "cherish": 4537,
      "eagle": 4538,
      "goneril": 4539,
      "pronounce": 4540,
      "censure": 4541,
      "discharge": 4542,
      "nerissa": 4543,
      "strumpet": 4544,
      "macduff": 4545,
      "ophelia": 4546,
      "ber": 4547,
      "dut": 4548,
      "dum": 4549,
      "dame": 4550,
      "ferd": 4551,
      "gid": 4552,
      "hom": 4553,
      "lin": 4554,
      "mile": 4555,
      "nar": 4556,
      "obl": 4557,
      "patch": 4558,
      "pierce": 4559,
      "rate": 4560,
      "tum": 4561,
      "##rude": 4562,
      "##ially": 4563,
      "##vest": 4564,
      "##upt": 4565,
      "##inand": 4566,
      "beth": 4567,
      "##sell": 4568,
      "spread": 4569,
      "howl": 4570,
      "theirs": 4571,
      "board": 4572,
      "sembl": 4573,
      "seldom": 4574,
      "##ries": 4575,
      "outl": 4576,
      "ago": 4577,
      "twould": 4578,
      "##ioch": 4579,
      "descri": 4580,
      "perf": 4581,
      "robert": 4582,
      "slay": 4583,
      "antioch": 4584,
      "preserve": 4585,
      "remov": 4586,
      "repr": 4587,
      "nothing": 4588,
      "pursu": 4589,
      "elbow": 4590,
      "curst": 4591,
      "park": 4592,
      "##clam": 4593,
      "##forc": 4594,
      "bank": 4595,
      "suffic": 4596,
      "misc": 4597,
      "ope": 4598,
      "happily": 4599,
      "phr": 4600,
      "##rantz": 4601,
      "joys": 4602,
      "lesser": 4603,
      "aug": 4604,
      "clean": 4605,
      "tyre": 4606,
      "proportion": 4607,
      "sitt": 4608,
      "cheque": 4609,
      "terror": 4610,
      "divide": 4611,
      "rosenc": 4612,
      "cowards": 4613,
      "severally": 4614,
      "##prus": 4615,
      "conquest": 4616,
      "steps": 4617,
      "robin": 4618,
      "conclude": 4619,
      "steward": 4620,
      "stocks": 4621,
      "westmore": 4622,
      "extremity": 4623,
      "preparation": 4624,
      "example": 4625,
      "assurance": 4626,
      "digest": 4627,
      "treacherous": 4628,
      "filth": 4629,
      "cyprus": 4630,
      "apparent": 4631,
      "conjure": 4632,
      "rapier": 4633,
      "whoreson": 4634,
      "discontent": 4635,
      "stanley": 4636,
      "bohemia": 4637,
      "ferdinand": 4638,
      "rosencrantz": 4639,
      "westmoreland": 4640,
      "aunt": 4641,
      "danc": 4642,
      "fif": 4643,
      "gild": 4644,
      "lower": 4645,
      "ora": 4646,
      "push": 4647,
      "rouse": 4648,
      "tick": 4649,
      "vous": 4650,
      "wot": 4651,
      "##teen": 4652,
      "##rust": 4653,
      "##uish": 4654,
      "##eral": 4655,
      "##erman": 4656,
      "##arm": 4657,
      "token": 4658,
      "inward": 4659,
      "injury": 4660,
      "hey": 4661,
      "share": 4662,
      "shines": 4663,
      "##chor": 4664,
      "week": 4665,
      "##enton": 4666,
      "##omed": 4667,
      "frank": 4668,
      "deaf": 4669,
      "##ione": 4670,
      "troops": 4671,
      "manhood": 4672,
      "orch": 4673,
      "unjust": 4674,
      "theme": 4675,
      "box": 4676,
      "seiz": 4677,
      "aloud": 4678,
      "scatter": 4679,
      "##ortal": 4680,
      "clamour": 4681,
      "awak": 4682,
      "rod": 4683,
      "moons": 4684,
      "county": 4685,
      "##ival": 4686,
      "coin": 4687,
      "coast": 4688,
      "beget": 4689,
      "begun": 4690,
      "newly": 4691,
      "bidd": 4692,
      "accident": 4693,
      "overth": 4694,
      "farther": 4695,
      "husbands": 4696,
      "feather": 4697,
      "lightn": 4698,
      "breaks": 4699,
      "beats": 4700,
      "messal": 4701,
      "bait": 4702,
      "kingly": 4703,
      "sisters": 4704,
      "terrible": 4705,
      "gaz": 4706,
      "despis": 4707,
      "cred": 4708,
      "actions": 4709,
      "alarums": 4710,
      "bleed": 4711,
      "##grim": 4712,
      "##spur": 4713,
      "government": 4714,
      "rosaline": 4715,
      "##aws": 4716,
      "schol": 4717,
      "immortal": 4718,
      "throats": 4719,
      "transform": 4720,
      "fleet": 4721,
      "wolsey": 4722,
      "windsor": 4723,
      "virginity": 4724,
      "potent": 4725,
      "imagination": 4726,
      "weapon": 4727,
      "deceit": 4728,
      "prophet": 4729,
      "pilgrim": 4730,
      "viii": 4731,
      "ceremony": 4732,
      "closet": 4733,
      "scratch": 4734,
      "rescue": 4735,
      "clerk": 4736,
      "syracuse": 4737,
      "##soever": 4738,
      "behavior": 4739,
      "inquire": 4740,
      "increase": 4741,
      "appla": 4742,
      "recompense": 4743,
      "axe": 4744,
      "shylock": 4745,
      "grandsire": 4746,
      "oracle": 4747,
      "cent": 4748,
      "dian": 4749,
      "gert": 4750,
      "jun": 4751,
      "ming": 4752,
      "nun": 4753,
      "oce": 4754,
      "ris": 4755,
      "sands": 4756,
      "tun": 4757,
      "yellow": 4758,
      "##gress": 4759,
      "##par": 4760,
      "##ule": 4761,
      "##ughter": 4762,
      "##cute": 4763,
      "##kind": 4764,
      "##wife": 4765,
      "##onst": 4766,
      "bee": 4767,
      "sham": 4768,
      "shun": 4769,
      "##uts": 4770,
      "meas": 4771,
      "medd": 4772,
      "##itius": 4773,
      "sty": 4774,
      "stopp": 4775,
      "liver": 4776,
      "likes": 4777,
      "wills": 4778,
      "reve": 4779,
      "whate": 4780,
      "sue": 4781,
      "##ours": 4782,
      "chat": 4783,
      "mant": 4784,
      "##unch": 4785,
      "conceive": 4786,
      "herein": 4787,
      "seeks": 4788,
      "worcester": 4789,
      "lev": 4790,
      "laughter": 4791,
      "grass": 4792,
      "pole": 4793,
      "warn": 4794,
      "perjur": 4795,
      "##eless": 4796,
      "counsell": 4797,
      "##iable": 4798,
      "begot": 4799,
      "mercut": 4800,
      "indeed": 4801,
      "guide": 4802,
      "belch": 4803,
      "throng": 4804,
      "##ierc": 4805,
      "afterno": 4806,
      "diomed": 4807,
      "matters": 4808,
      "justly": 4809,
      "dispose": 4810,
      "thankful": 4811,
      "praises": 4812,
      "advanc": 4813,
      "barg": 4814,
      "senseless": 4815,
      "signify": 4816,
      "titinius": 4817,
      "strongly": 4818,
      "yester": 4819,
      "distemper": 4820,
      "apace": 4821,
      "infirm": 4822,
      "certainly": 4823,
      "##lete": 4824,
      "points": 4825,
      "pays": 4826,
      "divor": 4827,
      "event": 4828,
      "snatch": 4829,
      "chamberlain": 4830,
      "thirty": 4831,
      "veins": 4832,
      "prosperous": 4833,
      "philos": 4834,
      "redress": 4835,
      "hermione": 4836,
      "merely": 4837,
      "##body": 4838,
      "eldest": 4839,
      "hungry": 4840,
      "instruments": 4841,
      "stabb": 4842,
      "dote": 4843,
      "opposite": 4844,
      "isabel": 4845,
      "domitius": 4846,
      "greeks": 4847,
      "apprehend": 4848,
      "jaques": 4849,
      "intelligence": 4850,
      "paulina": 4851,
      "perpet": 4852,
      "villanous": 4853,
      "allegiance": 4854,
      "apollo": 4855,
      "fifth": 4856,
      "orchard": 4857,
      "gertrude": 4858,
      "mercutio": 4859,
      "afternoon": 4860,
      "bere": 4861,
      "cin": 4862,
      "cudge": 4863,
      "dat": 4864,
      "dine": 4865,
      "egg": 4866,
      "fenton": 4867,
      "lines": 4868,
      "mas": 4869,
      "net": 4870,
      "rack": 4871,
      "tig": 4872,
      "yon": 4873,
      "##some": 4874,
      "##bian": 4875,
      "##last": 4876,
      "##atic": 4877,
      "##inent": 4878,
      "##cet": 4879,
      "##uss": 4880,
      "steep": 4881,
      "stale": 4882,
      "##adle": 4883,
      "willow": 4884,
      "##eedy": 4885,
      "rend": 4886,
      "enf": 4887,
      "deck": 4888,
      "##andal": 4889,
      "trench": 4890,
      "ourself": 4891,
      "thereby": 4892,
      "manif": 4893,
      "brown": 4894,
      "##unken": 4895,
      "exh": 4896,
      "exile": 4897,
      "##ille": 4898,
      "unre": 4899,
      "thane": 4900,
      "##ular": 4901,
      "##ulate": 4902,
      "blue": 4903,
      "swears": 4904,
      "##icit": 4905,
      "likewise": 4906,
      "##ripp": 4907,
      "everlast": 4908,
      "##ipl": 4909,
      "offices": 4910,
      "##quish": 4911,
      "adri": 4912,
      "wrink": 4913,
      "##angl": 4914,
      "leav": 4915,
      "sweetly": 4916,
      "dropp": 4917,
      "drunken": 4918,
      "cox": 4919,
      "mightst": 4920,
      "repose": 4921,
      "purs": 4922,
      "harbour": 4923,
      "helic": 4924,
      "natures": 4925,
      "endea": 4926,
      "consum": 4927,
      "resign": 4928,
      "access": 4929,
      "horrible": 4930,
      "tax": 4931,
      "subsc": 4932,
      "barn": 4933,
      "youthful": 4934,
      "strangely": 4935,
      "titan": 4936,
      "voy": 4937,
      "royalty": 4938,
      "metal": 4939,
      "mettle": 4940,
      "provid": 4941,
      "disturb": 4942,
      "ruff": 4943,
      "gaze": 4944,
      "require": 4945,
      "requite": 4946,
      "evils": 4947,
      "sufferance": 4948,
      "claudius": 4949,
      "weakness": 4950,
      "create": 4951,
      "verona": 4952,
      "##pris": 4953,
      "kingdoms": 4954,
      "miracle": 4955,
      "makest": 4956,
      "safely": 4957,
      "eleven": 4958,
      "secrets": 4959,
      "rebels": 4960,
      "publius": 4961,
      "effects": 4962,
      "governor": 4963,
      "vols": 4964,
      "owes": 4965,
      "walks": 4966,
      "complain": 4967,
      "turk": 4968,
      "asham": 4969,
      "cressida": 4970,
      "loyalty": 4971,
      "inclin": 4972,
      "determine": 4973,
      "imperial": 4974,
      "beguile": 4975,
      "scotland": 4976,
      "invention": 4977,
      "rejoice": 4978,
      "commonwealth": 4979,
      "stephano": 4980,
      "scurvy": 4981,
      "athenian": 4982,
      "giddy": 4983,
      "##clamation": 4984,
      "messala": 4985,
      "yesterday": 4986,
      "cop": 4987,
      "es": 4988,
      "game": 4989,
      "gower": 4990,
      "mich": 4991,
      "nourish": 4992,
      "nym": 4993,
      "ought": 4994,
      "pite": 4995,
      "sith": 4996,
      "tir": 4997,
      "tush": 4998,
      "vault": 4999,
      "wore": 5000,
      "##dl": 5001,
      "##ead": 5002,
      "##oon": 5003,
      "##col": 5004,
      "thread": 5005,
      "thorough": 5006,
      "##ese": 5007,
      "##incul": 5008,
      "beds": 5009,
      "beams": 5010,
      "hec": 5011,
      "##itic": 5012,
      "stum": 5013,
      "hist": 5014,
      "dove": 5015,
      "lions": 5016,
      "##athe": 5017,
      "##rage": 5018,
      "sugg": 5019,
      "spect": 5020,
      "lodge": 5021,
      "trunk": 5022,
      "trincul": 5023,
      "chap": 5024,
      "##illy": 5025,
      "amend": 5026,
      "swain": 5027,
      "##icle": 5028,
      "##ication": 5029,
      "marvell": 5030,
      "alto": 5031,
      "agripp": 5032,
      "disease": 5033,
      "laur": 5034,
      "process": 5035,
      "serious": 5036,
      "betimes": 5037,
      "##outs": 5038,
      "moth": 5039,
      "moves": 5040,
      "##aph": 5041,
      "##ullus": 5042,
      "##ossom": 5043,
      "contents": 5044,
      "reply": 5045,
      "keeper": 5046,
      "following": 5047,
      "sett": 5048,
      "believ": 5049,
      "courteous": 5050,
      "woful": 5051,
      "brace": 5052,
      "retreat": 5053,
      "rightly": 5054,
      "divers": 5055,
      "fever": 5056,
      "discipl": 5057,
      "busy": 5058,
      "lucio": 5059,
      "phe": 5060,
      "clapp": 5061,
      "prompt": 5062,
      "promises": 5063,
      "entr": 5064,
      "baw": 5065,
      "depos": 5066,
      "deputy": 5067,
      "distract": 5068,
      "rug": 5069,
      "craves": 5070,
      "burns": 5071,
      "writes": 5072,
      "sovereignty": 5073,
      "bosoms": 5074,
      "beggars": 5075,
      "tribute": 5076,
      "mutiny": 5077,
      "qualities": 5078,
      "shadows": 5079,
      "conclud": 5080,
      "carries": 5081,
      "reignier": 5082,
      "owl": 5083,
      "forsake": 5084,
      "instantly": 5085,
      "conditions": 5086,
      "meantime": 5087,
      "boots": 5088,
      "disguise": 5089,
      "wager": 5090,
      "treachery": 5091,
      "beguil": 5092,
      "trifle": 5093,
      "abhorr": 5094,
      "pearl": 5095,
      "doublet": 5096,
      "adventure": 5097,
      "convenient": 5098,
      "nimble": 5099,
      "phrase": 5100,
      "ocean": 5101,
      "coxcom": 5102,
      "suggest": 5103,
      "altogether": 5104,
      "agrippa": 5105,
      "ack": 5106,
      "batter": 5107,
      "cel": 5108,
      "dst": 5109,
      "dil": 5110,
      "goss": 5111,
      "german": 5112,
      "hose": 5113,
      "jes": 5114,
      "lark": 5115,
      "linger": 5116,
      "mor": 5117,
      "pest": 5118,
      "pul": 5119,
      "pop": 5120,
      "ug": 5121,
      "##sion": 5122,
      "##ger": 5123,
      "##master": 5124,
      "##mark": 5125,
      "##bers": 5126,
      "##light": 5127,
      "##father": 5128,
      "threw": 5129,
      "##osen": 5130,
      "##oster": 5131,
      "##ndower": 5132,
      "##esp": 5133,
      "##arius": 5134,
      "shak": 5135,
      "shade": 5136,
      "stout": 5137,
      "liken": 5138,
      "livery": 5139,
      "frost": 5140,
      "rear": 5141,
      "rece": 5142,
      "enforc": 5143,
      "defe": 5144,
      "##stone": 5145,
      "exer": 5146,
      "orn": 5147,
      "amends": 5148,
      "fact": 5149,
      "conjur": 5150,
      "consequ": 5151,
      "une": 5152,
      "##ateful": 5153,
      "likely": 5154,
      "whereon": 5155,
      "madman": 5156,
      "scope": 5157,
      "agree": 5158,
      "diseas": 5159,
      "somewh": 5160,
      "##igent": 5161,
      "flint": 5162,
      "evermore": 5163,
      "strat": 5164,
      "commod": 5165,
      "##ivity": 5166,
      "slipp": 5167,
      "preced": 5168,
      "compar": 5169,
      "contain": 5170,
      "indign": 5171,
      "putt": 5172,
      "endur": 5173,
      "crom": 5174,
      "devour": 5175,
      "impress": 5176,
      "hourly": 5177,
      "curt": 5178,
      "afterward": 5179,
      "mothers": 5180,
      "trembl": 5181,
      "forthwith": 5182,
      "##ixenes": 5183,
      "denmark": 5184,
      "instance": 5185,
      "instruction": 5186,
      "burden": 5187,
      "doubtful": 5188,
      "recre": 5189,
      "infant": 5190,
      "terr": 5191,
      "##acles": 5192,
      "wonderful": 5193,
      "approve": 5194,
      "roses": 5195,
      "softly": 5196,
      "oppose": 5197,
      "penit": 5198,
      "direction": 5199,
      "polixenes": 5200,
      "heirs": 5201,
      "keen": 5202,
      "kneels": 5203,
      "groom": 5204,
      "limit": 5205,
      "rebu": 5206,
      "conqueror": 5207,
      "sixth": 5208,
      "insol": 5209,
      "vanquish": 5210,
      "neighbours": 5211,
      "bedford": 5212,
      "venture": 5213,
      "complaint": 5214,
      "iras": 5215,
      "ministers": 5216,
      "alexander": 5217,
      "grievous": 5218,
      "miseries": 5219,
      "babes": 5220,
      "porter": 5221,
      "afflict": 5222,
      "glendower": 5223,
      "reproach": 5224,
      "dowry": 5225,
      "current": 5226,
      "rebellion": 5227,
      "society": 5228,
      "sleeve": 5229,
      "bottle": 5230,
      "medicine": 5231,
      "narrow": 5232,
      "mantua": 5233,
      "diomedes": 5234,
      "voyage": 5235,
      "trinculo": 5236,
      "laurence": 5237,
      "phebe": 5238,
      "rugby": 5239,
      "ugly": 5240,
      "bul": 5241,
      "cer": 5242,
      "gn": 5243,
      "hounds": 5244,
      "il": 5245,
      "jer": 5246,
      "les": 5247,
      "len": 5248,
      "mould": 5249,
      "nupt": 5250,
      "path": 5251,
      "peep": 5252,
      "pierc": 5253,
      "rar": 5254,
      "rhe": 5255,
      "rites": 5256,
      "tars": 5257,
      "vers": 5258,
      "##ael": 5259,
      "##avery": 5260,
      "##sino": 5261,
      "##ris": 5262,
      "##ipt": 5263,
      "##iades": 5264,
      "##gen": 5265,
      "##nicious": 5266,
      "##vil": 5267,
      "##bation": 5268,
      "##bishop": 5269,
      "##port": 5270,
      "##inary": 5271,
      "nod": 5272,
      "whereto": 5273,
      "wipe": 5274,
      "##omf": 5275,
      "became": 5276,
      "mys": 5277,
      "forms": 5278,
      "its": 5279,
      "enr": 5280,
      "deform": 5281,
      "##anders": 5282,
      "trip": 5283,
      "chiron": 5284,
      "chosen": 5285,
      "nept": 5286,
      "goods": 5287,
      "manage": 5288,
      "upright": 5289,
      "brid": 5290,
      "orsino": 5291,
      "amorous": 5292,
      "lets": 5293,
      "##feder": 5294,
      "fawn": 5295,
      "fabian": 5296,
      "conv": 5297,
      "converse": 5298,
      "confeder": 5299,
      "block": 5300,
      "blaz": 5301,
      "bonds": 5302,
      "sed": 5303,
      "works": 5304,
      "plains": 5305,
      "agre": 5306,
      "poins": 5307,
      "proclamation": 5308,
      "strokes": 5309,
      "offences": 5310,
      "pernicious": 5311,
      "deaths": 5312,
      "slip": 5313,
      "compound": 5314,
      "contend": 5315,
      "preserv": 5316,
      "##liament": 5317,
      "purg": 5318,
      "execute": 5319,
      "mistak": 5320,
      "charms": 5321,
      "sets": 5322,
      "riches": 5323,
      "belarius": 5324,
      "fortunate": 5325,
      "youngest": 5326,
      "answers": 5327,
      "resist": 5328,
      "parent": 5329,
      "parliament": 5330,
      "passes": 5331,
      "brab": 5332,
      "backs": 5333,
      "acts": 5334,
      "feign": 5335,
      "##ably": 5336,
      "strict": 5337,
      "nearer": 5338,
      "##ibiades": 5339,
      "careful": 5340,
      "burial": 5341,
      "comforts": 5342,
      "recon": 5343,
      "distance": 5344,
      "ape": 5345,
      "lads": 5346,
      "explo": 5347,
      "affright": 5348,
      "sadness": 5349,
      "fourteen": 5350,
      "champ": 5351,
      "##shire": 5352,
      "surfeit": 5353,
      "incens": 5354,
      "salute": 5355,
      "tales": 5356,
      "##bray": 5357,
      "throws": 5358,
      "flattery": 5359,
      "knocks": 5360,
      "forehead": 5361,
      "bowels": 5362,
      "election": 5363,
      "##ursions": 5364,
      "philip": 5365,
      "decay": 5366,
      "continu": 5367,
      "corioli": 5368,
      "beneath": 5369,
      "hunger": 5370,
      "imagine": 5371,
      "cuckoo": 5372,
      "sensible": 5373,
      "stabs": 5374,
      "physician": 5375,
      "guests": 5376,
      "funeral": 5377,
      "archbishop": 5378,
      "florence": 5379,
      "hinder": 5380,
      "espec": 5381,
      "fantast": 5382,
      "ingrat": 5383,
      "prodigal": 5384,
      "mongst": 5385,
      "ambassador": 5386,
      "expedition": 5387,
      "sacrifice": 5388,
      "sinews": 5389,
      "rousillon": 5390,
      "mowbray": 5391,
      "peasant": 5392,
      "vulgar": 5393,
      "alcibiades": 5394,
      "juno": 5395,
      "bargain": 5396,
      "volsces": 5397,
      "michael": 5398,
      "piteous": 5399,
      "entrance": 5400,
      "acknow": 5401,
      "likeness": 5402,
      "cromwell": 5403,
      "nuptial": 5404,
      "tarsus": 5405,
      "neptune": 5406,
      "bach": 5407,
      "ec": 5408,
      "feed": 5409,
      "hue": 5410,
      "hare": 5411,
      "ju": 5412,
      "jot": 5413,
      "lt": 5414,
      "lun": 5415,
      "mud": 5416,
      "nav": 5417,
      "om": 5418,
      "ost": 5419,
      "obt": 5420,
      "pent": 5421,
      "rut": 5422,
      "roof": 5423,
      "sust": 5424,
      "tents": 5425,
      "vast": 5426,
      "vot": 5427,
      "vass": 5428,
      "wing": 5429,
      "zounds": 5430,
      "##ders": 5431,
      "##dness": 5432,
      "##ez": 5433,
      "##ele": 5434,
      "##ivers": 5435,
      "##gre": 5436,
      "##ney": 5437,
      "##ples": 5438,
      "##co": 5439,
      "##cli": 5440,
      "##wall": 5441,
      "thin": 5442,
      "thrift": 5443,
      "##isp": 5444,
      "##anks": 5445,
      "##omin": 5446,
      "inch": 5447,
      "hedge": 5448,
      "shin": 5449,
      "shores": 5450,
      "haw": 5451,
      "hack": 5452,
      "##led": 5453,
      "notes": 5454,
      "notwith": 5455,
      "##alus": 5456,
      "butter": 5457,
      "enm": 5458,
      "##rand": 5459,
      "##raft": 5460,
      "sugar": 5461,
      "suitor": 5462,
      "spark": 5463,
      "negl": 5464,
      "bru": 5465,
      "amity": 5466,
      "fav": 5467,
      "convers": 5468,
      "unman": 5469,
      "canker": 5470,
      "##umes": 5471,
      "worms": 5472,
      "##ico": 5473,
      "marr": 5474,
      "marsh": 5475,
      "scandal": 5476,
      "##ops": 5477,
      "caps": 5478,
      "cawd": 5479,
      "leont": 5480,
      "grim": 5481,
      "grain": 5482,
      "grieves": 5483,
      "rogues": 5484,
      "##elaus": 5485,
      "dukes": 5486,
      "afoot": 5487,
      "armado": 5488,
      "compare": 5489,
      "fires": 5490,
      "indiff": 5491,
      "dearer": 5492,
      "boyet": 5493,
      "parson": 5494,
      "humbl": 5495,
      "bragg": 5496,
      "rights": 5497,
      "hush": 5498,
      "backward": 5499,
      "diet": 5500,
      "diam": 5501,
      "diest": 5502,
      "assault": 5503,
      "suffice": 5504,
      "hangman": 5505,
      "discord": 5506,
      "mischance": 5507,
      "lays": 5508,
      "soundly": 5509,
      "phoe": 5510,
      "titles": 5511,
      "cleon": 5512,
      "murderous": 5513,
      "touches": 5514,
      "pupp": 5515,
      "infl": 5516,
      "infer": 5517,
      "straw": 5518,
      "gallows": 5519,
      "drinks": 5520,
      "gaoler": 5521,
      "captains": 5522,
      "constr": 5523,
      "embass": 5524,
      "extend": 5525,
      "speeches": 5526,
      "scorns": 5527,
      "politic": 5528,
      "starve": 5529,
      "admit": 5530,
      "admitt": 5531,
      "elements": 5532,
      "rebel": 5533,
      "middle": 5534,
      "departure": 5535,
      "listen": 5536,
      "robes": 5537,
      "walter": 5538,
      "riot": 5539,
      "persuad": 5540,
      "solicit": 5541,
      "profession": 5542,
      "punishment": 5543,
      "alexand": 5544,
      "ratcli": 5545,
      "unkindness": 5546,
      "greece": 5547,
      "concerns": 5548,
      "alban": 5549,
      "superfl": 5550,
      "saturninus": 5551,
      "chastity": 5552,
      "immediately": 5553,
      "merrily": 5554,
      "barbarous": 5555,
      "scruple": 5556,
      "estimation": 5557,
      "dumain": 5558,
      "bethink": 5559,
      "miscar": 5560,
      "scholar": 5561,
      "divorce": 5562,
      "endeavour": 5563,
      "ingratitude": 5564,
      "bachel": 5565,
      "obtain": 5566,
      "notwithstand": 5567,
      "cawdor": 5568,
      "leontes": 5569,
      "indiffer": 5570,
      "ratcliff": 5571,
      "bully": 5572,
      "cook": 5573,
      "dain": 5574,
      "dart": 5575,
      "dors": 5576,
      "dash": 5577,
      "gap": 5578,
      "hun": 5579,
      "hates": 5580,
      "ice": 5581,
      "pir": 5582,
      "rot": 5583,
      "rip": 5584,
      "ross": 5585,
      "tie": 5586,
      "##acious": 5587,
      "##egr": 5588,
      "##ob": 5589,
      "##sin": 5590,
      "##ril": 5591,
      "##bon": 5592,
      "##pers": 5593,
      "##cock": 5594,
      "##thren": 5595,
      "offe": 5596,
      "beau": 5597,
      "##utch": 5598,
      "##chery": 5599,
      "medit": 5600,
      "noter": 5601,
      "##imo": 5602,
      "##imony": 5603,
      "stole": 5604,
      "print": 5605,
      "anoint": 5606,
      "fram": 5607,
      "##ardy": 5608,
      "chin": 5609,
      "##uellen": 5610,
      "faction": 5611,
      "knowest": 5612,
      "bliss": 5613,
      "boat": 5614,
      "boar": 5615,
      "scan": 5616,
      "savour": 5617,
      "flam": 5618,
      "flame": 5619,
      "flock": 5620,
      "fluellen": 5621,
      "pox": 5622,
      "prover": 5623,
      "heap": 5624,
      "breeds": 5625,
      "brethren": 5626,
      "menelaus": 5627,
      "moe": 5628,
      "moder": 5629,
      "adul": 5630,
      "nightly": 5631,
      "coats": 5632,
      "##mph": 5633,
      "cannon": 5634,
      "meanest": 5635,
      "presume": 5636,
      "household": 5637,
      "mistrust": 5638,
      "attends": 5639,
      "smoke": 5640,
      "crook": 5641,
      "imped": 5642,
      "resem": 5643,
      "brawl": 5644,
      "patric": 5645,
      "subst": 5646,
      "surety": 5647,
      "muster": 5648,
      "persons": 5649,
      "##iban": 5650,
      "careless": 5651,
      "intents": 5652,
      "integr": 5653,
      "musicians": 5654,
      "murderers": 5655,
      "prophe": 5656,
      "bounds": 5657,
      "skull": 5658,
      "garment": 5659,
      "##imely": 5660,
      "fourth": 5661,
      "venus": 5662,
      "survey": 5663,
      "surpris": 5664,
      "division": 5665,
      "regent": 5666,
      "eaten": 5667,
      "mocks": 5668,
      "untimely": 5669,
      "quarrels": 5670,
      "achieve": 5671,
      "opport": 5672,
      "labours": 5673,
      "invite": 5674,
      "harmony": 5675,
      "troubles": 5676,
      "##gnant": 5677,
      "broad": 5678,
      "hideous": 5679,
      "excursions": 5680,
      "briefly": 5681,
      "corner": 5682,
      "cornwall": 5683,
      "bondage": 5684,
      "bolt": 5685,
      "carriage": 5686,
      "varlet": 5687,
      "dismal": 5688,
      "river": 5689,
      "deserts": 5690,
      "guiltless": 5691,
      "nobler": 5692,
      "strangers": 5693,
      "affliction": 5694,
      "ceremon": 5695,
      "dissol": 5696,
      "impatient": 5697,
      "split": 5698,
      "corporal": 5699,
      "experience": 5700,
      "innocence": 5701,
      "liquor": 5702,
      "ancestors": 5703,
      "semblance": 5704,
      "sufficient": 5705,
      "meddle": 5706,
      "perpetual": 5707,
      "helicanus": 5708,
      "marvellous": 5709,
      "coxcomb": 5710,
      "pestil": 5711,
      "verses": 5712,
      "indifferent": 5713,
      "dainty": 5714,
      "dorset": 5715,
      "bone": 5716,
      "balth": 5717,
      "dion": 5718,
      "dower": 5719,
      "drows": 5720,
      "fan": 5721,
      "fem": 5722,
      "fount": 5723,
      "gun": 5724,
      "hood": 5725,
      "lur": 5726,
      "latter": 5727,
      "mum": 5728,
      "ny": 5729,
      "pang": 5730,
      "pope": 5731,
      "ring": 5732,
      "rud": 5733,
      "rab": 5734,
      "ragg": 5735,
      "sand": 5736,
      "vig": 5737,
      "##oft": 5738,
      "##iard": 5739,
      "##iot": 5740,
      "##iction": 5741,
      "##nes": 5742,
      "##mission": 5743,
      "##ux": 5744,
      "##cip": 5745,
      "##wart": 5746,
      "##fast": 5747,
      "##oubt": 5748,
      "##isc": 5749,
      "##isement": 5750,
      "##ares": 5751,
      "toad": 5752,
      "tonight": 5753,
      "##iner": 5754,
      "nobody": 5755,
      "beque": 5756,
      "heinous": 5757,
      "##asions": 5758,
      "shoes": 5759,
      "haven": 5760,
      "##alty": 5761,
      "butt": 5762,
      "##ida": 5763,
      "##amy": 5764,
      "##order": 5765,
      "fray": 5766,
      "reap": 5767,
      "defect": 5768,
      "##verty": 5769,
      "##rag": 5770,
      "sung": 5771,
      "trow": 5772,
      "tresp": 5773,
      "cheap": 5774,
      "neat": 5775,
      "manly": 5776,
      "mankind": 5777,
      "##unity": 5778,
      "shel": 5779,
      "moreover": 5780,
      "blot": 5781,
      "lovell": 5782,
      "##inder": 5783,
      "##icer": 5784,
      "plan": 5785,
      "alt": 5786,
      "aloof": 5787,
      "aloft": 5788,
      "outrage": 5789,
      "sails": 5790,
      "level": 5791,
      "flav": 5792,
      "grove": 5793,
      "poverty": 5794,
      "abbey": 5795,
      "awe": 5796,
      "perd": 5797,
      "perjury": 5798,
      "robe": 5799,
      "rocks": 5800,
      "ado": 5801,
      "##angers": 5802,
      "commends": 5803,
      "hasty": 5804,
      "sweetest": 5805,
      "##oult": 5806,
      "male": 5807,
      "slumber": 5808,
      "afar": 5809,
      "serving": 5810,
      "complete": 5811,
      "longav": 5812,
      "mistook": 5813,
      "harvest": 5814,
      "lief": 5815,
      "richer": 5816,
      "confident": 5817,
      "cram": 5818,
      "fallen": 5819,
      "treasons": 5820,
      "retires": 5821,
      "horror": 5822,
      "farth": 5823,
      "powerful": 5824,
      "majest": 5825,
      "judas": 5826,
      "revenue": 5827,
      "bald": 5828,
      "countryman": 5829,
      "provoke": 5830,
      "ladder": 5831,
      "frenchmen": 5832,
      "watery": 5833,
      "malcol": 5834,
      "evans": 5835,
      "embrac": 5836,
      "approv": 5837,
      "despise": 5838,
      "legions": 5839,
      "caliban": 5840,
      "relish": 5841,
      "simpl": 5842,
      "milford": 5843,
      "violence": 5844,
      "volumn": 5845,
      "destiny": 5846,
      "fellowship": 5847,
      "cruelty": 5848,
      "frowns": 5849,
      "vanity": 5850,
      "stead": 5851,
      "drift": 5852,
      "wenches": 5853,
      "expectation": 5854,
      "holp": 5855,
      "holid": 5856,
      "##boys": 5857,
      "bootless": 5858,
      "extreme": 5859,
      "maine": 5860,
      "employment": 5861,
      "audrey": 5862,
      "alexas": 5863,
      "feeble": 5864,
      "baby": 5865,
      "duncan": 5866,
      "escape": 5867,
      "sicinius": 5868,
      "gonz": 5869,
      "merciful": 5870,
      "procure": 5871,
      "religious": 5872,
      "dissembl": 5873,
      "##ophy": 5874,
      "character": 5875,
      "duties": 5876,
      "description": 5877,
      "reproof": 5878,
      "filthy": 5879,
      "cinna": 5880,
      "history": 5881,
      "exercise": 5882,
      "consequence": 5883,
      "somewhat": 5884,
      "commodity": 5885,
      "rheum": 5886,
      "enrich": 5887,
      "especially": 5888,
      "sustain": 5889,
      "enmity": 5890,
      "marshal": 5891,
      "alexandria": 5892,
      "patricians": 5893,
      "integrity": 5894,
      "nymph": 5895,
      "trespass": 5896,
      "flavius": 5897,
      "longaville": 5898,
      "malcolm": 5899,
      "balm": 5900,
      "cull": 5901,
      "cesar": 5902,
      "crows": 5903,
      "date": 5904,
      "dangers": 5905,
      "fow": 5906,
      "hire": 5907,
      "iach": 5908,
      "lan": 5909,
      "lame": 5910,
      "lute": 5911,
      "nigh": 5912,
      "pem": 5913,
      "ram": 5914,
      "rue": 5915,
      "##dly": 5916,
      "##oqu": 5917,
      "##non": 5918,
      "##med": 5919,
      "##vir": 5920,
      "##vius": 5921,
      "##hine": 5922,
      "##cer": 5923,
      "##yard": 5924,
      "thereto": 5925,
      "noon": 5926,
      "whist": 5927,
      "##vet": 5928,
      "inn": 5929,
      "infection": 5930,
      "heal": 5931,
      "haught": 5932,
      "##itive": 5933,
      "stake": 5934,
      "stuck": 5935,
      "stiff": 5936,
      "##advent": 5937,
      "##ales": 5938,
      "lic": 5939,
      "##aments": 5940,
      "fro": 5941,
      "ens": 5942,
      "enl": 5943,
      "speedy": 5944,
      "##ardine": 5945,
      "knavery": 5946,
      "chest": 5947,
      "choke": 5948,
      "mantle": 5949,
      "##unate": 5950,
      "exact": 5951,
      "sheets": 5952,
      "##feu": 5953,
      "##inguish": 5954,
      "blank": 5955,
      "swim": 5956,
      "sweep": 5957,
      "sex": 5958,
      "mariana": 5959,
      "plent": 5960,
      "plag": 5961,
      "dislike": 5962,
      "laz": 5963,
      "lafeu": 5964,
      "abate": 5965,
      "offers": 5966,
      "desol": 5967,
      "menas": 5968,
      "perse": 5969,
      "article": 5970,
      "##endom": 5971,
      "pledge": 5972,
      "cob": 5973,
      "##room": 5974,
      "repeal": 5975,
      "repeat": 5976,
      "##lihood": 5977,
      "purge": 5978,
      "undergo": 5979,
      "settl": 5980,
      "consort": 5981,
      "devis": 5982,
      "devotion": 5983,
      "restor": 5984,
      "restore": 5985,
      "parents": 5986,
      "falcon": 5987,
      "horrid": 5988,
      "taunt": 5989,
      "carr": 5990,
      "carp": 5991,
      "displ": 5992,
      "corin": 5993,
      "silk": 5994,
      "silvius": 5995,
      "sennet": 5996,
      "purpos": 5997,
      "obst": 5998,
      "blessings": 5999,
      "suppl": 6000,
      "suppli": 6001,
      "provok": 6002,
      "rub": 6003,
      "sights": 6004,
      "trusty": 6005,
      "waves": 6006,
      "##upon": 6007,
      "hotspur": 6008,
      "suitors": 6009,
      "summ": 6010,
      "messengers": 6011,
      "relent": 6012,
      "penance": 6013,
      "excellence": 6014,
      "vernon": 6015,
      "beginn": 6016,
      "address": 6017,
      "christendom": 6018,
      "beastly": 6019,
      "miles": 6020,
      "famish": 6021,
      "utmost": 6022,
      "unwill": 6023,
      "control": 6024,
      "practis": 6025,
      "philipp": 6026,
      "safer": 6027,
      "demands": 6028,
      "shrie": 6029,
      "transport": 6030,
      "grossly": 6031,
      "driven": 6032,
      "sailors": 6033,
      "delights": 6034,
      "persuasion": 6035,
      "tyrann": 6036,
      "necessary": 6037,
      "grandfather": 6038,
      "debts": 6039,
      "ashes": 6040,
      "dwells": 6041,
      "whispers": 6042,
      "noblest": 6043,
      "prophesy": 6044,
      "purchas": 6045,
      "ballad": 6046,
      "finish": 6047,
      "magic": 6048,
      "fulvia": 6049,
      "unseen": 6050,
      "impatience": 6051,
      "collect": 6052,
      "injuries": 6053,
      "multitude": 6054,
      "coronation": 6055,
      "bounteous": 6056,
      "candle": 6057,
      "correction": 6058,
      "antiochus": 6059,
      "moonshine": 6060,
      "counsellor": 6061,
      "bereft": 6062,
      "manifest": 6063,
      "barnardine": 6064,
      "titania": 6065,
      "defeat": 6066,
      "precedent": 6067,
      "mystery": 6068,
      "brabant": 6069,
      "acknowledge": 6070,
      "rutland": 6071,
      "phoebus": 6072,
      "noterbury": 6073,
      "bequeath": 6074,
      "cesario": 6075,
      "iachimo": 6076,
      "pembroke": 6077,
      "aut": 6078,
      "cro": 6079,
      "celia": 6080,
      "casket": 6081,
      "eli": 6082,
      "eats": 6083,
      "fert": 6084,
      "gor": 6085,
      "gam": 6086,
      "gorge": 6087,
      "lart": 6088,
      "lime": 6089,
      "mouse": 6090,
      "muff": 6091,
      "osw": 6092,
      "pence": 6093,
      "row": 6094,
      "rig": 6095,
      "rene": 6096,
      "rope": 6097,
      "sow": 6098,
      "sire": 6099,
      "silly": 6100,
      "tu": 6101,
      "vine": 6102,
      "velve": 6103,
      "##abl": 6104,
      "##side": 6105,
      "##ridge": 6106,
      "##groom": 6107,
      "##maid": 6108,
      "##bit": 6109,
      "##bol": 6110,
      "##braid": 6111,
      "##lot": 6112,
      "##liness": 6113,
      "##pes": 6114,
      "##craft": 6115,
      "##jou": 6116,
      "thais": 6117,
      "##ouder": 6118,
      "##ories": 6119,
      "##enor": 6120,
      "##anor": 6121,
      "whel": 6122,
      "heed": 6123,
      "heel": 6124,
      "heigh": 6125,
      "shoe": 6126,
      "##etic": 6127,
      "##ered": 6128,
      "##urous": 6129,
      "##imon": 6130,
      "##iments": 6131,
      "stink": 6132,
      "stool": 6133,
      "thisbe": 6134,
      "priz": 6135,
      "sober": 6136,
      "dover": 6137,
      "anjou": 6138,
      "froth": 6139,
      "##estial": 6140,
      "rein": 6141,
      "enchant": 6142,
      "allay": 6143,
      "spell": 6144,
      "spot": 6145,
      "##andra": 6146,
      "locks": 6147,
      "trad": 6148,
      "chose": 6149,
      "upbraid": 6150,
      "brass": 6151,
      "convert": 6152,
      "unlike": 6153,
      "univers": 6154,
      "##ulation": 6155,
      "blossom": 6156,
      "##pper": 6157,
      "##pple": 6158,
      "likelihood": 6159,
      "plight": 6160,
      "plough": 6161,
      "##ribe": 6162,
      "##empl": 6163,
      "lechery": 6164,
      "quaint": 6165,
      "##edly": 6166,
      "descent": 6167,
      "gentleness": 6168,
      "roy": 6169,
      "articles": 6170,
      "errand": 6171,
      "prays": 6172,
      "partner": 6173,
      "covet": 6174,
      "##mpath": 6175,
      "appeal": 6176,
      "pregnant": 6177,
      "contag": 6178,
      "contempl": 6179,
      "foolery": 6180,
      "merch": 6181,
      "indire": 6182,
      "witt": 6183,
      "charitable": 6184,
      "guider": 6185,
      "confin": 6186,
      "crush": 6187,
      "giant": 6188,
      "reserv": 6189,
      "curtain": 6190,
      "humility": 6191,
      "diff": 6192,
      "assay": 6193,
      "pleases": 6194,
      "vizard": 6195,
      "falsely": 6196,
      "reasonable": 6197,
      "returns": 6198,
      "windows": 6199,
      "entra": 6200,
      "support": 6201,
      "recount": 6202,
      "ruth": 6203,
      "puiss": 6204,
      "minion": 6205,
      "raw": 6206,
      "surrey": 6207,
      "reports": 6208,
      "confession": 6209,
      "divin": 6210,
      "divid": 6211,
      "boldly": 6212,
      "vision": 6213,
      "summon": 6214,
      "battles": 6215,
      "scarf": 6216,
      "plainly": 6217,
      "cowardly": 6218,
      "counsels": 6219,
      "verse": 6220,
      "thirst": 6221,
      "motive": 6222,
      "mountains": 6223,
      "piti": 6224,
      "jests": 6225,
      "stops": 6226,
      "sympath": 6227,
      "performance": 6228,
      "patiently": 6229,
      "lists": 6230,
      "torches": 6231,
      "shroud": 6232,
      "rascals": 6233,
      "degrees": 6234,
      "deriv": 6235,
      "derby": 6236,
      "baseness": 6237,
      "kinsmen": 6238,
      "produce": 6239,
      "tutor": 6240,
      "witchcraft": 6241,
      "epit": 6242,
      "bridegroom": 6243,
      "proceedings": 6244,
      "determin": 6245,
      "wonders": 6246,
      "pedant": 6247,
      "engag": 6248,
      "statue": 6249,
      "albany": 6250,
      "gloves": 6251,
      "##zabeth": 6252,
      "inhab": 6253,
      "ribs": 6254,
      "coffin": 6255,
      "nuncle": 6256,
      "tiger": 6257,
      "celestial": 6258,
      "diseases": 6259,
      "rebuke": 6260,
      "parentage": 6261,
      "vassal": 6262,
      "superfluous": 6263,
      "bachelor": 6264,
      "drowsy": 6265,
      "elizabeth": 6266,
      "lartius": 6267,
      "oswald": 6268,
      "velvet": 6269,
      "thaisa": 6270,
      "bi": 6271,
      "bour": 6272,
      "bona": 6273,
      "boult": 6274,
      "ebb": 6275,
      "fath": 6276,
      "faster": 6277,
      "fates": 6278,
      "gage": 6279,
      "lance": 6280,
      "mast": 6281,
      "oliver": 6282,
      "pine": 6283,
      "pipe": 6284,
      "pomf": 6285,
      "rings": 6286,
      "si": 6287,
      "sly": 6288,
      "sans": 6289,
      "tart": 6290,
      "tire": 6291,
      "taps": 6292,
      "vau": 6293,
      "vap": 6294,
      "wet": 6295,
      "wra": 6296,
      "wakes": 6297,
      "##ois": 6298,
      "##say": 6299,
      "##ranch": 6300,
      "##get": 6301,
      "##nish": 6302,
      "##mas": 6303,
      "##mish": 6304,
      "##late": 6305,
      "##lorn": 6306,
      "##house": 6307,
      "##kens": 6308,
      "thurs": 6309,
      "##eriff": 6310,
      "##nday": 6311,
      "##orus": 6312,
      "##ester": 6313,
      "##the": 6314,
      "heath": 6315,
      "sha": 6316,
      "shap": 6317,
      "shakes": 6318,
      "shipp": 6319,
      "shames": 6320,
      "sheriff": 6321,
      "forlorn": 6322,
      "##itute": 6323,
      "notorious": 6324,
      "##terity": 6325,
      "ascend": 6326,
      "##adem": 6327,
      "##ids": 6328,
      "angl": 6329,
      "revel": 6330,
      "whatsoever": 6331,
      "herd": 6332,
      "##raction": 6333,
      "alliance": 6334,
      "span": 6335,
      "spurs": 6336,
      "loft": 6337,
      "##ctors": 6338,
      "exclaim": 6339,
      "org": 6340,
      "conceiv": 6341,
      "enters": 6342,
      "unth": 6343,
      "unst": 6344,
      "unsh": 6345,
      "##ulch": 6346,
      "arvir": 6347,
      "worser": 6348,
      "marble": 6349,
      "alms": 6350,
      "scold": 6351,
      "##opt": 6352,
      "##opher": 6353,
      "ague": 6354,
      "dislo": 6355,
      "disorder": 6356,
      "mustard": 6357,
      "leather": 6358,
      "lewd": 6359,
      "theseus": 6360,
      "quince": 6361,
      "abomin": 6362,
      "proves": 6363,
      "stray": 6364,
      "strings": 6365,
      "##agus": 6366,
      "##quenet": 6367,
      "pert": 6368,
      "perio": 6369,
      "road": 6370,
      "bloods": 6371,
      "leaf": 6372,
      "droop": 6373,
      "aye": 6374,
      "apply": 6375,
      "antenor": 6376,
      "compell": 6377,
      "harp": 6378,
      "attach": 6379,
      "smother": 6380,
      "confine": 6381,
      "confidence": 6382,
      "crim": 6383,
      "crimes": 6384,
      "beseem": 6385,
      "restrain": 6386,
      "##beit": 6387,
      "welkin": 6388,
      "valu": 6389,
      "dial": 6390,
      "helps": 6391,
      "handsome": 6392,
      "discre": 6393,
      "breakfast": 6394,
      "thousands": 6395,
      "imit": 6396,
      "cousins": 6397,
      "intends": 6398,
      "empire": 6399,
      "revenges": 6400,
      "entire": 6401,
      "sickly": 6402,
      "expense": 6403,
      "leaden": 6404,
      "angiers": 6405,
      "burnt": 6406,
      "requires": 6407,
      "profound": 6408,
      "profane": 6409,
      "##bras": 6410,
      "prett": 6411,
      "relieve": 6412,
      "crept": 6413,
      "respects": 6414,
      "julius": 6415,
      "lacks": 6416,
      "flatterer": 6417,
      "nurs": 6418,
      "feasts": 6419,
      "vein": 6420,
      "disgrac": 6421,
      "cheerful": 6422,
      "maker": 6423,
      "viola": 6424,
      "bastards": 6425,
      "bowl": 6426,
      "benvolio": 6427,
      "occasions": 6428,
      "syll": 6429,
      "prosperity": 6430,
      "storms": 6431,
      "refus": 6432,
      "visitation": 6433,
      "dismay": 6434,
      "succession": 6435,
      "priests": 6436,
      "topas": 6437,
      "wolves": 6438,
      "ventidius": 6439,
      "envoy": 6440,
      "challeng": 6441,
      "changes": 6442,
      "corruption": 6443,
      "companions": 6444,
      "fruitful": 6445,
      "escalus": 6446,
      "function": 6447,
      "nobleness": 6448,
      "joints": 6449,
      "pedro": 6450,
      "magn": 6451,
      "ungent": 6452,
      "jaquenet": 6453,
      "saturnine": 6454,
      "ambassadors": 6455,
      "branches": 6456,
      "accomplish": 6457,
      "couple": 6458,
      "scourge": 6459,
      "warriors": 6460,
      "homage": 6461,
      "overthrow": 6462,
      "style": 6463,
      "revels": 6464,
      "levi": 6465,
      "infirmity": 6466,
      "cudgel": 6467,
      "enfranch": 6468,
      "jesu": 6469,
      "penitent": 6470,
      "exploit": 6471,
      "female": 6472,
      "##adventure": 6473,
      "guiderius": 6474,
      "epitaph": 6475,
      "fathom": 6476,
      "pomfret": 6477,
      "thursday": 6478,
      "lofty": 6479,
      "arviragus": 6480,
      "jaquenetta": 6481,
      "aust": 6482,
      "afore": 6483,
      "aqu": 6484,
      "bor": 6485,
      "bate": 6486,
      "bail": 6487,
      "bands": 6488,
      "cities": 6489,
      "eur": 6490,
      "eun": 6491,
      "egl": 6492,
      "feeds": 6493,
      "guts": 6494,
      "hound": 6495,
      "hides": 6496,
      "kern": 6497,
      "lung": 6498,
      "mul": 6499,
      "mates": 6500,
      "puck": 6501,
      "pounds": 6502,
      "rou": 6503,
      "race": 6504,
      "russ": 6505,
      "##ainder": 6506,
      "##take": 6507,
      "##rest": 6508,
      "##iver": 6509,
      "##mont": 6510,
      "##lings": 6511,
      "##here": 6512,
      "##uary": 6513,
      "##kins": 6514,
      "##worth": 6515,
      "##fold": 6516,
      "##eration": 6517,
      "theft": 6518,
      "##ario": 6519,
      "toe": 6520,
      "##anmer": 6521,
      "##inge": 6522,
      "##inbras": 6523,
      "whet": 6524,
      "whir": 6525,
      "wil": 6526,
      "insp": 6527,
      "##asar": 6528,
      "shirt": 6529,
      "halt": 6530,
      "weal": 6531,
      "states": 6532,
      "##alo": 6533,
      "##eems": 6534,
      "reh": 6535,
      "dedic": 6536,
      "##geons": 6537,
      "sums": 6538,
      "sullen": 6539,
      "chaf": 6540,
      "nell": 6541,
      "broth": 6542,
      "ample": 6543,
      "sheet": 6544,
      "##ula": 6545,
      "array": 6546,
      "sequ": 6547,
      "uses": 6548,
      "outside": 6549,
      "sap": 6550,
      "sauce": 6551,
      "clap": 6552,
      "grav": 6553,
      "##agon": 6554,
      "gentry": 6555,
      "serge": 6556,
      "##quis": 6557,
      "roll": 6558,
      "moiety": 6559,
      "adopt": 6560,
      "##oughs": 6561,
      "sweeter": 6562,
      "dram": 6563,
      "coal": 6564,
      "slack": 6565,
      "slanders": 6566,
      "antic": 6567,
      "nobleman": 6568,
      "courses": 6569,
      "##lier": 6570,
      "hob": 6571,
      "merr": 6572,
      "fortinbras": 6573,
      "truer": 6574,
      "richly": 6575,
      "highly": 6576,
      "highest": 6577,
      "worthless": 6578,
      "worthiness": 6579,
      "consist": 6580,
      "cradle": 6581,
      "cranmer": 6582,
      "impart": 6583,
      "##clos": 6584,
      "accent": 6585,
      "pleaseth": 6586,
      "meets": 6587,
      "tavern": 6588,
      "assail": 6589,
      "readiness": 6590,
      "##ific": 6591,
      "silken": 6592,
      "strik": 6593,
      "purple": 6594,
      "instinct": 6595,
      "instead": 6596,
      "##ibly": 6597,
      "capable": 6598,
      "fiends": 6599,
      "built": 6600,
      "frenchman": 6601,
      "sadly": 6602,
      "livest": 6603,
      "yields": 6604,
      "princip": 6605,
      "tenor": 6606,
      "raz": 6607,
      "malicious": 6608,
      "region": 6609,
      "talents": 6610,
      "ache": 6611,
      "simon": 6612,
      "invit": 6613,
      "stirs": 6614,
      "harmless": 6615,
      "wiser": 6616,
      "resolute": 6617,
      "##heard": 6618,
      "starv": 6619,
      "bells": 6620,
      "mortality": 6621,
      "limb": 6622,
      "smallest": 6623,
      "urs": 6624,
      "avouch": 6625,
      "avaunt": 6626,
      "scarcely": 6627,
      "##iculous": 6628,
      "ridiculous": 6629,
      "insult": 6630,
      "ghosts": 6631,
      "triumphant": 6632,
      "threats": 6633,
      "unpro": 6634,
      "victorious": 6635,
      "lamentable": 6636,
      "bigger": 6637,
      "squire": 6638,
      "stomachs": 6639,
      "chiefest": 6640,
      "stafford": 6641,
      "admirable": 6642,
      "sicilia": 6643,
      "mercury": 6644,
      "bills": 6645,
      "fifteen": 6646,
      "trifles": 6647,
      "balls": 6648,
      "ranks": 6649,
      "rags": 6650,
      "religion": 6651,
      "naughty": 6652,
      "pillow": 6653,
      "oppression": 6654,
      "griff": 6655,
      "causes": 6656,
      "subdu": 6657,
      "imprisonment": 6658,
      "interpret": 6659,
      "linen": 6660,
      "applaud": 6661,
      "subscribe": 6662,
      "afterwards": 6663,
      "unmanner": 6664,
      "impediment": 6665,
      "opportunity": 6666,
      "balthasar": 6667,
      "rabble": 6668,
      "gonzalo": 6669,
      "philippi": 6670,
      "fertile": 6671,
      "eunuch": 6672,
      "lungs": 6673,
      "aed": 6674,
      "bide": 6675,
      "bows": 6676,
      "cu": 6677,
      "cad": 6678,
      "cele": 6679,
      "dw": 6680,
      "fut": 6681,
      "fol": 6682,
      "fence": 6683,
      "file": 6684,
      "gets": 6685,
      "gav": 6686,
      "games": 6687,
      "gilt": 6688,
      "jump": 6689,
      "lull": 6690,
      "mate": 6691,
      "muse": 6692,
      "nin": 6693,
      "noses": 6694,
      "oil": 6695,
      "ober": 6696,
      "pan": 6697,
      "pind": 6698,
      "pig": 6699,
      "pud": 6700,
      "patter": 6701,
      "perem": 6702,
      "rive": 6703,
      "rape": 6704,
      "sall": 6705,
      "torn": 6706,
      "toss": 6707,
      "tub": 6708,
      "vat": 6709,
      "vit": 6710,
      "vest": 6711,
      "##awn": 6712,
      "##eur": 6713,
      "##oen": 6714,
      "##onds": 6715,
      "##til": 6716,
      "##rop": 6717,
      "##iven": 6718,
      "##ique": 6719,
      "##gu": 6720,
      "##nel": 6721,
      "##mbly": 6722,
      "##val": 6723,
      "##bear": 6724,
      "##look": 6725,
      "##pulch": 6726,
      "##fellow": 6727,
      "##esies": 6728,
      "##arn": 6729,
      "toys": 6730,
      "tokens": 6731,
      "##thorn": 6732,
      "##inu": 6733,
      "##inc": 6734,
      "wicke": 6735,
      "##recy": 6736,
      "beam": 6737,
      "being": 6738,
      "hem": 6739,
      "hew": 6740,
      "mytil": 6741,
      "##owder": 6742,
      "shill": 6743,
      "haut": 6744,
      "mell": 6745,
      "notable": 6746,
      "asp": 6747,
      "asunder": 6748,
      "hiss": 6749,
      "prate": 6750,
      "prime": 6751,
      "lily": 6752,
      "anno": 6753,
      "frant": 6754,
      "fraught": 6755,
      "##aine": 6756,
      "reform": 6757,
      "deli": 6758,
      "##thern": 6759,
      "##str": 6760,
      "##stood": 6761,
      "spott": 6762,
      "##iles": 6763,
      "tripp": 6764,
      "chim": 6765,
      "mangl": 6766,
      "upward": 6767,
      "bridge": 6768,
      "amain": 6769,
      "##antity": 6770,
      "##antages": 6771,
      "faul": 6772,
      "unqu": 6773,
      "unlo": 6774,
      "unsp": 6775,
      "blanch": 6776,
      "arbit": 6777,
      "boil": 6778,
      "sext": 6779,
      "sepulch": 6780,
      "##icity": 6781,
      "plenty": 6782,
      "plots": 6783,
      "scap": 6784,
      "scars": 6785,
      "scroll": 6786,
      "##igation": 6787,
      "clay": 6788,
      "##ouns": 6789,
      "lacke": 6790,
      "quake": 6791,
      "thinkest": 6792,
      "norway": 6793,
      "##quity": 6794,
      "peruse": 6795,
      "perdit": 6796,
      "peradventure": 6797,
      "foil": 6798,
      "moan": 6799,
      "adore": 6800,
      "erp": 6801,
      "##angle": 6802,
      "parties": 6803,
      "comment": 6804,
      "##ivious": 6805,
      "glow": 6806,
      "##achio": 6807,
      "meaner": 6808,
      "worldly": 6809,
      "composition": 6810,
      "compact": 6811,
      "wayward": 6812,
      "mightily": 6813,
      "witty": 6814,
      "charges": 6815,
      "harms": 6816,
      "truce": 6817,
      "belief": 6818,
      "belmont": 6819,
      "worthies": 6820,
      "worthily": 6821,
      "eloqu": 6822,
      "besp": 6823,
      "impud": 6824,
      "impeach": 6825,
      "resort": 6826,
      "rests": 6827,
      "parch": 6828,
      "parle": 6829,
      "parcel": 6830,
      "hume": 6831,
      "retir": 6832,
      "patron": 6833,
      "tabour": 6834,
      "trag": 6835,
      "trage": 6836,
      "trod": 6837,
      "assume": 6838,
      "lux": 6839,
      "lucet": 6840,
      "homely": 6841,
      "attended": 6842,
      "misfort": 6843,
      "##abella": 6844,
      "shameful": 6845,
      "happier": 6846,
      "fights": 6847,
      "secrecy": 6848,
      "devilish": 6849,
      "phoen": 6850,
      "obsequ": 6851,
      "murders": 6852,
      "##eys": 6853,
      "quicken": 6854,
      "touchstone": 6855,
      "bub": 6856,
      "buff": 6857,
      "apes": 6858,
      "coldly": 6859,
      "crab": 6860,
      "cuts": 6861,
      "surgeon": 6862,
      "pastime": 6863,
      "inconst": 6864,
      "mockery": 6865,
      "deeply": 6866,
      "boldness": 6867,
      "events": 6868,
      "constancy": 6869,
      "approbation": 6870,
      "guarded": 6871,
      "simp": 6872,
      "damnation": 6873,
      "cowardice": 6874,
      "gladly": 6875,
      "saints": 6876,
      "privy": 6877,
      "idly": 6878,
      "idleness": 6879,
      "commendations": 6880,
      "losses": 6881,
      "veil": 6882,
      "broach": 6883,
      "springs": 6884,
      "vilely": 6885,
      "churlish": 6886,
      "papers": 6887,
      "steals": 6888,
      "lustre": 6889,
      "libert": 6890,
      "cornets": 6891,
      "blemish": 6892,
      "tribune": 6893,
      "publish": 6894,
      "studi": 6895,
      "lychor": 6896,
      "succor": 6897,
      "approaches": 6898,
      "mutual": 6899,
      "practises": 6900,
      "shrink": 6901,
      "circle": 6902,
      "decre": 6903,
      "hatr": 6904,
      "property": 6905,
      "loathsome": 6906,
      "holla": 6907,
      "hunts": 6908,
      "soothsay": 6909,
      "##ocate": 6910,
      "assured": 6911,
      "square": 6912,
      "habits": 6913,
      "circumst": 6914,
      "pisa": 6915,
      "dunsin": 6916,
      "weighty": 6917,
      "hallow": 6918,
      "heaviness": 6919,
      "italian": 6920,
      "observance": 6921,
      "trojans": 6922,
      "apprehension": 6923,
      "bushy": 6924,
      "keys": 6925,
      "discharg": 6926,
      "fulf": 6927,
      "unlaw": 6928,
      "scroop": 6929,
      "declin": 6930,
      "belongs": 6931,
      "million": 6932,
      "debate": 6933,
      "trimm": 6934,
      "latest": 6935,
      "traveller": 6936,
      "dolabella": 6937,
      "beautiful": 6938,
      "taper": 6939,
      "feature": 6940,
      "outlive": 6941,
      "pilgrimage": 6942,
      "beef": 6943,
      "measur": 6944,
      "philosophy": 6945,
      "adrian": 6946,
      "pursuit": 6947,
      "ruffian": 6948,
      "discipline": 6949,
      "insolence": 6950,
      "bulk": 6951,
      "champion": 6952,
      "fantastical": 6953,
      "ecst": 6954,
      "lunatic": 6955,
      "diamond": 6956,
      "proverb": 6957,
      "prophecy": 6958,
      "fountain": 6959,
      "shelter": 6960,
      "holiday": 6961,
      "fowl": 6962,
      "haughty": 6963,
      "enlarge": 6964,
      "shriek": 6965,
      "renew": 6966,
      "universal": 6967,
      "indirect": 6968,
      "shaft": 6969,
      "disloyal": 6970,
      "abominable": 6971,
      "period": 6972,
      "rouen": 6973,
      "wilful": 6974,
      "sergeant": 6975,
      "simonides": 6976,
      "ursula": 6977,
      "celebr": 6978,
      "gavest": 6979,
      "oberon": 6980,
      "pindarus": 6981,
      "pattern": 6982,
      "perempt": 6983,
      "mytilene": 6984,
      "hautboys": 6985,
      "annoy": 6986,
      "frantic": 6987,
      "perdita": 6988,
      "lucetta": 6989,
      "lychorida": 6990,
      "dunsinane": 6991,
      "aem": 6992,
      "bench": 6993,
      "cim": 6994,
      "ced": 6995,
      "cush": 6996,
      "ech": 6997,
      "fer": 6998,
      "fide": 6999,
      "gad": 7000,
      "gul": 7001,
      "gains": 7002,
      "hipp": 7003,
      "ig": 7004,
      "lasc": 7005,
      "lane": 7006,
      "leek": 7007,
      "mute": 7008,
      "nut": 7009,
      "nath": 7010,
      "omit": 7011,
      "pant": 7012,
      "riv": 7013,
      "ranc": 7014,
      "reek": 7015,
      "sixt": 7016,
      "tast": 7017,
      "tardy": 7018,
      "va": 7019,
      "yard": 7020,
      "##iors": 7021,
      "##mur": 7022,
      "##vail": 7023,
      "##yza": 7024,
      "thigh": 7025,
      "thumb": 7026,
      "##eres": 7027,
      "##orp": 7028,
      "toy": 7029,
      "##omm": 7030,
      "##rement": 7031,
      "beads": 7032,
      "##oward": 7033,
      "##chas": 7034,
      "meal": 7035,
      "melo": 7036,
      "##usions": 7037,
      "##itan": 7038,
      "##itiff": 7039,
      "##urity": 7040,
      "##imate": 7041,
      "##ools": 7042,
      "##seth": 7043,
      "prim": 7044,
      "##idents": 7045,
      "dole": 7046,
      "liar": 7047,
      "anchor": 7048,
      "enge": 7049,
      "##rav": 7050,
      "##anda": 7051,
      "excess": 7052,
      "orph": 7053,
      "##ellus": 7054,
      "unch": 7055,
      "unru": 7056,
      "unarm": 7057,
      "##ingale": 7058,
      "swoon": 7059,
      "boister": 7060,
      "sew": 7061,
      "dido": 7062,
      "madly": 7063,
      "albeit": 7064,
      "outst": 7065,
      "caitiff": 7066,
      "tween": 7067,
      "clam": 7068,
      "grac": 7069,
      "##ickle": 7070,
      "quantity": 7071,
      "abject": 7072,
      "project": 7073,
      "##wny": 7074,
      "brew": 7075,
      "betro": 7076,
      "perceiv": 7077,
      "mole": 7078,
      "adder": 7079,
      "advert": 7080,
      "duck": 7081,
      "##ivion": 7082,
      "covent": 7083,
      "gloss": 7084,
      "owner": 7085,
      "compet": 7086,
      "compul": 7087,
      "##blood": 7088,
      "presum": 7089,
      "longs": 7090,
      "remun": 7091,
      "repl": 7092,
      "##lict": 7093,
      "shower": 7094,
      "showers": 7095,
      "indust": 7096,
      "witches": 7097,
      "harlot": 7098,
      "attain": 7099,
      "attorn": 7100,
      "attire": 7101,
      "underne": 7102,
      "truant": 7103,
      "peaceful": 7104,
      "nativity": 7105,
      "worthier": 7106,
      "worthiest": 7107,
      "crisp": 7108,
      "curb": 7109,
      "curious": 7110,
      "restr": 7111,
      "##alties": 7112,
      "passions": 7113,
      "welcom": 7114,
      "fully": 7115,
      "brav": 7116,
      "brand": 7117,
      "brazen": 7118,
      "presents": 7119,
      "accidents": 7120,
      "rightful": 7121,
      "meeting": 7122,
      "tawny": 7123,
      "diadem": 7124,
      "traff": 7125,
      "feats": 7126,
      "banks": 7127,
      "dispra": 7128,
      "lawy": 7129,
      "forgiven": 7130,
      "happen": 7131,
      "barr": 7132,
      "##fortunate": 7133,
      "void": 7134,
      "furious": 7135,
      "doubts": 7136,
      "mete": 7137,
      "metellus": 7138,
      "distinguish": 7139,
      "##ancies": 7140,
      "proudest": 7141,
      "april": 7142,
      "pup": 7143,
      "puff": 7144,
      "cheese": 7145,
      "gallants": 7146,
      "cambridge": 7147,
      "##shipp": 7148,
      "gaol": 7149,
      "captive": 7150,
      "payment": 7151,
      "waist": 7152,
      "incur": 7153,
      "regal": 7154,
      "requit": 7155,
      "fasten": 7156,
      "talks": 7157,
      "##acity": 7158,
      "interim": 7159,
      "interrupt": 7160,
      "entreats": 7161,
      "achiev": 7162,
      "plucks": 7163,
      "wretches": 7164,
      "badge": 7165,
      "##joy": 7166,
      "##join": 7167,
      "verily": 7168,
      "dishes": 7169,
      "wisest": 7170,
      "judgments": 7171,
      "motions": 7172,
      "strengthen": 7173,
      "lowly": 7174,
      "cheerly": 7175,
      "fills": 7176,
      "excus": 7177,
      "beards": 7178,
      "woods": 7179,
      "hurts": 7180,
      "occup": 7181,
      "tomorrow": 7182,
      "volunt": 7183,
      "songs": 7184,
      "churchyard": 7185,
      "protection": 7186,
      "shrill": 7187,
      "girls": 7188,
      "dishonest": 7189,
      "reigns": 7190,
      "decius": 7191,
      "insinu": 7192,
      "transgress": 7193,
      "drunkard": 7194,
      "fleance": 7195,
      "temples": 7196,
      "drives": 7197,
      "holiness": 7198,
      "amazement": 7199,
      "##board": 7200,
      "compliment": 7201,
      "extremes": 7202,
      "##uba": 7203,
      "uncertain": 7204,
      "figures": 7205,
      "irish": 7206,
      "roots": 7207,
      "derive": 7208,
      "ashore": 7209,
      "discovery": 7210,
      "starts": 7211,
      "egyptian": 7212,
      "twelvemon": 7213,
      "accusation": 7214,
      "capital": 7215,
      "arras": 7216,
      "epil": 7217,
      "admiration": 7218,
      "dignities": 7219,
      "hills": 7220,
      "napkin": 7221,
      "schoolmaster": 7222,
      "languish": 7223,
      "launce": 7224,
      "pronounc": 7225,
      "preferr": 7226,
      "testimony": 7227,
      "fantasy": 7228,
      "sanctuary": 7229,
      "injurious": 7230,
      "wrestl": 7231,
      "subdue": 7232,
      "rumour": 7233,
      "antique": 7234,
      "wednes": 7235,
      "assembly": 7236,
      "dragon": 7237,
      "obscure": 7238,
      "warrior": 7239,
      "oblivion": 7240,
      "bankrupt": 7241,
      "hecuba": 7242,
      "bawdy": 7243,
      "battery": 7244,
      "gossip": 7245,
      "ornament": 7246,
      "stratage": 7247,
      "##greg": 7248,
      "negligence": 7249,
      "embassy": 7250,
      "offender": 7251,
      "beaufort": 7252,
      "pestilence": 7253,
      "dionyza": 7254,
      "lurk": 7255,
      "pangs": 7256,
      "altar": 7257,
      "servingman": 7258,
      "plagues": 7259,
      "brabantio": 7260,
      "##ablish": 7261,
      "contemplation": 7262,
      "tapster": 7263,
      "eglamour": 7264,
      "griffith": 7265,
      "unmannerly": 7266,
      "future": 7267,
      "folks": 7268,
      "chimney": 7269,
      "soothsayer": 7270,
      "ecstasy": 7271,
      "peremptory": 7272,
      "igno": 7273,
      "lascivious": 7274,
      "nathaniel": 7275,
      "sixteen": 7276,
      "unruly": 7277,
      "underneath": 7278,
      "twelvemonth": 7279,
      "wednesday": 7280,
      "bal": 7281,
      "budge": 7282,
      "cue": 7283,
      "crew": 7284,
      "dick": 7285,
      "dally": 7286,
      "ew": 7287,
      "ely": 7288,
      "fest": 7289,
      "fist": 7290,
      "fife": 7291,
      "fancies": 7292,
      "gest": 7293,
      "gust": 7294,
      "hart": 7295,
      "hic": 7296,
      "ken": 7297,
      "nick": 7298,
      "ou": 7299,
      "oman": 7300,
      "pip": 7301,
      "rats": 7302,
      "rages": 7303,
      "rises": 7304,
      "sess": 7305,
      "sblood": 7306,
      "tuck": 7307,
      "vices": 7308,
      "wan": 7309,
      "wave": 7310,
      "yare": 7311,
      "##ae": 7312,
      "##aver": 7313,
      "##dea": 7314,
      "##eius": 7315,
      "##oil": 7316,
      "##same": 7317,
      "##rh": 7318,
      "##rates": 7319,
      "##ii": 7320,
      "##mor": 7321,
      "##mouth": 7322,
      "##bain": 7323,
      "##born": 7324,
      "##bonius": 7325,
      "##pit": 7326,
      "##poc": 7327,
      "##ually": 7328,
      "##ky": 7329,
      "##journ": 7330,
      "##ism": 7331,
      "##arf": 7332,
      "tops": 7333,
      "##once": 7334,
      "##inat": 7335,
      "##inence": 7336,
      "##inance": 7337,
      "wheres": 7338,
      "shop": 7339,
      "hag": 7340,
      "##utt": 7341,
      "mew": 7342,
      "meek": 7343,
      "withhold": 7344,
      "steeds": 7345,
      "##albain": 7346,
      "##ention": 7347,
      "frag": 7348,
      "frenz": 7349,
      "rele": 7350,
      "ensue": 7351,
      "ensu": 7352,
      "sunder": 7353,
      "spain": 7354,
      "spher": 7355,
      "spacious": 7356,
      "##andon": 7357,
      "##ilful": 7358,
      "loins": 7359,
      "chas": 7360,
      "chances": 7361,
      "chronic": 7362,
      "chival": 7363,
      "therewith": 7364,
      "brim": 7365,
      "##unction": 7366,
      "exquis": 7367,
      "ordain": 7368,
      "concept": 7369,
      "##ostrate": 7370,
      "una": 7371,
      "canop": 7372,
      "howe": 7373,
      "however": 7374,
      "arrant": 7375,
      "arrows": 7376,
      "worshipp": 7377,
      "##ics": 7378,
      "marg": 7379,
      "plants": 7380,
      "scale": 7381,
      "cab": 7382,
      "ages": 7383,
      "disper": 7384,
      "disob": 7385,
      "whoever": 7386,
      "levy": 7387,
      "flin": 7388,
      "flames": 7389,
      "quint": 7390,
      "abst": 7391,
      "abund": 7392,
      "abod": 7393,
      "abandon": 7394,
      "proffer": 7395,
      "progress": 7396,
      "##tock": 7397,
      "greatly": 7398,
      "bree": 7399,
      "permit": 7400,
      "foh": 7401,
      "roast": 7402,
      "arts": 7403,
      "adverse": 7404,
      "##elm": 7405,
      "##berry": 7406,
      "##ighth": 7407,
      "leagues": 7408,
      "coil": 7409,
      "##rog": 7410,
      "##ossess": 7411,
      "servilius": 7412,
      "downright": 7413,
      "compos": 7414,
      "contriv": 7415,
      "follies": 7416,
      "hog": 7417,
      "hoar": 7418,
      "purses": 7419,
      "merits": 7420,
      "understood": 7421,
      "smart": 7422,
      "conflict": 7423,
      "impl": 7424,
      "parth": 7425,
      "courtesies": 7426,
      "draught": 7427,
      "brag": 7428,
      "treas": 7429,
      "trebonius": 7430,
      "educ": 7431,
      "pac": 7432,
      "pavil": 7433,
      "peck": 7434,
      "childish": 7435,
      "actor": 7436,
      "submit": 7437,
      "monke": 7438,
      "monmouth": 7439,
      "husbandry": 7440,
      "##inster": 7441,
      "lightly": 7442,
      "breathless": 7443,
      "##ified": 7444,
      "forgotten": 7445,
      "##izel": 7446,
      "denies": 7447,
      "bars": 7448,
      "barge": 7449,
      "luciana": 7450,
      "commander": 7451,
      "commandment": 7452,
      "##enerate": 7453,
      "suns": 7454,
      "musician": 7455,
      "yestern": 7456,
      "temperate": 7457,
      "growth": 7458,
      "comfortable": 7459,
      "depose": 7460,
      "airy": 7461,
      "unclean": 7462,
      "infancy": 7463,
      "infamy": 7464,
      "affair": 7465,
      "dreamt": 7466,
      "peto": 7467,
      "gallia": 7468,
      "minutes": 7469,
      "venet": 7470,
      "surm": 7471,
      "pasture": 7472,
      "waft": 7473,
      "donalbain": 7474,
      "incest": 7475,
      "requir": 7476,
      "questions": 7477,
      "deeper": 7478,
      "constrain": 7479,
      "tenderness": 7480,
      "personal": 7481,
      "##score": 7482,
      "guards": 7483,
      "##nox": 7484,
      "entreaty": 7485,
      "speechless": 7486,
      "calais": 7487,
      "relief": 7488,
      "reliev": 7489,
      "penalty": 7490,
      "lambs": 7491,
      "hurl": 7492,
      "idol": 7493,
      "selfsame": 7494,
      "miranda": 7495,
      "ports": 7496,
      "singing": 7497,
      "##agger": 7498,
      "element": 7499,
      "eleanor": 7500,
      "secretly": 7501,
      "##odes": 7502,
      "studies": 7503,
      "midwife": 7504,
      "sixp": 7505,
      "contrad": 7506,
      "mutius": 7507,
      "importune": 7508,
      "proofs": 7509,
      "sorts": 7510,
      "fishes": 7511,
      "tyrrel": 7512,
      "stockings": 7513,
      "cases": 7514,
      "pyr": 7515,
      "british": 7516,
      "wrathful": 7517,
      "##ocation": 7518,
      "imagin": 7519,
      "maidenhead": 7520,
      "cloudy": 7521,
      "cords": 7522,
      "dooms": 7523,
      "smells": 7524,
      "examine": 7525,
      "executioner": 7526,
      "chiefly": 7527,
      "displeas": 7528,
      "pandar": 7529,
      "daggers": 7530,
      "inclination": 7531,
      "deceas": 7532,
      "heavier": 7533,
      "compassion": 7534,
      "hymen": 7535,
      "hypoc": 7536,
      "domin": 7537,
      "florentine": 7538,
      "florizel": 7539,
      "eager": 7540,
      "##whelm": 7541,
      "apparition": 7542,
      "bags": 7543,
      "bagot": 7544,
      "shouts": 7545,
      "##uggl": 7546,
      "rescu": 7547,
      "ingrateful": 7548,
      "speedily": 7549,
      "syracus": 7550,
      "dissemble": 7551,
      "moody": 7552,
      "corpse": 7553,
      "suprem": 7554,
      "buds": 7555,
      "latin": 7556,
      "frailty": 7557,
      "affords": 7558,
      "thorns": 7559,
      "designs": 7560,
      "correct": 7561,
      "inheritance": 7562,
      "rode": 7563,
      "applause": 7564,
      "centre": 7565,
      "mingl": 7566,
      "mingle": 7567,
      "wrinkl": 7568,
      "receipt": 7569,
      "recreant": 7570,
      "gnaw": 7571,
      "jerkin": 7572,
      "lennox": 7573,
      "braggart": 7574,
      "hunter": 7575,
      "pirates": 7576,
      "adulter": 7577,
      "##icero": 7578,
      "simplicity": 7579,
      "lazy": 7580,
      "carrion": 7581,
      "display": 7582,
      "tyrannous": 7583,
      "rowland": 7584,
      "inhabit": 7585,
      "bias": 7586,
      "siward": 7587,
      "crimson": 7588,
      "syllable": 7589,
      "ungentle": 7590,
      "borachio": 7591,
      "whirl": 7592,
      "inspir": 7593,
      "gravity": 7594,
      "merriment": 7595,
      "principal": 7596,
      "sepulchre": 7597,
      "phoenix": 7598,
      "cimber": 7599,
      "boisterous": 7600,
      "betroth": 7601,
      "coventry": 7602,
      "remuneration": 7603,
      "restraint": 7604,
      "epilogue": 7605,
      "frenzy": 7606,
      "exquisite": 7607,
      "disperse": 7608,
      "disobed": 7609,
      "yesternight": 7610,
      "bath": 7611,
      "bak": 7612,
      "bout": 7613,
      "cicero": 7614,
      "dir": 7615,
      "dit": 7616,
      "dul": 7617,
      "deed": 7618,
      "deem": 7619,
      "dirt": 7620,
      "ditch": 7621,
      "fad": 7622,
      "gen": 7623,
      "gear": 7624,
      "gull": 7625,
      "gash": 7626,
      "hook": 7627,
      "jar": 7628,
      "jade": 7629,
      "jades": 7630,
      "larg": 7631,
      "mard": 7632,
      "mouns": 7633,
      "nan": 7634,
      "nail": 7635,
      "pious": 7636,
      "pile": 7637,
      "palt": 7638,
      "powder": 7639,
      "rad": 7640,
      "rout": 7641,
      "size": 7642,
      "tack": 7643,
      "tullus": 7644,
      "wav": 7645,
      "wages": 7646,
      "##de": 7647,
      "##sm": 7648,
      "##rie": 7649,
      "##rons": 7650,
      "##ium": 7651,
      "##iences": 7652,
      "##gard": 7653,
      "##nam": 7654,
      "##mand": 7655,
      "##minster": 7656,
      "##vis": 7657,
      "##bes": 7658,
      "##bable": 7659,
      "##long": 7660,
      "##lph": 7661,
      "##ubs": 7662,
      "##cies": 7663,
      "##cile": 7664,
      "##yr": 7665,
      "##field": 7666,
      "thwart": 7667,
      "##orate": 7668,
      "##estern": 7669,
      "##arre": 7670,
      "##enas": 7671,
      "##enna": 7672,
      "##inish": 7673,
      "nom": 7674,
      "wip": 7675,
      "##red": 7676,
      "beck": 7677,
      "inches": 7678,
      "ingen": 7679,
      "##cends": 7680,
      "shunn": 7681,
      "meca": 7682,
      "##itud": 7683,
      "##ghan": 7684,
      "##ghill": 7685,
      "##imach": 7686,
      "stare": 7687,
      "stew": 7688,
      "##sec": 7689,
      "##adise": 7690,
      "##alls": 7691,
      "lick": 7692,
      "##amis": 7693,
      "herbs": 7694,
      "goest": 7695,
      "going": 7696,
      "sulph": 7697,
      "spies": 7698,
      "spider": 7699,
      "knell": 7700,
      "lot": 7701,
      "trot": 7702,
      "trash": 7703,
      "chop": 7704,
      "chains": 7705,
      "necks": 7706,
      "goodman": 7707,
      "mansion": 7708,
      "orb": 7709,
      "orator": 7710,
      "shear": 7711,
      "sheath": 7712,
      "##feits": 7713,
      "consec": 7714,
      "##otent": 7715,
      "uncon": 7716,
      "unfortunate": 7717,
      "##ulg": 7718,
      "##olis": 7719,
      "canon": 7720,
      "swine": 7721,
      "swif": 7722,
      "arrog": 7723,
      "boon": 7724,
      "separ": 7725,
      "usage": 7726,
      "marcell": 7727,
      "plum": 7728,
      "wherewith": 7729,
      "##ribly": 7730,
      "greets": 7731,
      "outr": 7732,
      "sauc": 7733,
      "##ptuous": 7734,
      "quill": 7735,
      "poll": 7736,
      "poly": 7737,
      "##edness": 7738,
      "daylight": 7739,
      "eyel": 7740,
      "##agne": 7741,
      "bret": 7742,
      "##quer": 7743,
      "##quess": 7744,
      "erth": 7745,
      "handle": 7746,
      "##ithe": 7747,
      "glories": 7748,
      "contemn": 7749,
      "prescri": 7750,
      "remainder": 7751,
      "reput": 7752,
      "housewife": 7753,
      "##liest": 7754,
      "indent": 7755,
      "betters": 7756,
      "##derick": 7757,
      "smack": 7758,
      "smock": 7759,
      "confus": 7760,
      "devout": 7761,
      "impose": 7762,
      "curts": 7763,
      "faithfully": 7764,
      "parish": 7765,
      "paragon": 7766,
      "paradise": 7767,
      "retain": 7768,
      "tables": 7769,
      "actors": 7770,
      "suborn": 7771,
      "submission": 7772,
      "farm": 7773,
      "sleepy": 7774,
      "feathers": 7775,
      "dispers": 7776,
      "breathes": 7777,
      "##ifies": 7778,
      "disco": 7779,
      "discern": 7780,
      "goldsm": 7781,
      "gett": 7782,
      "denial": 7783,
      "barb": 7784,
      "senior": 7785,
      "illy": 7786,
      "signal": 7787,
      "murmur": 7788,
      "cryst": 7789,
      "intr": 7790,
      "horsemen": 7791,
      "cleave": 7792,
      "generation": 7793,
      "generally": 7794,
      "birnam": 7795,
      "capacity": 7796,
      "distill": 7797,
      "distraction": 7798,
      "buzz": 7799,
      "demonst": 7800,
      "dames": 7801,
      "##itories": 7802,
      "chok": 7803,
      "pageant": 7804,
      "text": 7805,
      "fourscore": 7806,
      "rapt": 7807,
      "malign": 7808,
      "surprise": 7809,
      "incense": 7810,
      "establish": 7811,
      "buckl": 7812,
      "englishman": 7813,
      "constance": 7814,
      "snake": 7815,
      "calam": 7816,
      "preposter": 7817,
      "scarlet": 7818,
      "damnable": 7819,
      "plainness": 7820,
      "weaker": 7821,
      "defiance": 7822,
      "invest": 7823,
      "motley": 7824,
      "woeful": 7825,
      "flatterers": 7826,
      "broils": 7827,
      "bites": 7828,
      "christen": 7829,
      "wildly": 7830,
      "beggary": 7831,
      "stark": 7832,
      "mirror": 7833,
      "detain": 7834,
      "detect": 7835,
      "singular": 7836,
      "poisonous": 7837,
      "##quel": 7838,
      "shipw": 7839,
      "chooseth": 7840,
      "midst": 7841,
      "volsc": 7842,
      "opinions": 7843,
      "torments": 7844,
      "##conbridge": 7845,
      "montano": 7846,
      "unfit": 7847,
      "decree": 7848,
      "geld": 7849,
      "continent": 7850,
      "blushes": 7851,
      "cato": 7852,
      "utterance": 7853,
      "wealthy": 7854,
      "triumphs": 7855,
      "westminster": 7856,
      "degenerate": 7857,
      "britons": 7858,
      "solemnity": 7859,
      "needless": 7860,
      "baser": 7861,
      "basest": 7862,
      "companies": 7863,
      "frederick": 7864,
      "covert": 7865,
      "recovery": 7866,
      "dunghill": 7867,
      "pricks": 7868,
      "greyh": 7869,
      "cloy": 7870,
      "digg": 7871,
      "heavily": 7872,
      "abhors": 7873,
      "rewards": 7874,
      "perilous": 7875,
      "imperious": 7876,
      "##where": 7877,
      "preferment": 7878,
      "statutes": 7879,
      "sticks": 7880,
      "assistance": 7881,
      "unluck": 7882,
      "procule": 7883,
      "testament": 7884,
      "pearls": 7885,
      "sparrow": 7886,
      "ordinary": 7887,
      "crafty": 7888,
      "conspiracy": 7889,
      "tapers": 7890,
      "revive": 7891,
      "coffers": 7892,
      "pigeons": 7893,
      "succeed": 7894,
      "adversaries": 7895,
      "perfume": 7896,
      "tickl": 7897,
      "measures": 7898,
      "trencher": 7899,
      "exhib": 7900,
      "copy": 7901,
      "hecate": 7902,
      "indignation": 7903,
      "territories": 7904,
      "cerimon": 7905,
      "reconcil": 7906,
      "reconcile": 7907,
      "navarre": 7908,
      "ostent": 7909,
      "hawk": 7910,
      "bruis": 7911,
      "miscarry": 7912,
      "flaminius": 7913,
      "vigour": 7914,
      "planet": 7915,
      "frozen": 7916,
      "plenteous": 7917,
      "desolation": 7918,
      "whelp": 7919,
      "covetous": 7920,
      "entrails": 7921,
      "ruthless": 7922,
      "puissant": 7923,
      "wickedness": 7924,
      "faulconbridge": 7925,
      "sexton": 7926,
      "misfortune": 7927,
      "unlawful": 7928,
      "traffic": 7929,
      "pupil": 7930,
      "voluntary": 7931,
      "##rhus": 7932,
      "chivalry": 7933,
      "pavilion": 7934,
      "pyrrhus": 7935,
      "mardian": 7936,
      "mounsieur": 7937,
      "paltry": 7938,
      "mecaenas": 7939,
      "##imachus": 7940,
      "swifter": 7941,
      "marcellus": 7942,
      "goldsmith": 7943,
      "proculeius": 7944,
      "aus": 7945,
      "bau": 7946,
      "cope": 7947,
      "dall": 7948,
      "dice": 7949,
      "daint": 7950,
      "dances": 7951,
      "eth": 7952,
      "gape": 7953,
      "ginger": 7954,
      "gasp": 7955,
      "jaws": 7956,
      "lys": 7957,
      "louder": 7958,
      "mam": 7959,
      "nich": 7960,
      "nig": 7961,
      "os": 7962,
      "pages": 7963,
      "tough": 7964,
      "vip": 7965,
      "vail": 7966,
      "vac": 7967,
      "vicious": 7968,
      "wagg": 7969,
      "western": 7970,
      "##ables": 7971,
      "##dst": 7972,
      "##done": 7973,
      "##sbury": 7974,
      "##resh": 7975,
      "##rade": 7976,
      "##me": 7977,
      "##lets": 7978,
      "##purn": 7979,
      "##uld": 7980,
      "##ugs": 7981,
      "##jud": 7982,
      "thund": 7983,
      "##erds": 7984,
      "##erog": 7985,
      "##osy": 7986,
      "##ater": 7987,
      "##atory": 7988,
      "##arino": 7989,
      "##enny": 7990,
      "##onna": 7991,
      "##iners": 7992,
      "##inction": 7993,
      "wight": 7994,
      "##omb": 7995,
      "##omy": 7996,
      "##omfort": 7997,
      "beet": 7998,
      "beadle": 7999,
      "ini": 8000,
      "shell": 8001,
      "##uto": 8002,
      "##che": 8003,
      "##chan": 8004,
      "##chers": 8005,
      "fork": 8006,
      "foret": 8007,
      "##lend": 8008,
      "issu": 8009,
      "##irts": 8010,
      "##itus": 8011,
      "##itimate": 8012,
      "##urus": 8013,
      "itch": 8014,
      "web": 8015,
      "stem": 8016,
      "aspir": 8017,
      "##alms": 8018,
      "prerog": 8019,
      "soar": 8020,
      "##allel": 8021,
      "##amer": 8022,
      "fru": 8023,
      "froward": 8024,
      "revell": 8025,
      "enth": 8026,
      "enow": 8027,
      "enact": 8028,
      "enrag": 8029,
      "herne": 8030,
      "##raign": 8031,
      "##racious": 8032,
      "gobb": 8033,
      "spear": 8034,
      "spaniel": 8035,
      "sphere": 8036,
      "knives": 8037,
      "##ilities": 8038,
      "chanc": 8039,
      "chorus": 8040,
      "uphold": 8041,
      "##unct": 8042,
      "exempt": 8043,
      "amount": 8044,
      "##earse": 8045,
      "comedy": 8046,
      "##ola": 8047,
      "##olas": 8048,
      "blister": 8049,
      "blade": 8050,
      "swan": 8051,
      "sequel": 8052,
      "marquess": 8053,
      "plat": 8054,
      "pless": 8055,
      "plott": 8056,
      "whereby": 8057,
      "whereupon": 8058,
      "madame": 8059,
      "madmen": 8060,
      "madonna": 8061,
      "scra": 8062,
      "##aker": 8063,
      "greed": 8064,
      "calend": 8065,
      "sale": 8066,
      "agent": 8067,
      "disf": 8068,
      "disaster": 8069,
      "twin": 8070,
      "led": 8071,
      "clubs": 8072,
      "##pton": 8073,
      "flag": 8074,
      "flaw": 8075,
      "gray": 8076,
      "grudge": 8077,
      "northern": 8078,
      "probable": 8079,
      "heave": 8080,
      "##ager": 8081,
      "hearers": 8082,
      "gentler": 8083,
      "warr": 8084,
      "wary": 8085,
      "betide": 8086,
      "perple": 8087,
      "foam": 8088,
      "moi": 8089,
      "moist": 8090,
      "ador": 8091,
      "adorn": 8092,
      "wrote": 8093,
      "nightingale": 8094,
      "plebe": 8095,
      "sweeten": 8096,
      "drench": 8097,
      "coach": 8098,
      "glance": 8099,
      "sonnet": 8100,
      "apple": 8101,
      "##rovers": 8102,
      "predom": 8103,
      "precise": 8104,
      "ante": 8105,
      "armies": 8106,
      "controvers": 8107,
      "repute": 8108,
      "##onso": 8109,
      "attrib": 8110,
      "truest": 8111,
      "lively": 8112,
      "smok": 8113,
      "crop": 8114,
      "crime": 8115,
      "crutch": 8116,
      "dieu": 8117,
      "emulation": 8118,
      "reserve": 8119,
      "humorous": 8120,
      "courts": 8121,
      "courtiers": 8122,
      "courtez": 8123,
      "braken": 8124,
      "treat": 8125,
      "treble": 8126,
      "edict": 8127,
      "antonius": 8128,
      "vienna": 8129,
      "suffers": 8130,
      "##ifully": 8131,
      "yeoman": 8132,
      "sounded": 8133,
      "stately": 8134,
      "security": 8135,
      "nearest": 8136,
      "phry": 8137,
      "images": 8138,
      "freeze": 8139,
      "harder": 8140,
      "cassandra": 8141,
      "messina": 8142,
      "generous": 8143,
      "capon": 8144,
      "provokes": 8145,
      "distinct": 8146,
      "distinction": 8147,
      "expos": 8148,
      "leader": 8149,
      "demi": 8150,
      "infants": 8151,
      "streams": 8152,
      "strait": 8153,
      "pett": 8154,
      "living": 8155,
      "chambers": 8156,
      "##shill": 8157,
      "malady": 8158,
      "surv": 8159,
      "surly": 8160,
      "##ront": 8161,
      "##ronius": 8162,
      "waits": 8163,
      "confessor": 8164,
      "incont": 8165,
      "incorp": 8166,
      "watchful": 8167,
      "profan": 8168,
      "salarino": 8169,
      "evidence": 8170,
      "appearance": 8171,
      "snail": 8172,
      "snuff": 8173,
      "intercept": 8174,
      "interchange": 8175,
      "entreaties": 8176,
      "pretence": 8177,
      "calchas": 8178,
      "calpurn": 8179,
      "relate": 8180,
      "takest": 8181,
      "verity": 8182,
      "monsters": 8183,
      "sports": 8184,
      "witnesses": 8185,
      "sprite": 8186,
      "offenders": 8187,
      "beggarly": 8188,
      "stealth": 8189,
      "helenus": 8190,
      "famine": 8191,
      "spoils": 8192,
      "model": 8193,
      "tribe": 8194,
      "bondman": 8195,
      "syc": 8196,
      "leonine": 8197,
      "finely": 8198,
      "argues": 8199,
      "arguments": 8200,
      "volume": 8201,
      "##ovico": 8202,
      "##olyta": 8203,
      "contrive": 8204,
      "ldst": 8205,
      "towers": 8206,
      "virgins": 8207,
      "jealousies": 8208,
      "refer": 8209,
      "important": 8210,
      "painter": 8211,
      "riddle": 8212,
      "geese": 8213,
      "flee": 8214,
      "requests": 8215,
      "memor": 8216,
      "member": 8217,
      "amaze": 8218,
      "tyrants": 8219,
      "enjoin": 8220,
      "gardiner": 8221,
      "faintly": 8222,
      "sola": 8223,
      "debtor": 8224,
      "slanderous": 8225,
      "needle": 8226,
      "publicly": 8227,
      "rarely": 8228,
      "shrewsbury": 8229,
      "expressly": 8230,
      "wreath": 8231,
      "dotage": 8232,
      "heralds": 8233,
      "lodovico": 8234,
      "different": 8235,
      "abuses": 8236,
      "appointment": 8237,
      "##rehend": 8238,
      "bewitch": 8239,
      "allowance": 8240,
      "floods": 8241,
      "escap": 8242,
      "temperance": 8243,
      "hyper": 8244,
      "pilot": 8245,
      "strangeness": 8246,
      "cherry": 8247,
      "vexation": 8248,
      "rashness": 8249,
      "tortur": 8250,
      "observation": 8251,
      "rhymes": 8252,
      "decline": 8253,
      "humanity": 8254,
      "shrewdly": 8255,
      "gripe": 8256,
      "choleric": 8257,
      "globe": 8258,
      "commonweal": 8259,
      "sinew": 8260,
      "wheels": 8261,
      "sleeves": 8262,
      "breadth": 8263,
      "beauties": 8264,
      "wedlock": 8265,
      "obscur": 8266,
      "alehouse": 8267,
      "tumbl": 8268,
      "tumult": 8269,
      "augment": 8270,
      "tickle": 8271,
      "frankly": 8272,
      "overthrown": 8273,
      "centa": 8274,
      "chatillon": 8275,
      "philosopher": 8276,
      "adriano": 8277,
      "stumbl": 8278,
      "chapel": 8279,
      "diligence": 8280,
      "pulse": 8281,
      "receives": 8282,
      "ornaments": 8283,
      "factious": 8284,
      "slippery": 8285,
      "rarest": 8286,
      "seduc": 8287,
      "muddy": 8288,
      "ominous": 8289,
      "votre": 8290,
      "bruise": 8291,
      "influ": 8292,
      "construe": 8293,
      "ripen": 8294,
      "moderate": 8295,
      "resemble": 8296,
      "substitute": 8297,
      "ceremonies": 8298,
      "perdition": 8299,
      "cramm": 8300,
      "farthest": 8301,
      "volumnia": 8302,
      "nymphs": 8303,
      "whistle": 8304,
      "licence": 8305,
      "persever": 8306,
      "cobwe": 8307,
      "contagious": 8308,
      "merchants": 8309,
      "divinity": 8310,
      "sympathy": 8311,
      "vaughan": 8312,
      "rehearse": 8313,
      "dwarf": 8314,
      "tubal": 8315,
      "unquiet": 8316,
      "lackey": 8317,
      "eloquence": 8318,
      "tragedy": 8319,
      "simply": 8320,
      "circumstances": 8321,
      "cedar": 8322,
      "fidele": 8323,
      "gadshill": 8324,
      "gulf": 8325,
      "hippolyta": 8326,
      "clamorous": 8327,
      "compulsion": 8328,
      "attorney": 8329,
      "occupation": 8330,
      "tucket": 8331,
      "conception": 8332,
      "cabin": 8333,
      "flinty": 8334,
      "education": 8335,
      "sixpence": 8336,
      "##riend": 8337,
      "eyelids": 8338,
      "illyria": 8339,
      "crystal": 8340,
      "calamity": 8341,
      "ethi": 8342,
      "lysimachus": 8343,
      "nicholas": 8344,
      "niggard": 8345,
      "thunders": 8346,
      "perplex": 8347,
      "controversy": 8348,
      "brakenbury": 8349,
      "calpurnia": 8350,
      "ara": 8351,
      "bourn": 8352,
      "bagg": 8353,
      "boughs": 8354,
      "dor": 8355,
      "dane": 8356,
      "eve": 8357,
      "ecl": 8358,
      "fard": 8359,
      "fum": 8360,
      "fel": 8361,
      "foster": 8362,
      "gore": 8363,
      "gany": 8364,
      "hir": 8365,
      "hits": 8366,
      "ic": 8367,
      "jet": 8368,
      "jig": 8369,
      "jac": 8370,
      "juggl": 8371,
      "kites": 8372,
      "kitch": 8373,
      "lar": 8374,
      "link": 8375,
      "lass": 8376,
      "loses": 8377,
      "mire": 8378,
      "map": 8379,
      "nations": 8380,
      "ot": 8381,
      "oly": 8382,
      "oper": 8383,
      "pel": 8384,
      "pith": 8385,
      "rent": 8386,
      "rite": 8387,
      "reel": 8388,
      "ster": 8389,
      "tink": 8390,
      "vaunt": 8391,
      "ware": 8392,
      "wins": 8393,
      "##aud": 8394,
      "##dges": 8395,
      "##oa": 8396,
      "##sues": 8397,
      "##gory": 8398,
      "##ns": 8399,
      "##nance": 8400,
      "##vid": 8401,
      "##vation": 8402,
      "##back": 8403,
      "##lam": 8404,
      "##pter": 8405,
      "##cus": 8406,
      "##yn": 8407,
      "##fle": 8408,
      "##fall": 8409,
      "thaw": 8410,
      "##ermen": 8411,
      "##orter": 8412,
      "##oric": 8413,
      "##ena": 8414,
      "##onus": 8415,
      "##inies": 8416,
      "whos": 8417,
      "whips": 8418,
      "##vels": 8419,
      "##omenes": 8420,
      "bees": 8421,
      "beest": 8422,
      "ine": 8423,
      "injust": 8424,
      "myr": 8425,
      "##ases": 8426,
      "##asph": 8427,
      "shru": 8428,
      "shrift": 8429,
      "hay": 8430,
      "hale": 8431,
      "##etition": 8432,
      "forfend": 8433,
      "##lection": 8434,
      "isid": 8435,
      "issues": 8436,
      "##uster": 8437,
      "staves": 8438,
      "##ked": 8439,
      "##keley": 8440,
      "##adel": 8441,
      "pry": 8442,
      "pranks": 8443,
      "sojourn": 8444,
      "##idity": 8445,
      "doves": 8446,
      "ligar": 8447,
      "##omel": 8448,
      "anch": 8449,
      "anim": 8450,
      "whatever": 8451,
      "deject": 8452,
      "herb": 8453,
      "heretic": 8454,
      "##races": 8455,
      "##rages": 8456,
      "gobl": 8457,
      "goats": 8458,
      "sunday": 8459,
      "spill": 8460,
      "spots": 8461,
      "##ardo": 8462,
      "knighth": 8463,
      "##ilis": 8464,
      "##ilts": 8465,
      "chides": 8466,
      "chaff": 8467,
      "chann": 8468,
      "atone": 8469,
      "brat": 8470,
      "brine": 8471,
      "briers": 8472,
      "oration": 8473,
      "##antial": 8474,
      "sheathe": 8475,
      "conject": 8476,
      "unfe": 8477,
      "##ively": 8478,
      "wasp": 8479,
      "blasph": 8480,
      "howsoever": 8481,
      "arraign": 8482,
      "severe": 8483,
      "usher": 8484,
      "mary": 8485,
      "plate": 8486,
      "alonso": 8487,
      "scal": 8488,
      "scri": 8489,
      "greasy": 8490,
      "gregory": 8491,
      "caper": 8492,
      "cauld": 8493,
      "##emp": 8494,
      "##ements": 8495,
      "##igonus": 8496,
      "lends": 8497,
      "##ffrey": 8498,
      "grapple": 8499,
      "flo": 8500,
      "flash": 8501,
      "grin": 8502,
      "grind": 8503,
      "poisons": 8504,
      "abb": 8505,
      "abound": 8506,
      "ability": 8507,
      "eyne": 8508,
      "##urnish": 8509,
      "##fulness": 8510,
      "hearken": 8511,
      "perus": 8512,
      "earls": 8513,
      "wrench": 8514,
      "wrangl": 8515,
      "drugs": 8516,
      "maim": 8517,
      "jolly": 8518,
      "anyth": 8519,
      "cod": 8520,
      "cog": 8521,
      "glit": 8522,
      "bearer": 8523,
      "##robe": 8524,
      "preach": 8525,
      "precept": 8526,
      "prelate": 8527,
      "antigonus": 8528,
      "compel": 8529,
      "headstr": 8530,
      "repetition": 8531,
      "##swain": 8532,
      "purity": 8533,
      "indian": 8534,
      "induce": 8535,
      "chariot": 8536,
      "queens": 8537,
      "dearth": 8538,
      "follower": 8539,
      "harness": 8540,
      "harfle": 8541,
      "bestr": 8542,
      "attaint": 8543,
      "belie": 8544,
      "confines": 8545,
      "endow": 8546,
      "consume": 8547,
      "litter": 8548,
      "resp": 8549,
      "residence": 8550,
      "passages": 8551,
      "kindl": 8552,
      "kindle": 8553,
      "brake": 8554,
      "braver": 8555,
      "brands": 8556,
      "valer": 8557,
      "pease": 8558,
      "seemeth": 8559,
      "trace": 8560,
      "travail": 8561,
      "erect": 8562,
      "overcame": 8563,
      "overdone": 8564,
      "carv": 8565,
      "carl": 8566,
      "carve": 8567,
      "asses": 8568,
      "assign": 8569,
      "banners": 8570,
      "hopeful": 8571,
      "justify": 8572,
      "##ifer": 8573,
      "discard": 8574,
      "misd": 8575,
      "opens": 8576,
      "sentine": 8577,
      "advantages": 8578,
      "strives": 8579,
      "barber": 8580,
      "lucullus": 8581,
      "exceeds": 8582,
      "intoler": 8583,
      "cleomenes": 8584,
      "propos": 8585,
      "doubtless": 8586,
      "fitter": 8587,
      "fitness": 8588,
      "provision": 8589,
      "buz": 8590,
      "buys": 8591,
      "proudly": 8592,
      "expir": 8593,
      "cutt": 8594,
      "sinful": 8595,
      "camb": 8596,
      "mines": 8597,
      "minst": 8598,
      "tenth": 8599,
      "captives": 8600,
      "wooer": 8601,
      "salve": 8602,
      "salique": 8603,
      "havoc": 8604,
      "##yster": 8605,
      "construction": 8606,
      "visor": 8607,
      "untr": 8608,
      "extemp": 8609,
      "snout": 8610,
      "pretend": 8611,
      "basely": 8612,
      "legate": 8613,
      "opposition": 8614,
      "relation": 8615,
      "fetter": 8616,
      "traitorous": 8617,
      "lamp": 8618,
      "widows": 8619,
      "wretchedness": 8620,
      "verd": 8621,
      "verges": 8622,
      "undes": 8623,
      "judges": 8624,
      "idiot": 8625,
      "commendation": 8626,
      "broil": 8627,
      "sprung": 8628,
      "christians": 8629,
      "wilder": 8630,
      "##emption": 8631,
      "starvel": 8632,
      "forego": 8633,
      "cheerfully": 8634,
      "bellario": 8635,
      "elect": 8636,
      "seals": 8637,
      "easier": 8638,
      "worships": 8639,
      "wooden": 8640,
      "woodcock": 8641,
      "unwh": 8642,
      "breasts": 8643,
      "forswore": 8644,
      "mutton": 8645,
      "roundly": 8646,
      "virgilia": 8647,
      "philomel": 8648,
      "redemption": 8649,
      "counterp": 8650,
      "montjoy": 8651,
      "unhallow": 8652,
      "shepherds": 8653,
      "quietly": 8654,
      "bitterly": 8655,
      "girdle": 8656,
      "imports": 8657,
      "importun": 8658,
      "usurer": 8659,
      "costly": 8660,
      "tarqu": 8661,
      "geffrey": 8662,
      "seventh": 8663,
      "continual": 8664,
      "proclaims": 8665,
      "citizen": 8666,
      "cater": 8667,
      "courageous": 8668,
      "equiv": 8669,
      "members": 8670,
      "necessities": 8671,
      "unpre": 8672,
      "odious": 8673,
      "extremest": 8674,
      "casement": 8675,
      "faints": 8676,
      "solus": 8677,
      "briton": 8678,
      "uncles": 8679,
      "bishops": 8680,
      "irre": 8681,
      "lamentation": 8682,
      "environ": 8683,
      "accordingly": 8684,
      "basilis": 8685,
      "cordial": 8686,
      "unborn": 8687,
      "particulars": 8688,
      "gratify": 8689,
      "guiltiness": 8690,
      "affects": 8691,
      "incline": 8692,
      "disdainful": 8693,
      "mildly": 8694,
      "martial": 8695,
      "porp": 8696,
      "earnestly": 8697,
      "daunt": 8698,
      "domest": 8699,
      "swells": 8700,
      "cherub": 8701,
      "engine": 8702,
      "tiber": 8703,
      "climate": 8704,
      "magist": 8705,
      "ravenspur": 8706,
      "slightly": 8707,
      "dissension": 8708,
      "bandy": 8709,
      "##flow": 8710,
      "sparks": 8711,
      "glean": 8712,
      "ordinance": 8713,
      "ordnance": 8714,
      "nicely": 8715,
      "greekish": 8716,
      "expedient": 8717,
      "multitud": 8718,
      "haunts": 8719,
      "poetry": 8720,
      "rebellious": 8721,
      "accompany": 8722,
      "coronet": 8723,
      "frett": 8724,
      "perfections": 8725,
      "rusty": 8726,
      "characters": 8727,
      "adversary": 8728,
      "interpre": 8729,
      "berkeley": 8730,
      "credulous": 8731,
      "tunis": 8732,
      "reveal": 8733,
      "wrinkles": 8734,
      "subscrib": 8735,
      "thoroughly": 8736,
      "stumble": 8737,
      "spectacle": 8738,
      "morsel": 8739,
      "frosty": 8740,
      "strato": 8741,
      "comparisons": 8742,
      "impression": 8743,
      "curtains": 8744,
      "insolent": 8745,
      "complaints": 8746,
      "confederates": 8747,
      "blaze": 8748,
      "mistaken": 8749,
      "continuance": 8750,
      "juice": 8751,
      "navy": 8752,
      "favor": 8753,
      "conversation": 8754,
      "puppet": 8755,
      "inferior": 8756,
      "admittance": 8757,
      "riotous": 8758,
      "boatswain": 8759,
      "modern": 8760,
      "volumnius": 8761,
      "lantern": 8762,
      "##mede": 8763,
      "summons": 8764,
      "gorgeous": 8765,
      "tartar": 8766,
      "imitate": 8767,
      "entirely": 8768,
      "prettiest": 8769,
      "austria": 8770,
      "dedicate": 8771,
      "brothel": 8772,
      "cups": 8773,
      "pudd": 8774,
      "delivers": 8775,
      "inconstant": 8776,
      "fulfill": 8777,
      "adriana": 8778,
      "echo": 8779,
      "forgiveness": 8780,
      "ignoble": 8781,
      "balance": 8782,
      "wheresoe": 8783,
      "therewithal": 8784,
      "quintus": 8785,
      "abode": 8786,
      "venetian": 8787,
      "doomsday": 8788,
      "ingenious": 8789,
      "polyd": 8790,
      "bretagne": 8791,
      "curtsy": 8792,
      "bauble": 8793,
      "iniquity": 8794,
      "calendar": 8795,
      "plebeians": 8796,
      "incorporate": 8797,
      "baggage": 8798,
      "ganymede": 8799,
      "olymp": 8800,
      "injustice": 8801,
      "isidore": 8802,
      "ligarius": 8803,
      "knighthood": 8804,
      "blasphem": 8805,
      "cauldron": 8806,
      "headstrong": 8807,
      "harfleur": 8808,
      "intolerable": 8809,
      "ravenspurgh": 8810,
      "ae": 8811,
      "aunch": 8812,
      "bower": 8813,
      "cott": 8814,
      "dan": 8815,
      "dast": 8816,
      "duteous": 8817,
      "ege": 8818,
      "fickle": 8819,
      "gay": 8820,
      "gem": 8821,
      "hip": 8822,
      "hint": 8823,
      "hoop": 8824,
      "jour": 8825,
      "jars": 8826,
      "kick": 8827,
      "kite": 8828,
      "lous": 8829,
      "mi": 8830,
      "nost": 8831,
      "oo": 8832,
      "oyster": 8833,
      "pall": 8834,
      "pag": 8835,
      "pau": 8836,
      "pelt": 8837,
      "rook": 8838,
      "rave": 8839,
      "range": 8840,
      "rides": 8841,
      "sams": 8842,
      "teem": 8843,
      "tilt": 8844,
      "vary": 8845,
      "vale": 8846,
      "wage": 8847,
      "yawn": 8848,
      "##eon": 8849,
      "##oise": 8850,
      "##oons": 8851,
      "##rat": 8852,
      "##rine": 8853,
      "##rors": 8854,
      "##ibe": 8855,
      "##nis": 8856,
      "##my": 8857,
      "##mber": 8858,
      "##mbles": 8859,
      "##bbles": 8860,
      "##hire": 8861,
      "##picious": 8862,
      "##uge": 8863,
      "##cass": 8864,
      "##cund": 8865,
      "##while": 8866,
      "##jure": 8867,
      "thal": 8868,
      "thump": 8869,
      "##erial": 8870,
      "##osity": 8871,
      "##esse": 8872,
      "##isle": 8873,
      "##isome": 8874,
      "##enu": 8875,
      "##enish": 8876,
      "toast": 8877,
      "topp": 8878,
      "toads": 8879,
      "##onge": 8880,
      "##anim": 8881,
      "##inces": 8882,
      "whale": 8883,
      "##rell": 8884,
      "##reus": 8885,
      "insc": 8886,
      "shock": 8887,
      "shuff": 8888,
      "##cham": 8889,
      "##charg": 8890,
      "forer": 8891,
      "mechan": 8892,
      "isis": 8893,
      "##ird": 8894,
      "##itary": 8895,
      "##itaine": 8896,
      "##urse": 8897,
      "##urbs": 8898,
      "stag": 8899,
      "stings": 8900,
      "stalk": 8901,
      "stint": 8902,
      "stony": 8903,
      "prose": 8904,
      "##idam": 8905,
      "doit": 8906,
      "doct": 8907,
      "livers": 8908,
      "##ampton": 8909,
      "ann": 8910,
      "anat": 8911,
      "anth": 8912,
      "enroll": 8913,
      "deity": 8914,
      "dealt": 8915,
      "herr": 8916,
      "herod": 8917,
      "##rave": 8918,
      "##geal": 8919,
      "thyreus": 8920,
      "goat": 8921,
      "spade": 8922,
      "spices": 8923,
      "knots": 8924,
      "lopp": 8925,
      "chant": 8926,
      "chick": 8927,
      "chuck": 8928,
      "broo": 8929,
      "brood": 8930,
      "lett": 8931,
      "fails": 8932,
      "conrade": 8933,
      "congeal": 8934,
      "heredit": 8935,
      "unus": 8936,
      "unable": 8937,
      "uncl": 8938,
      "unple": 8939,
      "unsc": 8940,
      "unrest": 8941,
      "canidius": 8942,
      "sways": 8943,
      "##uman": 8944,
      "aright": 8945,
      "arrow": 8946,
      "##amed": 8947,
      "sect": 8948,
      "seign": 8949,
      "seasons": 8950,
      "##ically": 8951,
      "mariners": 8952,
      "plaint": 8953,
      "whereat": 8954,
      "##rian": 8955,
      "##rious": 8956,
      "##rives": 8957,
      "alm": 8958,
      "scy": 8959,
      "scab": 8960,
      "scald": 8961,
      "scales": 8962,
      "sconce": 8963,
      "##aken": 8964,
      "disclos": 8965,
      "musty": 8966,
      "twig": 8967,
      "whoe": 8968,
      "lect": 8969,
      "speaker": 8970,
      "speakest": 8971,
      "clip": 8972,
      "clout": 8973,
      "clime": 8974,
      "clog": 8975,
      "club": 8976,
      "hearty": 8977,
      "graft": 8978,
      "grapes": 8979,
      "flute": 8980,
      "quot": 8981,
      "gramer": 8982,
      "progen": 8983,
      "timeless": 8984,
      "gentles": 8985,
      "warp": 8986,
      "foils": 8987,
      "erg": 8988,
      "erst": 8989,
      "erlook": 8990,
      "erwhelm": 8991,
      "##elius": 8992,
      "handl": 8993,
      "duly": 8994,
      "leaps": 8995,
      "hasten": 8996,
      "sweets": 8997,
      "drove": 8998,
      "mace": 8999,
      "jocund": 9000,
      "coven": 9001,
      "coals": 9002,
      "coffer": 9003,
      "glim": 9004,
      "glister": 9005,
      "glamis": 9006,
      "slips": 9007,
      "servile": 9008,
      "contains": 9009,
      "controll": 9010,
      "presage": 9011,
      "remn": 9012,
      "keepers": 9013,
      "hoist": 9014,
      "hovel": 9015,
      "fortnight": 9016,
      "##ensive": 9017,
      "lieu": 9018,
      "attent": 9019,
      "guid": 9020,
      "guides": 9021,
      "smith": 9022,
      "smelt": 9023,
      "confounds": 9024,
      "elves": 9025,
      "consp": 9026,
      "died": 9027,
      "tongu": 9028,
      "imposition": 9029,
      "cures": 9030,
      "curio": 9031,
      "parr": 9032,
      "parl": 9033,
      "courtship": 9034,
      "drab": 9035,
      "trembles": 9036,
      "accost": 9037,
      "eyeb": 9038,
      "doubly": 9039,
      "righteous": 9040,
      "taurus": 9041,
      "tract": 9042,
      "overcome": 9043,
      "overtake": 9044,
      "overheard": 9045,
      "suburbs": 9046,
      "carn": 9047,
      "carcass": 9048,
      "pleased": 9049,
      "attending": 9050,
      "thankfully": 9051,
      "breaths": 9052,
      "discomfort": 9053,
      "misg": 9054,
      "misbe": 9055,
      "miscon": 9056,
      "maidens": 9057,
      "advocate": 9058,
      "hitherto": 9059,
      "hitherward": 9060,
      "lastly": 9061,
      "musk": 9062,
      "lucre": 9063,
      "##ibel": 9064,
      "throughly": 9065,
      "carefully": 9066,
      "lesson": 9067,
      "palate": 9068,
      "bale": 9069,
      "cleft": 9070,
      "suppress": 9071,
      "propose": 9072,
      "depends": 9073,
      "fouler": 9074,
      "##ourably": 9075,
      "##ompass": 9076,
      "castles": 9077,
      "dogg": 9078,
      "skip": 9079,
      "skins": 9080,
      "skirm": 9081,
      "deme": 9082,
      "angle": 9083,
      "saddle": 9084,
      "certainty": 9085,
      "satan": 9086,
      "method": 9087,
      "cheat": 9088,
      "cheques": 9089,
      "##shine": 9090,
      "surge": 9091,
      "deliverance": 9092,
      "hellish": 9093,
      "regions": 9094,
      "profits": 9095,
      "estates": 9096,
      "buckram": 9097,
      "grounds": 9098,
      "marching": 9099,
      "embark": 9100,
      "extort": 9101,
      "extenu": 9102,
      "quarrell": 9103,
      "revengeful": 9104,
      "interr": 9105,
      "straightway": 9106,
      "legitimate": 9107,
      "shorten": 9108,
      "penet": 9109,
      "feels": 9110,
      "crick": 9111,
      "##askets": 9112,
      "moonlight": 9113,
      "defil": 9114,
      "creation": 9115,
      "harmful": 9116,
      "verb": 9117,
      "verge": 9118,
      "teaches": 9119,
      "iden": 9120,
      "commendable": 9121,
      "broker": 9122,
      "lowest": 9123,
      "sprites": 9124,
      "hammer": 9125,
      "##ofern": 9126,
      "##ittance": 9127,
      "battlements": 9128,
      "crosses": 9129,
      "passionate": 9130,
      "violets": 9131,
      "limits": 9132,
      "bastardy": 9133,
      "corners": 9134,
      "closely": 9135,
      "secretary": 9136,
      "##rament": 9137,
      "orderly": 9138,
      "formal": 9139,
      "fresher": 9140,
      "freshly": 9141,
      "sorcer": 9142,
      "athwart": 9143,
      "healthful": 9144,
      "wisdoms": 9145,
      "solely": 9146,
      "received": 9147,
      "posts": 9148,
      "##olycus": 9149,
      "mutinous": 9150,
      "qualify": 9151,
      "jacks": 9152,
      "shrunk": 9153,
      "sacrament": 9154,
      "bitterness": 9155,
      "gird": 9156,
      "painful": 9157,
      "usurper": 9158,
      "decrees": 9159,
      "owen": 9160,
      "forsook": 9161,
      "steer": 9162,
      "stepp": 9163,
      "sailor": 9164,
      "bedfellow": 9165,
      "bedlam": 9166,
      "campeius": 9167,
      "utterly": 9168,
      "uttermost": 9169,
      "equally": 9170,
      "holes": 9171,
      "holofern": 9172,
      "posterity": 9173,
      "claims": 9174,
      "greetings": 9175,
      "uncivil": 9176,
      "glasses": 9177,
      "audacious": 9178,
      "givest": 9179,
      "irons": 9180,
      "bigot": 9181,
      "fondly": 9182,
      "remedies": 9183,
      "oxen": 9184,
      "undertak": 9185,
      "gratis": 9186,
      "halter": 9187,
      "dotes": 9188,
      "befits": 9189,
      "combine": 9190,
      "bewray": 9191,
      "arrive": 9192,
[...]
