{
  "version": "1.0",
  "truncation": null,
  "padding": null,
  "added_tokens": [
    {
      "id": 0,
      "content": "[PAD]",
      "single_word": false,
      "lstrip": false,
      "rstrip": false,
      "normalized": false,
      "special": true
    },
    {
      "id": 1,
      "content": "[UNK]",
      "single_word": false,
      "lstrip": false,
      "rstrip": false,
      "normalized": false,
      "special": true
    },
    {
      "id": 2,
      "content": "[CLS]",
      "single_word": false,
      "lstrip": false,
      "rstrip": false,
      "normalized": false,
      "special": true
    },
    {
      "id": 3,
      "content": "[SEP]",
      "single_word": false,
      "lstrip": false,
      "rstrip": false,
      "normalized": false,
      "special": true
    },
    {
      "id": 4,
      "content": "[MASK]",
      "single_word": false,
      "lstrip": false,
      "rstrip": false,
      "normalized": false,
      "special": true
    }
  ],
  "normalizer": {
    "type": "BertNormalizer",
    "clean_text": true,
    "handle_chinese_chars": true,
    "strip_accents": null,
    "lowercase": true
  },
  "pre_tokenizer": {
    "type": "BertPreTokenizer"
  },
  "post_processor": {
    "type": "TemplateProcessing",
    "single": [
      {
        "SpecialToken": {
          "id": "[CLS]",
          "type_id": 0
        }
      },
      {
        "Sequence": {
          "id": "A",
          "type_id": 0
        }
      },
      {
        "SpecialToken": {
          "id": "[SEP]",
          "type_id": 0
        }
      }
    ],
    "pair": [
      {
        "SpecialToken": {
          "id": "[CLS]",
          "type_id": 0
        }
      },
      {
        "Sequence": {
          "id": "A",
          "type_id": 0
        }
      },
      {
        "SpecialToken": {
          "id": "[SEP]",
          "type_id": 0
        }
      },
      {
        "Sequence": {
          "id": "B",
          "type_id": 1
        }
      },
      {
        "SpecialToken": {
          "id": "[SEP]",
          "type_id": 1
        }
      }
    ],
    "special_tokens": {
      "[CLS]": {
        "id": "[CLS]",
        "ids": [
          2
        ],
        "tokens": [
          "[CLS]"
        ]
      },
      "[SEP]": {
        "id": "[SEP]",
        "ids": [
          3
        ],
        "tokens": [
          "[SEP]"
        ]
      }
    }
  },
  "decoder": {
    "type": "WordPiece",
    "prefix": "##",
    "cleanup": true
  },
  "model": {
    "type": "WordPiece",
    "unk_token": "[UNK]",
    "continuing_subword_prefix": "##",
    "max_input_chars_per_word": 100,
    "vocab": {
      "[PAD]": 0,
      "[UNK]": 1,
      "[CLS]": 2,
      "[SEP]": 3,
      "[MASK]": 4,
      "!": 5,
      "$": 6,
      "'": 7,
      "(": 8,
      ")": 9,
      ",": 10,
      "-": 11,
      "1": 12,
      "2": 13,
      "3": 14,
      "4": 15,
      "5": 16,
      "6": 17,
      "7": 18,
      "8": 19,
      "9": 20,
      "<": 21,
      ">": 22,
      "?": 23,
      "[": 24,
      "]": 25,
      "a": 26,
      "b": 27,
      "c": 28,
      "d": 29,
      "e": 30,
      "f": 31,
      "g": 32,
      "h": 33,
      "i": 34,
      "j": 35,
      "k": 36,
      "l": 37,
      "m": 38,
      "n": 39,
      "o": 40,
      "p": 41,
      "q": 42,
      "r": 43,
      "s": 44,
      "t": 45,
      "u": 46,
      "v": 47,
      "w": 48,
      "x": 49,
      "y": 50,
      "z": 51,
      "##o": 52,
      "##w": 53,
      "##e": 54,
      "##r": 55,
      "##i": 56,
      "##n": 57,
      "##g": 58,
      "##a": 59,
      "##l": 60,
      "##d": 61,
      "##s": 62,
      "##m": 63,
      "##b": 64,
      "##h": 65,
      "##t": 66,
      "##c": 67,
      "##k": 68,
      "##p": 69,
      "##u": 70,
      "##v": 71,
      "##f": 72,
      "##y": 73,
      "##z": 74,
      "##q": 75,
      "##x": 76,
      "##j": 77,
      "th": 78,
      "##er": 79,
      "##ou": 80,
      "##os": 81,
      "##nd": 82,
      "the": 83,
      "eos": 84,
      "##or": 85,
      "##at": 86,
      "##in": 87,
      "##es": 88,
      "##ll": 89,
      "and": 90,
      "##is": 91,
      "##ar": 92,
      "##en": 93,
      "to": 94,
      "you": 95,
      "##on": 96,
      "##th": 97,
      "##ed": 98,
      "##an": 99,
      "of": 100,
      "no": 101,
      "wh": 102,
      "wi": 103,
      "##ve": 104,
      "##ing": 105,
      "##om": 106,
      "##re": 107,
      "be": 108,
      "in": 109,
      "he": 110,
      "my": 111,
      "##as": 112,
      "##ow": 113,
      "sh": 114,
      "##ce": 115,
      "that": 116,
      "ha": 117,
      "##et": 118,
      "##ut": 119,
      "##ch": 120,
      "for": 121,
      "##ay": 122,
      "##ld": 123,
      "##le": 124,
      "me": 125,
      "is": 126,
      "##ir": 127,
      "##ere": 128,
      "##us": 129,
      "##it": 130,
      "not": 131,
      "##ur": 132,
      "with": 133,
      "##ter": 134,
      "##im": 135,
      "##gh": 136,
      "it": 137,
      "##oo": 138,
      "we": 139,
      "st": 140,
      "your": 141,
      "##se": 142,
      "as": 143,
      "##ke": 144,
      "thou": 145,
      "##ad": 146,
      "##al": 147,
      "his": 148,
      "this": 149,
      "but": 150,
      "pr": 151,
      "so": 152,
      "##ent": 153,
      "##id": 154,
      "##all": 155,
      "have": 156,
      "do": 157,
      "on": 158,
      "him": 159,
      "li": 160,
      "##ome": 161,
      "##ath": 162,
      "##ght": 163,
      "##ly": 164,
      "will": 165,
      "##am": 166,
      "##ess": 167,
      "an": 168,
      "##ord": 169,
      "de": 170,
      "fr": 171,
      "##est": 172,
      "##ain": 173,
      "re": 174,
      "what": 175,
      "##ould": 176,
      "en": 177,
      "se": 178,
      "her": 179,
      "##ood": 180,
      "##ore": 181,
      "##ck": 182,
      "##ver": 183,
      "##ion": 184,
      "##ra": 185,
      "##ie": 186,
      "thy": 187,
      "##ther": 188,
      "go": 189,
      "##ge": 190,
      "su": 191,
      "all": 192,
      "##our": 193,
      "##st": 194,
      "by": 195,
      "##pe": 196,
      "shall": 197,
      "##and": 198,
      "##ight": 199,
      "if": 200,
      "##ake": 201,
      "##ard": 202,
      "kn": 203,
      "##il": 204,
      "lo": 205,
      "are": 206,
      "tr": 207,
      "##ct": 208,
      "ch": 209,
      "ne": 210,
      "our": 211,
      "lord": 212,
      "thee": 213,
      "at": 214,
      "##ue": 215,
      "##ak": 216,
      "##ast": 217,
      "there": 218,
      "good": 219,
      "man": 220,
      "up": 221,
      "br": 222,
      "##un": 223,
      "ex": 224,
      "##ich": 225,
      "or": 226,
      "##ill": 227,
      "am": 228,
      "now": 229,
      "she": 230,
      "let": 231,
      "com": 232,
      "##ant": 233,
      "sir": 234,
      "##ell": 235,
      "##fe": 236,
      "fa": 237,
      "con": 238,
      "##ust": 239,
      "##art": 240,
      "from": 241,
      "##ous": 242,
      "##ine": 243,
      "##ost": 244,
      "enter": 245,
      "##ot": 246,
      "le": 247,
      "come": 248,
      "they": 249,
      "##sel": 250,
      "ll": 251,
      "here": 252,
      "un": 253,
      "would": 254,
      "than": 255,
      "##ers": 256,
      "##ul": 257,
      "##one": 258,
      "was": 259,
      "##ive": 260,
      "know": 261,
      "more": 262,
      "##ol": 263,
      "bl": 264,
      "can": 265,
      "##ven": 266,
      "sw": 267,
      "how": 268,
      "which": 269,
      "well": 270,
      "then": 271,
      "##ose": 272,
      "see": 273,
      "##um": 274,
      "ar": 275,
      "##ble": 276,
      "them": 277,
      "##ry": 278,
      "love": 279,
      "##ame": 280,
      "##ear": 281,
      "##ish": 282,
      "their": 283,
      "when": 284,
      "say": 285,
      "##ee": 286,
      "##ate": 287,
      "##ind": 288,
      "bo": 289,
      "wor": 290,
      "##ic": 291,
      "king": 292,
      "##ence": 293,
      "spe": 294,
      "##self": 295,
      "us": 296,
      "hath": 297,
      "mar": 298,
      "pl": 299,
      "like": 300,
      "##row": 301,
      "one": 302,
      "did": 303,
      "##ri": 304,
      "##ink": 305,
      "where": 306,
      "mad": 307,
      "sp": 308,
      "##ong": 309,
      "may": 310,
      "upon": 311,
      "al": 312,
      "sc": 313,
      "##pp": 314,
      "should": 315,
      "##ure": 316,
      "make": 317,
      "ho": 318,
      "gre": 319,
      "##other": 320,
      "out": 321,
      "##ance": 322,
      "ca": 323,
      "sa": 324,
      "##ves": 325,
      "were": 326,
      "##fore": 327,
      "ag": 328,
      "##ort": 329,
      "dis": 330,
      "##ook": 331,
      "yet": 332,
      "##ather": 333,
      "some": 334,
      "had": 335,
      "must": 336,
      "tw": 337,
      "##ound": 338,
      "why": 339,
      "##are": 340,
      "who": 341,
      "##em": 342,
      "##ig": 343,
      "too": 344,
      "tis": 345,
      "tim": 346,
      "pro": 347,
      "speak": 348,
      "such": 349,
      "##ice": 350,
      "##ff": 351,
      "cl": 352,
      "give": 353,
      "these": 354,
      "##pt": 355,
      "##oun": 356,
      "again": 357,
      "##ity": 358,
      "##ace": 359,
      "la": 360,
      "hon": 361,
      "##ide": 362,
      "##ies": 363,
      "god": 364,
      "##nds": 365,
      "heart": 366,
      "##io": 367,
      "gra": 368,
      "##ave": 369,
      "po": 370,
      "fl": 371,
      "##nder": 372,
      "take": 373,
      "##ick": 374,
      "qu": 375,
      "gr": 376,
      "##orn": 377,
      "ever": 378,
      "think": 379,
      "look": 380,
      "ab": 381,
      "##ise": 382,
      "nor": 383,
      "tell": 384,
      "##ness": 385,
      "most": 386,
      "##to": 387,
      "##ved": 388,
      "##uch": 389,
      "day": 390,
      "##ass": 391,
      "##ag": 392,
      "great": 393,
      "##ist": 394,
      "##ius": 395,
      "str": 396,
      "mine": 397,
      "ey": 398,
      "##age": 399,
      "hea": 400,
      "aw": 401,
      "##ady": 402,
      "##wn": 403,
      "##ud": 404,
      "##urn": 405,
      "##ip": 406,
      "##own": 407,
      "##ery": 408,
      "##ep": 409,
      "off": 410,
      "father": 411,
      "co": 412,
      "time": 413,
      "##aster": 414,
      "des": 415,
      "##ful": 416,
      "hear": 417,
      "gent": 418,
      "bre": 419,
      "ser": 420,
      "war": 421,
      "men": 422,
      "fo": 423,
      "much": 424,
      "never": 425,
      "bet": 426,
      "##ng": 427,
      "##qu": 428,
      "per": 429,
      "ro": 430,
      "##out": 431,
      "##ft": 432,
      "##ase": 433,
      "pe": 434,
      "##ire": 435,
      "exit": 436,
      "##ation": 437,
      "frie": 438,
      "ear": 439,
      "mo": 440,
      "gentle": 441,
      "fair": 442,
      "##ene": 443,
      "##ince": 444,
      "art": 445,
      "ad": 446,
      "er": 447,
      "##ro": 448,
      "##ang": 449,
      "pray": 450,
      "wr": 451,
      "master": 452,
      "##ber": 453,
      "death": 454,
      "night": 455,
      "hand": 456,
      "##ious": 457,
      "blood": 458,
      "##ings": 459,
      "##eet": 460,
      "word": 461,
      "##ack": 462,
      "du": 463,
      "##ress": 464,
      "call": 465,
      "other": 466,
      "##per": 467,
      "part": 468,
      "comm": 469,
      "##igh": 470,
      "fear": 471,
      "##el": 472,
      "heaven": 473,
      "foo": 474,
      "##au": 475,
      "life": 476,
      "ple": 477,
      "##ith": 478,
      "##ach": 479,
      "hast": 480,
      "##ither": 481,
      "##ough": 482,
      "coun": 483,
      "sweet": 484,
      "away": 485,
      "##ree": 486,
      "##oul": 487,
      "made": 488,
      "##ces": 489,
      "##thing": 490,
      "##use": 491,
      "ma": 492,
      "doth": 493,
      "##ign": 494,
      "jo": 495,
      "any": 496,
      "before": 497,
      "##ile": 498,
      "gl": 499,
      "lady": 500,
      "##unt": 501,
      "ay": 502,
      "son": 503,
      "##ian": 504,
      "##ward": 505,
      "very": 506,
      "stand": 507,
      "true": 508,
      "scene": 509,
      "honour": 510,
      "cann": 511,
      "sl": 512,
      "##tle": 513,
      "##end": 514,
      "##ia": 515,
      "thus": 516,
      "own": 517,
      "##ull": 518,
      "##ite": 519,
      "cannot": 520,
      "em": 521,
      "bear": 522,
      "im": 523,
      "##ph": 524,
      "af": 525,
      "##ment": 526,
      "##oss": 527,
      "ant": 528,
      "pre": 529,
      "been": 530,
      "##ty": 531,
      "##ouse": 532,
      "brother": 533,
      "arm": 534,
      "##ction": 535,
      "##man": 536,
      "##ving": 537,
      "mean": 538,
      "world": 539,
      "done": 540,
      "##li": 541,
      "two": 542,
      "##eep": 543,
      "wom": 544,
      "down": 545,
      "name": 546,
      "dr": 547,
      "cont": 548,
      "way": 549,
      "leave": 550,
      "pres": 551,
      "head": 552,
      "eyes": 553,
      "could": 554,
      "fir": 555,
      "##bl": 556,
      "foll": 557,
      "might": 558,
      "##orrow": 559,
      "long": 560,
      "##cc": 561,
      "fool": 562,
      "beg": 563,
      "being": 564,
      "rem": 565,
      "noble": 566,
      "comp": 567,
      "cour": 568,
      "poor": 569,
      "duke": 570,
      "into": 571,
      "##sw": 572,
      "##ief": 573,
      "##rown": 574,
      "##atter": 575,
      "nothing": 576,
      "house": 577,
      "till": 578,
      "serv": 579,
      "##gl": 580,
      "##ghter": 581,
      "therefore": 582,
      "even": 583,
      "old": 584,
      "que": 585,
      "show": 586,
      "though": 587,
      "pur": 588,
      "##atch": 589,
      "exe": 590,
      "comes": 591,
      "nay": 592,
      "mer": 593,
      "thought": 594,
      "keep": 595,
      "whose": 596,
      "ind": 597,
      "##ks": 598,
      "dau": 599,
      "both": 600,
      "##op": 601,
      "##uck": 602,
      "wit": 603,
      "rep": 604,
      "##eed": 605,
      "##aint": 606,
      "gi": 607,
      "better": 608,
      "mist": 609,
      "grace": 610,
      "find": 611,
      "myself": 612,
      "char": 613,
      "##ap": 614,
      "new": 615,
      "##iss": 616,
      "queen": 617,
      "##ors": 618,
      "##ied": 619,
      "dead": 620,
      "##ons": 621,
      "put": 622,
      "soul": 623,
      "cr": 624,
      "##able": 625,
      "dear": 626,
      "first": 627,
      "##less": 628,
      "against": 629,
      "hold": 630,
      "fort": 631,
      "follow": 632,
      "##ens": 633,
      "har": 634,
      "many": 635,
      "lie": 636,
      "lords": 637,
      "best": 638,
      "##ild": 639,
      "sle": 640,
      "fell": 641,
      "##ert": 642,
      "hel": 643,
      "att": 644,
      "gu": 645,
      "under": 646,
      "tru": 647,
      "still": 648,
      "peace": 649,
      "set": 650,
      "conf": 651,
      "rich": 652,
      "madam": 653,
      "##ower": 654,
      "sm": 655,
      "##akes": 656,
      "those": 657,
      "nat": 658,
      "every": 659,
      "##come": 660,
      "live": 661,
      "bel": 662,
      "high": 663,
      "##cy": 664,
      "##ought": 665,
      "thr": 666,
      "friends": 667,
      "pa": 668,
      "worth": 669,
      "daughter": 670,
      "ye": 671,
      "##iv": 672,
      "##ears": 673,
      "##ange": 674,
      "##der": 675,
      "fortun": 676,
      "stay": 677,
      "end": 678,
      "el": 679,
      "cons": 680,
      "wife": 681,
      "lit": 682,
      "app": 683,
      "young": 684,
      "fare": 685,
      "##esar": 686,
      "##ew": 687,
      "exeunt": 688,
      "dev": 689,
      "rome": 690,
      "tong": 691,
      "within": 692,
      "count": 693,
      "engl": 694,
      "bring": 695,
      "little": 696,
      "##ier": 697,
      "boy": 698,
      "die": 699,
      "answ": 700,
      "prince": 701,
      "caesar": 702,
      "thing": 703,
      "fall": 704,
      "##ield": 705,
      "##ason": 706,
      "bes": 707,
      "none": 708,
      "##les": 709,
      "place": 710,
      "res": 711,
      "cur": 712,
      "hour": 713,
      "mistress": 714,
      "play": 715,
      "##ience": 716,
      "faith": 717,
      "after": 718,
      "##ock": 719,
      "##well": 720,
      "gone": 721,
      "himself": 722,
      "beh": 723,
      "rest": 724,
      "##alk": 725,
      "answer": 726,
      "par": 727,
      "##alt": 728,
      "friend": 729,
      "fal": 730,
      "hum": 731,
      "court": 732,
      "ed": 733,
      "turn": 734,
      "##be": 735,
      "whom": 736,
      "another": 737,
      "mother": 738,
      "pass": 739,
      "vir": 740,
      "##oud": 741,
      "ap": 742,
      "dra": 743,
      "wel": 744,
      "full": 745,
      "##int": 746,
      "bid": 747,
      "kind": 748,
      "wo": 749,
      "##ows": 750,
      "unto": 751,
      "aside": 752,
      "since": 753,
      "##iness": 754,
      "woman": 755,
      "bra": 756,
      "mind": 757,
      "indeed": 758,
      "##ret": 759,
      "tre": 760,
      "ret": 761,
      "##its": 762,
      "present": 763,
      "else": 764,
      "vill": 765,
      "##cl": 766,
      "val": 767,
      "##ctor": 768,
      "sword": 769,
      "acc": 770,
      "three": 771,
      "ii": 772,
      "once": 773,
      "eye": 774,
      "words": 775,
      "ta": 776,
      "bed": 777,
      "thine": 778,
      "dou": 779,
      "face": 780,
      "pat": 781,
      "##ench": 782,
      "##reat": 783,
      "##esty": 784,
      "tongue": 785,
      "right": 786,
      "##men": 787,
      "sold": 788,
      "please": 789,
      "dost": 790,
      "##ult": 791,
      "seem": 792,
      "hence": 793,
      "##for": 794,
      "meet": 795,
      "france": 796,
      "hus": 797,
      "##ison": 798,
      "imp": 799,
      "##ps": 800,
      "##ans": 801,
      "child": 802,
      "has": 803,
      "hor": 804,
      "##old": 805,
      "about": 806,
      "kill": 807,
      "forth": 808,
      "##lt": 809,
      "crown": 810,
      "##ains": 811,
      "##sand": 812,
      "tro": 813,
      "##ced": 814,
      "need": 815,
      "##hip": 816,
      "back": 817,
      "##ished": 818,
      "tra": 819,
      "##ition": 820,
      "ere": 821,
      "##lf": 822,
      "anton": 823,
      "matter": 824,
      "##ged": 825,
      "##ants": 826,
      "##eel": 827,
      "over": 828,
      "##dy": 829,
      "##ouch": 830,
      "car": 831,
      "##we": 832,
      "sub": 833,
      "##oke": 834,
      "##band": 835,
      "nature": 836,
      "ass": 837,
      "spir": 838,
      "far": 839,
      "mon": 840,
      "pleas": 841,
      "letter": 842,
      "said": 843,
      "husband": 844,
      "dre": 845,
      "sleep": 846,
      "##ix": 847,
      "##ised": 848,
      "marry": 849,
      "hope": 850,
      "wrong": 851,
      "lu": 852,
      "welcome": 853,
      "act": 854,
      "##ins": 855,
      "light": 856,
      "home": 857,
      "read": 858,
      "without": 859,
      "ban": 860,
      "earth": 861,
      "fortune": 862,
      "vi": 863,
      "##eng": 864,
      "##ets": 865,
      "attend": 866,
      "farewell": 867,
      "##bt": 868,
      "sure": 869,
      "makes": 870,
      "heard": 871,
      "just": 872,
      "##ister": 873,
      "disp": 874,
      "mark": 875,
      "##led": 876,
      "suff": 877,
      "thank": 878,
      "breath": 879,
      "hang": 880,
      "##red": 881,
      "##ned": 882,
      "te": 883,
      "came": 884,
      "power": 885,
      "##if": 886,
      "wear": 887,
      "##uty": 888,
      "pra": 889,
      "virt": 890,
      "help": 891,
      "##gar": 892,
      "hands": 893,
      "##ca": 894,
      "law": 895,
      "cause": 896,
      "disc": 897,
      "gods": 898,
      "morrow": 899,
      "does": 900,
      "hen": 901,
      "pard": 902,
      "##ury": 903,
      "##selves": 904,
      "break": 905,
      "cor": 906,
      "mis": 907,
      "##ab": 908,
      "thousand": 909,
      "##ieve": 910,
      "gentleman": 911,
      "##ail": 912,
      "false": 913,
      "rather": 914,
      "shame": 915,
      "henry": 916,
      "bus": 917,
      "##cle": 918,
      "gold": 919,
      "maid": 920,
      "pardon": 921,
      "##ial": 922,
      "lay": 923,
      "sent": 924,
      "adv": 925,
      "use": 926,
      "##ates": 927,
      "##pect": 928,
      "##ient": 929,
      "things": 930,
      "fellow": 931,
      "sil": 932,
      "get": 933,
      "##fect": 934,
      "truth": 935,
      "hither": 936,
      "##ect": 937,
      "##ond": 938,
      "happ": 939,
      "enough": 940,
      "fight": 941,
      "sound": 942,
      "##yal": 943,
      "##cious": 944,
      "state": 945,
      "only": 946,
      "forg": 947,
      "stri": 948,
      "england": 949,
      "##iz": 950,
      "reason": 951,
      "same": 952,
      "last": 953,
      "sec": 954,
      "ob": 955,
      "##land": 956,
      "mus": 957,
      "op": 958,
      "##ute": 959,
      "near": 960,
      "##ried": 961,
      "den": 962,
      "wilt": 963,
      "bar": 964,
      "##any": 965,
      "luc": 966,
      "##fort": 967,
      "##ents": 968,
      "remem": 969,
      "news": 970,
      "sen": 971,
      "devil": 972,
      "land": 973,
      "run": 974,
      "ph": 975,
      "##rant": 976,
      "shalt": 977,
      "honest": 978,
      "##ru": 979,
      "purp": 980,
      "##av": 981,
      "inst": 982,
      "swear": 983,
      "command": 984,
      "fe": 985,
      "##ily": 986,
      "##ory": 987,
      "ill": 988,
      "sign": 989,
      "beat": 990,
      "##med": 991,
      "##ork": 992,
      "youth": 993,
      "tears": 994,
      "##und": 995,
      "sea": 996,
      "exce": 997,
      "return": 998,
      "##ions": 999,
      "##gether": 1000,
      "pers": 1001,
      "yourself": 1002,
      "saw": 1003,
      "maj": 1004,
      "born": 1005,
      "kiss": 1006,
      "mur": 1007,
      "##ib": 1008,
      "##bour": 1009,
      "##esh": 1010,
      "##ash": 1011,
      "##ount": 1012,
      "draw": 1013,
      "body": 1014,
      "strange": 1015,
      "york": 1016,
      "##cester": 1017,
      "enem": 1018,
      "through": 1019,
      "dar": 1020,
      "fire": 1021,
      "##ener": 1022,
      "##ides": 1023,
      "appe": 1024,
      "tit": 1025,
      "oft": 1026,
      "cous": 1027,
      "cry": 1028,
      "care": 1029,
      "lost": 1030,
      "##vy": 1031,
      "fly": 1032,
      "jud": 1033,
      "wish": 1034,
      "int": 1035,
      "send": 1036,
      "sun": 1037,
      "talk": 1038,
      "vo": 1039,
      "##iet": 1040,
      "fault": 1041,
      "grief": 1042,
      "wind": 1043,
      "weep": 1044,
      "cla": 1045,
      "##anger": 1046,
      "##iers": 1047,
      "deed": 1048,
      "joy": 1049,
      "villain": 1050,
      "antony": 1051,
      "##ms": 1052,
      "arms": 1053,
      "horse": 1054,
      "free": 1055,
      "less": 1056,
      "##ered": 1057,
      "bless": 1058,
      "means": 1059,
      "seek": 1060,
      "sing": 1061,
      "##ues": 1062,
      "##vere": 1063,
      "together": 1064,
      "##vers": 1065,
      "##eal": 1066,
      "prom": 1067,
      "seen": 1068,
      "majesty": 1069,
      "##ove": 1070,
      "fur": 1071,
      "spirit": 1072,
      "hard": 1073,
      "pal": 1074,
      "##ject": 1075,
      "yours": 1076,
      "prove": 1077,
      "strong": 1078,
      "cass": 1079,
      "##ner": 1080,
      "reven": 1081,
      "##ump": 1082,
      "cousin": 1083,
      "mess": 1084,
      "##ning": 1085,
      "music": 1086,
      "##ars": 1087,
      "##ary": 1088,
      "ent": 1089,
      "left": 1090,
      "au": 1091,
      "ba": 1092,
      "cle": 1093,
      "yes": 1094,
      "##oucester": 1095,
      "##ade": 1096,
      "gloucester": 1097,
      "besee": 1098,
      "win": 1099,
      "##iff": 1100,
      "##ne": 1101,
      "richard": 1102,
      "country": 1103,
      "bur": 1104,
      "tem": 1105,
      "want": 1106,
      "quick": 1107,
      "##outh": 1108,
      "half": 1109,
      "lear": 1110,
      "##ken": 1111,
      "bea": 1112,
      "murder": 1113,
      "grow": 1114,
      "##air": 1115,
      "supp": 1116,
      "gener": 1117,
      "sorrow": 1118,
      "ty": 1119,
      "while": 1120,
      "believe": 1121,
      "sit": 1122,
      "##lo": 1123,
      "##ceive": 1124,
      "itself": 1125,
      "prot": 1126,
      "comfort": 1127,
      "doubt": 1128,
      "business": 1129,
      "##by": 1130,
      "sick": 1131,
      "##hn": 1132,
      "royal": 1133,
      "john": 1134,
      "found": 1135,
      "##ween": 1136,
      "foul": 1137,
      "touch": 1138,
      "met": 1139,
      "##dd": 1140,
      "##oney": 1141,
      "bir": 1142,
      "##dom": 1143,
      "rec": 1144,
      "##iph": 1145,
      "fit": 1146,
      "##ting": 1147,
      "lies": 1148,
      "thoughts": 1149,
      "fie": 1150,
      "##ats": 1151,
      "som": 1152,
      "##wick": 1153,
      "##oura": 1154,
      "##alth": 1155,
      "servant": 1156,
      "told": 1157,
      "##ush": 1158,
      "between": 1159,
      "##ertain": 1160,
      "bu": 1161,
      "worthy": 1162,
      "cast": 1163,
      "work": 1164,
      "warwick": 1165,
      "sister": 1166,
      "beseech": 1167,
      "##ple": 1168,
      "alas": 1169,
      "cap": 1170,
      "service": 1171,
      "##ople": 1172,
      "edward": 1173,
      "che": 1174,
      "says": 1175,
      "pity": 1176,
      "proud": 1177,
      "remember": 1178,
      "each": 1179,
      "field": 1180,
      "late": 1181,
      "bloody": 1182,
      "##ours": 1183,
      "gave": 1184,
      "lad": 1185,
      "ru": 1186,
      "##fend": 1187,
      "people": 1188,
      "prith": 1189,
      "##cked": 1190,
      "prithee": 1191,
      "bound": 1192,
      "dog": 1193,
      "lead": 1194,
      "dist": 1195,
      "air": 1196,
      "sk": 1197,
      "##cei": 1198,
      "##oot": 1199,
      "##olus": 1200,
      "cond": 1201,
      "cold": 1202,
      "oath": 1203,
      "ask": 1204,
      "dem": 1205,
      "antiph": 1206,
      "antipholus": 1207,
      "cra": 1208,
      "dam": 1209,
      "##itor": 1210,
      "cho": 1211,
      "fav": 1212,
      "uncle": 1213,
      "purpose": 1214,
      "pu": 1215,
      "sight": 1216,
      "trust": 1217,
      "desire": 1218,
      "further": 1219,
      "inf": 1220,
      "##ained": 1221,
      "cut": 1222,
      "danger": 1223,
      "##utus": 1224,
      "##ures": 1225,
      "prison": 1226,
      "alone": 1227,
      "gar": 1228,
      "page": 1229,
      "ang": 1230,
      "french": 1231,
      "aff": 1232,
      "ra": 1233,
      "sad": 1234,
      "##ls": 1235,
      "##ys": 1236,
      "soon": 1237,
      "sin": 1238,
      "stre": 1239,
      "stra": 1240,
      "dream": 1241,
      "certain": 1242,
      "dare": 1243,
      "pet": 1244,
      "sat": 1245,
      "##cess": 1246,
      "meth": 1247,
      "general": 1248,
      "hate": 1249,
      "wat": 1250,
      "thyself": 1251,
      "foot": 1252,
      "##ior": 1253,
      "save": 1254,
      "gentlemen": 1255,
      "lose": 1256,
      "brutus": 1257,
      "looks": 1258,
      "called": 1259,
      "##liver": 1260,
      "gall": 1261,
      "brought": 1262,
      "##ible": 1263,
      "##pped": 1264,
      "gracious": 1265,
      "company": 1266,
      "ga": 1267,
      "yield": 1268,
      "##let": 1269,
      "##ime": 1270,
      "exp": 1271,
      "cam": 1272,
      "min": 1273,
      "ter": 1274,
      "holy": 1275,
      "drink": 1276,
      "##oth": 1277,
      "##xt": 1278,
      "##ched": 1279,
      "cham": 1280,
      "prov": 1281,
      "grave": 1282,
      "common": 1283,
      "given": 1284,
      "charge": 1285,
      "soldiers": 1286,
      "wound": 1287,
      "prin": 1288,
      "dep": 1289,
      "knows": 1290,
      "content": 1291,
      "ven": 1292,
      "wa": 1293,
      "##ened": 1294,
      "behold": 1295,
      "virtue": 1296,
      "wise": 1297,
      "##ined": 1298,
      "##ches": 1299,
      "##ude": 1300,
      "happy": 1301,
      "##sh": 1302,
      "##most": 1303,
      "point": 1304,
      "burn": 1305,
      "col": 1306,
      "ten": 1307,
      "loves": 1308,
      "##ague": 1309,
      "deser": 1310,
      "brave": 1311,
      "iii": 1312,
      "patience": 1313,
      "##ling": 1314,
      "days": 1315,
      "lives": 1316,
      "knight": 1317,
      "known": 1318,
      "##olk": 1319,
      "others": 1320,
      "mort": 1321,
      "years": 1322,
      "mal": 1323,
      "##ted": 1324,
      "##ugh": 1325,
      "beca": 1326,
      "loved": 1327,
      "warrant": 1328,
      "because": 1329,
      "four": 1330,
      "sur": 1331,
      "##osed": 1332,
      "ange": 1333,
      "deliver": 1334,
      "black": 1335,
      "capt": 1336,
      "times": 1337,
      "serve": 1338,
      "highness": 1339,
      "money": 1340,
      "poss": 1341,
      "side": 1342,
      "##aking": 1343,
      "writ": 1344,
      "mouth": 1345,
      "pay": 1346,
      "##ron": 1347,
      "past": 1348,
      "hell": 1349,
      "sovere": 1350,
      "neither": 1351,
      "mercy": 1352,
      "report": 1353,
      "sovereign": 1354,
      "##mer": 1355,
      "whil": 1356,
      "age": 1357,
      "jew": 1358,
      "del": 1359,
      "confess": 1360,
      "ac": 1361,
      "##up": 1362,
      "women": 1363,
      "don": 1364,
      "hot": 1365,
      "##ren": 1366,
      "##ship": 1367,
      "inc": 1368,
      "##asure": 1369,
      "##ured": 1370,
      "something": 1371,
      "##ength": 1372,
      "watch": 1373,
      "##iest": 1374,
      "##anc": 1375,
      "reg": 1376,
      "thanks": 1377,
      "div": 1378,
      "eat": 1379,
      "requ": 1380,
      "trump": 1381,
      "prof": 1382,
      "quest": 1383,
      "woo": 1384,
      "##aff": 1385,
      "pleasure": 1386,
      "fast": 1387,
      "sal": 1388,
      "##ift": 1389,
      "goes": 1390,
      "est": 1391,
      "##ices": 1392,
      "didst": 1393,
      "yea": 1394,
      "buck": 1395,
      "tal": 1396,
      "marc": 1397,
      "ground": 1398,
      "ring": 1399,
      "##over": 1400,
      "##enty": 1401,
      "deep": 1402,
      "##aste": 1403,
      "bold": 1404,
      "ev": 1405,
      "##rew": 1406,
      "##iece": 1407,
      "suit": 1408,
      "morn": 1409,
      "##iant": 1410,
      "##ated": 1411,
      "##els": 1412,
      "english": 1413,
      "open": 1414,
      "card": 1415,
      "pom": 1416,
      "##inal": 1417,
      "toward": 1418,
      "##owed": 1419,
      "canst": 1420,
      "hearts": 1421,
      "either": 1422,
      "##oman": 1423,
      "##fection": 1424,
      "const": 1425,
      "tender": 1426,
      "appear": 1427,
      "beauty": 1428,
      "vis": 1429,
      "##og": 1430,
      "emb": 1431,
      "wonder": 1432,
      "wall": 1433,
      "walk": 1434,
      "sum": 1435,
      "knave": 1436,
      "unt": 1437,
      "quar": 1438,
      "ears": 1439,
      "dro": 1440,
      "##br": 1441,
      "hector": 1442,
      "##ooth": 1443,
      "change": 1444,
      "next": 1445,
      "twas": 1446,
      "haste": 1447,
      "truly": 1448,
      "appro": 1449,
      "person": 1450,
      "red": 1451,
      "##ham": 1452,
      "ext": 1453,
      "enemy": 1454,
      "ke": 1455,
      "sake": 1456,
      "inter": 1457,
      "##ments": 1458,
      "guard": 1459,
      "messeng": 1460,
      "entreat": 1461,
      "##ceived": 1462,
      "chamber": 1463,
      "##no": 1464,
      "##oward": 1465,
      "##ceed": 1466,
      "##oof": 1467,
      "##ally": 1468,
      "revenge": 1469,
      "ah": 1470,
      "##inks": 1471,
      "took": 1472,
      "soldier": 1473,
      "##aves": 1474,
      "speed": 1475,
      "desp": 1476,
      "pret": 1477,
      "base": 1478,
      "##iar": 1479,
      "spee": 1480,
      "almost": 1481,
      "heavy": 1482,
      "valiant": 1483,
      "subject": 1484,
      "justice": 1485,
      "strike": 1486,
      "straight": 1487,
      "bos": 1488,
      "ros": 1489,
      "##sue": 1490,
      "soft": 1491,
      "leg": 1492,
      "cal": 1493,
      "iv": 1494,
      "sn": 1495,
      "town": 1496,
      "short": 1497,
      "hark": 1498,
      "praise": 1499,
      "favour": 1500,
      "opp": 1501,
      "having": 1502,
      "worse": 1503,
      "pluck": 1504,
      "heavens": 1505,
      "stands": 1506,
      "drum": 1507,
      "##ixt": 1508,
      "cardinal": 1509,
      "twenty": 1510,
      "bat": 1511,
      "forb": 1512,
      "rel": 1513,
      "above": 1514,
      "prep": 1515,
      "voice": 1516,
      "palace": 1517,
      "question": 1518,
      "ach": 1519,
      "pen": 1520,
      "sim": 1521,
      "##uous": 1522,
      "##ym": 1523,
      "##anio": 1524,
      "hair": 1525,
      "scar": 1526,
      "course": 1527,
      "claud": 1528,
      "##ander": 1529,
      "knew": 1530,
      "coming": 1531,
      "march": 1532,
      "##like": 1533,
      "merry": 1534,
      "fet": 1535,
      "##ask": 1536,
      "note": 1537,
      "married": 1538,
      "labour": 1539,
      "perfor": 1540,
      "traitor": 1541,
      "water": 1542,
      "bosom": 1543,
      "duty": 1544,
      "lam": 1545,
      "##bs": 1546,
      "##tern": 1547,
      "##ourish": 1548,
      "##stand": 1549,
      "unless": 1550,
      "sons": 1551,
      "emp": 1552,
      "coward": 1553,
      "feel": 1554,
      "##bly": 1555,
      "##uff": 1556,
      "wid": 1557,
      "plain": 1558,
      "gain": 1559,
      "wret": 1560,
      "##ont": 1561,
      "moon": 1562,
      "glad": 1563,
      "romeo": 1564,
      "bad": 1565,
      "##kes": 1566,
      "##ready": 1567,
      "weak": 1568,
      "def": 1569,
      "mock": 1570,
      "methinks": 1571,
      "##jo": 1572,
      "inv": 1573,
      "stir": 1574,
      "##rah": 1575,
      "scorn": 1576,
      "room": 1577,
      "counsel": 1578,
      "excell": 1579,
      "city": 1580,
      "lest": 1581,
      "##dle": 1582,
      "##owers": 1583,
      "ready": 1584,
      "themselves": 1585,
      "##riage": 1586,
      "presently": 1587,
      "messenger": 1588,
      "ver": 1589,
      "throw": 1590,
      "##ones": 1591,
      "sirrah": 1592,
      "spoke": 1593,
      "already": 1594,
      "liege": 1595,
      "cassio": 1596,
      "##umber": 1597,
      "laugh": 1598,
      "dish": 1599,
      "##ac": 1600,
      "##bb": 1601,
      "thir": 1602,
      "##eness": 1603,
      "##ities": 1604,
      "flesh": 1605,
      "harm": 1606,
      "prote": 1607,
      "ladies": 1608,
      "mons": 1609,
      "wis": 1610,
      "##ford": 1611,
      "##ires": 1612,
      "withal": 1613,
      "##ument": 1614,
      "##dden": 1615,
      "und": 1616,
      "chee": 1617,
      "sport": 1618,
      "deny": 1619,
      "hur": 1620,
      "##vol": 1621,
      "##une": 1622,
      "amb": 1623,
      "##rice": 1624,
      "##ully": 1625,
      "needs": 1626,
      "teach": 1627,
      "creat": 1628,
      "di": 1629,
      "dire": 1630,
      "##ring": 1631,
      "##ape": 1632,
      "speech": 1633,
      "host": 1634,
      "mot": 1635,
      "saint": 1636,
      "##com": 1637,
      "##ired": 1638,
      "##used": 1639,
      "priv": 1640,
      "trou": 1641,
      "flatter": 1642,
      "witness": 1643,
      "respect": 1644,
      "woe": 1645,
      "pol": 1646,
      "##ott": 1647,
      "jul": 1648,
      "become": 1649,
      "chr": 1650,
      "grant": 1651,
      "begin": 1652,
      "five": 1653,
      "nur": 1654,
      "heir": 1655,
      "lips": 1656,
      "got": 1657,
      "knock": 1658,
      "##ils": 1659,
      "wherefore": 1660,
      "flourish": 1661,
      "pale": 1662,
      "feast": 1663,
      "signior": 1664,
      "action": 1665,
      "mount": 1666,
      "ri": 1667,
      "##gn": 1668,
      "##sc": 1669,
      "##ina": 1670,
      "##feit": 1671,
      "proceed": 1672,
      "wars": 1673,
      "add": 1674,
      "commend": 1675,
      "guil": 1676,
      "dark": 1677,
      "##ourable": 1678,
      "##ank": 1679,
      "sworn": 1680,
      "strength": 1681,
      "morning": 1682,
      "loss": 1683,
      "pit": 1684,
      "ve": 1685,
      "white": 1686,
      "door": 1687,
      "sever": 1688,
      "lucius": 1689,
      "bit": 1690,
      "book": 1691,
      "##bury": 1692,
      "##erd": 1693,
      "bro": 1694,
      "timon": 1695,
      "speaks": 1696,
      "resol": 1697,
      "judg": 1698,
      "somet": 1699,
      "captain": 1700,
      "low": 1701,
      "##eth": 1702,
      "ham": 1703,
      "sudden": 1704,
      "wherein": 1705,
      "clar": 1706,
      "gives": 1707,
      "consc": 1708,
      "##anch": 1709,
      "offend": 1710,
      "disg": 1711,
      "claudio": 1712,
      "jest": 1713,
      "beast": 1714,
      "##oop": 1715,
      "##ilus": 1716,
      "##unk": 1717,
      "##bles": 1718,
      "attendants": 1719,
      "fetch": 1720,
      "hide": 1721,
      "##via": 1722,
      "##rel": 1723,
      "##ays": 1724,
      "wouldst": 1725,
      "kingdom": 1726,
      "understand": 1727,
      "hours": 1728,
      "letters": 1729,
      "banished": 1730,
      "vile": 1731,
      "##of": 1732,
      "chur": 1733,
      "marriage": 1734,
      "offic": 1735,
      "office": 1736,
      "slain": 1737,
      "slave": 1738,
      "bast": 1739,
      "mil": 1740,
      "##af": 1741,
      "wild": 1742,
      "self": 1743,
      "##empt": 1744,
      "beggar": 1745,
      "christ": 1746,
      "clarence": 1747,
      "##bot": 1748,
      "##ingham": 1749,
      "star": 1750,
      "##race": 1751,
      "alar": 1752,
      "twere": 1753,
      "honourable": 1754,
      "behind": 1755,
      "suffer": 1756,
      "sense": 1757,
      "battle": 1758,
      "fat": 1759,
      "port": 1760,
      "fore": 1761,
      "lion": 1762,
      "##ung": 1763,
      "abs": 1764,
      "children": 1765,
      "killed": 1766,
      "dread": 1767,
      "conscience": 1768,
      "det": 1769,
      "mir": 1770,
      "sigh": 1771,
      "##ying": 1772,
      "##ines": 1773,
      "steal": 1774,
      "kings": 1775,
      "whole": 1776,
      "lack": 1777,
      "adm": 1778,
      "mac": 1779,
      "helen": 1780,
      "##ize": 1781,
      "pretty": 1782,
      "excellent": 1783,
      "fam": 1784,
      "fill": 1785,
      "fash": 1786,
      "##cut": 1787,
      "bell": 1788,
      "anon": 1789,
      "##iled": 1790,
      "##aken": 1791,
      "among": 1792,
      "cross": 1793,
      "troilus": 1794,
      "suffolk": 1795,
      "##az": 1796,
      "##mn": 1797,
      "##hood": 1798,
      "##cept": 1799,
      "##tered": 1800,
      "lordship": 1801,
      "second": 1802,
      "quickly": 1803,
      "mortal": 1804,
      "fing": 1805,
      "lust": 1806,
      "rage": 1807,
      "wed": 1808,
      "##isf": 1809,
      "##lex": 1810,
      "##ites": 1811,
      "liber": 1812,
      "exc": 1813,
      "##ries": 1814,
      "safe": 1815,
      "poison": 1816,
      "fortunes": 1817,
      "passion": 1818,
      "spirits": 1819,
      "feed": 1820,
      "##cent": 1821,
      "##pr": 1822,
      "kneel": 1823,
      "##aked": 1824,
      "gro": 1825,
      "seems": 1826,
      "viol": 1827,
      "lim": 1828,
      "##ked": 1829,
      "##que": 1830,
      "brief": 1831,
      "spo": 1832,
      "##ages": 1833,
      "buckingham": 1834,
      "talbot": 1835,
      "bastard": 1836,
      "hund": 1837,
      "lar": 1838,
      "##vel": 1839,
      "ourselves": 1840,
      "margar": 1841,
      "write": 1842,
      "cheer": 1843,
      "hundred": 1844,
      "margaret": 1845,
      "corn": 1846,
      "ef": 1847,
      "ele": 1848,
      "##od": 1849,
      "##hile": 1850,
      "##ters": 1851,
      "##imes": 1852,
      "seal": 1853,
      "order": 1854,
      "close": 1855,
      "offence": 1856,
      "mighty": 1857,
      "tale": 1858,
      "secret": 1859,
      "often": 1860,
      "possess": 1861,
      "alarum": 1862,
      "##ram": 1863,
      "##ny": 1864,
      "pros": 1865,
      "along": 1866,
      "##ations": 1867,
      "##aught": 1868,
      "##ainted": 1869,
      "fashion": 1870,
      "ble": 1871,
      "ut": 1872,
      "##ek": 1873,
      "##gr": 1874,
      "##aim": 1875,
      "beard": 1876,
      "issue": 1877,
      "friar": 1878,
      "mod": 1879,
      "gift": 1880,
      "besides": 1881,
      "satisf": 1882,
      "acqu": 1883,
      "hamlet": 1884,
      "drown": 1885,
      "eas": 1886,
      "##ead": 1887,
      "ford": 1888,
      "##ames": 1889,
      "loving": 1890,
      "worship": 1891,
      "longer": 1892,
      "small": 1893,
      "##bey": 1894,
      "##claim": 1895,
      "whilst": 1896,
      "pompe": 1897,
      "nurse": 1898,
      "kate": 1899,
      "wood": 1900,
      "##gg": 1901,
      "##ued": 1902,
      "ship": 1903,
      "##ited": 1904,
      "living": 1905,
      "fresh": 1906,
      "##antage": 1907,
      "##umb": 1908,
      "arg": 1909,
      "masters": 1910,
      "##ians": 1911,
      "affection": 1912,
      "prev": 1913,
      "souls": 1914,
      "promise": 1915,
      "choose": 1916,
      "cup": 1917,
      "sor": 1918,
      "ur": 1919,
      "##ser": 1920,
      "##ndon": 1921,
      "##ona": 1922,
      "whe": 1923,
      "##ural": 1924,
      "##ool": 1925,
      "stop": 1926,
      "reb": 1927,
      "trib": 1928,
      "unk": 1929,
      "bond": 1930,
      "paris": 1931,
      "enemies": 1932,
      "hurt": 1933,
      "ath": 1934,
      "dies": 1935,
      "horn": 1936,
      "match": 1937,
      "##rous": 1938,
      "##ises": 1939,
      "shar": 1940,
      "anc": 1941,
      "breed": 1942,
      "presence": 1943,
      "consent": 1944,
      "valour": 1945,
      "publ": 1946,
      "dangerous": 1947,
      "princes": 1948,
      "pompey": 1949,
      "died": 1950,
      "occ": 1951,
      "health": 1952,
      "tri": 1953,
      "chance": 1954,
      "leon": 1955,
      "emper": 1956,
      "heads": 1957,
      "patient": 1958,
      "damned": 1959,
      "wisdom": 1960,
      "effect": 1961,
      "##sed": 1962,
      "##ancy": 1963,
      "noise": 1964,
      "sole": 1965,
      "unw": 1966,
      "awhile": 1967,
      "parts": 1968,
      "bears": 1969,
      "forget": 1970,
      "bol": 1971,
      "din": 1972,
      "fine": 1973,
      "##ale": 1974,
      "##rey": 1975,
      "form": 1976,
      "stud": 1977,
      "going": 1978,
      "gover": 1979,
      "##ility": 1980,
      "conqu": 1981,
      "breast": 1982,
      "move": 1983,
      "antonio": 1984,
      "emperor": 1985,
      "went": 1986,
      "##ared": 1987,
      "tom": 1988,
      "force": 1989,
      "london": 1990,
      "blow": 1991,
      "north": 1992,
      "offer": 1993,
      "adie": 1994,
      "deeds": 1995,
      "judgment": 1996,
      "mid": 1997,
      "##under": 1998,
      "##fully": 1999,
      "succ": 2000,
      "##illes": 2001,
      "looked": 2002,
      "dull": 2003,
      "curse": 2004,
      "reads": 2005,
      "rosal": 2006,
      "post": 2007,
      "roman": 2008,
      "takes": 2009,
      "vol": 2010,
      "##aw": 2011,
      "ins": 2012,
      "##als": 2013,
      "##ider": 2014,
      "green": 2015,
      "hadst": 2016,
      "fools": 2017,
      "birth": 2018,
      "approach": 2019,
      "adieu": 2020,
      "case": 2021,
      "gates": 2022,
      "six": 2023,
      "##esy": 2024,
      "##ony": 2025,
      "rog": 2026,
      "title": 2027,
      "depart": 2028,
      "marcius": 2029,
      "bow": 2030,
      "piece": 2031,
      "##wd": 2032,
      "##ners": 2033,
      "##ses": 2034,
      "##ingly": 2035,
      "##asc": 2036,
      "shake": 2037,
      "pride": 2038,
      "doctor": 2039,
      "herself": 2040,
      "shows": 2041,
      "paper": 2042,
      "humour": 2043,
      "##beth": 2044,
      "judge": 2045,
      "prosper": 2046,
      "whether": 2047,
      "tent": 2048,
      "##oly": 2049,
      "##tain": 2050,
      "forsw": 2051,
      "neigh": 2052,
      "##erset": 2053,
      "blind": 2054,
      "carry": 2055,
      "opin": 2056,
      "##ealous": 2057,
      "somerset": 2058,
      "castle": 2059,
      "angelo": 2060,
      "dest": 2061,
      "ld": 2062,
      "med": 2063,
      "mut": 2064,
      "round": 2065,
      "song": 2066,
      "wert": 2067,
      "##ges": 2068,
      "##ald": 2069,
      "##yed": 2070,
      "tow": 2071,
      "lend": 2072,
      "unh": 2073,
      "qual": 2074,
      "##ago": 2075,
      "virg": 2076,
      "treason": 2077,
      "pract": 2078,
      "virtuous": 2079,
      "phil": 2080,
      "angry": 2081,
      "church": 2082,
      "list": 2083,
      "tor": 2084,
      "##osition": 2085,
      "##entine": 2086,
      "enc": 2087,
      "least": 2088,
      "worst": 2089,
      "saf": 2090,
      "cloud": 2091,
      "##agg": 2092,
      "contr": 2093,
      "##bled": 2094,
      "##ledge": 2095,
      "##rupt": 2096,
      "achilles": 2097,
      "sus": 2098,
      "year": 2099,
      "##inius": 2100,
      "##omed": 2101,
      "stood": 2102,
      "step": 2103,
      "plague": 2104,
      "prayers": 2105,
      "counter": 2106,
      "foolish": 2107,
      "turned": 2108,
      "mont": 2109,
      "buy": 2110,
      "colour": 2111,
      "quarrel": 2112,
      "cre": 2113,
      "ign": 2114,
      "##asion": 2115,
      "shad": 2116,
      "forward": 2117,
      "stor": 2118,
      "receive": 2119,
      "earl": 2120,
      "##aps": 2121,
      "fellows": 2122,
      "learn": 2123,
      "jack": 2124,
      "jealous": 2125,
      "pi": 2126,
      "##oe": 2127,
      "##con": 2128,
      "thither": 2129,
      "##asons": 2130,
      "ref": 2131,
      "##ishop": 2132,
      "##icles": 2133,
      "crue": 2134,
      "troth": 2135,
      "kept": 2136,
      "leonat": 2137,
      "av": 2138,
      "cit": 2139,
      "won": 2140,
      "##ding": 2141,
      "##bro": 2142,
      "##arch": 2143,
      "##amed": 2144,
      "##cted": 2145,
      "brook": 2146,
      "sheph": 2147,
      "wash": 2148,
      "quiet": 2149,
      "rob": 2150,
      "##ify": 2151,
      "scarce": 2152,
      "##broke": 2153,
      "shepherd": 2154,
      "hu": 2155,
      "taken": 2156,
      "##ends": 2157,
      "##ray": 2158,
      "##vest": 2159,
      "shr": 2160,
      "measure": 2161,
      "sac": 2162,
      "perceive": 2163,
      "jove": 2164,
      "faults": 2165,
      "demand": 2166,
      "gainst": 2167,
      "third": 2168,
      "bitter": 2169,
      "cir": 2170,
      "gir": 2171,
      "pains": 2172,
      "vain": 2173,
      "wast": 2174,
      "##ror": 2175,
      "##iam": 2176,
      "##ife": 2177,
      "##uit": 2178,
      "whither": 2179,
      "##rem": 2180,
      "anne": 2181,
      "herm": 2182,
      "##staff": 2183,
      "ours": 2184,
      "##ello": 2185,
      "concl": 2186,
      "alive": 2187,
      "proper": 2188,
      "laid": 2189,
      "calls": 2190,
      "fearful": 2191,
      "falstaff": 2192,
      "import": 2193,
      "titus": 2194,
      "blessed": 2195,
      "cassius": 2196,
      "trumpet": 2197,
      "dishon": 2198,
      "dinner": 2199,
      "rh": 2200,
      "sy": 2201,
      "sch": 2202,
      "tar": 2203,
      "vie": 2204,
      "##ax": 2205,
      "proof": 2206,
      "##icul": 2207,
      "usur": 2208,
      "cliff": 2209,
      "dispatch": 2210,
      "sorry": 2211,
      "bass": 2212,
      "cost": 2213,
      "catch": 2214,
      "iago": 2215,
      "oct": 2216,
      "obey": 2217,
      "##iol": 2218,
      "##ual": 2219,
      "##ught": 2220,
      "##chief": 2221,
      "fors": 2222,
      "trick": 2223,
      "plant": 2224,
      "glory": 2225,
      "army": 2226,
      "execut": 2227,
      "troy": 2228,
      "##ourage": 2229,
      "octav": 2230,
      "rid": 2231,
      "rise": 2232,
      "##oved": 2233,
      "thro": 2234,
      "inno": 2235,
      "dec": 2236,
      "reign": 2237,
      "##cks": 2238,
      "clock": 2239,
      "fled": 2240,
      "drawn": 2241,
      "golden": 2242,
      "sharp": 2243,
      "opinion": 2244,
      "ge": 2245,
      "ow": 2246,
      "pain": 2247,
      "sort": 2248,
      "var": 2249,
      "##oint": 2250,
      "thunder": 2251,
      "##ths": 2252,
      "##ley": 2253,
      "seven": 2254,
      "hero": 2255,
      "lod": 2256,
      "trans": 2257,
      "blame": 2258,
      "honesty": 2259,
      "grie": 2260,
      "drunk": 2261,
      "contin": 2262,
      "purse": 2263,
      "cred": 2264,
      "forgot": 2265,
      "ignor": 2266,
      "cruel": 2267,
      "gh": 2268,
      "tear": 2269,
      "vow": 2270,
      "wal": 2271,
      "##een": 2272,
      "##bed": 2273,
      "frown": 2274,
      "try": 2275,
      "manner": 2276,
      "uns": 2277,
      "unf": 2278,
      "##ume": 2279,
      "dism": 2280,
      "harry": 2281,
      "simple": 2282,
      "monster": 2283,
      "es": 2284,
      "van": 2285,
      "##ern": 2286,
      "##anus": 2287,
      "held": 2288,
      "shape": 2289,
      "blush": 2290,
      "##perate": 2291,
      "##phin": 2292,
      "servants": 2293,
      "coriol": 2294,
      "instant": 2295,
      "auth": 2296,
      "temp": 2297,
      "forbid": 2298,
      "govern": 2299,
      "success": 2300,
      "neighbour": 2301,
      "tower": 2302,
      "rough": 2303,
      "yo": 2304,
      "##cul": 2305,
      "mel": 2306,
      "priest": 2307,
      "##ided": 2308,
      "received": 2309,
      "brain": 2310,
      "##unning": 2311,
      "amen": 2312,
      "conce": 2313,
      "##ots": 2314,
      "whence": 2315,
      "gross": 2316,
      "##bert": 2317,
      "##ressed": 2318,
      "banqu": 2319,
      "obser": 2320,
      "learned": 2321,
      "view": 2322,
      "clifford": 2323,
      "mere": 2324,
      "wench": 2325,
      "lived": 2326,
      "defend": 2327,
      "broke": 2328,
      "##rius": 2329,
      "hop": 2330,
      "proclaim": 2331,
      "struck": 2332,
      "charm": 2333,
      "smil": 2334,
      "##iffer": 2335,
      "wounds": 2336,
      "citiz": 2337,
      "bened": 2338,
      "cat": 2339,
      "kath": 2340,
      "##irm": 2341,
      "thence": 2342,
      "quite": 2343,
      "greater": 2344,
      "awake": 2345,
      "hearing": 2346,
      "moor": 2347,
      "delight": 2348,
      "macbeth": 2349,
      "trium": 2350,
      "kathar": 2351,
      "bene": 2352,
      "courage": 2353,
      "equ": 2354,
      "odd": 2355,
      "pin": 2356,
      "vouch": 2357,
      "wine": 2358,
      "##ipp": 2359,
      "##iful": 2360,
      "##day": 2361,
      "thrice": 2362,
      "top": 2363,
      "mem": 2364,
      "##usion": 2365,
      "##itors": 2366,
      "wealth": 2367,
      "deal": 2368,
      "expect": 2369,
      "entertain": 2370,
      "swift": 2371,
      "##ounds": 2372,
      "##elia": 2373,
      "boys": 2374,
      "double": 2375,
      "obed": 2376,
      "persu": 2377,
      "bird": 2378,
      "condition": 2379,
      "request": 2380,
      "embrace": 2381,
      "walls": 2382,
      "ghost": 2383,
      "cunning": 2384,
      "hol": 2385,
      "pos": 2386,
      "wol": 2387,
      "##gy": 2388,
      "##ts": 2389,
      "##zard": 2390,
      "##oses": 2391,
      "##ators": 2392,
      "##ances": 2393,
      "inj": 2394,
      "hail": 2395,
      "loath": 2396,
      "amaz": 2397,
      "whereof": 2398,
      "holl": 2399,
      "sail": 2400,
      "moved": 2401,
      "##elve": 2402,
      "folly": 2403,
      "pleased": 2404,
      "trumpets": 2405,
      "widow": 2406,
      "wretched": 2407,
      "triumph": 2408,
      "fish": 2409,
      "##right": 2410,
      "##bar": 2411,
      "winds": 2412,
      "brit": 2413,
      "hanged": 2414,
      "tyr": 2415,
      "prisoner": 2416,
      "street": 2417,
      "visit": 2418,
      "trouble": 2419,
      "fle": 2420,
      "pun": 2421,
      "powers": 2422,
      "vent": 2423,
      "threat": 2424,
      "##isbury": 2425,
      "becom": 2426,
      "meant": 2427,
      "stock": 2428,
      "##iel": 2429,
      "knowledge": 2430,
      "##ical": 2431,
      "alth": 2432,
      "cloth": 2433,
      "desires": 2434,
      "bearing": 2435,
      "dauphin": 2436,
      "holds": 2437,
      "smile": 2438,
      "##airs": 2439,
      "salisbury": 2440,
      "until": 2441,
      "drop": 2442,
      "ancient": 2443,
      "encoun": 2444,
      "dur": 2445,
      "due": 2446,
      "dance": 2447,
      "taste": 2448,
      "##oll": 2449,
      "##bo": 2450,
      "##ased": 2451,
      "##etrius": 2452,
      "##idius": 2453,
      "##unes": 2454,
      "pla": 2455,
      "commit": 2456,
      "compl": 2457,
      "##ission": 2458,
      "princely": 2459,
      "intend": 2460,
      "demetrius": 2461,
      "creature": 2462,
      "although": 2463,
      "bones": 2464,
      "ce": 2465,
      "eld": 2466,
      "rasc": 2467,
      "west": 2468,
      "##pl": 2469,
      "##ores": 2470,
      "hap": 2471,
      "enjo": 2472,
      "train": 2473,
      "necess": 2474,
      "goodly": 2475,
      "bod": 2476,
      "alack": 2477,
      "caius": 2478,
      "grand": 2479,
      "##aughter": 2480,
      "ways": 2481,
      "wits": 2482,
      "banish": 2483,
      "forgive": 2484,
      "borne": 2485,
      "aught": 2486,
      "towards": 2487,
      "motion": 2488,
      "juliet": 2489,
      "rosalind": 2490,
      "yonder": 2491,
      "melanch": 2492,
      "aj": 2493,
      "boot": 2494,
      "cried": 2495,
      "gard": 2496,
      "##ipped": 2497,
      "##night": 2498,
      "##ze": 2499,
      "##ane": 2500,
      "forest": 2501,
      "neck": 2502,
      "prop": 2503,
      "proph": 2504,
      "armed": 2505,
      "falls": 2506,
      "valentine": 2507,
      "claim": 2508,
      "clear": 2509,
      "grows": 2510,
      "extrem": 2511,
      "private": 2512,
      "several": 2513,
      "bleed": 2514,
      "author": 2515,
      "melancholy": 2516,
      "ajax": 2517,
      "cust": 2518,
      "ly": 2519,
      "making": 2520,
      "py": 2521,
      "##bus": 2522,
      "##ker": 2523,
      "##edy": 2524,
      "wicked": 2525,
      "##ingbroke": 2526,
      "##ety": 2527,
      "yourselves": 2528,
      "##alm": 2529,
      "doing": 2530,
      "deg": 2531,
      "revol": 2532,
      "shallow": 2533,
      "chang": 2534,
      "blows": 2535,
      "##icious": 2536,
      "greet": 2537,
      "twixt": 2538,
      "greatness": 2539,
      "slaughter": 2540,
      "##bling": 2541,
      "repent": 2542,
      "endure": 2543,
      "courtesy": 2544,
      "promised": 2545,
      "choice": 2546,
      "camp": 2547,
      "terms": 2548,
      "bolingbroke": 2549,
      "citizens": 2550,
      "hunt": 2551,
      "main": 2552,
      "tur": 2553,
      "##ub": 2554,
      "##chance": 2555,
      "mend": 2556,
      "stars": 2557,
      "sol": 2558,
      "used": 2559,
      "glass": 2560,
      "honours": 2561,
      "precious": 2562,
      "tongues": 2563,
      "edm": 2564,
      "weary": 2565,
      "advantage": 2566,
      "silver": 2567,
      "silence": 2568,
      "princess": 2569,
      "wait": 2570,
      "malice": 2571,
      "whiles": 2572,
      "profess": 2573,
      "marcus": 2574,
      "emplo": 2575,
      "christian": 2576,
      "aud": 2577,
      "bian": 2578,
      "bishop": 2579,
      "faint": 2580,
      "hung": 2581,
      "id": 2582,
      "ren": 2583,
      "rude": 2584,
      "##zen": 2585,
      "##vell": 2586,
      "meat": 2587,
      "##ilius": 2588,
      "bright": 2589,
      "twice": 2590,
      "wrath": 2591,
      "remain": 2592,
      "keeps": 2593,
      "discover": 2594,
      "proteus": 2595,
      "direct": 2596,
      "liberty": 2597,
      "excuse": 2598,
      "large": 2599,
      "virgin": 2600,
      "bare": 2601,
      "cas": 2602,
      "fig": 2603,
      "ir": 2604,
      "led": 2605,
      "nose": 2606,
      "owe": 2607,
      "pot": 2608,
      "##ped": 2609,
      "##ua": 2610,
      "##orge": 2611,
      "bend": 2612,
      "inh": 2613,
      "##utation": 2614,
      "debt": 2615,
      "##stance": 2616,
      "##ilia": 2617,
      "fail": 2618,
      "shouldst": 2619,
      "charles": 2620,
      "victor": 2621,
      "silvia": 2622,
      "except": 2623,
      "summer": 2624,
      "cheeks": 2625,
      "guilty": 2626,
      "occasion": 2627,
      "kent": 2628,
      "rose": 2629,
      "rans": 2630,
      "root": 2631,
      "sings": 2632,
      "##ler": 2633,
      "##king": 2634,
      "##oral": 2635,
      "##atra": 2636,
      "heels": 2637,
      "shore": 2638,
      "stone": 2639,
      "steel": 2640,
      "##ident": 2641,
      "unc": 2642,
      "unp": 2643,
      "imag": 2644,
      "##opatra": 2645,
      "##ierce": 2646,
      "trem": 2647,
      "cleopatra": 2648,
      "protest": 2649,
      "colours": 2650,
      "delivered": 2651,
      "lament": 2652,
      "cheek": 2653,
      "solemn": 2654,
      "rogue": 2655,
      "safety": 2656,
      "edmund": 2657,
      "bianca": 2658,
      "big": 2659,
      "der": 2660,
      "dry": 2661,
      "few": 2662,
      "loud": 2663,
      "mour": 2664,
      "##oc": 2665,
      "##with": 2666,
      "weigh": 2667,
      "env": 2668,
      "chall": 2669,
      "manners": 2670,
      "spend": 2671,
      "spring": 2672,
      "lav": 2673,
      "fond": 2674,
      "foes": 2675,
      "fears": 2676,
      "brothers": 2677,
      "swords": 2678,
      "accord": 2679,
      "wrongs": 2680,
      "maiden": 2681,
      "legs": 2682,
      "finger": 2683,
      "public": 2684,
      "benedick": 2685,
      "dri": 2686,
      "dwell": 2687,
      "fought": 2688,
      "fury": 2689,
      "pure": 2690,
      "rare": 2691,
      "sooth": 2692,
      "tee": 2693,
      "##iance": 2694,
      "##dem": 2695,
      "##folk": 2696,
      "##ising": 2697,
      "##vey": 2698,
      "##omach": 2699,
      "stuff": 2700,
      "madness": 2701,
      "sav": 2702,
      "twill": 2703,
      "quoth": 2704,
      "norfolk": 2705,
      "##iana": 2706,
      "humble": 2707,
      "monst": 2708,
      "corrupt": 2709,
      "remembr": 2710,
      "##ruction": 2711,
      "minister": 2712,
      "##ronic": 2713,
      "prepare": 2714,
      "sometime": 2715,
      "cuck": 2716,
      "fame": 2717,
      "kins": 2718,
      "##more": 2719,
      "##orous": 2720,
      "##read": 2721,
      "hab": 2722,
      "##urs": 2723,
      "weap": 2724,
      "start": 2725,
      "enfor": 2726,
      "conc": 2727,
      "conj": 2728,
      "##oler": 2729,
      "phys": 2730,
      "instr": 2731,
      "condem": 2732,
      "utter": 2733,
      "athens": 2734,
      "circ": 2735,
      "monstrous": 2736,
      "alex": 2737,
      "bas": 2738,
      "cord": 2739,
      "cress": 2740,
      "egy": 2741,
      "fain": 2742,
      "food": 2743,
      "idle": 2744,
      "lanc": 2745,
      "ox": 2746,
      "sens": 2747,
      "tree": 2748,
      "##ways": 2749,
      "##eous": 2750,
      "thief": 2751,
      "##orth": 2752,
      "##enet": 2753,
      "##reed": 2754,
      "shut": 2755,
      "##iment": 2756,
      "story": 2757,
      "##idge": 2758,
      "##ourse": 2759,
      "knee": 2760,
      "chain": 2761,
      "unb": 2762,
      "prod": 2763,
      "desert": 2764,
      "desperate": 2765,
      "desdem": 2766,
      "particul": 2767,
      "compan": 2768,
      "follows": 2769,
      "undert": 2770,
      "throne": 2771,
      "winter": 2772,
      "deserve": 2773,
      "forbear": 2774,
      "perform": 2775,
      "counterfeit": 2776,
      "shadow": 2777,
      "storm": 2778,
      "dishonour": 2779,
      "egypt": 2780,
      "lancaster": 2781,
      "desdemona": 2782,
      "aid": 2783,
      "hors": 2784,
      "tut": 2785,
      "tune": 2786,
      "vows": 2787,
      "##orious": 2788,
      "##inia": 2789,
      "##eds": 2790,
      "heat": 2791,
      "shrew": 2792,
      "stab": 2793,
      "##sem": 2794,
      "rever": 2795,
      "brow": 2796,
      "##rows": 2797,
      "sau": 2798,
      "cover": 2799,
      "foe": 2800,
      "perfect": 2801,
      "followed": 2802,
      "smell": 2803,
      "wanton": 2804,
      "tyb": 2805,
      "oaths": 2806,
      "venge": 2807,
      "##ogue": 2808,
      "##otten": 2809,
      "study": 2810,
      "practise": 2811,
      "becomes": 2812,
      "custom": 2813,
      "renown": 2814,
      "physic": 2815,
      "circum": 2816,
      "niece": 2817,
      "rain": 2818,
      "rag": 2819,
      "wre": 2820,
      "##ense": 2821,
      "##reh": 2822,
      "##eter": 2823,
      "reasons": 2824,
      "lover": 2825,
      "leis": 2826,
      "leaves": 2827,
      "plot": 2828,
      "flowers": 2829,
      "##udge": 2830,
      "betray": 2831,
      "pericles": 2832,
      "meaning": 2833,
      "following": 2834,
      "paid": 2835,
      "##form": 2836,
      "miser": 2837,
      "fiend": 2838,
      "sometimes": 2839,
      "lavinia": 2840,
      "cressid": 2841,
      "tybalt": 2842,
      "dun": 2843,
      "gown": 2844,
      "hit": 2845,
      "lang": 2846,
      "pis": 2847,
      "##mon": 2848,
      "##cil": 2849,
      "whis": 2850,
      "wives": 2851,
      "heed": 2852,
      "stomach": 2853,
      "##entio": 2854,
      "ones": 2855,
      "herald": 2856,
      "##ract": 2857,
      "trial": 2858,
      "exam": 2859,
      "sheep": 2860,
      "twelve": 2861,
      "grat": 2862,
      "betw": 2863,
      "hastings": 2864,
      "slander": 2865,
      "giving": 2866,
      "consider": 2867,
      "tail": 2868,
      "##verend": 2869,
      "recover": 2870,
      "gallant": 2871,
      "montague": 2872,
      "execution": 2873,
      "coriolanus": 2874,
      "bab": 2875,
      "dust": 2876,
      "differ": 2877,
      "gate": 2878,
      "hat": 2879,
      "hid": 2880,
      "number": 2881,
      "##wise": 2882,
      "##afe": 2883,
      "##ination": 2884,
      "##enance": 2885,
      "##ences": 2886,
      "##cel": 2887,
      "former": 2888,
      "weight": 2889,
      "##ades": 2890,
      "##athers": 2891,
      "mayst": 2892,
      "warlike": 2893,
      "duc": 2894,
      "plead": 2895,
      "join": 2896,
      "natural": 2897,
      "kindness": 2898,
      "crowns": 2899,
      "crowned": 2900,
      "breathe": 2901,
      "##ified": 2902,
      "lawful": 2903,
      "discourse": 2904,
      "senators": 2905,
      "weeping": 2906,
      "anger": 2907,
      "sooner": 2908,
      "subjects": 2909,
      "guilt": 2910,
      "disgu": 2911,
      "easy": 2912,
      "remembrance": 2913,
      "horses": 2914,
      "leisure": 2915,
      "betwixt": 2916,
      "bott": 2917,
      "ease": 2918,
      "feet": 2919,
      "grown": 2920,
      "nest": 2921,
      "pick": 2922,
      "rank": 2923,
      "hall": 2924,
      "##itude": 2925,
      "stol": 2926,
      "stones": 2927,
      "doom": 2928,
      "##ament": 2929,
      "fruit": 2930,
      "chief": 2931,
      "spent": 2932,
      "spare": 2933,
      "always": 2934,
      "disd": 2935,
      "abro": 2936,
      "affect": 2937,
      "guest": 2938,
      "humbly": 2939,
      "lucentio": 2940,
      "capit": 2941,
      "deserved": 2942,
      "regard": 2943,
      "##volio": 2944,
      "diomed": 2945,
      "dreadful": 2946,
      "argument": 2947,
      "forsworn": 2948,
      "challen": 2949,
      "cries": 2950,
      "fee": 2951,
      "nine": 2952,
      "squ": 2953,
      "##ging": 2954,
      "##erm": 2955,
      "bef": 2956,
      "##cend": 2957,
      "hal": 2958,
      "##ayed": 2959,
      "isab": 2960,
      "##ams": 2961,
      "reverend": 2962,
      "envy": 2963,
      "##ieur": 2964,
      "lovers": 2965,
      "##ement": 2966,
      "clo": 2967,
      "flower": 2968,
      "percy": 2969,
      "earn": 2970,
      "empt": 2971,
      "drom": 2972,
      "charity": 2973,
      "appoint": 2974,
      "disple": 2975,
      "affairs": 2976,
      "evil": 2977,
      "broken": 2978,
      "spoken": 2979,
      "octavius": 2980,
      "fancy": 2981,
      "line": 2982,
      "pand": 2983,
      "##app": 2984,
      "##yond": 2985,
      "bew": 2986,
      "beyond": 2987,
      "shed": 2988,
      "staff": 2989,
      "prick": 2990,
      "search": 2991,
      "goodness": 2992,
      "comb": 2993,
      "spite": 2994,
      "grey": 2995,
      "thinks": 2996,
      "slow": 2997,
      "showed": 2998,
      "witch": 2999,
      "traitors": 3000,
      "supper": 3001,
      "possible": 3002,
      "jewel": 3003,
      "##umberland": 3004,
      "protector": 3005,
      "officers": 3006,
      "cupid": 3007,
      "ransom": 3008,
      "dromio": 3009,
      "dig": 3010,
      "ep": 3011,
      "maint": 3012,
      "oth": 3013,
      "wing": 3014,
      "##gs": 3015,
      "##mond": 3016,
      "##ution": 3017,
      "melt": 3018,
      "press": 3019,
      "doors": 3020,
      "fright": 3021,
      "seat": 3022,
      "loyal": 3023,
      "therein": 3024,
      "bride": 3025,
      "saying": 3026,
      "##eem": 3027,
      "flood": 3028,
      "armour": 3029,
      "contempt": 3030,
      "remedy": 3031,
      "thrive": 3032,
      "bids": 3033,
      "##formed": 3034,
      "##ails": 3035,
      "burg": 3036,
      "buried": 3037,
      "tempt": 3038,
      "tyrant": 3039,
      "condu": 3040,
      "peter": 3041,
      "despair": 3042,
      "officer": 3043,
      "mirth": 3044,
      "vouchs": 3045,
      "abroad": 3046,
      "othello": 3047,
      "dign": 3048,
      "fun": 3049,
      "hill": 3050,
      "nap": 3051,
      "rom": 3052,
      "sore": 3053,
      "table": 3054,
      "wag": 3055,
      "##rest": 3056,
      "##char": 3057,
      "##leep": 3058,
      "asleep": 3059,
      "deceived": 3060,
      "##very": 3061,
      "##raid": 3062,
      "##ands": 3063,
      "spar": 3064,
      "flight": 3065,
      "flies": 3066,
      "richmond": 3067,
      "below": 3068,
      "answered": 3069,
      "humph": 3070,
      "seeming": 3071,
      "meeting": 3072,
      "happiness": 3073,
      "freely": 3074,
      "capul": 3075,
      "wretch": 3076,
      "undone": 3077,
      "acquaint": 3078,
      "leonato": 3079,
      "encounter": 3080,
      "teeth": 3081,
      "particular": 3082,
      "aim": 3083,
      "ape": 3084,
      "able": 3085,
      "bard": 3086,
      "cure": 3087,
      "da": 3088,
      "dagg": 3089,
      "##ees": 3090,
      "##mit": 3091,
      "andronic": 3092,
      "nobl": 3093,
      "incl": 3094,
      "##uten": 3095,
      "render": 3096,
      "##rac": 3097,
      "##ieves": 3098,
      "ali": 3099,
      "gentlew": 3100,
      "heavenly": 3101,
      "imm": 3102,
      "imper": 3103,
      "preser": 3104,
      "firm": 3105,
      "begins": 3106,
      "compass": 3107,
      "lieuten": 3108,
      "beloved": 3109,
      "thrust": 3110,
      "daughters": 3111,
      "countenance": 3112,
      "played": 3113,
      "account": 3114,
      "##ixed": 3115,
      "##ized": 3116,
      "lands": 3117,
      "returned": 3118,
      "voices": 3119,
      "single": 3120,
      "temper": 3121,
      "venice": 3122,
      "constant": 3123,
      "determ": 3124,
      "unkind": 3125,
      "conquer": 3126,
      "hollow": 3127,
      "pyram": 3128,
      "langu": 3129,
      "bottom": 3130,
      "humphrey": 3131,
      "borrow": 3132,
      "mild": 3133,
      "sits": 3134,
      "ted": 3135,
      "wings": 3136,
      "##fer": 3137,
      "thick": 3138,
      "##osing": 3139,
      "##arus": 3140,
      "toby": 3141,
      "##omp": 3142,
      "knees": 3143,
      "lean": 3144,
      "seeing": 3145,
      "quit": 3146,
      "abh": 3147,
      "joint": 3148,
      "purs": 3149,
      "dearest": 3150,
      "bestow": 3151,
      "slender": 3152,
      "guess": 3153,
      "confer": 3154,
      "##ivil": 3155,
      "tread": 3156,
      "treach": 3157,
      "wronged": 3158,
      "denied": 3159,
      "beatrice": 3160,
      "##iety": 3161,
      "griefs": 3162,
      "bawd": 3163,
      "touched": 3164,
      "petr": 3165,
      "despite": 3166,
      "##asket": 3167,
      "drowned": 3168,
      "tribunes": 3169,
      "horns": 3170,
      "northumberland": 3171,
      "clouds": 3172,
      "girl": 3173,
      "hermia": 3174,
      "hopes": 3175,
      "benef": 3176,
      "vengeance": 3177,
      "romans": 3178,
      "lieutenant": 3179,
      "tedious": 3180,
      "bought": 3181,
      "mart": 3182,
      "nought": 3183,
      "por": 3184,
      "tam": 3185,
      "##lled": 3186,
      "##oned": 3187,
      "whore": 3188,
      "infect": 3189,
      "##iter": 3190,
      "##imer": 3191,
      "reward": 3192,
      "realm": 3193,
      "hers": 3194,
      "##illo": 3195,
      "blunt": 3196,
      "##rible": 3197,
      "spr": 3198,
      "##uchio": 3199,
      "strang": 3200,
      "roar": 3201,
      "honoured": 3202,
      "cursed": 3203,
      "##sander": 3204,
      "streets": 3205,
      "camillo": 3206,
      "profit": 3207,
      "tomb": 3208,
      "credit": 3209,
      "tempest": 3210,
      "durst": 3211,
      "garden": 3212,
      "authority": 3213,
      "lysander": 3214,
      "ducats": 3215,
      "earnest": 3216,
      "petruchio": 3217,
      "dom": 3218,
      "furn": 3219,
      "naked": 3220,
      "pack": 3221,
      "rul": 3222,
      "sic": 3223,
      "salt": 3224,
      "vice": 3225,
      "wake": 3226,
      "##lock": 3227,
      "##ten": 3228,
      "##chant": 3229,
      "sto": 3230,
      "dece": 3231,
      "neg": 3232,
      "faces": 3233,
      "blest": 3234,
      "swore": 3235,
      "swell": 3236,
      "spake": 3237,
      "outward": 3238,
      "sack": 3239,
      "laun": 3240,
      "##ips": 3241,
      "coz": 3242,
      "cock": 3243,
      "served": 3244,
      "warm": 3245,
      "peril": 3246,
      "wond": 3247,
      "minds": 3248,
      "vii": 3249,
      "##undy": 3250,
      "appears": 3251,
      "intent": 3252,
      "bapt": 3253,
      "sickness": 3254,
      "rule": 3255,
      "skill": 3256,
      "express": 3257,
      "provost": 3258,
      "angel": 3259,
      "drops": 3260,
      "suddenly": 3261,
      "prevent": 3262,
      "innocent": 3263,
      "burgundy": 3264,
      "apt": 3265,
      "bade": 3266,
      "fi": 3267,
      "pound": 3268,
      "rat": 3269,
      "tid": 3270,
      "##na": 3271,
      "##go": 3272,
      "##den": 3273,
      "##iny": 3274,
      "dot": 3275,
      "dew": 3276,
      "knife": 3277,
      "cher": 3278,
      "ord": 3279,
      "##olph": 3280,
      "arch": 3281,
      "flor": 3282,
      "greatest": 3283,
      "serving": 3284,
      "purch": 3285,
      "deadly": 3286,
      "villany": 3287,
      "disposition": 3288,
      "burning": 3289,
      "estate": 3290,
      "empress": 3291,
      "wide": 3292,
      "vex": 3293,
      "suspect": 3294,
      "school": 3295,
      "throat": 3296,
      "george": 3297,
      "equal": 3298,
      "tyran": 3299,
      "cease": 3300,
      "vouchsafe": 3301,
      "bardolph": 3302,
      "andronicus": 3303,
      "cere": 3304,
      "eag": 3305,
      "hort": 3306,
      "honey": 3307,
      "pie": 3308,
      "ride": 3309,
      "rail": 3310,
      "##ives": 3311,
      "##ault": 3312,
      "##head": 3313,
      "##fidius": 3314,
      "thom": 3315,
      "##ored": 3316,
      "##thum": 3317,
      "shot": 3318,
      "pron": 3319,
      "seas": 3320,
      "tranio": 3321,
      "bred": 3322,
      "brings": 3323,
      "exeter": 3324,
      "swe": 3325,
      "##igo": 3326,
      "##igence": 3327,
      "perchance": 3328,
      "early": 3329,
      "parted": 3330,
      "commission": 3331,
      "council": 3332,
      "##ctions": 3333,
      "womb": 3334,
      "begu": 3335,
      "##ertes": 3336,
      "smooth": 3337,
      "turns": 3338,
      "virtues": 3339,
      "aufidius": 3340,
      "##ney": 3341,
      "mortimer": 3342,
      "ambition": 3343,
      "absence": 3344,
      "sighs": 3345,
      "violent": 3346,
      "prevail": 3347,
      "quality": 3348,
      "pict": 3349,
      "bassanio": 3350,
      "obedience": 3351,
      "posthum": 3352,
      "rascal": 3353,
      "empty": 3354,
      "capulet": 3355,
      "gentlewoman": 3356,
      "pyramus": 3357,
      "tidings": 3358,
      "hortens": 3359,
      "thomas": 3360,
      "posthumus": 3361,
      "cy": 3362,
      "ends": 3363,
      "gon": 3364,
      "hie": 3365,
      "ped": 3366,
      "pour": 3367,
      "rash": 3368,
      "##wh": 3369,
      "##ta": 3370,
      "##ino": 3371,
      "##inate": 3372,
      "##ano": 3373,
      "##itious": 3374,
      "ital": 3375,
      "prol": 3376,
      "loose": 3377,
      "##akest": 3378,
      "##ella": 3379,
      "##ote": 3380,
      "##oles": 3381,
      "##ria": 3382,
      "gree": 3383,
      "stranger": 3384,
      "perj": 3385,
      "##elt": 3386,
      "merc": 3387,
      "repair": 3388,
      "##apes": 3389,
      "appar": 3390,
      "appreh": 3391,
      "imposs": 3392,
      "assure": 3393,
      "assured": 3394,
      "mischief": 3395,
      "bark": 3396,
      "beaten": 3397,
      "affli": 3398,
      "resolved": 3399,
      "helena": 3400,
      "modesty": 3401,
      "gifts": 3402,
      "satisfied": 3403,
      "unkn": 3404,
      "tarry": 3405,
      "kinsman": 3406,
      "challenge": 3407,
      "conduct": 3408,
      "bill": 3409,
      "dumb": 3410,
      "fil": 3411,
      "fift": 3412,
      "length": 3413,
      "miss": 3414,
      "names": 3415,
      "pil": 3416,
      "painted": 3417,
      "ran": 3418,
      "tort": 3419,
      "##iate": 3420,
      "##nat": 3421,
      "##act": 3422,
      "##kin": 3423,
      "##atio": 3424,
      "##ining": 3425,
      "##ision": 3426,
      "##enz": 3427,
      "##thur": 3428,
      "##anced": 3429,
      "hazard": 3430,
      "##ado": 3431,
      "william": 3432,
      "eng": 3433,
      "season": 3434,
      "convey": 3435,
      "hereaf": 3436,
      "swall": 3437,
      "arthur": 3438,
      "##rived": 3439,
      "dise": 3440,
      "diss": 3441,
      "clown": 3442,
      "##ption": 3443,
      "feared": 3444,
      "followers": 3445,
      "devise": 3446,
      "apart": 3447,
      "retire": 3448,
      "villains": 3449,
      "darest": 3450,
      "methought": 3451,
      "divine": 3452,
      "mountain": 3453,
      "portia": 3454,
      "unworth": 3455,
      "unhapp": 3456,
      "contrary": 3457,
      "avo": 3458,
      "forsooth": 3459,
      "plantag": 3460,
      "ignorant": 3461,
      "baptist": 3462,
      "pronoun": 3463,
      "hortensio": 3464,
      "hereafter": 3465,
      "ball": 3466,
      "bind": 3467,
      "cates": 3468,
      "dying": 3469,
      "east": 3470,
      "sour": 3471,
      "sides": 3472,
      "##haps": 3473,
      "##ton": 3474,
      "##vent": 3475,
      "thieves": 3476,
      "##ating": 3477,
      "##onius": 3478,
      "prize": 3479,
      "franc": 3480,
      "reck": 3481,
      "##pend": 3482,
      "trif": 3483,
      "ung": 3484,
      "worm": 3485,
      "##icate": 3486,
      "scot": 3487,
      "clim": 3488,
      "perhaps": 3489,
      "roder": 3490,
      "glorious": 3491,
      "prefer": 3492,
      "merit": 3493,
      "reputation": 3494,
      "puts": 3495,
      "attempt": 3496,
      "hencefor": 3497,
      "horatio": 3498,
      "troj": 3499,
      "sleeping": 3500,
      "maids": 3501,
      "object": 3502,
      "blessing": 3503,
      "dogs": 3504,
      "crave": 3505,
      "garments": 3506,
      "raise": 3507,
      "offended": 3508,
      "modest": 3509,
      "sacred": 3510,
      "memory": 3511,
      "undertake": 3512,
      "pisanio": 3513,
      "fiery": 3514,
      "baptista": 3515,
      "roderigo": 3516,
      "bag": 3517,
      "bury": 3518,
      "eight": 3519,
      "hy": 3520,
      "mag": 3521,
      "wished": 3522,
      "##cri": 3523,
      "##ug": 3524,
      "##ora": 3525,
      "##inous": 3526,
      "##ening": 3527,
      "##leans": 3528,
      "stat": 3529,
      "##alf": 3530,
      "##idence": 3531,
      "sees": 3532,
      "brows": 3533,
      "orleans": 3534,
      "knowing": 3535,
      "ariel": 3536,
      "lovely": 3537,
      "##amemn": 3538,
      "spec": 3539,
      "mars": 3540,
      "agamemn": 3541,
      "abused": 3542,
      "fairly": 3543,
      "ladyship": 3544,
      "complex": 3545,
      "behalf": 3546,
      "treasure": 3547,
      "sleeps": 3548,
      "bush": 3549,
      "dares": 3550,
      "build": 3551,
      "raven": 3552,
      "knights": 3553,
      "fatal": 3554,
      "amazed": 3555,
      "bodies": 3556,
      "victory": 3557,
      "disdain": 3558,
      "plantagenet": 3559,
      "agamemnon": 3560,
      "boun": 3561,
      "civil": 3562,
      "fits": 3563,
      "hugh": 3564,
      "ja": 3565,
      "jour": 3566,
      "ner": 3567,
      "pad": 3568,
      "south": 3569,
      "waste": 3570,
      "##res": 3571,
      "##ric": 3572,
      "##aid": 3573,
      "##cing": 3574,
      "forfeit": 3575,
      "ste": 3576,
      "stick": 3577,
      "liest": 3578,
      "##ards": 3579,
      "brains": 3580,
      "faced": 3581,
      "alb": 3582,
      "cave": 3583,
      "laertes": 3584,
      "##istol": 3585,
      "heav": 3586,
      "##ques": 3587,
      "##atched": 3588,
      "confound": 3589,
      "friendship": 3590,
      "device": 3591,
      "passed": 3592,
      "month": 3593,
      "market": 3594,
      "runs": 3595,
      "exceed": 3596,
      "dreams": 3597,
      "##ogen": 3598,
      "shortly": 3599,
      "##bbed": 3600,
      "limbs": 3601,
      "usurp": 3602,
      "smiles": 3603,
      "degree": 3604,
      "according": 3605,
      "reverence": 3606,
      "negle": 3607,
      "francis": 3608,
      "cens": 3609,
      "duch": 3610,
      "fin": 3611,
      "fathers": 3612,
      "iron": 3613,
      "nym": 3614,
      "rush": 3615,
      "tide": 3616,
      "taught": 3617,
      "wander": 3618,
      "##rate": 3619,
      "##net": 3620,
      "##dra": 3621,
      "##hold": 3622,
      "##inite": 3623,
      "##lle": 3624,
      "shout": 3625,
      "##change": 3626,
      "island": 3627,
      "##amour": 3628,
      "sell": 3629,
      "##ieved": 3630,
      "knaves": 3631,
      "##ilt": 3632,
      "chaste": 3633,
      "orland": 3634,
      "sirs": 3635,
      "dischar": 3636,
      "speaking": 3637,
      "graces": 3638,
      "pock": 3639,
      "thinking": 3640,
      "looking": 3641,
      "party": 3642,
      "imogen": 3643,
      "dearly": 3644,
      "assist": 3645,
      "senate": 3646,
      "damn": 3647,
      "gaunt": 3648,
      "##chester": 3649,
      "malvolio": 3650,
      "accept": 3651,
      "polic": 3652,
      "ripe": 3653,
      "admir": 3654,
      "groan": 3655,
      "hubert": 3656,
      "rhym": 3657,
      "banquo": 3658,
      "katharina": 3659,
      "punish": 3660,
      "changed": 3661,
      "employ": 3662,
      "cuckold": 3663,
      "whisper": 3664,
      "capitol": 3665,
      "unknown": 3666,
      "orlando": 3667,
      "cell": 3668,
      "ful": 3669,
      "fate": 3670,
      "hind": 3671,
      "sink": 3672,
      "##wis": 3673,
      "##acle": 3674,
      "##bel": 3675,
      "##eret": 3676,
      "##esus": 3677,
      "##ency": 3678,
      "belike": 3679,
      "shine": 3680,
      "##utes": 3681,
      "##cher": 3682,
      "stoop": 3683,
      "##sey": 3684,
      "frame": 3685,
      "##verse": 3686,
      "super": 3687,
      "chide": 3688,
      "lewis": 3689,
      "unl": 3690,
      "scr": 3691,
      "proc": 3692,
      "serp": 3693,
      "slight": 3694,
      "afraid": 3695,
      "finds": 3696,
      "##aped": 3697,
      "pair": 3698,
      "woes": 3699,
      "attended": 3700,
      "misery": 3701,
      "advice": 3702,
      "window": 3703,
      "revenged": 3704,
      "sorrows": 3705,
      "infinite": 3706,
      "prisoners": 3707,
      "wax": 3708,
      "relig": 3709,
      "monsieur": 3710,
      "julia": 3711,
      "admit": 3712,
      "possessed": 3713,
      "odds": 3714,
      "clothes": 3715,
      "haply": 3716,
      "displeasure": 3717,
      "dagger": 3718,
      "alike": 3719,
      "catesby": 3720,
      "policy": 3721,
      "etern": 3722,
      "rt": 3723,
      "test": 3724,
      "##ws": 3725,
      "##ever": 3726,
      "##essel": 3727,
      "##edge": 3728,
      "##ads": 3729,
      "##lys": 3730,
      "willing": 3731,
      "seest": 3732,
      "trade": 3733,
      "unnat": 3734,
      "blown": 3735,
      "##uments": 3736,
      "fairest": 3737,
      "slew": 3738,
      "resc": 3739,
      "advise": 3740,
      "intell": 3741,
      "sky": 3742,
      "saturn": 3743,
      "minute": 3744,
      "constable": 3745,
      "snow": 3746,
      "drums": 3747,
      "prepared": 3748,
      "invent": 3749,
      "famil": 3750,
      "##prise": 3751,
      "midnight": 3752,
      "charmian": 3753,
      "enjoy": 3754,
      "revolt": 3755,
      "habit": 3756,
      "oxford": 3757,
      "abhor": 3758,
      "##olesome": 3759,
      "impossible": 3760,
      "bounty": 3761,
      "aar": 3762,
      "aene": 3763,
      "crow": 3764,
      "fant": 3765,
      "fierce": 3766,
      "fixed": 3767,
      "ire": 3768,
      "naught": 3769,
      "numb": 3770,
      "pill": 3771,
      "pear": 3772,
      "tall": 3773,
      "tend": 3774,
      "taking": 3775,
      "wants": 3776,
      "yond": 3777,
      "##obar": 3778,
      "##ator": 3779,
      "nob": 3780,
      "ingr": 3781,
      "##asy": 3782,
      "isle": 3783,
      "##tery": 3784,
      "weeds": 3785,
      "stain": 3786,
      "deer": 3787,
      "##ested": 3788,
      "enobar": 3789,
      "sends": 3790,
      "##ellow": 3791,
      "cler": 3792,
      "grum": 3793,
      "grieve": 3794,
      "tells": 3795,
      "stroke": 3796,
      "fairy": 3797,
      "handker": 3798,
      "standing": 3799,
      "guild": 3800,
      "native": 3801,
      "consp": 3802,
      "consul": 3803,
      "monument": 3804,
      "praised": 3805,
      "sounds": 3806,
      "devils": 3807,
      "babe": 3808,
      "winchester": 3809,
      "countrymen": 3810,
      "perforce": 3811,
      "performed": 3812,
      "creatures": 3813,
      "disgrace": 3814,
      "conceit": 3815,
      "places": 3816,
      "condemned": 3817,
      "prodig": 3818,
      "renowned": 3819,
      "tamora": 3820,
      "unhappy": 3821,
      "henceforth": 3822,
      "duchess": 3823,
      "##ereto": 3824,
      "unnatural": 3825,
      "familiar": 3826,
      "aaron": 3827,
      "aeneas": 3828,
      "bent": 3829,
      "band": 3830,
      "bull": 3831,
      "bite": 3832,
      "et": 3833,
      "mong": 3834,
      "mass": 3835,
      "vessel": 3836,
      "wink": 3837,
      "##vish": 3838,
      "##fl": 3839,
      "##anct": 3840,
      "whip": 3841,
      "##rees": 3842,
      "forces": 3843,
      "withdra": 3844,
      "stam": 3845,
      "##aded": 3846,
      "priam": 3847,
      "repe": 3848,
      "sem": 3849,
      "chast": 3850,
      "unm": 3851,
      "##olute": 3852,
      "arise": 3853,
      "marina": 3854,
      "saved": 3855,
      "##arel": 3856,
      "heartily": 3857,
      "descend": 3858,
      "fox": 3859,
      "rock": 3860,
      "peers": 3861,
      "prayer": 3862,
      "emilia": 3863,
      "mistake": 3864,
      "edge": 3865,
      "impr": 3866,
      "months": 3867,
      "surely": 3868,
      "hangs": 3869,
      "sentence": 3870,
      "lucilius": 3871,
      "commanded": 3872,
      "favours": 3873,
      "ambitious": 3874,
      "darkness": 3875,
      "fingers": 3876,
      "susp": 3877,
      "syrac": 3878,
      "unfold": 3879,
      "elder": 3880,
      "necessity": 3881,
      "banishment": 3882,
      "figure": 3883,
      "instrument": 3884,
      "pieces": 3885,
      "picture": 3886,
      "avoid": 3887,
      "enobarbus": 3888,
      "dim": 3889,
      "eph": 3890,
      "gle": 3891,
      "pistol": 3892,
      "rap": 3893,
      "vin": 3894,
      "##eld": 3895,
      "##erous": 3896,
      "##inct": 3897,
      "##llen": 3898,
      "##enius": 3899,
      "nobles": 3900,
      "##ita": 3901,
      "##itable": 3902,
      "noted": 3903,
      "##oops": 3904,
      "##sequ": 3905,
      "decl": 3906,
      "chair": 3907,
      "unse": 3908,
      "boast": 3909,
      "worn": 3910,
      "marks": 3911,
      "##rift": 3912,
      "spur": 3913,
      "grec": 3914,
      "flow": 3915,
      "##assad": 3916,
      "coff": 3917,
      "wrought": 3918,
      "image": 3919,
      "drive": 3920,
      "remains": 3921,
      "belong": 3922,
      "pause": 3923,
      "impat": 3924,
      "wears": 3925,
      "advised": 3926,
      "secure": 3927,
      "##uteous": 3928,
      "kisses": 3929,
      "hardly": 3930,
      "hateful": 3931,
      "wounded": 3932,
      "pomp": 3933,
      "ambassad": 3934,
      "privile": 3935,
      "creep": 3936,
      "ignorance": 3937,
      "inher": 3938,
      "weapons": 3939,
      "maintain": 3940,
      "complexion": 3941,
      "padua": 3942,
      "bon": 3943,
      "felt": 3944,
      "mill": 3945,
      "nice": 3946,
      "oli": 3947,
      "rav": 3948,
      "scept": 3949,
      "tame": 3950,
      "##sp": 3951,
      "##soe": 3952,
      "##bast": 3953,
      "##can": 3954,
      "##ering": 3955,
      "##enes": 3956,
      "##oment": 3957,
      "ink": 3958,
      "stret": 3959,
      "ash": 3960,
      "##idus": 3961,
      "deb": 3962,
      "reach": 3963,
      "rejo": 3964,
      "##iege": 3965,
      "knit": 3966,
      "neph": 3967,
      "exper": 3968,
      "scape": 3969,
      "proved": 3970,
      "clot": 3971,
      "hearted": 3972,
      "abuse": 3973,
      "fairies": 3974,
      "joan": 3975,
      "prey": 3976,
      "repro": 3977,
      "##ension": 3978,
      "confirm": 3979,
      "edgar": 3980,
      "hanging": 3981,
      "draws": 3982,
      "burth": 3983,
      "murderer": 3984,
      "murdered": 3985,
      "record": 3986,
      "craft": 3987,
      "deserves": 3988,
      "delay": 3989,
      "lamb": 3990,
      "undo": 3991,
      "belly": 3992,
      "amongst": 3993,
      "##centio": 3994,
      "destro": 3995,
      "griev": 3996,
      "banquet": 3997,
      "katharine": 3998,
      "entertainment": 3999,
      "enforce": 4000,
      "companion": 4001,
      "difference": 4002,
      "disguised": 4003,
      "benefit": 4004,
      "sweat": 4005,
      "unworthy": 4006,
      "special": 4007,
      "nobility": 4008,
      "ephesus": 4009,
      "vincentio": 4010,
      "nephew": 4011,
      "basket": 4012,
      "cym": 4013,
      "dow": 4014,
      "esc": 4015,
      "fed": 4016,
      "gather": 4017,
      "lor": 4018,
      "moment": 4019,
      "rotten": 4020,
      "sanct": 4021,
      "task": 4022,
      "##oard": 4023,
      "##okes": 4024,
      "##way": 4025,
      "##ict": 4026,
      "##acy": 4027,
      "##so": 4028,
      "##pidus": 4029,
      "nobly": 4030,
      "whores": 4031,
      "whipped": 4032,
      "inqu": 4033,
      "forced": 4034,
      "weather": 4035,
      "##aled": 4036,
      "lip": 4037,
      "hercul": 4038,
      "suck": 4039,
      "alle": 4040,
      "chid": 4041,
      "cominius": 4042,
      "lepidus": 4043,
      "hereford": 4044,
      "blast": 4045,
      "arrest": 4046,
      "sayest": 4047,
      "##ica": 4048,
      "maria": 4049,
      "spl": 4050,
      "sple": 4051,
      "mayor": 4052,
      "greek": 4053,
      "twain": 4054,
      "quench": 4055,
      "fold": 4056,
      "eros": 4057,
      "slaves": 4058,
      "slept": 4059,
      "stays": 4060,
      "stayed": 4061,
      "appet": 4062,
      "apparel": 4063,
      "curr": 4064,
      "faithful": 4065,
      "friendly": 4066,
      "human": 4067,
      "welsh": 4068,
      "accuse": 4069,
      "seemed": 4070,
      "pleasures": 4071,
      "reading": 4072,
      "discret": 4073,
      "discont": 4074,
      "advance": 4075,
      "strikes": 4076,
      "instru": 4077,
      "temple": 4078,
      "ruin": 4079,
      "crack": 4080,
      "exped": 4081,
      "angels": 4082,
      "mouths": 4083,
      "defence": 4084,
      "milk": 4085,
      "acquainted": 4086,
      "sacri": 4087,
      "wales": 4088,
      "britain": 4089,
      "mourn": 4090,
      "envious": 4091,
      "shrewd": 4092,
      "##celot": 4093,
      "language": 4094,
      "launcelot": 4095,
      "handkerchief": 4096,
      "withdraw": 4097,
      "hercules": 4098,
      "cade": 4099,
      "diana": 4100,
      "freed": 4101,
      "gri": 4102,
      "jup": 4103,
      "mood": 4104,
      "mult": 4105,
      "paint": 4106,
      "tied": 4107,
      "vantage": 4108,
      "##wed": 4109,
      "##action": 4110,
      "##uce": 4111,
      "thur": 4112,
      "shun": 4113,
      "shift": 4114,
      "haunt": 4115,
      "##ursed": 4116,
      "knot": 4117,
      "trim": 4118,
      "choler": 4119,
      "amiss": 4120,
      "##ously": 4121,
      "spit": 4122,
      "poet": 4123,
      "aboard": 4124,
      "offered": 4125,
      "breach": 4126,
      "perish": 4127,
      "ado": 4128,
      "otherwise": 4129,
      "glo": 4130,
      "glove": 4131,
      "##ianus": 4132,
      "immed": 4133,
      "began": 4134,
      "remor": 4135,
      "##glas": 4136,
      "paul": 4137,
      "paroll": 4138,
      "kindly": 4139,
      "##clus": 4140,
      "accus": 4141,
      "douglas": 4142,
      "corp": 4143,
      "silent": 4144,
      "purposes": 4145,
      "stronger": 4146,
      "biron": 4147,
      "petition": 4148,
      "commonwe": 4149,
      "calm": 4150,
      "pitch": 4151,
      "books": 4152,
      "rebell": 4153,
      "costard": 4154,
      "tremble": 4155,
      "senses": 4156,
      "circumstance": 4157,
      "pandarus": 4158,
      "ruled": 4159,
      "prologue": 4160,
      "pocket": 4161,
      "numbers": 4162,
      "olivia": 4163,
      "jupiter": 4164,
      "thurio": 4165,
      "parolles": 4166,
      "kin": 4167,
      "lent": 4168,
      "sought": 4169,
      "yoke": 4170,
      "##ope": 4171,
      "##leness": 4172,
      "##hem": 4173,
      "thrown": 4174,
      "##ark": 4175,
      "##eder": 4176,
      "whit": 4177,
      "##ldom": 4178,
      "withered": 4179,
      "store": 4180,
      "stained": 4181,
      "soc": 4182,
      "lift": 4183,
      "willingly": 4184,
      "sebast": 4185,
      "sup": 4186,
      "allow": 4187,
      "##ouses": 4188,
      "sway": 4189,
      "##umer": 4190,
      "marvel": 4191,
      "also": 4192,
      "##ortion": 4193,
      "godd": 4194,
      "serves": 4195,
      "fairer": 4196,
      "##roclus": 4197,
      "##ression": 4198,
      "partly": 4199,
      "merchant": 4200,
      "charged": 4201,
      "harsh": 4202,
      "younger": 4203,
      "behav": 4204,
      "courtier": 4205,
      "passage": 4206,
      "drag": 4207,
      "patroclus": 4208,
      "cares": 4209,
      "substance": 4210,
      "pleasant": 4211,
      "suffered": 4212,
      "laws": 4213,
      "advent": 4214,
      "crying": 4215,
      "wishes": 4216,
      "skin": 4217,
      "plucked": 4218,
      "prepar": 4219,
      "hostess": 4220,
      "##scri": 4221,
      "beasts": 4222,
      "groans": 4223,
      "sealed": 4224,
      "leonatus": 4225,
      "huge": 4226,
      "committed": 4227,
      "savage": 4228,
      "concern": 4229,
      "miserable": 4230,
      "dignity": 4231,
      "wondrous": 4232,
      "italy": 4233,
      "##beline": 4234,
      "cymbeline": 4235,
      "sacrif": 4236,
      "immediate": 4237,
      "sebastian": 4238,
      "bio": 4239,
      "bud": 4240,
      "je": 4241,
      "luck": 4242,
      "mat": 4243,
      "moral": 4244,
      "oh": 4245,
      "sine": 4246,
      "ulys": 4247,
      "ward": 4248,
      "##mio": 4249,
      "##bow": 4250,
      "##pul": 4251,
      "##ndello": 4252,
      "##enc": 4253,
      "wheel": 4254,
      "wholesome": 4255,
      "height": 4256,
      "shown": 4257,
      "shoot": 4258,
      "stu": 4259,
      "frail": 4260,
      "goose": 4261,
      "thereof": 4262,
      "conven": 4263,
      "lea": 4264,
      "league": 4265,
      "gremio": 4266,
      "tooth": 4267,
      "clos": 4268,
      "perd": 4269,
      "adam": 4270,
      "wrest": 4271,
      "nights": 4272,
      "##iano": 4273,
      "services": 4274,
      "pursue": 4275,
      "slee": 4276,
      "confusion": 4277,
      "appl": 4278,
      "passing": 4279,
      "villan": 4280,
      "travell": 4281,
      "subd": 4282,
      "marked": 4283,
      "coron": 4284,
      "falsehood": 4285,
      "barren": 4286,
      "message": 4287,
      "afford": 4288,
      "incre": 4289,
      "calf": 4290,
      "oppos": 4291,
      "polonius": 4292,
      "knocking": 4293,
      "resolve": 4294,
      "milan": 4295,
      "wedding": 4296,
      "affections": 4297,
      "jealousy": 4298,
      "tricks": 4299,
      "birds": 4300,
      "casca": 4301,
      "stolen": 4302,
      "acquaintance": 4303,
      "conference": 4304,
      "##enzo": 4305,
      "grumio": 4306,
      "lorenzo": 4307,
      "discretion": 4308,
      "goddess": 4309,
      "biondello": 4310,
      "ulysses": 4311,
      "afe": 4312,
      "aumer": 4313,
      "bore": 4314,
      "bot": 4315,
      "bert": 4316,
      "couch": 4317,
      "fret": 4318,
      "jess": 4319,
      "mask": 4320,
      "non": 4321,
      "nun": 4322,
      "od": 4323,
      "oak": 4324,
      "pee": 4325,
      "rous": 4326,
      "rum": 4327,
      "sins": 4328,
      "zeal": 4329,
      "##ais": 4330,
      "##ded": 4331,
      "##son": 4332,
      "##mant": 4333,
      "##tles": 4334,
      "##came": 4335,
      "thers": 4336,
      "thorn": 4337,
      "##eres": 4338,
      "##ative": 4339,
      "##aries": 4340,
      "##irt": 4341,
      "##uses": 4342,
      "item": 4343,
      "stan": 4344,
      "dol": 4345,
      "depend": 4346,
      "front": 4347,
      "seize": 4348,
      "##raced": 4349,
      "goths": 4350,
      "chase": 4351,
      "exchange": 4352,
      "##illon": 4353,
      "enterprise": 4354,
      "##seless": 4355,
      "spurn": 4356,
      "hole": 4357,
      "dissem": 4358,
      "strain": 4359,
      "strive": 4360,
      "coat": 4361,
      "design": 4362,
      "bread": 4363,
      "menenius": 4364,
      "##enstern": 4365,
      "beside": 4366,
      "plays": 4367,
      "trees": 4368,
      "travel": 4369,
      "monarch": 4370,
      "earthly": 4371,
      "signs": 4372,
      "weeps": 4373,
      "beaut": 4374,
      "regan": 4375,
      "constr": 4376,
      "guarded": 4377,
      "rivers": 4378,
      "absolute": 4379,
      "liberal": 4380,
      "urge": 4381,
      "medic": 4382,
      "torch": 4383,
      "torment": 4384,
      "steph": 4385,
      "bassianus": 4386,
      "dismiss": 4387,
      "observe": 4388,
      "persuade": 4389,
      "wolf": 4390,
      "injur": 4391,
      "saucy": 4392,
      "gratiano": 4393,
      "nestor": 4394,
      "isabella": 4395,
      "appointed": 4396,
      "apemant": 4397,
      "purchase": 4398,
      "tyranny": 4399,
      "reckon": 4400,
      "trojan": 4401,
      "serpent": 4402,
      "eternal": 4403,
      "guildenstern": 4404,
      "imprison": 4405,
      "suspic": 4406,
      "sceptre": 4407,
      "cloten": 4408,
      "appetite": 4409,
      "freedom": 4410,
      "remorse": 4411,
      "aumerle": 4412,
      "bertram": 4413,
      "thersites": 4414,
      "apemantus": 4415,
      "bay": 4416,
      "bount": 4417,
      "cou": 4418,
      "cand": 4419,
      "lat": 4420,
      "ling": 4421,
      "pate": 4422,
      "pull": 4423,
      "##rid": 4424,
      "##lain": 4425,
      "##tled": 4426,
      "##uc": 4427,
      "##vation": 4428,
      "##za": 4429,
      "##inus": 4430,
      "##rels": 4431,
      "##ases": 4432,
      "##urance": 4433,
      "wept": 4434,
      "asham": 4435,
      "rev": 4436,
      "##geon": 4437,
      "##umn": 4438,
      "spot": 4439,
      "scour": 4440,
      "shoulders": 4441,
      "##emper": 4442,
      "abide": 4443,
      "perfection": 4444,
      "peas": 4445,
      "error": 4446,
      "duked": 4447,
      "joined": 4448,
      "anti": 4449,
      "merri": 4450,
      "higher": 4451,
      "pawn": 4452,
      "players": 4453,
      "accursed": 4454,
      "subtle": 4455,
      "drew": 4456,
      "attendant": 4457,
      "strife": 4458,
      "kissing": 4459,
      "suppose": 4460,
      "fields": 4461,
      "asked": 4462,
      "garter": 4463,
      "garland": 4464,
      "waters": 4465,
      "gait": 4466,
      "wisely": 4467,
      "bravely": 4468,
      "##ancing": 4469,
      "wooed": 4470,
      "towns": 4471,
      "##bborn": 4472,
      "pitiful": 4473,
      "lusty": 4474,
      "satisfaction": 4475,
      "refuse": 4476,
      "innoc": 4477,
      "continue": 4478,
      "smiling": 4479,
      "grandam": 4480,
      "cordelia": 4481,
      "tailor": 4482,
      "combat": 4483,
      "fifty": 4484,
      "ireland": 4485,
      "grecian": 4486,
      "spleen": 4487,
      "stubborn": 4488,
      "jessica": 4489,
      "peevish": 4490,
      "suspicion": 4491,
      "ashamed": 4492,
      "dukedom": 4493,
      "cool": 4494,
      "mow": 4495,
      "nim": 4496,
      "nation": 4497,
      "pace": 4498,
      "rust": 4499,
      "rib": 4500,
      "stern": 4501,
      "siege": 4502,
      "vul": 4503,
      "##oes": 4504,
      "##oph": 4505,
      "##ming": 4506,
      "##pet": 4507,
      "##pass": 4508,
      "##zing": 4509,
      "##eril": 4510,
      "##encon": 4511,
      "toil": 4512,
      "##celle": 4513,
      "##che": 4514,
      "fores": 4515,
      "sting": 4516,
      "stage": 4517,
      "##alled": 4518,
      "ens": 4519,
      "##vert": 4520,
      "suits": 4521,
      "troop": 4522,
      "comest": 4523,
      "bohem": 4524,
      "##ripp": 4525,
      "alencon": 4526,
      "score": 4527,
      "##ooked": 4528,
      "graves": 4529,
      "flat": 4530,
      "##agues": 4531,
      "strump": 4532,
      "gently": 4533,
      "rod": 4534,
      "##iously": 4535,
      "couldst": 4536,
      "removed": 4537,
      "charac": 4538,
      "helm": 4539,
      "beheld": 4540,
      "kindred": 4541,
      "doubl": 4542,
      "needful": 4543,
      "carried": 4544,
      "lights": 4545,
      "corre": 4546,
      "sounded": 4547,
      "obsc": 4548,
      "barbar": 4549,
      "singing": 4550,
      "palm": 4551,
      "supply": 4552,
      "recomp": 4553,
      "lately": 4554,
      "leads": 4555,
      "pucelle": 4556,
      "raised": 4557,
      "stream": 4558,
      "camest": 4559,
      "provide": 4560,
      "written": 4561,
      "delicate": 4562,
      "##bridge": 4563,
      "key": 4564,
      "penny": 4565,
      "feeling": 4566,
      "laughed": 4567,
      "troubled": 4568,
      "addition": 4569,
      "foreign": 4570,
      "absent": 4571,
      "macd": 4572,
      "possession": 4573,
      "varro": 4574,
      "proclaimed": 4575,
      "obedient": 4576,
      "bleeding": 4577,
      "directly": 4578,
      "wreck": 4579,
      "cloak": 4580,
      "naples": 4581,
      "journey": 4582,
      "rhyme": 4583,
      "privilege": 4584,
      "instruct": 4585,
      "afeard": 4586,
      "ax": 4587,
      "ale": 4588,
      "houses": 4589,
      "lying": 4590,
      "nails": 4591,
      "oph": 4592,
      "wail": 4593,
      "##aunt": 4594,
      "##lar": 4595,
      "##hrew": 4596,
      "##cise": 4597,
      "##cceed": 4598,
      "##orough": 4599,
      "##lly": 4600,
      "andrew": 4601,
      "##isons": 4602,
      "##isible": 4603,
      "##omin": 4604,
      "shy": 4605,
      "shook": 4606,
      "shield": 4607,
      "shapes": 4608,
      "forty": 4609,
      "notice": 4610,
      "aspect": 4611,
      "assem": 4612,
      "thisby": 4613,
      "price": 4614,
      "dozen": 4615,
      "liqu": 4616,
      "recei": 4617,
      "succeed": 4618,
      "load": 4619,
      "lovest": 4620,
      "##aker": 4621,
      "##otion": 4622,
      "leap": 4623,
      "space": 4624,
      "spread": 4625,
      "alc": 4626,
      "scur": 4627,
      "scru": 4628,
      "grew": 4629,
      "caught": 4630,
      "aged": 4631,
      "lap": 4632,
      "grands": 4633,
      "flout": 4634,
      "coll": 4635,
      "desired": 4636,
      "warri": 4637,
      "mocked": 4638,
      "advers": 4639,
      "parting": 4640,
      "commons": 4641,
      "antio": 4642,
      "##lied": 4643,
      "remove": 4644,
      "##issa": 4645,
      "countess": 4646,
      "beshrew": 4647,
      "curses": 4648,
      "restr": 4649,
      "humours": 4650,
      "apoll": 4651,
      "value": 4652,
      "kills": 4653,
      "fares": 4654,
      "corse": 4655,
      "commands": 4656,
      "joyful": 4657,
      "burst": 4658,
      "beauteous": 4659,
      "rug": 4660,
      "distra": 4661,
      "petty": 4662,
      "provided": 4663,
      "beholding": 4664,
      "jewels": 4665,
      "estim": 4666,
      "esteem": 4667,
      "visage": 4668,
      "interp": 4669,
      "interest": 4670,
      "hairs": 4671,
      "invisible": 4672,
      "granted": 4673,
      "resolution": 4674,
      "starve": 4675,
      "famous": 4676,
      "easily": 4677,
      "ships": 4678,
      "urged": 4679,
      "athen": 4680,
      "ancest": 4681,
      "prospero": 4682,
      "forswear": 4683,
      "destruction": 4684,
      "conclusion": 4685,
      "octavia": 4686,
      "placed": 4687,
      "audience": 4688,
      "befall": 4689,
      "beware": 4690,
      "daily": 4691,
      "eagle": 4692,
      "goneril": 4693,
      "torture": 4694,
      "pronounce": 4695,
      "climb": 4696,
      "nerissa": 4697,
      "censure": 4698,
      "burthen": 4699,
      "alleg": 4700,
      "strumpet": 4701,
      "macduff": 4702,
      "ophelia": 4703,
      "ber": 4704,
      "ben": 4705,
      "dut": 4706,
      "dum": 4707,
      "dame": 4708,
      "ferd": 4709,
      "gid": 4710,
      "hom": 4711,
      "mile": 4712,
      "nar": 4713,
      "ope": 4714,
      "pierce": 4715,
      "tum": 4716,
      "wot": 4717,
      "##oy": 4718,
      "##rude": 4719,
      "##ially": 4720,
      "##upt": 4721,
      "##inand": 4722,
      "##aniel": 4723,
      "beth": 4724,
      "steed": 4725,
      "liking": 4726,
      "deceive": 4727,
      "seldom": 4728,
      "entered": 4729,
      "theirs": 4730,
      "board": 4731,
      "##pping": 4732,
      "ago": 4733,
      "twould": 4734,
      "##aged": 4735,
      "hears": 4736,
      "perf": 4737,
      "robert": 4738,
      "slay": 4739,
      "contem": 4740,
      "contract": 4741,
      "repr": 4742,
      "crest": 4743,
      "bestowed": 4744,
      "ended": 4745,
      "elbow": 4746,
      "reser": 4747,
      "curst": 4748,
      "parley": 4749,
      "##clam": 4750,
      "killing": 4751,
      "assurance": 4752,
      "suffic": 4753,
      "misc": 4754,
      "happily": 4755,
      "phr": 4756,
      "##rantz": 4757,
      "feat": 4758,
      "kissed": 4759,
      "joys": 4760,
      "lesser": 4761,
      "aug": 4762,
      "clean": 4763,
      "learning": 4764,
      "growing": 4765,
      "tyre": 4766,
      "sitting": 4767,
      "cheque": 4768,
      "term": 4769,
      "terror": 4770,
      "rosenc": 4771,
      "cowards": 4772,
      "defy": 4773,
      "severally": 4774,
      "##prus": 4775,
      "breeding": 4776,
      "conquest": 4777,
      "steps": 4778,
      "robin": 4779,
      "conclude": 4780,
      "pinch": 4781,
      "stocks": 4782,
      "westmore": 4783,
      "proportion": 4784,
      "extremity": 4785,
      "employed": 4786,
      "conjure": 4787,
      "example": 4788,
      "treacherous": 4789,
      "cyprus": 4790,
      "apparent": 4791,
      "filth": 4792,
      "##cription": 4793,
      "steward": 4794,
      "sembl": 4795,
      "rapier": 4796,
      "whoreson": 4797,
      "split": 4798,
      "discontent": 4799,
      "preparation": 4800,
      "appla": 4801,
      "stanley": 4802,
      "bohemia": 4803,
      "antioch": 4804,
      "ferdinand": 4805,
      "rosencrantz": 4806,
      "westmoreland": 4807,
      "aunt": 4808,
      "cro": 4809,
      "fif": 4810,
      "hated": 4811,
      "lower": 4812,
      "ora": 4813,
      "push": 4814,
      "rouse": 4815,
      "tick": 4816,
      "vous": 4817,
      "##rust": 4818,
      "##now": 4819,
      "##mony": 4820,
      "##teen": 4821,
      "##co": 4822,
      "##ping": 4823,
      "##just": 4824,
      "##eral": 4825,
      "##erman": 4826,
      "token": 4827,
      "nod": 4828,
      "inward": 4829,
      "inform": 4830,
      "hey": 4831,
      "share": 4832,
      "shines": 4833,
      "##iring": 4834,
      "##tering": 4835,
      "week": 4836,
      "##enton": 4837,
      "deaf": 4838,
      "frank": 4839,
      "##ione": 4840,
      "locked": 4841,
      "troops": 4842,
      "manhood": 4843,
      "orch": 4844,
      "unjust": 4845,
      "arrived": 4846,
      "theme": 4847,
      "box": 4848,
      "##ication": 4849,
      "kingly": 4850,
      "spy": 4851,
      "aloud": 4852,
      "scatter": 4853,
      "shoulder": 4854,
      "##ortal": 4855,
      "coast": 4856,
      "moons": 4857,
      "county": 4858,
      "beget": 4859,
      "begun": 4860,
      "gild": 4861,
      "##apers": 4862,
      "newly": 4863,
      "##ival": 4864,
      "falling": 4865,
      "park": 4866,
      "braw": 4867,
      "accident": 4868,
      "overth": 4869,
      "farther": 4870,
      "husbands": 4871,
      "bank": 4872,
      "breaks": 4873,
      "running": 4874,
      "feather": 4875,
      "beats": 4876,
      "talked": 4877,
      "messal": 4878,
      "sisters": 4879,
      "terrible": 4880,
      "drinking": 4881,
      "opposed": 4882,
      "actions": 4883,
      "alarums": 4884,
      "##grim": 4885,
      "satisfy": 4886,
      "rosaline": 4887,
      "##aws": 4888,
      "schol": 4889,
      "throats": 4890,
      "government": 4891,
      "wolsey": 4892,
      "injury": 4893,
      "windsor": 4894,
      "fleet": 4895,
      "prophet": 4896,
      "virginity": 4897,
      "potent": 4898,
      "imagination": 4899,
      "immortal": 4900,
      "deceit": 4901,
      "viii": 4902,
      "ceremony": 4903,
      "pilgrim": 4904,
      "neglect": 4905,
      "discharge": 4906,
      "rescue": 4907,
      "clerk": 4908,
      "syracuse": 4909,
      "inherit": 4910,
      "##spur": 4911,
      "##soever": 4912,
      "behavior": 4913,
      "closet": 4914,
      "increase": 4915,
      "recompense": 4916,
      "axe": 4917,
      "shylock": 4918,
      "grandsire": 4919,
      "oracle": 4920,
      "cent": 4921,
      "gert": 4922,
      "jun": 4923,
      "ming": 4924,
      "oce": 4925,
      "rate": 4926,
      "sands": 4927,
      "yellow": 4928,
      "##wife": 4929,
      "##cute": 4930,
      "##kind": 4931,
      "##ule": 4932,
      "##ughter": 4933,
      "##zed": 4934,
      "##osoph": 4935,
      "##onst": 4936,
      "bee": 4937,
      "##uts": 4938,
      "##chor": 4939,
      "meas": 4940,
      "##itius": 4941,
      "sty": 4942,
      "liver": 4943,
      "likes": 4944,
      "wills": 4945,
      "reve": 4946,
      "whate": 4947,
      "sue": 4948,
      "chat": 4949,
      "chir": 4950,
      "mant": 4951,
      "compe": 4952,
      "conceive": 4953,
      "lev": 4954,
      "herein": 4955,
      "une": 4956,
      "seeks": 4957,
      "worcester": 4958,
      "outl": 4959,
      "laughter": 4960,
      "pole": 4961,
      "grass": 4962,
      "telling": 4963,
      "perpet": 4964,
      "err": 4965,
      "fearing": 4966,
      "##ached": 4967,
      "counse": 4968,
      "##ended": 4969,
      "begot": 4970,
      "begged": 4971,
      "mercut": 4972,
      "throng": 4973,
      "afterno": 4974,
      "apace": 4975,
      "bidding": 4976,
      "matters": 4977,
      "justly": 4978,
      "thankful": 4979,
      "praises": 4980,
      "breaking": 4981,
      "barg": 4982,
      "senseless": 4983,
      "phe": 4984,
      "titinius": 4985,
      "talking": 4986,
      "strongly": 4987,
      "yester": 4988,
      "supposed": 4989,
      "touching": 4990,
      "working": 4991,
      "distemper": 4992,
      "infirm": 4993,
      "certainly": 4994,
      "##lete": 4995,
      "points": 4996,
      "pays": 4997,
      "divor": 4998,
      "wooing": 4999,
      "event": 5000,
      "chamberlain": 5001,
      "thirty": 5002,
      "veins": 5003,
      "prosperous": 5004,
      "philosoph": 5005,
      "washed": 5006,
      "hermione": 5007,
      "merely": 5008,
      "##body": 5009,
      "eldest": 5010,
      "hungry": 5011,
      "weapon": 5012,
      "instruments": 5013,
      "betrayed": 5014,
      "isabel": 5015,
      "winged": 5016,
      "preserve": 5017,
      "domitius": 5018,
      "dote": 5019,
      "greeks": 5020,
      "perjured": 5021,
      "jaques": 5022,
      "intelligence": 5023,
      "paulina": 5024,
      "villanous": 5025,
      "opposite": 5026,
      "apollo": 5027,
      "allegiance": 5028,
      "fifth": 5029,
      "orchard": 5030,
      "gertrude": 5031,
      "mercutio": 5032,
      "afternoon": 5033,
      "bere": 5034,
      "bour": 5035,
      "cin": 5036,
      "cudge": 5037,
      "dat": 5038,
      "dine": 5039,
      "dian": 5040,
      "egg": 5041,
      "fenton": 5042,
      "kee": 5043,
      "lines": 5044,
      "makest": 5045,
      "net": 5046,
      "pier": 5047,
      "rack": 5048,
      "tig": 5049,
      "ug": 5050,
      "yon": 5051,
      "##eav": 5052,
      "##ns": 5053,
      "##last": 5054,
      "##some": 5055,
      "##bers": 5056,
      "##bian": 5057,
      "##uing": 5058,
      "##atic": 5059,
      "##inent": 5060,
      "##lling": 5061,
      "##enced": 5062,
      "##cet": 5063,
      "##uss": 5064,
      "##itch": 5065,
      "steep": 5066,
      "stale": 5067,
      "asp": 5068,
      "##adle": 5069,
      "butcher": 5070,
      "willow": 5071,
      "##aming": 5072,
      "trench": 5073,
      "ourself": 5074,
      "thereby": 5075,
      "manif": 5076,
      "brown": 5077,
      "##unken": 5078,
      "exh": 5079,
      "exile": 5080,
      "##ille": 5081,
      "##illed": 5082,
      "unre": 5083,
      "thane": 5084,
      "blue": 5085,
      "swears": 5086,
      "likewise": 5087,
      "sph": 5088,
      "everlast": 5089,
      "offices": 5090,
      "cox": 5091,
      "adri": 5092,
      "wrink": 5093,
      "sweetly": 5094,
      "##igned": 5095,
      "##iable": 5096,
      "drunken": 5097,
      "mightst": 5098,
      "repose": 5099,
      "##ensed": 5100,
      "harbour": 5101,
      "helic": 5102,
      "guide": 5103,
      "natures": 5104,
      "belch": 5105,
      "endeav": 5106,
      "consum": 5107,
      "curt": 5108,
      "accom": 5109,
      "access": 5110,
      "tax": 5111,
      "horrible": 5112,
      "subscri": 5113,
      "lightning": 5114,
      "disposed": 5115,
      "breathing": 5116,
      "discip": 5117,
      "signify": 5118,
      "beating": 5119,
      "youthful": 5120,
      "strangely": 5121,
      "titan": 5122,
      "voy": 5123,
      "protect": 5124,
      "royalty": 5125,
      "metal": 5126,
      "mettle": 5127,
      "ruff": 5128,
      "distur": 5129,
      "gaze": 5130,
      "writing": 5131,
      "divide": 5132,
      "requite": 5133,
      "evils": 5134,
      "appeared": 5135,
      "redress": 5136,
      "redeem": 5137,
      "claudius": 5138,
      "weakness": 5139,
      "verona": 5140,
      "kingdoms": 5141,
      "sufferance": 5142,
      "miracle": 5143,
      "safely": 5144,
      "##prised": 5145,
      "eleven": 5146,
      "secrets": 5147,
      "rebels": 5148,
      "publius": 5149,
      "effects": 5150,
      "vols": 5151,
      "owes": 5152,
      "transp": 5153,
      "walks": 5154,
      "governor": 5155,
      "turk": 5156,
      "solic": 5157,
      "enforced": 5158,
      "cressida": 5159,
      "loyalty": 5160,
      "imperial": 5161,
      "roaring": 5162,
      "scotland": 5163,
      "invention": 5164,
      "conspir": 5165,
      "rejoice": 5166,
      "commonwealth": 5167,
      "leaving": 5168,
      "stephano": 5169,
      "scurvy": 5170,
      "athenian": 5171,
      "giddy": 5172,
      "##clamation": 5173,
      "messala": 5174,
      "yesterday": 5175,
      "fan": 5176,
      "game": 5177,
      "gower": 5178,
      "mich": 5179,
      "named": 5180,
      "ought": 5181,
      "pite": 5182,
      "ram": 5183,
      "sed": 5184,
      "sith": 5185,
      "tun": 5186,
      "taint": 5187,
      "tush": 5188,
      "vault": 5189,
      "wore": 5190,
      "##ived": 5191,
      "##ger": 5192,
      "##aus": 5193,
      "##bation": 5194,
      "##col": 5195,
      "##zz": 5196,
      "thread": 5197,
      "thorough": 5198,
      "##incul": 5199,
      "##ese": 5200,
      "##llor": 5201,
      "beams": 5202,
      "hec": 5203,
      "##itic": 5204,
      "stum": 5205,
      "hist": 5206,
      "pred": 5207,
      "soil": 5208,
      "lions": 5209,
      "##athe": 5210,
      "rend": 5211,
      "sugg": 5212,
      "kna": 5213,
      "lock": 5214,
      "trunk": 5215,
      "trincul": 5216,
      "bran": 5217,
      "##illy": 5218,
      "##ulate": 5219,
      "swain": 5220,
      "##icle": 5221,
      "spect": 5222,
      "marvell": 5223,
      "##rib": 5224,
      "alto": 5225,
      "outra": 5226,
      "agripp": 5227,
      "process": 5228,
      "laur": 5229,
      "eyed": 5230,
      "serious": 5231,
      "betimes": 5232,
      "##outs": 5233,
      "moth": 5234,
      "moves": 5235,
      "##ullus": 5236,
      "##ossom": 5237,
      "contents": 5238,
      "keeping": 5239,
      "reply": 5240,
      "setting": 5241,
      "courteous": 5242,
      "turning": 5243,
      "woful": 5244,
      "brace": 5245,
      "retreat": 5246,
      "accused": 5247,
      "beds": 5248,
      "rightly": 5249,
      "carries": 5250,
      "attending": 5251,
      "dispose": 5252,
      "breathed": 5253,
      "busy": 5254,
      "lucio": 5255,
      "fever": 5256,
      "drawing": 5257,
      "prompt": 5258,
      "promises": 5259,
      "entr": 5260,
      "craves": 5261,
      "deputy": 5262,
      "contented": 5263,
      "venom": 5264,
      "burns": 5265,
      "writes": 5266,
      "sovereignty": 5267,
      "despised": 5268,
      "marching": 5269,
      "bosoms": 5270,
      "divers": 5271,
      "beggars": 5272,
      "filled": 5273,
      "crossed": 5274,
      "tribute": 5275,
      "mutiny": 5276,
      "qualities": 5277,
      "philip": 5278,
      "shadows": 5279,
      "conclud": 5280,
      "forsake": 5281,
      "reignier": 5282,
      "owl": 5283,
      "instantly": 5284,
      "##ipping": 5285,
      "conditions": 5286,
      "meantime": 5287,
      "complain": 5288,
      "boots": 5289,
      "treachery": 5290,
      "stopped": 5291,
      "disease": 5292,
      "trifle": 5293,
      "pearl": 5294,
      "inquire": 5295,
      "convenient": 5296,
      "nimble": 5297,
      "doublet": 5298,
      "phrase": 5299,
      "ocean": 5300,
      "keeper": 5301,
      "coxcom": 5302,
      "altogether": 5303,
      "agrippa": 5304,
      "ack": 5305,
      "batter": 5306,
      "cel": 5307,
      "goss": 5308,
      "german": 5309,
      "hose": 5310,
      "jes": 5311,
      "lin": 5312,
      "mor": 5313,
      "pul": 5314,
      "rot": 5315,
      "sand": 5316,
      "waking": 5317,
      "##light": 5318,
      "##sion": 5319,
      "##master": 5320,
      "##mark": 5321,
      "##uish": 5322,
      "##father": 5323,
      "threw": 5324,
      "##osen": 5325,
      "##ndower": 5326,
      "##arius": 5327,
      "shade": 5328,
      "##uring": 5329,
      "stout": 5330,
      "stead": 5331,
      "dove": 5332,
      "liken": 5333,
      "livery": 5334,
      "defe": 5335,
      "frost": 5336,
      "##stone": 5337,
      "##pec": 5338,
      "tres": 5339,
      "##asted": 5340,
      "bru": 5341,
      "exer": 5342,
      "orn": 5343,
      "amends": 5344,
      "fact": 5345,
      "consequ": 5346,
      "blot": 5347,
      "##ateful": 5348,
      "likely": 5349,
      "whereon": 5350,
      "madman": 5351,
      "alter": 5352,
      "scan": 5353,
      "scope": 5354,
      "agree": 5355,
      "somewh": 5356,
      "##igent": 5357,
      "flint": 5358,
      "evermore": 5359,
      "strat": 5360,
      "commod": 5361,
      "sland": 5362,
      "preced": 5363,
      "indign": 5364,
      "putting": 5365,
      "crom": 5366,
      "##ivity": 5367,
      "devour": 5368,
      "hourly": 5369,
      "afterward": 5370,
      "mothers": 5371,
      "bedford": 5372,
      "forthwith": 5373,
      "##ixenes": 5374,
      "denmark": 5375,
      "instance": 5376,
      "instruction": 5377,
      "seeking": 5378,
      "doubtful": 5379,
      "recre": 5380,
      "remembered": 5381,
      "infant": 5382,
      "yielded": 5383,
      "wonderful": 5384,
      "approve": 5385,
      "keen": 5386,
      "roses": 5387,
      "softly": 5388,
      "penit": 5389,
      "##acles": 5390,
      "direction": 5391,
      "polixenes": 5392,
      "heirs": 5393,
      "proceeding": 5394,
      "forehead": 5395,
      "kneels": 5396,
      "groom": 5397,
      "spoil": 5398,
      "lark": 5399,
      "rebu": 5400,
      "insol": 5401,
      "sixth": 5402,
      "lodge": 5403,
      "lodging": 5404,
      "vanqu": 5405,
      "neighbours": 5406,
      "punished": 5407,
      "complaint": 5408,
      "iras": 5409,
      "ministers": 5410,
      "alexander": 5411,
      "miseries": 5412,
      "babes": 5413,
      "diomedes": 5414,
      "determine": 5415,
      "conqueror": 5416,
      "porter": 5417,
      "beguile": 5418,
      "prevailed": 5419,
      "glendower": 5420,
      "reproach": 5421,
      "grievous": 5422,
      "dowry": 5423,
      "current": 5424,
      "rebellion": 5425,
      "society": 5426,
      "adventure": 5427,
      "sleeve": 5428,
      "bottle": 5429,
      "medicine": 5430,
      "rugby": 5431,
      "narrow": 5432,
      "mantua": 5433,
      "phebe": 5434,
      "ugly": 5435,
      "discipl": 5436,
      "voyage": 5437,
      "trinculo": 5438,
      "laurence": 5439,
      "bul": 5440,
      "dil": 5441,
      "diet": 5442,
      "ec": 5443,
      "gn": 5444,
      "hounds": 5445,
      "il": 5446,
      "jer": 5447,
      "les": 5448,
      "len": 5449,
      "mas": 5450,
      "mould": 5451,
      "nupt": 5452,
      "path": 5453,
      "pest": 5454,
      "rar": 5455,
      "rites": 5456,
      "tars": 5457,
      "vers": 5458,
      "##oon": 5459,
      "##oked": 5460,
      "##ec": 5461,
      "##ez": 5462,
      "##iades": 5463,
      "##nel": 5464,
      "##nicious": 5465,
      "##gen": 5466,
      "##ael": 5467,
      "##sino": 5468,
      "##bishop": 5469,
      "##pes": 5470,
      "##uced": 5471,
      "##vil": 5472,
      "##inary": 5473,
      "whereto": 5474,
      "wipe": 5475,
      "became": 5476,
      "mys": 5477,
      "forms": 5478,
      "its": 5479,
      "enr": 5480,
      "enf": 5481,
      "herd": 5482,
      "allowed": 5483,
      "trip": 5484,
      "chosen": 5485,
      "nept": 5486,
      "goods": 5487,
      "manage": 5488,
      "upright": 5489,
      "brid": 5490,
      "orsino": 5491,
      "amorous": 5492,
      "lets": 5493,
      "fawn": 5494,
      "fabian": 5495,
      "conv": 5496,
      "convers": 5497,
      "##ulous": 5498,
      "block": 5499,
      "blaz": 5500,
      "bonds": 5501,
      "works": 5502,
      "plan": 5503,
      "plains": 5504,
      "##orted": 5505,
      "proclamation": 5506,
      "poins": 5507,
      "##orne": 5508,
      "strokes": 5509,
      "offences": 5510,
      "coin": 5511,
      "pernicious": 5512,
      "robbed": 5513,
      "peer": 5514,
      "deaths": 5515,
      "slip": 5516,
      "##ossed": 5517,
      "##liament": 5518,
      "compound": 5519,
      "execute": 5520,
      "charms": 5521,
      "cram": 5522,
      "holding": 5523,
      "sets": 5524,
      "confeder": 5525,
      "riches": 5526,
      "belarius": 5527,
      "fortunate": 5528,
      "youngest": 5529,
      "bringing": 5530,
      "answers": 5531,
      "resist": 5532,
      "resign": 5533,
      "curs": 5534,
      "parent": 5535,
      "parliament": 5536,
      "passes": 5537,
      "brab": 5538,
      "backs": 5539,
      "acts": 5540,
      "##ably": 5541,
      "strict": 5542,
      "nearer": 5543,
      "barn": 5544,
      "##ibiades": 5545,
      "careful": 5546,
      "burial": 5547,
      "comforts": 5548,
      "recon": 5549,
      "lads": 5550,
      "distance": 5551,
      "affright": 5552,
      "sadness": 5553,
      "explo": 5554,
      "champ": 5555,
      "deposed": 5556,
      "##shire": 5557,
      "fourteen": 5558,
      "surfeit": 5559,
      "surprised": 5560,
      "watched": 5561,
      "require": 5562,
      "salute": 5563,
      "tales": 5564,
      "##bray": 5565,
      "##standing": 5566,
      "throws": 5567,
      "flattery": 5568,
      "knocks": 5569,
      "election": 5570,
      "bowels": 5571,
      "rhe": 5572,
      "espec": 5573,
      "corioli": 5574,
      "conceal": 5575,
      "beneath": 5576,
      "venture": 5577,
      "greeting": 5578,
      "hunger": 5579,
      "imagine": 5580,
      "cuckoo": 5581,
      "##ursions": 5582,
      "alexand": 5583,
      "sensible": 5584,
      "dishonoured": 5585,
      "stabs": 5586,
      "physician": 5587,
      "guests": 5588,
      "digest": 5589,
      "funeral": 5590,
      "archbishop": 5591,
      "florence": 5592,
      "swallowed": 5593,
      "abhorred": 5594,
      "fantast": 5595,
      "ingrat": 5596,
      "prodigal": 5597,
      "mongst": 5598,
      "stamp": 5599,
      "ambassador": 5600,
      "destroy": 5601,
      "expedition": 5602,
      "sacrifice": 5603,
      "sinews": 5604,
      "rousillon": 5605,
      "peasant": 5606,
      "mowbray": 5607,
      "vulgar": 5608,
      "alcibiades": 5609,
      "juno": 5610,
      "chiron": 5611,
      "volsces": 5612,
      "michael": 5613,
      "piteous": 5614,
      "acknow": 5615,
      "likeness": 5616,
      "cromwell": 5617,
      "nuptial": 5618,
      "tarsus": 5619,
      "neptune": 5620,
      "bach": 5621,
      "diest": 5622,
      "hue": 5623,
      "hare": 5624,
      "hedge": 5625,
      "ju": 5626,
      "jot": 5627,
      "lt": 5628,
      "lun": 5629,
      "mud": 5630,
      "nav": 5631,
      "ost": 5632,
      "obt": 5633,
      "omit": 5634,
      "pent": 5635,
      "peep": 5636,
      "rut": 5637,
      "roof": 5638,
      "rising": 5639,
      "sust": 5640,
      "tents": 5641,
      "vast": 5642,
      "vot": 5643,
      "vass": 5644,
      "waked": 5645,
      "zounds": 5646,
      "##wall": 5647,
      "##ders": 5648,
      "##cli": 5649,
      "##ples": 5650,
      "##val": 5651,
      "thin": 5652,
      "thrift": 5653,
      "shores": 5654,
      "haw": 5655,
      "notes": 5656,
      "notwith": 5657,
      "##key": 5658,
      "##alus": 5659,
      "##idered": 5660,
      "##athed": 5661,
      "enm": 5662,
      "##rand": 5663,
      "##raft": 5664,
      "sugar": 5665,
      "suitor": 5666,
      "negl": 5667,
      "amity": 5668,
      "converse": 5669,
      "leont": 5670,
      "unman": 5671,
      "##umes": 5672,
      "##eemed": 5673,
      "worms": 5674,
      "##ico": 5675,
      "marsh": 5676,
      "scand": 5677,
      "##pper": 5678,
      "caps": 5679,
      "cawd": 5680,
      "clam": 5681,
      "grim": 5682,
      "moving": 5683,
      "dukes": 5684,
      "##elaus": 5685,
      "afoot": 5686,
      "armado": 5687,
      "contend": 5688,
      "fires": 5689,
      "compar": 5690,
      "indiffer": 5691,
      "dearer": 5692,
      "devised": 5693,
      "boyet": 5694,
      "parson": 5695,
      "rights": 5696,
      "hush": 5697,
      "backward": 5698,
      "assault": 5699,
      "pleasing": 5700,
      "suffice": 5701,
      "hangman": 5702,
      "discord": 5703,
      "mischance": 5704,
      "lays": 5705,
      "soundly": 5706,
      "phoe": 5707,
      "swearing": 5708,
      "titles": 5709,
      "inte": 5710,
      "cleon": 5711,
      "burden": 5712,
      "wanting": 5713,
      "murderous": 5714,
      "touches": 5715,
      "pupp": 5716,
      "infl": 5717,
      "infer": 5718,
      "straw": 5719,
      "gallows": 5720,
      "gaoler": 5721,
      "terr": 5722,
      "drinks": 5723,
      "captains": 5724,
      "embass": 5725,
      "speeches": 5726,
      "favoured": 5727,
      "stirring": 5728,
      "scorns": 5729,
      "diam": 5730,
      "politic": 5731,
      "riot": 5732,
      "churl": 5733,
      "poisoned": 5734,
      "kneeling": 5735,
      "elements": 5736,
      "rebel": 5737,
      "middle": 5738,
      "rogues": 5739,
      "departure": 5740,
      "create": 5741,
      "robes": 5742,
      "grieves": 5743,
      "walter": 5744,
      "observ": 5745,
      "profession": 5746,
      "mourning": 5747,
      "picked": 5748,
      "wager": 5749,
      "unkindness": 5750,
      "borrowed": 5751,
      "furnish": 5752,
      "ratcli": 5753,
      "greece": 5754,
      "alban": 5755,
      "exceeding": 5756,
      "punishment": 5757,
      "superfl": 5758,
      "saturninus": 5759,
      "chastity": 5760,
      "concerns": 5761,
      "immediately": 5762,
      "reckoning": 5763,
      "merrily": 5764,
      "barbarous": 5765,
      "scruple": 5766,
      "estimation": 5767,
      "dumain": 5768,
      "bethink": 5769,
      "miscar": 5770,
      "scholar": 5771,
      "divorce": 5772,
      "everlasting": 5773,
      "entrance": 5774,
      "ingratitude": 5775,
      "bachel": 5776,
      "notwithstanding": 5777,
      "leontes": 5778,
      "cawdor": 5779,
      "ratcliff": 5780,
      "bully": 5781,
      "dain": 5782,
      "dart": 5783,
      "dors": 5784,
      "dash": 5785,
      "gap": 5786,
      "hun": 5787,
      "hates": 5788,
      "ice": 5789,
      "pir": 5790,
      "patch": 5791,
      "rip": 5792,
      "ross": 5793,
      "tie": 5794,
      "##ril": 5795,
      "##ivers": 5796,
      "##non": 5797,
      "##acious": 5798,
      "##sin": 5799,
      "##mission": 5800,
      "##bon": 5801,
      "##oubt": 5802,
      "##thren": 5803,
      "offe": 5804,
      "beau": 5805,
      "informed": 5806,
      "##chery": 5807,
      "##itation": 5808,
      "noter": 5809,
      "##imo": 5810,
      "##imony": 5811,
      "butt": 5812,
      "print": 5813,
      "anoint": 5814,
      "framed": 5815,
      "##ardy": 5816,
      "tried": 5817,
      "chin": 5818,
      "##uellen": 5819,
      "##illing": 5820,
      "amend": 5821,
      "faction": 5822,
      "knowest": 5823,
      "bliss": 5824,
      "boat": 5825,
      "boar": 5826,
      "prover": 5827,
      "pox": 5828,
      "flame": 5829,
      "flock": 5830,
      "fluellen": 5831,
      "cop": 5832,
      "coats": 5833,
      "brethren": 5834,
      "menelaus": 5835,
      "moe": 5836,
      "moder": 5837,
      "adul": 5838,
      "nightly": 5839,
      "cannon": 5840,
      "meanest": 5841,
      "contain": 5842,
      "presume": 5843,
      "compare": 5844,
      "household": 5845,
      "mistrust": 5846,
      "cran": 5847,
      "attends": 5848,
      "confir": 5849,
      "smoke": 5850,
      "resem": 5851,
      "playing": 5852,
      "patric": 5853,
      "imped": 5854,
      "carriage": 5855,
      "subst": 5856,
      "surety": 5857,
      "##cape": 5858,
      "persons": 5859,
      "##iban": 5860,
      "careless": 5861,
      "intents": 5862,
      "musicians": 5863,
      "bait": 5864,
      "murderers": 5865,
      "bounds": 5866,
      "distress": 5867,
      "skull": 5868,
      "garment": 5869,
      "##imely": 5870,
      "venus": 5871,
      "fourth": 5872,
      "confessed": 5873,
      "incensed": 5874,
      "regent": 5875,
      "division": 5876,
      "eaten": 5877,
      "walked": 5878,
      "untimely": 5879,
      "quarrels": 5880,
      "snatch": 5881,
      "opport": 5882,
      "labours": 5883,
      "mocks": 5884,
      "invite": 5885,
      "harmony": 5886,
      "troubles": 5887,
      "river": 5888,
      "##gnant": 5889,
      "broad": 5890,
      "hideous": 5891,
      "excursions": 5892,
      "briefly": 5893,
      "cornwall": 5894,
      "bondage": 5895,
      "breeds": 5896,
      "meddle": 5897,
      "shroud": 5898,
      "dispatched": 5899,
      "varlet": 5900,
      "grieved": 5901,
      "dismal": 5902,
      "slaughtered": 5903,
      "condemn": 5904,
      "deserts": 5905,
      "ragged": 5906,
      "guiltless": 5907,
      "spark": 5908,
      "nobler": 5909,
      "infected": 5910,
      "strangers": 5911,
      "furnished": 5912,
      "stole": 5913,
      "prevented": 5914,
      "cherish": 5915,
      "ceremon": 5916,
      "affliction": 5917,
      "swallow": 5918,
      "dissol": 5919,
      "scratch": 5920,
      "impatient": 5921,
      "stretch": 5922,
      "experience": 5923,
      "corporal": 5924,
      "innocence": 5925,
      "ancestors": 5926,
      "sufficient": 5927,
      "semblance": 5928,
      "perpetual": 5929,
      "helicanus": 5930,
      "suggest": 5931,
      "marvellous": 5932,
      "coxcomb": 5933,
      "pestil": 5934,
      "verses": 5935,
      "indifferent": 5936,
      "integr": 5937,
      "dainty": 5938,
      "dorset": 5939,
      "bone": 5940,
      "balth": 5941,
      "dion": 5942,
      "dang": 5943,
      "dress": 5944,
      "dower": 5945,
      "dressed": 5946,
      "drows": 5947,
      "dancing": 5948,
      "fem": 5949,
      "fount": 5950,
      "gun": 5951,
      "hood": 5952,
      "hatch": 5953,
      "lur": 5954,
      "latter": 5955,
      "losing": 5956,
      "mum": 5957,
      "pang": 5958,
      "rud": 5959,
      "rab": 5960,
      "tired": 5961,
      "vig": 5962,
      "vowed": 5963,
      "##oft": 5964,
      "##wart": 5965,
      "##ris": 5966,
      "##iard": 5967,
      "##iot": 5968,
      "##iction": 5969,
      "##nes": 5970,
      "##mp": 5971,
      "##cip": 5972,
      "##pers": 5973,
      "##fast": 5974,
      "##iner": 5975,
      "##isc": 5976,
      "##isement": 5977,
      "##ares": 5978,
      "toad": 5979,
      "tonight": 5980,
      "##the": 5981,
      "nobody": 5982,
      "beque": 5983,
      "inch": 5984,
      "heinous": 5985,
      "##asp": 5986,
      "##asing": 5987,
      "##asions": 5988,
      "shoes": 5989,
      "haven": 5990,
      "##uted": 5991,
      "iss": 5992,
      "##alty": 5993,
      "##ida": 5994,
      "##amy": 5995,
      "defect": 5996,
      "##verty": 5997,
      "sung": 5998,
      "##andra": 5999,
      "##iles": 6000,
      "trow": 6001,
      "neat": 6002,
      "manly": 6003,
      "mankind": 6004,
      "##unity": 6005,
      "shel": 6006,
      "##elled": 6007,
      "level": 6008,
      "moreover": 6009,
      "lovell": 6010,
      "##inder": 6011,
      "##icer": 6012,
      "alt": 6013,
      "aloof": 6014,
      "aloft": 6015,
      "sails": 6016,
      "disord": 6017,
      "clamour": 6018,
      "pope": 6019,
      "poverty": 6020,
      "flav": 6021,
      "grove": 6022,
      "abbey": 6023,
      "awe": 6024,
      "description": 6025,
      "robe": 6026,
      "robb": 6027,
      "rocks": 6028,
      "wring": 6029,
      "commends": 6030,
      "hasty": 6031,
      "sweetest": 6032,
      "##oult": 6033,
      "male": 6034,
      "slumber": 6035,
      "afar": 6036,
      "headed": 6037,
      "longav": 6038,
      "complete": 6039,
      "evening": 6040,
      "mistook": 6041,
      "harvest": 6042,
      "lief": 6043,
      "confident": 6044,
      "richer": 6045,
      "endured": 6046,
      "fallen": 6047,
      "bragg": 6048,
      "treasons": 6049,
      "retires": 6050,
      "horror": 6051,
      "powerful": 6052,
      "purposed": 6053,
      "majest": 6054,
      "revenue": 6055,
      "baw": 6056,
      "bald": 6057,
      "countryman": 6058,
      "cheap": 6059,
      "ladder": 6060,
      "frenchmen": 6061,
      "watery": 6062,
      "malcol": 6063,
      "evans": 6064,
      "summ": 6065,
      "quarter": 6066,
      "approved": 6067,
      "despise": 6068,
      "legions": 6069,
      "caliban": 6070,
      "oppose": 6071,
      "achieve": 6072,
      "simpl": 6073,
      "milford": 6074,
      "violence": 6075,
      "corner": 6076,
      "governed": 6077,
      "volumn": 6078,
      "destiny": 6079,
      "coloured": 6080,
      "fellowship": 6081,
      "executed": 6082,
      "cruelty": 6083,
      "frowns": 6084,
      "escape": 6085,
      "vanish": 6086,
      "vanity": 6087,
      "wenches": 6088,
      "expectation": 6089,
      "holp": 6090,
      "holid": 6091,
      "threatening": 6092,
      "##boys": 6093,
      "bootless": 6094,
      "extreme": 6095,
      "maine": 6096,
      "audrey": 6097,
      "discovered": 6098,
      "drift": 6099,
      "alexas": 6100,
      "stabbed": 6101,
      "raging": 6102,
      "duncan": 6103,
      "recovered": 6104,
      "baby": 6105,
      "affected": 6106,
      "feeble": 6107,
      "sicinius": 6108,
      "swelling": 6109,
      "beguiled": 6110,
      "gonz": 6111,
      "perjury": 6112,
      "merciful": 6113,
      "nymph": 6114,
      "employment": 6115,
      "religious": 6116,
      "liquor": 6117,
      "duties": 6118,
      "reproof": 6119,
      "filthy": 6120,
      "bargain": 6121,
      "cinna": 6122,
      "history": 6123,
      "outrage": 6124,
      "trespass": 6125,
      "exercise": 6126,
      "consequence": 6127,
      "somewhat": 6128,
      "commodity": 6129,
      "enrich": 6130,
      "rheum": 6131,
      "especially": 6132,
      "alexandria": 6133,
      "enmity": 6134,
      "marshal": 6135,
      "scandal": 6136,
      "patricians": 6137,
      "integrity": 6138,
      "flavius": 6139,
      "longaville": 6140,
      "malcolm": 6141,
      "cook": 6142,
      "cull": 6143,
      "cesar": 6144,
      "crows": 6145,
      "date": 6146,
      "dial": 6147,
      "fow": 6148,
      "hire": 6149,
      "iach": 6150,
      "lan": 6151,
      "lame": 6152,
      "lute": 6153,
      "nigh": 6154,
      "pem": 6155,
      "rue": 6156,
      "sym": 6157,
      "##oqu": 6158,
      "##hine": 6159,
      "##tance": 6160,
      "##cer": 6161,
      "##vir": 6162,
      "##vius": 6163,
      "##yard": 6164,
      "##zy": 6165,
      "thereto": 6166,
      "##oster": 6167,
      "##isp": 6168,
      "##arm": 6169,
      "##aned": 6170,
      "##anks": 6171,
      "noon": 6172,
      "whist": 6173,
      "infection": 6174,
      "hav": 6175,
      "haught": 6176,
      "##itive": 6177,
      "stake": 6178,
      "stuck": 6179,
      "stiff": 6180,
      "##advent": 6181,
      "##ales": 6182,
      "butter": 6183,
      "lic": 6184,
      "##aments": 6185,
      "fro": 6186,
      "fray": 6187,
      "sex": 6188,
      "##ardine": 6189,
      "chest": 6190,
      "mantle": 6191,
      "##unate": 6192,
      "sheets": 6193,
      "##feu": 6194,
      "blank": 6195,
      "swim": 6196,
      "sweep": 6197,
      "arr": 6198,
      "mariana": 6199,
      "plent": 6200,
      "pledge": 6201,
      "span": 6202,
      "altered": 6203,
      "sap": 6204,
      "agreed": 6205,
      "dislike": 6206,
      "lafeu": 6207,
      "grain": 6208,
      "abate": 6209,
      "offers": 6210,
      "cob": 6211,
      "cove": 6212,
      "desol": 6213,
      "menas": 6214,
      "perse": 6215,
      "article": 6216,
      "##roll": 6217,
      "##room": 6218,
      "##endom": 6219,
      "##lihood": 6220,
      "purge": 6221,
      "undergo": 6222,
      "considered": 6223,
      "devotion": 6224,
      "restore": 6225,
      "parents": 6226,
      "falcon": 6227,
      "taunt": 6228,
      "horrid": 6229,
      "displ": 6230,
      "corin": 6231,
      "advanced": 6232,
      "silk": 6233,
      "silvius": 6234,
      "fighting": 6235,
      "obst": 6236,
      "sennet": 6237,
      "judas": 6238,
      "blessings": 6239,
      "suppl": 6240,
      "rub": 6241,
      "cracked": 6242,
      "sights": 6243,
      "trusty": 6244,
      "strew": 6245,
      "dreamed": 6246,
      "provoke": 6247,
      "waves": 6248,
      "survey": 6249,
      "##upon": 6250,
      "hotspur": 6251,
      "divided": 6252,
      "suitors": 6253,
      "messengers": 6254,
      "speedy": 6255,
      "relent": 6256,
      "penance": 6257,
      "laboured": 6258,
      "excellence": 6259,
      "vernon": 6260,
      "flattering": 6261,
      "pitied": 6262,
      "beastly": 6263,
      "miles": 6264,
      "christendom": 6265,
      "detest": 6266,
      "wedded": 6267,
      "utmost": 6268,
      "conquered": 6269,
      "safer": 6270,
      "control": 6271,
      "shrie": 6272,
      "demands": 6273,
      "esp": 6274,
      "grossly": 6275,
      "delights": 6276,
      "persuasion": 6277,
      "persuaded": 6278,
      "sailors": 6279,
      "necessary": 6280,
      "grandfather": 6281,
      "hunting": 6282,
      "debts": 6283,
      "unpro": 6284,
      "driven": 6285,
      "dwells": 6286,
      "corrupted": 6287,
      "whispers": 6288,
      "disguise": 6289,
      "noblest": 6290,
      "determined": 6291,
      "tyrann": 6292,
      "apprehend": 6293,
      "ballad": 6294,
      "magic": 6295,
      "wandering": 6296,
      "fulvia": 6297,
      "procure": 6298,
      "unseen": 6299,
      "impatience": 6300,
      "ashes": 6301,
      "multitude": 6302,
      "subdued": 6303,
      "coronation": 6304,
      "injuries": 6305,
      "bounteous": 6306,
      "candle": 6307,
      "correction": 6308,
      "antiochus": 6309,
      "moonshine": 6310,
      "counsellor": 6311,
      "bereft": 6312,
      "titania": 6313,
      "knavery": 6314,
      "precedent": 6315,
      "mystery": 6316,
      "brabant": 6317,
      "barnardine": 6318,
      "reconc": 6319,
      "acknowledge": 6320,
      "rutland": 6321,
      "phoebus": 6322,
      "noterbury": 6323,
      "anointed": 6324,
      "dangers": 6325,
      "cesario": 6326,
      "iachimo": 6327,
      "pembroke": 6328,
      "aut": 6329,
      "coo": 6330,
      "celia": 6331,
      "casket": 6332,
      "diff": 6333,
      "dined": 6334,
      "eli": 6335,
      "eats": 6336,
      "fer": 6337,
      "fert": 6338,
      "gorge": 6339,
      "lart": 6340,
      "lime": 6341,
      "mouse": 6342,
      "muff": 6343,
      "osw": 6344,
      "pan": 6345,
      "pence": 6346,
      "row": 6347,
      "rig": 6348,
      "rene": 6349,
      "sire": 6350,
      "silly": 6351,
      "vine": 6352,
      "velve": 6353,
      "##gre": 6354,
      "##groom": 6355,
      "##lot": 6356,
      "##lings": 6357,
      "##liness": 6358,
      "##side": 6359,
      "##maid": 6360,
      "##bing": 6361,
      "##bit": 6362,
      "##bol": 6363,
      "##ties": 6364,
      "##tained": 6365,
      "##craft": 6366,
      "##path": 6367,
      "##jou": 6368,
      "thais": 6369,
      "##ouder": 6370,
      "##ories": 6371,
      "##enor": 6372,
      "##anor": 6373,
      "whel": 6374,
      "##veyed": 6375,
      "inn": 6376,
      "heigh": 6377,
      "heel": 6378,
      "sha": 6379,
      "shoe": 6380,
      "##etic": 6381,
      "meed": 6382,
      "##urous": 6383,
      "##imon": 6384,
      "##iments": 6385,
      "stink": 6386,
      "stool": 6387,
      "thisbe": 6388,
      "prat": 6389,
      "sober": 6390,
      "dover": 6391,
      "anjou": 6392,
      "deck": 6393,
      "froth": 6394,
      "##estial": 6395,
      "enchant": 6396,
      "seized": 6397,
      "##arded": 6398,
      "locks": 6399,
      "chose": 6400,
      "upb": 6401,
      "brass": 6402,
      "##unch": 6403,
      "exact": 6404,
      "entertained": 6405,
      "##oted": 6406,
      "lewd": 6407,
      "lechery": 6408,
      "unlike": 6409,
      "univers": 6410,
      "##ular": 6411,
      "blossom": 6412,
      "plight": 6413,
      "plough": 6414,
      "likelihood": 6415,
      "quaint": 6416,
      "eyel": 6417,
      "cozen": 6418,
      "descent": 6419,
      "gentleness": 6420,
      "roy": 6421,
      "rope": 6422,
      "articles": 6423,
      "errand": 6424,
      "prays": 6425,
      "wrang": 6426,
      "calling": 6427,
      "pregnant": 6428,
      "##lier": 6429,
      "contag": 6430,
      "longing": 6431,
      "foolery": 6432,
      "merch": 6433,
      "indire": 6434,
      "giant": 6435,
      "charitable": 6436,
      "crush": 6437,
      "guider": 6438,
      "smother": 6439,
      "belie": 6440,
      "believed": 6441,
      "humility": 6442,
      "minded": 6443,
      "carri": 6444,
      "pleases": 6445,
      "vizard": 6446,
      "falsely": 6447,
      "reasonable": 6448,
      "returns": 6449,
      "flying": 6450,
      "windows": 6451,
      "entra": 6452,
      "recount": 6453,
      "ruth": 6454,
      "leading": 6455,
      "puiss": 6456,
      "raw": 6457,
      "minion": 6458,
      "burned": 6459,
      "deserving": 6460,
      "surrey": 6461,
      "reports": 6462,
      "confession": 6463,
      "boldly": 6464,
      "vision": 6465,
      "walking": 6466,
      "summon": 6467,
      "battles": 6468,
      "relish": 6469,
      "scarf": 6470,
      "cowardly": 6471,
      "plainly": 6472,
      "mocking": 6473,
      "counsels": 6474,
      "verse": 6475,
      "throwing": 6476,
      "laughing": 6477,
      "thirst": 6478,
      "motive": 6479,
      "beginning": 6480,
      "mountains": 6481,
      "proceedings": 6482,
      "jests": 6483,
      "understanding": 6484,
      "limit": 6485,
      "stops": 6486,
      "patiently": 6487,
      "lists": 6488,
      "torches": 6489,
      "decay": 6490,
      "blushing": 6491,
      "during": 6492,
      "intended": 6493,
      "rascals": 6494,
      "degrees": 6495,
      "inhab": 6496,
      "derby": 6497,
      "derived": 6498,
      "weighed": 6499,
      "stuffed": 6500,
      "kinsmen": 6501,
      "baseness": 6502,
      "produce": 6503,
      "performance": 6504,
      "covered": 6505,
      "witchcraft": 6506,
      "bridegroom": 6507,
      "wonders": 6508,
      "pedant": 6509,
      "engaged": 6510,
      "diseases": 6511,
      "statue": 6512,
      "albany": 6513,
      "ravish": 6514,
      "gloves": 6515,
      "nuncle": 6516,
      "##zabeth": 6517,
      "ribs": 6518,
      "character": 6519,
      "contempl": 6520,
      "scattered": 6521,
      "tiger": 6522,
      "accompl": 6523,
      "solicit": 6524,
      "concluded": 6525,
      "celestial": 6526,
      "rebuke": 6527,
      "vanquished": 6528,
      "parentage": 6529,
      "sustain": 6530,
      "vassal": 6531,
      "superfluous": 6532,
      "bachelor": 6533,
      "drowsy": 6534,
      "sympath": 6535,
      "elizabeth": 6536,
      "lartius": 6537,
      "oswald": 6538,
      "velvet": 6539,
      "thaisa": 6540,
      "bi": 6541,
      "bona": 6542,
      "balm": 6543,
      "boult": 6544,
      "fre": 6545,
      "fath": 6546,
      "faster": 6547,
      "fates": 6548,
      "gage": 6549,
      "lance": 6550,
      "mast": 6551,
      "maker": 6552,
      "ned": 6553,
      "nourish": 6554,
      "oliver": 6555,
      "pere": 6556,
      "pine": 6557,
      "rings": 6558,
      "rated": 6559,
      "si": 6560,
      "sly": 6561,
      "sans": 6562,
      "tart": 6563,
      "tire": 6564,
      "taps": 6565,
      "vau": 6566,
      "vap": 6567,
      "wet": 6568,
      "wra": 6569,
      "wakes": 6570,
      "##eard": 6571,
      "##get": 6572,
      "##late": 6573,
      "##lorn": 6574,
      "##say": 6575,
      "##mas": 6576,
      "##house": 6577,
      "##kest": 6578,
      "##kens": 6579,
      "##par": 6580,
      "##fret": 6581,
      "thurs": 6582,
      "##eriff": 6583,
      "##nday": 6584,
      "##orus": 6585,
      "heath": 6586,
      "shakes": 6587,
      "shames": 6588,
      "shamed": 6589,
      "sheriff": 6590,
      "forlorn": 6591,
      "##itute": 6592,
      "##itary": 6593,
      "notorious": 6594,
      "##terity": 6595,
      "weed": 6596,
      "ascend": 6597,
      "##adem": 6598,
      "##ids": 6599,
      "angl": 6600,
      "##aine": 6601,
      "revel": 6602,
      "whatsoever": 6603,
      "enlar": 6604,
      "allay": 6605,
      "alliance": 6606,
      "loft": 6607,
      "##ctors": 6608,
      "choke": 6609,
      "branch": 6610,
      "exclaim": 6611,
      "org": 6612,
      "conveyed": 6613,
      "enters": 6614,
      "leather": 6615,
      "leaf": 6616,
      "unth": 6617,
      "unst": 6618,
      "unsh": 6619,
      "canker": 6620,
      "arvir": 6621,
      "worser": 6622,
      "spell": 6623,
      "marble": 6624,
      "spurs": 6625,
      "alms": 6626,
      "scold": 6627,
      "ague": 6628,
      "diso": 6629,
      "dislo": 6630,
      "mustard": 6631,
      "proves": 6632,
      "theseus": 6633,
      "##iod": 6634,
      "quince": 6635,
      "abomin": 6636,
      "##agus": 6637,
      "strings": 6638,
      "##quenet": 6639,
      "pert": 6640,
      "period": 6641,
      "road": 6642,
      "bloods": 6643,
      "partner": 6644,
      "aye": 6645,
      "slipp": 6646,
      "antenor": 6647,
      "contro": 6648,
      "crim": 6649,
      "crimes": 6650,
      "helps": 6651,
      "settled": 6652,
      "confidence": 6653,
      "apply": 6654,
      "##beit": 6655,
      "welkin": 6656,
      "accomp": 6657,
      "handsome": 6658,
      "breakfast": 6659,
      "thousands": 6660,
      "obli": 6661,
      "appeal": 6662,
      "cousins": 6663,
      "intends": 6664,
      "clapped": 6665,
      "revenges": 6666,
      "entire": 6667,
      "support": 6668,
      "sickly": 6669,
      "leaden": 6670,
      "angiers": 6671,
      "gazing": 6672,
      "yielding": 6673,
      "expense": 6674,
      "provoked": 6675,
      "burnt": 6676,
      "requires": 6677,
      "profound": 6678,
      "profane": 6679,
      "pomfret": 6680,
      "##bras": 6681,
      "prett": 6682,
      "relieve": 6683,
      "empire": 6684,
      "flatterer": 6685,
      "respects": 6686,
      "julius": 6687,
      "feasts": 6688,
      "added": 6689,
      "vein": 6690,
      "##afed": 6691,
      "detested": 6692,
      "lacks": 6693,
      "viola": 6694,
      "bastards": 6695,
      "cheerful": 6696,
      "uttered": 6697,
      "occasions": 6698,
      "prosperity": 6699,
      "philipp": 6700,
      "crept": 6701,
      "storms": 6702,
      "pipe": 6703,
      "syll": 6704,
      "succession": 6705,
      "priests": 6706,
      "topas": 6707,
      "wolves": 6708,
      "visitation": 6709,
      "ventidius": 6710,
      "prophesy": 6711,
      "changes": 6712,
      "trembling": 6713,
      "envoy": 6714,
      "maidenhead": 6715,
      "corruption": 6716,
      "companions": 6717,
      "hatred": 6718,
      "fruitful": 6719,
      "epita": 6720,
      "pressed": 6721,
      "function": 6722,
      "nobleness": 6723,
      "inclined": 6724,
      "joints": 6725,
      "pursued": 6726,
      "vexed": 6727,
      "pedro": 6728,
      "afflict": 6729,
      "ungent": 6730,
      "magn": 6731,
      "jaquenet": 6732,
      "saturnine": 6733,
      "ambassadors": 6734,
      "escalus": 6735,
      "painting": 6736,
      "couple": 6737,
      "scourge": 6738,
      "warriors": 6739,
      "benvolio": 6740,
      "homage": 6741,
      "gilded": 6742,
      "overthrow": 6743,
      "style": 6744,
      "revels": 6745,
      "infirmity": 6746,
      "cudgel": 6747,
      "branches": 6748,
      "jesu": 6749,
      "penitent": 6750,
      "enfr": 6751,
      "exploit": 6752,
      "female": 6753,
      "##adventure": 6754,
      "guiderius": 6755,
      "fathom": 6756,
      "thursday": 6757,
      "lofty": 6758,
      "arviragus": 6759,
      "epitaph": 6760,
      "jaquenetta": 6761,
      "aust": 6762,
      "afore": 6763,
      "aqu": 6764,
      "bail": 6765,
      "bands": 6766,
      "cities": 6767,
      "ded": 6768,
      "dried": 6769,
      "eur": 6770,
      "eun": 6771,
      "egl": 6772,
      "guts": 6773,
      "hound": 6774,
      "hides": 6775,
      "kern": 6776,
      "lung": 6777,
      "mul": 6778,
      "mates": 6779,
      "puck": 6780,
      "pounds": 6781,
      "rou": 6782,
      "race": 6783,
      "russ": 6784,
      "sall": 6785,
      "tu": 6786,
      "tainted": 6787,
      "##worth": 6788,
      "##ridge": 6789,
      "##gress": 6790,
      "##ainder": 6791,
      "##mont": 6792,
      "##take": 6793,
      "##core": 6794,
      "##cock": 6795,
      "##ky": 6796,
      "##kins": 6797,
      "##pled": 6798,
      "##uate": 6799,
      "##uary": 6800,
      "##ually": 6801,
      "##fold": 6802,
      "##eration": 6803,
      "theft": 6804,
      "##inbras": 6805,
      "##ario": 6806,
      "toe": 6807,
      "whet": 6808,
      "whir": 6809,
      "wil": 6810,
      "heal": 6811,
      "##asar": 6812,
      "shop": 6813,
      "shirt": 6814,
      "halt": 6815,
      "##lebr": 6816,
      "weal": 6817,
      "states": 6818,
      "##alo": 6819,
      "livest": 6820,
      "deformed": 6821,
      "reh": 6822,
      "rein": 6823,
      "rear": 6824,
      "enra": 6825,
      "sequ": 6826,
      "##vern": 6827,
      "##geons": 6828,
      "sums": 6829,
      "sullen": 6830,
      "##str": 6831,
      "trad": 6832,
      "nell": 6833,
      "broth": 6834,
      "ample": 6835,
      "sheet": 6836,
      "##oused": 6837,
      "##ula": 6838,
      "##ulation": 6839,
      "##umed": 6840,
      "array": 6841,
      "##iced": 6842,
      "uses": 6843,
      "hob": 6844,
      "outside": 6845,
      "causes": 6846,
      "saving": 6847,
      "clap": 6848,
      "lac": 6849,
      "awaked": 6850,
      "coal": 6851,
      "gentry": 6852,
      "serge": 6853,
      "##quis": 6854,
      "moiety": 6855,
      "##oughs": 6856,
      "sweeter": 6857,
      "slack": 6858,
      "antic": 6859,
      "dram": 6860,
      "droop": 6861,
      "nobleman": 6862,
      "courses": 6863,
      "merr": 6864,
      "cradle": 6865,
      "fortinbras": 6866,
      "truer": 6867,
      "confine": 6868,
      "confined": 6869,
      "richly": 6870,
      "highly": 6871,
      "highest": 6872,
      "worthless": 6873,
      "worthiness": 6874,
      "consist": 6875,
      "curtain": 6876,
      "parle": 6877,
      "accent": 6878,
      "pleaseth": 6879,
      "meets": 6880,
      "impart": 6881,
      "assail": 6882,
      "readiness": 6883,
      "##ific": 6884,
      "wearing": 6885,
      "discom": 6886,
      "laying": 6887,
      "silken": 6888,
      "##ected": 6889,
      "muster": 6890,
      "landed": 6891,
      "purple": 6892,
      "instead": 6893,
      "instinct": 6894,
      "##ibly": 6895,
      "fiends": 6896,
      "built": 6897,
      "capable": 6898,
      "distressed": 6899,
      "frenchman": 6900,
      "sadly": 6901,
      "yields": 6902,
      "princip": 6903,
      "tenor": 6904,
      "malicious": 6905,
      "region": 6906,
      "talents": 6907,
      "wondered": 6908,
      "dropped": 6909,
      "extend": 6910,
      "oppression": 6911,
      "ache": 6912,
      "simon": 6913,
      "stirs": 6914,
      "scorned": 6915,
      "harmless": 6916,
      "wiser": 6917,
      "created": 6918,
      "flattered": 6919,
      "resolute": 6920,
      "disgraced": 6921,
      "starved": 6922,
      "bells": 6923,
      "mortality": 6924,
      "feeds": 6925,
      "limb": 6926,
      "smallest": 6927,
      "urs": 6928,
      "studied": 6929,
      "insp": 6930,
      "insult": 6931,
      "avouch": 6932,
      "avaunt": 6933,
      "scarcely": 6934,
      "##iculous": 6935,
      "ridiculous": 6936,
      "frowning": 6937,
      "dealing": 6938,
      "ghosts": 6939,
      "triumphant": 6940,
      "threats": 6941,
      "encountered": 6942,
      "waiting": 6943,
      "bending": 6944,
      "victorious": 6945,
      "lamentable": 6946,
      "bigger": 6947,
      "sauce": 6948,
      "rags": 6949,
      "stomachs": 6950,
      "chiefest": 6951,
      "squire": 6952,
      "stafford": 6953,
      "melted": 6954,
      "preserved": 6955,
      "sicilia": 6956,
      "cozened": 6957,
      "mercury": 6958,
      "bills": 6959,
      "fifteen": 6960,
      "ranks": 6961,
      "balls": 6962,
      "trifles": 6963,
      "usurping": 6964,
      "discharged": 6965,
      "admirable": 6966,
      "religion": 6967,
      "naughty": 6968,
      "pillow": 6969,
      "repeat": 6970,
      "coffin": 6971,
      "ravished": 6972,
      "stretched": 6973,
      "griff": 6974,
      "imprisonment": 6975,
      "interpret": 6976,
      "applaud": 6977,
      "compelled": 6978,
      "subscribe": 6979,
      "linen": 6980,
      "defeat": 6981,
      "slanders": 6982,
      "afterwards": 6983,
      "cranmer": 6984,
      "confirmed": 6985,
      "impediment": 6986,
      "opportunity": 6987,
      "balthasar": 6988,
      "rabble": 6989,
      "gonzalo": 6990,
      "covet": 6991,
      "fertile": 6992,
      "philippi": 6993,
      "enfranch": 6994,
      "eunuch": 6995,
      "lungs": 6996,
      "aed": 6997,
      "bor": 6998,
      "bal": 6999,
      "bate": 7000,
      "bide": 7001,
      "bows": 7002,
      "bowed": 7003,
      "cer": 7004,
      "cad": 7005,
      "dw": 7006,
      "dit": 7007,
      "ebb": 7008,
      "fut": 7009,
      "fol": 7010,
      "fence": 7011,
      "file": 7012,
      "gam": 7013,
      "gets": 7014,
      "gav": 7015,
      "games": 7016,
      "gilt": 7017,
      "lull": 7018,
      "mate": 7019,
      "muse": 7020,
      "nin": 7021,
      "noses": 7022,
      "oil": 7023,
      "ober": 7024,
      "pind": 7025,
      "pig": 7026,
      "pud": 7027,
      "patter": 7028,
      "papers": 7029,
      "rive": 7030,
      "ti": 7031,
      "torn": 7032,
      "tub": 7033,
      "vat": 7034,
      "vest": 7035,
      "##oen": 7036,
      "##onds": 7037,
      "##eur": 7038,
      "##ecy": 7039,
      "##rion": 7040,
      "##iven": 7041,
      "##awn": 7042,
      "##abl": 7043,
      "##me": 7044,
      "##mpt": 7045,
      "##bear": 7046,
      "##til": 7047,
      "##pen": 7048,
      "##vity": 7049,
      "##fellow": 7050,
      "##jour": 7051,
      "##esies": 7052,
      "toys": 7053,
      "tokens": 7054,
      "##thest": 7055,
      "##thorn": 7056,
      "##reet": 7057,
      "##recy": 7058,
      "hem": 7059,
      "mytil": 7060,
      "##owder": 7061,
      "haut": 7062,
      "##utch": 7063,
      "mell": 7064,
      "##itate": 7065,
      "notable": 7066,
      "wither": 7067,
      "asunder": 7068,
      "butch": 7069,
      "prate": 7070,
      "prime": 7071,
      "lily": 7072,
      "anno": 7073,
      "deli": 7074,
      "frant": 7075,
      "fraught": 7076,
      "reap": 7077,
      "sext": 7078,
      "sepul": 7079,
      "##thern": 7080,
      "##stood": 7081,
      "trained": 7082,
      "chim": 7083,
      "mangl": 7084,
      "upward": 7085,
      "bridge": 7086,
      "amain": 7087,
      "##antity": 7088,
      "##antages": 7089,
      "fac": 7090,
      "faul": 7091,
      "unfe": 7092,
      "unqu": 7093,
      "unlo": 7094,
      "arra": 7095,
      "arbit": 7096,
      "##icity": 7097,
      "plenty": 7098,
      "plots": 7099,
      "scars": 7100,
      "scaped": 7101,
      "scroll": 7102,
      "disting": 7103,
      "##igation": 7104,
      "proff": 7105,
      "clay": 7106,
      "##ouns": 7107,
      "lacked": 7108,
      "graced": 7109,
      "popul": 7110,
      "quake": 7111,
      "thinkest": 7112,
      "norway": 7113,
      "##quity": 7114,
      "peruse": 7115,
      "permit": 7116,
      "peradventure": 7117,
      "moan": 7118,
      "adore": 7119,
      "erp": 7120,
      "prayed": 7121,
      "parties": 7122,
      "comment": 7123,
      "footing": 7124,
      "##achio": 7125,
      "impe": 7126,
      "meaner": 7127,
      "worldly": 7128,
      "wayward": 7129,
      "mightily": 7130,
      "composition": 7131,
      "compact": 7132,
      "witty": 7133,
      "charges": 7134,
      "crooked": 7135,
      "harms": 7136,
      "truce": 7137,
      "belief": 7138,
      "belmont": 7139,
      "worthies": 7140,
      "worthily": 7141,
      "eloqu": 7142,
      "rests": 7143,
      "restored": 7144,
      "parcel": 7145,
      "hume": 7146,
      "apes": 7147,
      "brag": 7148,
      "presented": 7149,
      "##closed": 7150,
      "valued": 7151,
      "taper": 7152,
      "tabour": 7153,
      "patron": 7154,
      "impud": 7155,
      "trod": 7156,
      "trag": 7157,
      "traged": 7158,
      "assay": 7159,
      "assume": 7160,
      "lux": 7161,
      "lucet": 7162,
      "homely": 7163,
      "misfort": 7164,
      "##abella": 7165,
      "shameful": 7166,
      "happier": 7167,
      "fights": 7168,
      "lasting": 7169,
      "secrecy": 7170,
      "obsequ": 7171,
      "devilish": 7172,
      "phoen": 7173,
      "murders": 7174,
      "daring": 7175,
      "touchstone": 7176,
      "bub": 7177,
      "buz": 7178,
      "buff": 7179,
      "coldly": 7180,
      "crab": 7181,
      "cuts": 7182,
      "rape": 7183,
      "surgeon": 7184,
      "pastime": 7185,
      "reported": 7186,
      "inconst": 7187,
      "divin": 7188,
      "fasting": 7189,
      "esteemed": 7190,
      "deeply": 7191,
      "boldness": 7192,
      "events": 7193,
      "constancy": 7194,
      "embraced": 7195,
      "approbation": 7196,
      "keys": 7197,
      "oppressed": 7198,
      "simp": 7199,
      "labouring": 7200,
      "cowardice": 7201,
      "gladly": 7202,
      "mockery": 7203,
      "saints": 7204,
      "privy": 7205,
      "commendations": 7206,
      "losses": 7207,
      "vilely": 7208,
      "steals": 7209,
      "stealing": 7210,
      "admired": 7211,
      "lustre": 7212,
      "cornets": 7213,
      "blem": 7214,
      "tribune": 7215,
      "matched": 7216,
      "succor": 7217,
      "approaches": 7218,
      "bowl": 7219,
      "mutual": 7220,
      "practises": 7221,
      "shrink": 7222,
      "circle": 7223,
      "property": 7224,
      "usurped": 7225,
      "transformed": 7226,
      "loathed": 7227,
      "loathsome": 7228,
      "holla": 7229,
      "celebr": 7230,
      "prophecy": 7231,
      "lychor": 7232,
      "hunts": 7233,
      "idly": 7234,
      "idleness": 7235,
      "##ocate": 7236,
      "soothsay": 7237,
      "habits": 7238,
      "concer": 7239,
      "conjur": 7240,
      "circumst": 7241,
      "dunsin": 7242,
      "pisa": 7243,
      "weighty": 7244,
      "square": 7245,
      "frighted": 7246,
      "tempted": 7247,
      "pursuit": 7248,
      "springs": 7249,
      "purchased": 7250,
      "italian": 7251,
      "apprehension": 7252,
      "trojans": 7253,
      "bushy": 7254,
      "heaviness": 7255,
      "neglected": 7256,
      "damnation": 7257,
      "fulf": 7258,
      "hinder": 7259,
      "unlaw": 7260,
      "scroop": 7261,
      "belongs": 7262,
      "million": 7263,
      "debate": 7264,
      "perdita": 7265,
      "traveller": 7266,
      "dolabella": 7267,
      "dissembling": 7268,
      "beautiful": 7269,
      "latest": 7270,
      "spotted": 7271,
      "distracted": 7272,
      "reserved": 7273,
      "feature": 7274,
      "discontented": 7275,
      "pilgrimage": 7276,
      "beef": 7277,
      "levied": 7278,
      "outlive": 7279,
      "philosophy": 7280,
      "piercing": 7281,
      "manifest": 7282,
      "adrian": 7283,
      "ruffian": 7284,
      "insolence": 7285,
      "discipline": 7286,
      "bulk": 7287,
      "ecst": 7288,
      "champion": 7289,
      "fantastical": 7290,
      "lunatic": 7291,
      "diamond": 7292,
      "churlish": 7293,
      "observance": 7294,
      "fountain": 7295,
      "holiday": 7296,
      "haughty": 7297,
      "shaft": 7298,
      "universal": 7299,
      "indirect": 7300,
      "perempt": 7301,
      "disloyal": 7302,
      "abominable": 7303,
      "obliv": 7304,
      "rouen": 7305,
      "wilful": 7306,
      "sergeant": 7307,
      "simonides": 7308,
      "ursula": 7309,
      "gavest": 7310,
      "oberon": 7311,
      "pindarus": 7312,
      "mytilene": 7313,
      "hautboys": 7314,
      "frantic": 7315,
      "sepulch": 7316,
      "lucetta": 7317,
      "lychorida": 7318,
      "dunsinane": 7319,
      "aem": 7320,
      "bench": 7321,
      "cu": 7322,
      "ced": 7323,
      "cim": 7324,
      "cri": 7325,
      "cush": 7326,
      "fide": 7327,
      "gad": 7328,
      "gul": 7329,
      "gains": 7330,
      "ig": 7331,
      "jump": 7332,
      "lasc": 7333,
      "lane": 7334,
      "mute": 7335,
      "nut": 7336,
      "nath": 7337,
      "pant": 7338,
      "ranc": 7339,
      "sixt": 7340,
      "tardy": 7341,
      "va": 7342,
      "yard": 7343,
      "##ois": 7344,
      "##iver": 7345,
      "##iors": 7346,
      "##aces": 7347,
      "##aced": 7348,
      "##de": 7349,
      "##bes": 7350,
      "##her": 7351,
      "##po": 7352,
      "##vail": 7353,
      "##yza": 7354,
      "thigh": 7355,
      "thumb": 7356,
      "##orp": 7357,
      "##inc": 7358,
      "toy": 7359,
      "##rement": 7360,
      "beads": 7361,
      "hew": 7362,
      "shining": 7363,
      "melo": 7364,
      "##usions": 7365,
      "##itan": 7366,
      "##itiff": 7367,
      "##urity": 7368,
      "##imate": 7369,
      "##seth": 7370,
      "hiss": 7371,
      "prim": 7372,
      "##idents": 7373,
      "dole": 7374,
      "liar": 7375,
      "reek": 7376,
      "enge": 7377,
      "sear": 7378,
      "seated": 7379,
      "##ourished": 7380,
      "##anda": 7381,
      "trot": 7382,
      "chape": 7383,
      "excess": 7384,
      "orph": 7385,
      "##ellus": 7386,
      "leek": 7387,
      "unru": 7388,
      "blanch": 7389,
      "boister": 7390,
      "plagues": 7391,
      "dido": 7392,
      "madly": 7393,
      "albeit": 7394,
      "outst": 7395,
      "caitiff": 7396,
      "tween": 7397,
      "flam": 7398,
      "##ickle": 7399,
      "quantity": 7400,
      "abject": 7401,
      "stray": 7402,
      "##wny": 7403,
      "covent": 7404,
      "warning": 7405,
      "betro": 7406,
      "perceived": 7407,
      "roared": 7408,
      "mole": 7409,
      "adder": 7410,
      "advert": 7411,
      "duck": 7412,
      "glow": 7413,
      "gloss": 7414,
      "owner": 7415,
      "##lict": 7416,
      "presum": 7417,
      "##bler": 7418,
      "##blood": 7419,
      "longs": 7420,
      "remun": 7421,
      "compet": 7422,
      "compul": 7423,
      "showing": 7424,
      "showers": 7425,
      "indust": 7426,
      "witches": 7427,
      "finding": 7428,
      "##apol": 7429,
      "harp": 7430,
      "harlot": 7431,
      "attire": 7432,
      "attorne": 7433,
      "underne": 7434,
      "truant": 7435,
      "peaceful": 7436,
      "nativity": 7437,
      "worthier": 7438,
      "worthiest": 7439,
      "##ivious": 7440,
      "##ewed": 7441,
      "resort": 7442,
      "curious": 7443,
      "##alties": 7444,
      "educ": 7445,
      "passions": 7446,
      "april": 7447,
      "welcom": 7448,
      "fully": 7449,
      "brand": 7450,
      "brazen": 7451,
      "presents": 7452,
      "accidents": 7453,
      "tavern": 7454,
      "tawny": 7455,
      "rightful": 7456,
      "traff": 7457,
      "submit": 7458,
      "banks": 7459,
      "dispra": 7460,
      "dispers": 7461,
      "lawy": 7462,
      "forgiven": 7463,
      "##fortunate": 7464,
      "feign": 7465,
      "feats": 7466,
      "furious": 7467,
      "##nerly": 7468,
      "doubts": 7469,
      "mete": 7470,
      "metellus": 7471,
      "fitted": 7472,
      "cheese": 7473,
      "proudest": 7474,
      "pup": 7475,
      "puff": 7476,
      "galled": 7477,
      "gallants": 7478,
      "gaol": 7479,
      "cambridge": 7480,
      "waist": 7481,
      "captive": 7482,
      "payment": 7483,
      "incur": 7484,
      "##ancies": 7485,
      "regal": 7486,
      "talks": 7487,
      "interim": 7488,
      "interrupt": 7489,
      "entreats": 7490,
      "plucks": 7491,
      "achieved": 7492,
      "wretches": 7493,
      "badge": 7494,
      "stirred": 7495,
      "verily": 7496,
      "dishes": 7497,
      "##acity": 7498,
      "protection": 7499,
      "wisest": 7500,
      "diadem": 7501,
      "motions": 7502,
      "respected": 7503,
      "mounted": 7504,
      "proceeded": 7505,
      "judgments": 7506,
      "lowly": 7507,
      "fills": 7508,
      "wednes": 7509,
      "cheerly": 7510,
      "beards": 7511,
      "woods": 7512,
      "hurts": 7513,
      "occup": 7514,
      "bolt": 7515,
      "tomorrow": 7516,
      "volunt": 7517,
      "insin": 7518,
      "songs": 7519,
      "churchyard": 7520,
      "listen": 7521,
      "shrill": 7522,
      "girls": 7523,
      "dishonest": 7524,
      "decius": 7525,
      "reigns": 7526,
      "lodged": 7527,
      "transform": 7528,
      "drunkard": 7529,
      "temples": 7530,
      "holiness": 7531,
      "amazement": 7532,
      "fleance": 7533,
      "threaten": 7534,
      "##board": 7535,
      "compliment": 7536,
      "extremes": 7537,
      "##uba": 7538,
      "mended": 7539,
      "discovery": 7540,
      "figures": 7541,
      "irish": 7542,
      "roots": 7543,
      "uncertain": 7544,
      "drives": 7545,
      "starts": 7546,
      "egyptian": 7547,
      "tutor": 7548,
      "wrecked": 7549,
      "##month": 7550,
      "twelvemonth": 7551,
      "capital": 7552,
      "epil": 7553,
      "dignities": 7554,
      "hills": 7555,
      "napkin": 7556,
      "rendered": 7557,
      "launce": 7558,
      "servingman": 7559,
      "schoolmaster": 7560,
      "pronounced": 7561,
      "admiration": 7562,
      "testimony": 7563,
      "fantasy": 7564,
      "descended": 7565,
      "ashore": 7566,
      "sanctuary": 7567,
      "accusation": 7568,
      "dragon": 7569,
      "masked": 7570,
      "rumour": 7571,
      "injurious": 7572,
      "antique": 7573,
      "assembly": 7574,
      "warrior": 7575,
      "brawl": 7576,
      "bankrupt": 7577,
      "endeavour": 7578,
      "hecuba": 7579,
      "battery": 7580,
      "gossip": 7581,
      "ornament": 7582,
      "stratage": 7583,
      "negligence": 7584,
      "unmannerly": 7585,
      "embassy": 7586,
      "offender": 7587,
      "beaufort": 7588,
      "proverb": 7589,
      "pestilence": 7590,
      "dionyza": 7591,
      "pangs": 7592,
      "shelter": 7593,
      "altar": 7594,
      "bawdy": 7595,
      "fowl": 7596,
      "arras": 7597,
      "brabantio": 7598,
      "##greg": 7599,
      "upbraid": 7600,
      "contemplation": 7601,
      "tapster": 7602,
      "enlarge": 7603,
      "eglamour": 7604,
      "griffith": 7605,
      "future": 7606,
      "folks": 7607,
      "impeach": 7608,
      "soothsayer": 7609,
      "ecstasy": 7610,
      "peremptory": 7611,
      "oblivion": 7612,
      "igno": 7613,
      "lascivious": 7614,
      "nathaniel": 7615,
      "sixteen": 7616,
      "unruly": 7617,
      "underneath": 7618,
      "wednesday": 7619,
      "actor": 7620,
      "budge": 7621,
      "cue": 7622,
      "crew": 7623,
      "dul": 7624,
      "dick": 7625,
      "dally": 7626,
      "ew": 7627,
      "ech": 7628,
      "ely": 7629,
      "fest": 7630,
      "fist": 7631,
      "fife": 7632,
      "fancies": 7633,
      "gest": 7634,
      "gust": 7635,
      "hart": 7636,
      "hic": 7637,
      "ied": 7638,
      "ken": 7639,
      "nick": 7640,
      "om": 7641,
      "ou": 7642,
      "oman": 7643,
      "obl": 7644,
      "pip": 7645,
      "rats": 7646,
      "rages": 7647,
      "rises": 7648,
      "sow": 7649,
      "sess": 7650,
      "sblood": 7651,
      "til": 7652,
      "tack": 7653,
      "tuck": 7654,
      "vices": 7655,
      "wand": 7656,
      "wave": 7657,
      "yare": 7658,
      "##eks": 7659,
      "##rh": 7660,
      "##rates": 7661,
      "##ii": 7662,
      "##ique": 7663,
      "##ae": 7664,
      "##ds": 7665,
      "##dling": 7666,
      "##same": 7667,
      "##mouth": 7668,
      "##bain": 7669,
      "##bable": 7670,
      "##bonius": 7671,
      "##pit": 7672,
      "##poc": 7673,
      "##ye": 7674,
      "##inence": 7675,
      "##ism": 7676,
      "##arf": 7677,
      "tops": 7678,
      "##once": 7679,
      "##thed": 7680,
      "wheres": 7681,
      "hag": 7682,
      "##chas": 7683,
      "meal": 7684,
      "meek": 7685,
      "withhold": 7686,
      "wea": 7687,
      "##albain": 7688,
      "prating": 7689,
      "##ention": 7690,
      "anchor": 7691,
      "frag": 7692,
      "frenz": 7693,
      "rele": 7694,
      "ensue": 7695,
      "seed": 7696,
      "sunder": 7697,
      "sucked": 7698,
      "##peak": 7699,
      "##iling": 7700,
      "##ilful": 7701,
      "loins": 7702,
      "chop": 7703,
      "chap": 7704,
      "chances": 7705,
      "chronic": 7706,
      "chival": 7707,
      "therewith": 7708,
      "brim": 7709,
      "##uned": 7710,
      "##unction": 7711,
      "exquis": 7712,
      "concept": 7713,
      "##ostrate": 7714,
      "levy": 7715,
      "leagues": 7716,
      "una": 7717,
      "canop": 7718,
      "howe": 7719,
      "however": 7720,
      "arrant": 7721,
      "arrows": 7722,
      "worsh": 7723,
      "##ics": 7724,
      "marg": 7725,
      "marred": 7726,
      "plants": 7727,
      "##inked": 7728,
      "spain": 7729,
      "spacious": 7730,
      "scale": 7731,
      "##pple": 7732,
      "hog": 7733,
      "hoar": 7734,
      "cab": 7735,
      "ages": 7736,
      "whoever": 7737,
      "project": 7738,
      "lazy": 7739,
      "gravity": 7740,
      "flin": 7741,
      "flames": 7742,
      "quint": 7743,
      "abst": 7744,
      "aband": 7745,
      "abund": 7746,
      "abod": 7747,
      "##tock": 7748,
      "##agon": 7749,
      "greatly": 7750,
      "coil": 7751,
      "desc": 7752,
      "desir": 7753,
      "bree": 7754,
      "foh": 7755,
      "arts": 7756,
      "adverse": 7757,
      "##rog": 7758,
      "##anged": 7759,
      "##berry": 7760,
      "nighting": 7761,
      "##ighth": 7762,
      "##ossess": 7763,
      "##liest": 7764,
      "downright": 7765,
      "follies": 7766,
      "servilius": 7767,
      "purses": 7768,
      "merits": 7769,
      "repl": 7770,
      "crisp": 7771,
      "understood": 7772,
      "conflict": 7773,
      "smart": 7774,
      "pavil": 7775,
      "parth": 7776,
      "parch": 7777,
      "courtesies": 7778,
      "draught": 7779,
      "treas": 7780,
      "trebonius": 7781,
      "impl": 7782,
      "childish": 7783,
      "carrion": 7784,
      "monmouth": 7785,
      "husbandry": 7786,
      "##inster": 7787,
      "lightly": 7788,
      "breathless": 7789,
      "pardoned": 7790,
      "forgotten": 7791,
      "##izel": 7792,
      "opened": 7793,
      "denies": 7794,
      "bars": 7795,
      "barge": 7796,
      "luciana": 7797,
      "##avish": 7798,
      "commander": 7799,
      "commandment": 7800,
      "##enerate": 7801,
      "intr": 7802,
      "suns": 7803,
      "void": 7804,
      "musician": 7805,
      "yestern": 7806,
      "temperate": 7807,
      "growth": 7808,
      "comfortable": 7809,
      "airy": 7810,
      "unclean": 7811,
      "infancy": 7812,
      "infamy": 7813,
      "affair": 7814,
      "dreamt": 7815,
      "peto": 7816,
      "gallia": 7817,
      "gallop": 7818,
      "expressed": 7819,
      "minutes": 7820,
      "venet": 7821,
      "waft": 7822,
      "pointing": 7823,
      "surm": 7824,
      "mouthed": 7825,
      "pasture": 7826,
      "donalbain": 7827,
      "incest": 7828,
      "eating": 7829,
      "required": 7830,
      "questions": 7831,
      "deeper": 7832,
      "opening": 7833,
      "tenderness": 7834,
      "personal": 7835,
      "guards": 7836,
      "entreaty": 7837,
      "entreated": 7838,
      "##nox": 7839,
      "speedily": 7840,
      "calais": 7841,
      "relief": 7842,
      "penalty": 7843,
      "lambs": 7844,
      "teaching": 7845,
      "directed": 7846,
      "speechless": 7847,
      "selfsame": 7848,
      "suffering": 7849,
      "ports": 7850,
      "miranda": 7851,
      "feeding": 7852,
      "element": 7853,
      "eleanor": 7854,
      "##odes": 7855,
      "secretly": 7856,
      "acquit": 7857,
      "studies": 7858,
      "midwife": 7859,
      "mutius": 7860,
      "cloudy": 7861,
      "contrad": 7862,
      "refr": 7863,
      "refused": 7864,
      "wasted": 7865,
      "importune": 7866,
      "proofs": 7867,
      "sorts": 7868,
      "vanished": 7869,
      "fishes": 7870,
      "british": 7871,
      "tyrrel": 7872,
      "stockings": 7873,
      "pyr": 7874,
      "revolted": 7875,
      "changing": 7876,
      "idol": 7877,
      "wrathful": 7878,
      "cases": 7879,
      "##ocation": 7880,
      "savour": 7881,
      "cords": 7882,
      "smells": 7883,
      "examine": 7884,
      "executioner": 7885,
      "dooms": 7886,
      "chiefly": 7887,
      "pandar": 7888,
      "maintained": 7889,
      "daggers": 7890,
      "inclination": 7891,
      "compassion": 7892,
      "tempered": 7893,
      "languish": 7894,
      "domin": 7895,
      "deceased": 7896,
      "florentine": 7897,
      "florizel": 7898,
      "eager": 7899,
      "##whel": 7900,
      "apparition": 7901,
      "bags": 7902,
      "bagot": 7903,
      "hymen": 7904,
      "hypoc": 7905,
      "##uggl": 7906,
      "heavier": 7907,
      "shouts": 7908,
      "ingrateful": 7909,
      "syracus": 7910,
      "moody": 7911,
      "adopt": 7912,
      "corpse": 7913,
      "suprem": 7914,
      "buds": 7915,
      "frailty": 7916,
      "affords": 7917,
      "thorns": 7918,
      "dissemble": 7919,
      "designs": 7920,
      "imprisoned": 7921,
      "latin": 7922,
      "rode": 7923,
      "obscure": 7924,
      "receipt": 7925,
      "collected": 7926,
      "restraint": 7927,
      "steeds": 7928,
      "applause": 7929,
      "inheritance": 7930,
      "centre": 7931,
      "mingle": 7932,
      "mingled": 7933,
      "wrinkled": 7934,
      "disturb": 7935,
      "recreant": 7936,
      "gnaw": 7937,
      "jerkin": 7938,
      "lennox": 7939,
      "hunter": 7940,
      "pirates": 7941,
      "adulter": 7942,
      "bequeath": 7943,
      "##icero": 7944,
      "braggart": 7945,
      "simplicity": 7946,
      "tyrannous": 7947,
      "rowland": 7948,
      "renew": 7949,
      "bias": 7950,
      "siward": 7951,
      "disobed": 7952,
      "syllable": 7953,
      "ungentle": 7954,
      "merriment": 7955,
      "principal": 7956,
      "borachio": 7957,
      "annoy": 7958,
      "mangled": 7959,
      "phoenix": 7960,
      "concerning": 7961,
      "sepulchre": 7962,
      "cimber": 7963,
      "boisterous": 7964,
      "coventry": 7965,
      "betrothed": 7966,
      "remuneration": 7967,
      "dispersed": 7968,
      "epilogue": 7969,
      "frenzy": 7970,
      "exquisite": 7971,
      "yesternight": 7972,
      "ae": 7973,
      "bout": 7974,
      "cow": 7975,
      "cicero": 7976,
      "dir": 7977,
      "dirt": 7978,
      "fours": 7979,
      "gor": 7980,
      "gen": 7981,
      "ging": 7982,
      "gear": 7983,
      "gull": 7984,
      "gash": 7985,
      "hook": 7986,
      "hipp": 7987,
      "jar": 7988,
      "jade": 7989,
      "jades": 7990,
      "mard": 7991,
      "mouns": 7992,
      "nan": 7993,
      "nail": 7994,
      "pious": 7995,
      "pile": 7996,
      "palt": 7997,
      "powder": 7998,
      "rad": 7999,
      "rout": 8000,
      "riv": 8001,
      "size": 8002,
      "tapers": 8003,
      "tullus": 8004,
      "wes": 8005,
      "wan": 8006,
      "wages": 8007,
      "##ov": 8008,
      "##rie": 8009,
      "##rons": 8010,
      "##ium": 8011,
      "##iences": 8012,
      "##nam": 8013,
      "##long": 8014,
      "##lph": 8015,
      "##sm": 8016,
      "##mor": 8017,
      "##mand": 8018,
      "##minster": 8019,
      "##heard": 8020,
      "##tling": 8021,
      "##pence": 8022,
      "##ubs": 8023,
      "##field": 8024,
      "thwart": 8025,
      "##orate": 8026,
      "##iners": 8027,
      "##llus": 8028,
      "##aring": 8029,
      "##arre": 8030,
      "##enas": 8031,
      "##enna": 8032,
      "nom": 8033,
      "beam": 8034,
      "inches": 8035,
      "ingen": 8036,
      "shaking": 8037,
      "##cends": 8038,
      "##cellus": 8039,
      "hacked": 8040,
      "forged": 8041,
      "meca": 8042,
      "##using": 8043,
      "##itud": 8044,
      "##imach": 8045,
      "##ghan": 8046,
      "##ghill": 8047,
      "stare": 8048,
      "##sec": 8049,
      "##adise": 8050,
      "##alls": 8051,
      "doting": 8052,
      "##amis": 8053,
      "deem": 8054,
      "freder": 8055,
      "separ": 8056,
      "herbs": 8057,
      "##racted": 8058,
      "goest": 8059,
      "sulph": 8060,
      "knell": 8061,
      "lot": 8062,
      "trash": 8063,
      "chains": 8064,
      "necks": 8065,
      "goodman": 8066,
      "mansion": 8067,
      "orator": 8068,
      "##feits": 8069,
      "consec": 8070,
      "##ustomed": 8071,
      "##otent": 8072,
      "uncon": 8073,
      "unfortunate": 8074,
      "canon": 8075,
      "swine": 8076,
      "swif": 8077,
      "swoon": 8078,
      "howling": 8079,
      "arrog": 8080,
      "##eared": 8081,
      "boon": 8082,
      "usage": 8083,
      "marcellus": 8084,
      "##ribly": 8085,
      "wherewith": 8086,
      "spies": 8087,
      "spider": 8088,
      "scri": 8089,
      "greets": 8090,
      "outr": 8091,
      "caused": 8092,
      "##ounded": 8093,
      "progress": 8094,
      "##ptuous": 8095,
      "poly": 8096,
      "##orned": 8097,
      "daylight": 8098,
      "##agne": 8099,
      "heap": 8100,
      "bret": 8101,
      "foil": 8102,
      "##quess": 8103,
      "peck": 8104,
      "erth": 8105,
      "##rolled": 8106,
      "##angled": 8107,
      "handle": 8108,
      "##ithe": 8109,
      "glories": 8110,
      "contrived": 8111,
      "remainder": 8112,
      "composed": 8113,
      "housewife": 8114,
      "indent": 8115,
      "betters": 8116,
      "confused": 8117,
      "smack": 8118,
      "smock": 8119,
      "staying": 8120,
      "ending": 8121,
      "consort": 8122,
      "devout": 8123,
      "cured": 8124,
      "curts": 8125,
      "faithfully": 8126,
      "parish": 8127,
      "paradise": 8128,
      "retired": 8129,
      "tables": 8130,
      "needless": 8131,
      "submission": 8132,
      "farm": 8133,
      "sleepy": 8134,
      "marrying": 8135,
      "actors": 8136,
      "dispro": 8137,
      "thanked": 8138,
      "breathes": 8139,
      "text": 8140,
      "##ifies": 8141,
      "goldsm": 8142,
      "getting": 8143,
      "##izes": 8144,
      "denial": 8145,
      "barred": 8146,
      "senior": 8147,
      "feathers": 8148,
      "illy": 8149,
      "signal": 8150,
      "murm": 8151,
      "cryst": 8152,
      "sending": 8153,
      "horsemen": 8154,
      "singular": 8155,
      "cleave": 8156,
      "generation": 8157,
      "generally": 8158,
      "birnam": 8159,
      "capacity": 8160,
      "##ceiving": 8161,
      "asking": 8162,
      "demonst": 8163,
      "dames": 8164,
      "##itories": 8165,
      "choked": 8166,
      "trusted": 8167,
      "pageant": 8168,
      "rapt": 8169,
      "strewed": 8170,
      "malign": 8171,
      "incense": 8172,
      "establ": 8173,
      "englishman": 8174,
      "constance": 8175,
      "calam": 8176,
      "snake": 8177,
      "relieved": 8178,
      "preposter": 8179,
      "scarlet": 8180,
      "plainness": 8181,
      "weaker": 8182,
      "defiance": 8183,
      "motley": 8184,
      "flatterers": 8185,
      "woeful": 8186,
      "address": 8187,
      "bites": 8188,
      "biting": 8189,
      "broils": 8190,
      "wildly": 8191,
      "beggary": 8192,
      "stark": 8193,
      "mirror": 8194,
      "sighed": 8195,
      "famed": 8196,
      "poisonous": 8197,
      "##quel": 8198,
      "shipw": 8199,
      "chooseth": 8200,
      "midst": 8201,
      "volsc": 8202,
      "opinions": 8203,
      "practised": 8204,
      "torments": 8205,
      "montano": 8206,
      "pigeons": 8207,
      "##conbridge": 8208,
      "schoo": 8209,
      "planted": 8210,
      "decree": 8211,
      "geld": 8212,
      "continent": 8213,
      "unfit": 8214,
      "blushes": 8215,
      "observed": 8216,
      "cato": 8217,
      "pinched": 8218,
      "wealthy": 8219,
      "triumphs": 8220,
      "britons": 8221,
      "flee": 8222,
      "threatened": 8223,
      "westminster": 8224,
      "enjoyed": 8225,
      "wickedness": 8226,
      "degenerate": 8227,
      "rooted": 8228,
      "solemnity": 8229,
      "dwelling": 8230,
      "utterance": 8231,
      "baser": 8232,
      "basest": 8233,
      "companies": 8234,
      "covert": 8235,
      "dunghill": 8236,
      "recovery": 8237,
      "challenged": 8238,
      "pricks": 8239,
      "greyh": 8240,
      "sparrow": 8241,
      "imperious": 8242,
      "abhors": 8243,
      "rewards": 8244,
      "perilous": 8245,
      "ordin": 8246,
      "ordinary": 8247,
      "##where": 8248,
      "preferment": 8249,
      "preferred": 8250,
      "statutes": 8251,
      "sticks": 8252,
      "heavily": 8253,
      "assistance": 8254,
      "damnable": 8255,
      "unluck": 8256,
      "procule": 8257,
      "admitted": 8258,
      "testament": 8259,
      "rescued": 8260,
      "pearls": 8261,
      "coffers": 8262,
      "crafty": 8263,
      "destroyed": 8264,
      "chiding": 8265,
      "arrested": 8266,
      "trimmed": 8267,
      "lingering": 8268,
      "correct": 8269,
      "adversaries": 8270,
      "distraction": 8271,
      "perfume": 8272,
      "measures": 8273,
      "steeped": 8274,
      "trencher": 8275,
      "exhib": 8276,
      "conspiracy": 8277,
      "hecate": 8278,
      "indignation": 8279,
      "planet": 8280,
      "navarre": 8281,
      "ostent": 8282,
      "obtained": 8283,
      "territories": 8284,
      "miscarry": 8285,
      "copy": 8286,
      "vigour": 8287,
      "frozen": 8288,
      "plenteous": 8289,
      "desolation": 8290,
      "stinking": 8291,
      "entrails": 8292,
      "ruthless": 8293,
      "puissant": 8294,
      "inhabit": 8295,
      "accomplished": 8296,
      "crimson": 8297,
      "enraged": 8298,
      "covetous": 8299,
      "cerimon": 8300,
      "pattern": 8301,
      "sexton": 8302,
      "chimney": 8303,
      "faulconbridge": 8304,
      "misfortune": 8305,
      "unlawful": 8306,
      "flaminius": 8307,
      "traffic": 8308,
      "pupil": 8309,
      "voluntary": 8310,
      "##rhus": 8311,
      "chivalry": 8312,
      "pavilion": 8313,
      "pyrrhus": 8314,
      "fourscore": 8315,
      "mardian": 8316,
      "mounsieur": 8317,
      "paltry": 8318,
      "mecaenas": 8319,
      "##imachus": 8320,
      "frederick": 8321,
      "swifter": 8322,
      "goldsmith": 8323,
      "proculeius": 8324,
      "aus": 8325,
      "bau": 8326,
      "dall": 8327,
      "dice": 8328,
      "daint": 8329,
      "dances": 8330,
      "ditch": 8331,
      "eth": 8332,
      "gained": 8333,
      "hatched": 8334,
      "jaws": 8335,
      "los": 8336,
      "lys": 8337,
      "louder": 8338,
      "mam": 8339,
      "nich": 8340,
      "nig": 8341,
      "os": 8342,
      "pages": 8343,
      "tough": 8344,
      "takest": 8345,
      "vip": 8346,
      "vail": 8347,
      "vac": 8348,
      "vicious": 8349,
      "wagg": 8350,
      "##wing": 8351,
      "##rade": 8352,
      "##ipt": 8353,
      "##gard": 8354,
      "##ables": 8355,
      "##look": 8356,
      "##lets": 8357,
      "##done": 8358,
      "##sbury": 8359,
      "##purn": 8360,
      "##ux": 8361,
      "##uld": 8362,
      "##ugs": 8363,
      "##je": 8364,
      "##jud": 8365,
      "thund": 8366,
      "##erog": 8367,
      "##osy": 8368,
      "##ater": 8369,
      "##atory": 8370,
      "##inction": 8371,
      "##ester": 8372,
      "##arino": 8373,
      "##onna": 8374,
      "wight": 8375,
      "wiped": 8376,
      "##inged": 8377,
      "##omy": 8378,
      "beet": 8379,
      "beck": 8380,
      "beadle": 8381,
      "ini": 8382,
      "heave": 8383,
      "shipped": 8384,
      "hack": 8385,
      "##uto": 8386,
      "##chan": 8387,
      "foret": 8388,
      "##lend": 8389,
      "##irts": 8390,
      "##itus": 8391,
      "##ital": 8392,
      "##itimate": 8393,
      "##urus": 8394,
      "web": 8395,
      "stem": 8396,
      "##keys": 8397,
      "##ading": 8398,
      "##alms": 8399,
      "prized": 8400,
      "prerog": 8401,
      "sojour": 8402,
      "##allel": 8403,
      "lick": 8404,
      "##amer": 8405,
      "anch": 8406,
      "depe": 8407,
      "fru": 8408,
      "froward": 8409,
      "revell": 8410,
      "enth": 8411,
      "enow": 8412,
      "sequel": 8413,
      "herne": 8414,
      "##racious": 8415,
      "gobb": 8416,
      "knives": 8417,
      "##ilities": 8418,
      "trun": 8419,
      "chased": 8420,
      "chanced": 8421,
      "chorus": 8422,
      "chafed": 8423,
      "##akers": 8424,
      "uphold": 8425,
      "brained": 8426,
      "##unct": 8427,
      "exempt": 8428,
      "amount": 8429,
      "shell": 8430,
      "comedy": 8431,
      "conver": 8432,
      "conceived": 8433,
      "##ola": 8434,
      "##olas": 8435,
      "blister": 8436,
      "blade": 8437,
      "swan": 8438,
      "howl": 8439,
      "arri": 8440,
      "##earse": 8441,
      "##icing": 8442,
      "spear": 8443,
      "marquess": 8444,
      "pless": 8445,
      "whereby": 8446,
      "whereupon": 8447,
      "madame": 8448,
      "madmen": 8449,
      "madonna": 8450,
      "sped": 8451,
      "scra": 8452,
      "greed": 8453,
      "calend": 8454,
      "sale": 8455,
      "agent": 8456,
      "disf": 8457,
      "disaster": 8458,
      "disper": 8459,
      "twin": 8460,
      "probable": 8461,
      "clubs": 8462,
      "##pton": 8463,
      "poll": 8464,
      "flag": 8465,
      "flaw": 8466,
      "quill": 8467,
      "gray": 8468,
      "grudge": 8469,
      "abuses": 8470,
      "northern": 8471,
      "##ager": 8472,
      "string": 8473,
      "cope": 8474,
      "coach": 8475,
      "hearers": 8476,
      "gentler": 8477,
      "wary": 8478,
      "betide": 8479,
      "perple": 8480,
      "##fted": 8481,
      "moi": 8482,
      "moist": 8483,
      "wrote": 8484,
      "##aux": 8485,
      "plebe": 8486,
      "glance": 8487,
      "sonnet": 8488,
      "emulation": 8489,
      "images": 8490,
      "##phy": 8491,
      "ante": 8492,
      "precise": 8493,
      "armies": 8494,
      "drench": 8495,
      "contracted": 8496,
      "fooling": 8497,
      "remed": 8498,
      "shower": 8499,
      "purg": 8500,
      "purged": 8501,
      "witted": 8502,
      "repute": 8503,
      "##onso": 8504,
      "crime": 8505,
      "crutch": 8506,
      "attach": 8507,
      "attrib": 8508,
      "truest": 8509,
      "smiled": 8510,
      "lively": 8511,
      "yeoman": 8512,
      "apple": 8513,
      "dieu": 8514,
      "paragon": 8515,
      "humorous": 8516,
      "courts": 8517,
      "courtiers": 8518,
      "courtez": 8519,
      "edict": 8520,
      "braken": 8521,
      "treat": 8522,
      "treble": 8523,
      "##clip": 8524,
      "impose": 8525,
      "needle": 8526,
      "antonius": 8527,
      "farthest": 8528,
      "lighted": 8529,
      "vienna": 8530,
      "suffers": 8531,
      "##ifully": 8532,
      "praising": 8533,
      "misd": 8534,
      "advancing": 8535,
      "stately": 8536,
      "striking": 8537,
      "security": 8538,
      "nearest": 8539,
      "barb": 8540,
      "phry": 8541,
      "dared": 8542,
      "wishing": 8543,
      "freeze": 8544,
      "##versy": 8545,
      "harder": 8546,
      "cassandra": 8547,
      "messina": 8548,
      "beseeming": 8549,
      "generous": 8550,
      "capon": 8551,
      "ruined": 8552,
      "leader": 8553,
      "distract": 8554,
      "distinct": 8555,
      "distilled": 8556,
      "distinction": 8557,
      "demi": 8558,
      "infants": 8559,
      "streams": 8560,
      "pett": 8561,
      "footed": 8562,
      "gape": 8563,
      "chambers": 8564,
      "provokes": 8565,
      "depose": 8566,
      "waits": 8567,
      "##shill": 8568,
      "malady": 8569,
      "surv": 8570,
      "surly": 8571,
      "##ronius": 8572,
      "confessor": 8573,
      "incont": 8574,
      "incorp": 8575,
      "watching": 8576,
      "watchful": 8577,
      "salarino": 8578,
      "evidence": 8579,
      "appearance": 8580,
      "visited": 8581,
      "untr": 8582,
      "quartered": 8583,
      "extra": 8584,
      "intercept": 8585,
      "interchange": 8586,
      "entreaties": 8587,
      "pretence": 8588,
      "calchas": 8589,
      "calpurn": 8590,
      "snail": 8591,
      "snuff": 8592,
      "relate": 8593,
      "verity": 8594,
      "monsters": 8595,
      "sports": 8596,
      "witnesses": 8597,
      "nurs": 8598,
      "knocked": 8599,
      "commended": 8600,
      "severed": 8601,
      "broached": 8602,
      "offenders": 8603,
      "beggarly": 8604,
      "stealth": 8605,
      "helenus": 8606,
      "famine": 8607,
      "wedlock": 8608,
      "kneeled": 8609,
      "spoils": 8610,
      "model": 8611,
      "##gging": 8612,
      "argues": 8613,
      "arguments": 8614,
      "bondman": 8615,
      "tribe": 8616,
      "leonine": 8617,
      "finely": 8618,
      "volume": 8619,
      "sixpence": 8620,
      "##olyta": 8621,
      "carrying": 8622,
      "ldst": 8623,
      "medit": 8624,
      "towers": 8625,
      "virgins": 8626,
      "jealousies": 8627,
      "refer": 8628,
      "refle": 8629,
      "hug": 8630,
      "important": 8631,
      "syc": 8632,
      "catching": 8633,
      "obeyed": 8634,
      "riding": 8635,
      "riddle": 8636,
      "geese": 8637,
      "owed": 8638,
      "painter": 8639,
      "lodov": 8640,
      "transg": 8641,
      "continu": 8642,
      "dismayed": 8643,
      "observation": 8644,
      "memor": 8645,
      "member": 8646,
      "expected": 8647,
      "requests": 8648,
      "amaze": 8649,
      "tyrants": 8650,
      "gardiner": 8651,
      "sola": 8652,
      "faintly": 8653,
      "debtor": 8654,
      "unpre": 8655,
      "derive": 8656,
      "publicly": 8657,
      "rarely": 8658,
      "shrewsbury": 8659,
      "plotted": 8660,
      "heralds": 8661,
      "slanderous": 8662,
      "different": 8663,
      "appointment": 8664,
      "pricked": 8665,
      "floods": 8666,
      "temperance": 8667,
      "pursu": 8668,
      "sprite": 8669,
      "strangeness": 8670,
      "expressly": 8671,
      "dotage": 8672,
      "cherry": 8673,
      "ordained": 8674,
      "vexation": 8675,
      "rashness": 8676,
      "pilot": 8677,
      "hyper": 8678,
      "building": 8679,
      "rhymes": 8680,
      "stamped": 8681,
      "dimin": 8682,
      "humanity": 8683,
      "shrewdly": 8684,
      "gripe": 8685,
      "choleric": 8686,
      "globe": 8687,
      "commonweal": 8688,
      "allowance": 8689,
      "wheels": 8690,
      "perdition": 8691,
      "wrestling": 8692,
      "sleeves": 8693,
      "subdue": 8694,
      "breadth": 8695,
      "beauties": 8696,
      "construe": 8697,
      "constrained": 8698,
      "revive": 8699,
      "ensuing": 8700,
      "obscured": 8701,
      "alehouse": 8702,
      "receives": 8703,
      "tumult": 8704,
      "augment": 8705,
      "crop": 8706,
      "tickle": 8707,
      "frankly": 8708,
      "overthrown": 8709,
      "centa": 8710,
      "measured": 8711,
      "chatillon": 8712,
      "philosopher": 8713,
      "sphere": 8714,
      "adriano": 8715,
      "disturbed": 8716,
      "transported": 8717,
      "tuned": 8718,
      "pulse": 8719,
      "ornaments": 8720,
      "factious": 8721,
      "diligence": 8722,
      "rarest": 8723,
      "crammed": 8724,
      "muddy": 8725,
      "obtain": 8726,
      "votre": 8727,
      "clamorous": 8728,
      "influ": 8729,
      "##oubted": 8730,
      "moderate": 8731,
      "substitute": 8732,
      "ceremonies": 8733,
      "volumnia": 8734,
      "nymphs": 8735,
      "enriched": 8736,
      "whistle": 8737,
      "licence": 8738,
      "cobwe": 8739,
      "persever": 8740,
      "reconcile": 8741,
      "eyelids": 8742,
      "contagious": 8743,
      "merchants": 8744,
      "sympathy": 8745,
      "vaughan": 8746,
      "slippery": 8747,
      "controversy": 8748,
      "rehearse": 8749,
      "dwarf": 8750,
      "tubal": 8751,
      "unquiet": 8752,
      "distinguish": 8753,
      "eloquence": 8754,
      "tragedy": 8755,
      "divinity": 8756,
      "simply": 8757,
      "blemish": 8758,
      "circumstances": 8759,
      "cedar": 8760,
      "fidele": 8761,
      "gadshill": 8762,
      "gulf": 8763,
      "chapel": 8764,
      "compulsion": 8765,
      "education": 8766,
      "occupation": 8767,
      "ominous": 8768,
      "tucket": 8769,
      "conception": 8770,
      "flinty": 8771,
      "nightingale": 8772,
      "ginger": 8773,
      "hippolyta": 8774,
      "western": 8775,
      "##riend": 8776,
      "illyria": 8777,
      "crystal": 8778,
      "calamity": 8779,
      "ethio": 8780,
      "lysimachus": 8781,
      "nicholas": 8782,
      "niggard": 8783,
      "thunders": 8784,
      "disperse": 8785,
      "perplex": 8786,
      "brakenbury": 8787,
      "calpurnia": 8788,
      "lodovico": 8789,
      "ara": 8790,
      "bated": 8791,
      "bagg": 8792,
      "boughs": 8793,
      "dor": 8794,
      "dane": 8795,
      "eve": 8796,
      "eclip": 8797,
      "fen": 8798,
      "fard": 8799,
      "fum": 8800,
      "fel": 8801,
      "fix": 8802,
      "gore": 8803,
      "gany": 8804,
      "hits": 8805,
      "hired": 8806,
      "ic": 8807,
      "jet": 8808,
      "jig": 8809,
      "jac": 8810,
      "juggl": 8811,
      "kites": 8812,
      "kitch": 8813,
      "lass": 8814,
      "loses": 8815,
      "mire": 8816,
      "nations": 8817,
      "ot": 8818,
      "oly": 8819,
      "oper": 8820,
      "pith": 8821,
      "rent": 8822,
      "rite": 8823,
      "ster": 8824,
      "sque": 8825,
      "tink": 8826,
      "vaunt": 8827,
      "ware": 8828,
      "wins": 8829,
      "##oa": 8830,
      "##ey": 8831,
      "##ex": 8832,
      "##eys": 8833,
      "##nish": 8834,
      "##nance": 8835,
      "##gory": 8836,
      "##aud": 8837,
      "##lam": 8838,
      "##lic": 8839,
      "##back": 8840,
      "##cus": 8841,
      "##poke": 8842,
      "##fle": 8843,
      "##fall": 8844,
      "##yn": 8845,
      "##zes": 8846,
      "thaw": 8847,
      "##ermen": 8848,
      "##orter": 8849,
      "##oric": 8850,
      "##inies": 8851,
      "##inated": 8852,
      "##ena": 8853,
      "##onus": 8854,
      "##edges": 8855,
      "whos": 8856,
      "whips": 8857,
      "whipping": 8858,
      "##vels": 8859,
      "##omenes": 8860,
      "bees": 8861,
      "beest": 8862,
      "myr": 8863,
      "##asph": 8864,
      "sham": 8865,
      "shill": 8866,
      "shru": 8867,
      "shrift": 8868,
      "hay": 8869,
      "hale": 8870,
      "##etition": 8871,
      "forfend": 8872,
      "isid": 8873,
      "##itt": 8874,
      "itch": 8875,
      "staves": 8876,
      "##keley": 8877,
      "##adel": 8878,
      "pranks": 8879,
      "##iding": 8880,
      "##idity": 8881,
      "##allowed": 8882,
      "doves": 8883,
      "ligar": 8884,
      "liked": 8885,
      "##omel": 8886,
      "willed": 8887,
      "anim": 8888,
      "deject": 8889,
      "whatever": 8890,
      "sele": 8891,
      "severe": 8892,
      "herb": 8893,
      "herod": 8894,
      "heretic": 8895,
      "##races": 8896,
      "gobl": 8897,
      "goats": 8898,
      "sunday": 8899,
      "##ardo": 8900,
      "knighth": 8901,
      "##ilis": 8902,
      "chan": 8903,
      "chides": 8904,
      "chaff": 8905,
      "atone": 8906,
      "brat": 8907,
      "brine": 8908,
      "briers": 8909,
      "orb": 8910,
      "oration": 8911,
      "sheathe": 8912,
      "##antial": 8913,
      "conge": 8914,
      "conject": 8915,
      "convert": 8916,
      "##ustice": 8917,
      "##otted": 8918,
      "lends": 8919,
      "unpe": 8920,
      "wasp": 8921,
      "##ively": 8922,
      "blasph": 8923,
      "swo": 8924,
      "howsoever": 8925,
      "mary": 8926,
      "marched": 8927,
      "plate": 8928,
      "spots": 8929,
      "spaniel": 8930,
      "alonso": 8931,
      "greasy": 8932,
      "gregory": 8933,
      "caper": 8934,
      "cauld": 8935,
      "##emp": 8936,
      "##ements": 8937,
      "##igonus": 8938,
      "##ffrey": 8939,
      "clip": 8940,
      "closed": 8941,
      "clog": 8942,
      "grapple": 8943,
      "poisons": 8944,
      "flo": 8945,
      "flash": 8946,
      "grin": 8947,
      "grind": 8948,
      "abb": 8949,
      "abound": 8950,
      "ability": 8951,
      "eyne": 8952,
      "awaking": 8953,
      "cog": 8954,
      "cod": 8955,
      "##fulness": 8956,
      "hearken": 8957,
      "roll": 8958,
      "pease": 8959,
      "earls": 8960,
      "##robe": 8961,
      "wrench": 8962,
      "map": 8963,
      "maim": 8964,
      "joc": 8965,
      "jolly": 8966,
      "anything": 8967,
      "glit": 8968,
      "bearer": 8969,
      "imitate": 8970,
      "antigonus": 8971,
      "precept": 8972,
      "prelate": 8973,
      "drugs": 8974,
      "headstr": 8975,
      "##blest": 8976,
      "##bleness": 8977,
      "##swain": 8978,
      "purity": 8979,
      "indian": 8980,
      "reputed": 8981,
      "repetition": 8982,
      "mistaking": 8983,
      "mistaken": 8984,
      "charmed": 8985,
      "chariot": 8986,
      "queens": 8987,
      "dearth": 8988,
      "follower": 8989,
      "harness": 8990,
      "harfle": 8991,
      "bestr": 8992,
      "attain": 8993,
      "confines": 8994,
      "##owered": 8995,
      "consume": 8996,
      "resp": 8997,
      "residence": 8998,
      "curb": 8999,
      "answering": 9000,
      "humbled": 9001,
      "passages": 9002,
      "kindle": 9003,
      "brake": 9004,
      "braver": 9005,
      "brands": 9006,
      "retain": 9007,
      "valer": 9008,
      "seemeth": 9009,
      "impress": 9010,
      "impression": 9011,
      "trace": 9012,
      "travail": 9013,
      "overb": 9014,
      "overcame": 9015,
      "overdone": 9016,
      "carl": 9017,
      "carve": 9018,
      "asses": 9019,
      "hopeful": 9020,
      "banners": 9021,
      "justify": 9022,
      "##ifer": 9023,
      "discern": 9024,
      "misg": 9025,
      "mispr": 9026,
      "sentine": 9027,
      "advantages": 9028,
      "strives": 9029,
      "opens": 9030,
      "barber": 9031,
      "lucullus": 9032,
      "commanding": 9033,
      "feigned": 9034,
      "##mede": 9035,
      "exceeds": 9036,
      "judged": 9037,
      "intoler": 9038,
      "cleomenes": 9039,
      "quicken": 9040,
      "supplied": 9041,
      "doubtless": 9042,
      "fitter": 9043,
      "fitness": 9044,
      "fitting": 9045,
      "buys": 9046,
      "proudly": 9047,
      "##ceives": 9048,
      "gartered": 9049,
      "##yster": 9050,
      "sinful": 9051,
      "strait": 9052,
      "camb": 9053,
      "mines": 9054,
      "minst": 9055,
      "provision": 9056,
      "tenth": 9057,
      "surprise": 9058,
      "captives": 9059,
      "wooer": 9060,
      "fastened": 9061,
      "salve": 9062,
      "salique": 9063,
      "suited": 9064,
      "construction": 9065,
      "visor": 9066,
      "quarre": 9067,
      "redempt": 9068,
      "extemp": 9069,
      "basely": 9070,
      "legate": 9071,
      "snout": 9072,
      "opposition": 9073,
      "relation": 9074,
      "traitorous": 9075,
      "widows": 9076,
      "##joy": 9077,
      "invited": 9078,
      "verd": 9079,
      "verges": 9080,
      "undes": 9081,
      "hurl": 9082,
      "commendation": 9083,
      "strengthen": 9084,
      "judges": 9085,
      "offending": 9086,
      "wilder": 9087,
      "christians": 9088,
      "forego": 9089,
      "sighing": 9090,
      "famish": 9091,
      "famished": 9092,
      "filling": 9093,
      "bellario": 9094,
      "limed": 9095,
      "cheerfully": 9096,
      "seals": 9097,
      "fashioned": 9098,
      "drowning": 9099,
      "easier": 9100,
      "worships": 9101,
      "wooden": 9102,
      "woodcock": 9103,
      "urging": 9104,
      "publish": 9105,
      "effected": 9106,
      "unwh": 9107,
      "unwill": 9108,
      "unwilling": 9109,
      "breasts": 9110,
      "offering": 9111,
      "forswore": 9112,
      "mutton": 9113,
      "roundly": 9114,
      "unhallowed": 9115,
      "virgilia": 9116,
      "philomel": 9117,
      "montjoy": 9118,
      "quietly": 9119,
      "shepherds": 9120,
      "demanded": 9121,
      "bitterly": 9122,
      "gird": 9123,
      "girdle": 9124,
      "imports": 9125,
      "tarqu": 9126,
      "usurer": 9127,
      "costly": 9128,
      "decreed": 9129,
      "geffrey": 9130,
      "seventh": 9131,
      "continual": 9132,
      "credulous": 9133,
      "proclaims": 9134,
      "citizen": 9135,
      "cater": 9136,
      "courageous": 9137,
      "equiv": 9138,
      "members": 9139,
      "injustice": 9140,
      "wretchedness": 9141,
      "briton": 9142,
      "necessities": 9143,
      "extremest": 9144,
      "solus": 9145,
      "professed": 9146,
      "bishops": 9147,
      "faints": 9148,
      "idiot": 9149,
      "casement": 9150,
      "irre": 9151,
      "uncur": 9152,
      "uncles": 9153,
      "lamentation": 9154,
      "envir": 9155,
[...]
