[PAD]
[UNK]
[CLS]
[SEP]
[MASK]
!
$
'
(
)
-
1
2
3
4
5
6
7
8
9
:
<
>
?
[
]
a
b
c
d
e
f
g
h
i
j
k
l
m
n
o
p
q
r
s
t
u
v
w
x
y
z
##a
##d
##e
##o
##s
##t
##r
##i
##g
##n
##m
##v
##b
##l
##h
##p
##u
##c
##k
##y
##w
##x
##f
##q
##z
##j
th
##er
##ou
##os
##nd
the
eos
##or
##at
##es
##ll
and
##is
##ar
##en
to
you
##on
##th
##an
##in
of
no
wh
wi
##ve
##om
##re
be
in
he
my
##as
##ow
##ce
sh
that
ha
##et
##ut
##ch
for
##ay
##le
##ld
me
is
##ir
##ere
##us
##it
not
with
##ur
##ter
##gh
##im
it
##oo
we
st
your
##se
##ke
as
thou
##ad
##al
his
this
but
pr
so
##ent
##id
##all
have
do
on
him
li
##ome
##ath
##ght
##ly
will
##am
##ee
##ess
an
##ord
fr
##est
##ain
re
what
##ould
en
de
her
##ood
##ore
##ck
##ver
##ion
##ie
##ra
##ge
thy
##ther
go
su
all
##our
##st
by
sp
shall
##and
##ea
##ight
##ake
if
##ard
kn
##il
lo
are
tr
##ct
ch
our
lord
ne
thee
at
##ue
##ast
there
good
man
up
br
##un
ex
##ich
or
##ill
am
now
##ell
let
com
##ant
sir
she
##fe
fa
con
##ear
##ust
##art
from
##ine
##ous
##ost
enter
##ot
come
they
here
##sel
ll
un
##ing
would
than
##ers
##ive
##ul
##one
was
know
more
##ol
bl
can
##ven
sw
how
which
well
then
##ose
see
##um
ar
##ble
them
love
##ry
##ame
##ish
their
when
say
##ate
##ind
bo
se
##pp
wor
##ic
##ence
##self
hath
us
mar
like
##row
pl
one
did
##ink
where
mad
##ri
##ong
may
upon
al
sc
##ure
##op
should
make
##ak
gre
##other
out
##ance
ca
sa
##ves
were
##fore
ag
##ort
dis
yet
##ook
##ather
some
had
must
tw
##ound
##are
why
##em
who
##ig
too
##eak
tis
le
tim
speak
such
##ice
cl
##ff
give
these
##oun
again
##ity
##ide
la
##pt
hon
##ies
god
##nds
heart
gra
##io
##nder
fl
take
##ick
qu
##old
##ise
gr
##orn
ever
po
think
look
ab
##ed
nor
tell
##ness
most
##ip
pro
##to
##uch
day
##ass
great
##ist
hea
##ius
str
mine
ey
##age
aw
##ady
##wn
##ud
##urn
##own
##ag
##ery
off
father
time
##aster
des
##ful
hear
gent
bre
ser
war
men
##ings
much
never
bet
##qu
##ng
per
##ire
##out
##ft
fo
##ase
exit
##ation
ro
frie
ear
gentle
fair
mo
##ene
##ince
art
ad
er
##eep
pray
wr
##ang
master
##el
death
##ber
night
hand
##ious
blood
##eet
word
du
##ack
##ress
call
other
part
comm
##end
ple
##igh
fear
##ree
heaven
lea
foo
life
##ith
hast
##au
##ither
##ough
coun
sweet
##ap
away
##oul
##iv
dr
ma
made
##ces
##use
doth
##ign
jo
##ile
any
before
co
gl
##ep
lady
##unt
ay
son
##ian
##ward
##mp
very
stand
true
scene
cann
honour
sl
##ace
app
##ia
##tle
thus
own
##ull
##ite
cannot
##ect
bear
##ro
pre
af
##ment
##oss
ant
serv
been
##ty
##ouse
brother
arm
##ach
##man
mean
world
done
two
down
wom
name
duke
comp
cont
way
##bl
##ction
leave
pres
head
eyes
could
fir
foll
might
##orrow
long
##cc
fool
beg
rem
noble
cour
poor
into
rep
##sw
##ief
keep
noth
##rown
house
##gl
##atter
till
##ghter
therefore
##li
even
ho
old
que
show
though
pur
##atch
exe
comes
nay
mer
thought
whose
ind
##ks
dau
both
##uck
wit
##aint
grace
better
mist
find
myself
char
new
##ild
queen
##ave
##iss
dead
##ors
##ons
put
soul
dear
first
##able
##ert
##ears
against
hold
##ph
fort
follow
##ens
har
many
##less
lie
lords
best
sle
fell
pea
hel
att
##der
gu
under
tru
still
peace
set
rich
madam
##ower
live
sm
##akes
those
nat
every
##come
bel
high
##cy
thr
##ought
friends
##ds
##ange
worth
daughter
conf
fortun
stay
end
##ew
el
cons
cr
wife
lit
young
fare
##esar
exeunt
die
dev
rome
tong
gi
within
count
##per
engl
em
##ier
little
boy
answ
prince
caesar
fall
##ield
bes
##ason
imp
none
place
##les
res
hour
mistress
cur
play
##ience
faith
after
##ock
##well
gone
himself
##ope
beh
rest
##alk
answer
par
##alt
friend
fal
hum
court
turn
##be
whom
another
mother
pass
vir
dra
wel
full
##dy
##int
bid
kind
wo
##ows
unto
aside
since
##iness
woman
bra
mind
##ret
tre
ret
##its
present
else
vill
##cl
val
ed
sword
acc
three
ii
pa
once
eye
words
inde
thine
dou
face
pat
##ench
##esty
tongue
right
##men
dost
pe
sold
please
##ult
seem
hence
##for
meet
france
hus
##reat
hor
##ison
##ans
child
has
##eech
ta
about
kill
forth
##eel
crown
##ains
##sand
##hip
back
di
tra
##oke
##lt
##ition
act
ere
anton
matter
##ants
over
##lf
##ouch
tro
nature
##we
sub
##band
car
ass
spir
far
mon
##oud
pleas
letter
said
husband
dre
sleep
##ix
marry
lu
wrong
welcome
##eng
fe
##ins
light
home
read
without
ban
hope
vi
earth
fortune
##ets
help
attend
farewell
##bt
sure
makes
heard
just
##ister
mark
disp
suff
thank
breath
hang
came
power
##if
wear
##ctor
##uty
pra
virt
##gar
hands
law
cause
disc
gods
morrow
does
hen
pard
##ury
##selves
break
cor
mis
##ab
thousand
##ieve
##ps
op
gentleman
##ail
ye
false
rather
use
##cle
shame
henry
bus
gold
maid
pardon
lay
sent
adv
lov
##ca
##ates
forg
##pect
##ient
things
fellow
sil
get
##fect
truth
hither
wish
##ond
happ
enough
fight
sound
##yal
##cious
state
only
england
stri
reason
same
last
##ial
sec
##land
mus
##iz
##ute
den
near
wilt
bar
##any
luc
##fort
##ents
remem
news
sen
devil
land
run
ph
##av
##eal
##rant
shalt
honest
##ru
purp
inst
swear
command
##ily
##ory
ill
ob
##ions
sign
beat
sea
##ork
youth
tears
##und
exce
return
##dd
##gether
pers
yourself
saw
maj
born
kiss
mur
##ib
##bour
##esh
##eeds
##ash
##ount
##dom
marri
draw
body
strange
york
##cester
enem
through
dar
im
fire
##ener
care
##ove
##ides
tit
oft
cous
cry
lost
##vy
fly
jud
int
sun
send
talk
vo
fault
grief
wind
weep
cla
##anger
horse
##iers
##ject
joy
villain
antony
##ms
arms
free
less
##vere
means
emp
seek
##ner
##ues
together
prom
##vers
seen
majesty
bless
fur
prove
spirit
hard
pal
##ey
##ceive
yours
##ump
strong
cass
reven
cousin
mess
ent
music
##ary
left
au
ba
cle
win
yes
##oucester
##ade
gloucester
richard
country
bur
tem
want
quick
lear
##outh
half
##ken
bea
murder
grow
##air
supp
believe
gener
sorrow
ty
##iet
##hn
while
prop
doubt
sit
itself
prot
comfort
business
##by
sick
dep
royal
john
found
##lo
##ween
foul
touch
met
##oney
bir
##vour
rec
##iph
fit
lies
cap
prov
thoughts
fie
##ats
som
##wick
##oura
##alth
dist
servant
told
##omp
##ush
between
##ertain
bu
king
worthy
cast
work
warwick
sister
beseech
##ple
alas
##ople
service
edward
##form
says
pity
##oot
remember
each
field
late
##anc
proud
bloody
ap
ru
gave
lad
##fend
foot
people
prith
exp
desire
prithee
bound
dog
lead
air
cold
sk
dem
##olus
cond
purpose
dam
oath
antiph
antipholus
cra
##itor
ask
uncle
pu
sight
trust
further
inf
cut
danger
sin
##utus
##ures
prison
cho
alone
gar
page
ang
french
aff
sad
te
soon
dare
hate
stre
stra
dream
certain
pet
sat
##cess
meth
save
learn
general
wat
##ls
thyself
##ior
gentlemen
lose
liv
che
brutus
looks
gall
brought
##liver
##ible
gracious
company
banish
yield
##oth
charge
##let
##ime
cam
four
min
ter
drink
holy
##xt
cham
grave
common
given
soldiers
wound
prin
knows
content
ven
##ars
behold
virtue
wise
##ude
happy
ten
##sh
##most
favour
point
burn
col
ra
loves
deser
brave
iii
patience
days
##retch
ga
lives
knight
known
##olk
serve
others
mort
years
##ugh
beca
warrant
because
mal
sur
side
ange
black
capt
times
highness
money
poss
deliver
##ott
writ
mouth
pay
##ron
##mer
past
wa
hell
sovere
del
neither
report
mercy
sovereign
whil
open
age
jew
##up
confess
ac
##ship
##ren
##asure
women
don
inc
someth
##ength
div
watch
##ne
reg
thanks
eat
hot
requ
trump
quest
prof
woo
##aff
##ipp
mock
pleasure
fast
sal
##ift
goes
est
yea
hav
##ices
didst
buck
tal
##ys
##eed
marc
ground
deep
##gue
##enty
##aste
bold
ev
##ac
##rew
##ceiv
##iece
suit
english
morn
##iant
change
##els
appear
card
toward
##inal
##ooth
canst
hearts
either
##over
##iff
##oman
##ander
##fection
const
##ape
beauty
tender
vis
unt
march
emb
wonder
wall
walk
knave
ext
quar
ears
revenge
##br
hector
sum
next
twas
haste
truly
person
sn
##dge
##sc
appro
subject
enemy
sake
inter
##ourish
##ments
guard
messeng
chamber
colour
bat
cow
##no
##oof
##ally
entreat
ah
##inks
took
soldier
ros
desp
pret
praise
ach
base
##sue
##iar
speech
almost
heavy
valiant
justice
strike
straight
bos
gain
soft
leg
##ague
cal
iv
##iest
town
short
hark
suffer
opp
spe
##each
worse
pluck
heavens
drum
stands
##ixt
cardinal
twenty
forb
rel
above
prep
voice
palace
question
pen
sim
##uous
##anio
hair
scar
course
claud
water
knew
##like
merry
fet
##ont
note
##tern
##rah
labour
traitor
bosom
duty
lam
##bs
##anch
##stand
unless
sons
damn
feel
pomp
##bly
wid
plain
coward
cri
wretch
##uff
##ask
moon
glad
romeo
bad
##kes
##ready
weak
def
methinks
cre
##jo
inv
stir
scorn
room
counsel
excell
city
lest
ready
themselves
harm
presently
messenger
tak
ver
throw
##ones
##owers
spoke
sirrah
already
liege
cassio
dish
##umber
laugh
##bb
thir
##eness
##ities
flesh
ladies
mons
wis
##ford
##ires
withal
##ument
deny
##dden
und
sport
chee
hur
needs
teach
##vol
amb
##rice
##ully
judg
dire
flourish
offer
host
mot
saint
priv
trou
witness
respect
woe
id
pol
jul
##gn
become
chr
##une
lack
flatter
grant
begin
creat
five
nur
heir
lips
got
knock
##ils
wherefore
pale
feast
signior
action
mount
##eth
##ina
##feit
proce
wars
commend
guil
dark
##ourable
fetch
##ank
sworn
strength
loss
pit
ve
white
door
bro
sever
add
lucius
bit
book
##gg
##bury
timon
speaks
resol
somet
captain
low
sudden
spr
wherein
clar
consc
gives
humour
christ
##pr
##eror
offend
##vel
ham
##ool
##oop
disg
drop
claudio
fat
jest
##rel
beast
##ilus
##unk
##bles
attendants
hide
##mn
##com
##ays
##ourn
wouldst
understand
hours
letters
kingdom
vile
##of
##he
##ches
chur
##ung
offic
office
slain
slave
marriage
bast
mil
wild
##itt
##iev
##race
self
##empt
beggar
clarence
din
##bot
##ingh
star
##ider
alar
twere
honourable
behind
sense
battle
mir
port
pap
fore
lion
##vern
abs
children
dread
cheer
conscience
##ingham
det
kings
mak
sing
sigh
steal
whole
adm
mac
helen
##ize
pretty
excellent
fam
fill
fash
##cut
##ines
bell
anon
among
cross
troilus
suffolk
ke
##az
##hood
##erd
##cept
lordship
second
quickly
mortal
fing
lust
rage
##tain
##isf
##lex
##ites
liber
exc
safe
poison
##agg
fortunes
passion
spirits
##cent
##arge
kneel
gro
seems
viol
lim
spo
brief
##ages
##bey
buckingham
talbot
bastard
hund
ourselves
##ingly
margar
write
margaret
bow
corn
ef
ele
##hile
##ters
##imes
##eem
close
offence
mighty
tale
secret
often
possess
alarum
##ram
##ny
pros
order
seal
along
##ations
##aught
fashion
ble
ut
##aim
##od
##gr
##ym
beard
issue
friar
mod
gift
besides
promise
satisf
acqu
hamlet
drown
eas
##dit
ford
##ames
tri
worship
longer
small
##claim
whilst
nurse
ben
kate
wood
##ser
##que
ship
form
stop
fresh
##antage
##umb
masters
##ians
prev
affection
souls
choose
hurt
sor
ur
##ndon
##ona
##ural
reb
trib
unk
bond
paris
enemies
ath
cup
dies
horn
match
##rous
##ises
shar
anc
presence
consent
valour
publ
dangerous
princes
pompey
hundr
occ
sy
noise
whe
health
force
chance
leon
perform
move
heads
patient
wisdom
effect
fine
##ancy
sole
unw
awhile
parts
bears
forget
bol
vow
##ale
##rey
stud
enc
##ility
##unn
conqu
blow
arg
breast
antonio
emperor
deeds
went
##af
##sp
##ses
tom
govern
london
north
mov
adie
curse
judgment
ly
mid
##under
##fully
##esy
receive
##illes
dull
reads
rosal
post
roman
takes
vol
##aw
succ
green
hadst
fools
birth
approach
adieu
case
gates
six
##ov
##ony
title
depart
marcius
piece
##og
##ern
##asc
shake
##urs
##als
pride
doctor
herself
sav
##ago
shows
##beth
judge
paper
whether
tent
##oly
forsw
##irm
neigh
##erset
blind
contr
carry
##ify
opin
##ealous
somerset
castle
angelo
prosper
cit
dest
ld
mut
round
song
wert
##ald
##aves
##ges
##ners
tow
entertain
lend
qual
virg
treason
pract
virtuous
phil
angry
church
list
tor
##osition
##ledge
##entine
worst
saf
least
##rupt
protect
buy
quarrel
achilles
sus
year
##con
##inius
stood
red
plague
prayers
counter
foolish
mont
ign
sch
##ends
##asion
shad
forward
stor
step
earl
fellows
jack
jealous
obey
##oe
thither
##asons
ref
brain
unh
##ishop
##icles
crue
troth
kept
leonat
av
hu
won
##bro
##uit
sheph
wash
quiet
rob
join
demand
scarce
acquaint
##broke
##ict
##rem
shr
measure
brook
sac
perceive
jove
charm
smil
faults
gainst
taken
bitter
cir
gir
pains
vain
wast
##ror
##ray
##iam
##ife
whither
anne
herm
##staff
ours
##ello
concl
unf
alive
laid
calls
fearful
import
falstaff
imm
titus
cassius
trumpet
visit
dishon
third
dinner
hop
pain
vie
##ax
##her
##ark
proof
train
##icul
usur
cliff
dispatch
sorry
bass
cost
catch
iago
oct
tar
##iol
##via
##ual
##ught
##wd
##jur
##chief
trick
plant
glory
army
execut
troy
carri
##ourage
octav
rid
rise
thro
inno
##ley
reign
dec
hero
##ract
manner
clock
drawn
golden
sharp
opinion
ge
hat
ow
sort
var
##oint
##zen
thunder
##ths
##vey
ins
fors
##cks
##rac
trans
conce
blame
seven
honesty
##eds
drunk
contin
purse
forgot
monster
ignor
cruel
gh
pin
tear
wal
##ek
##een
frown
try
##ume
dism
##aps
harry
simple
tower
fle
ri
van
##anus
held
ste
blush
servants
##phin
##perate
##force
coriol
instant
auth
temp
forbid
success
neighbour
paint
rough
##cul
hail
mel
priest
amen
##ots
whence
gross
##bert
banqu
obser
proper
direct
shepherd
view
clifford
dri
mere
wench
yo
receiv
defend
broke
##rius
sail
##ffer
proclaim
struck
bestow
wounds
deserv
citiz
cat
kath
##eus
##ts
bed
thence
bod
quite
greater
awake
moor
clear
camp
delight
embrace
widow
macbeth
utter
trium
bened
kathar
bene
cunn
courage
equ
fish
vouch
wine
##day
##iful
thrice
top
shape
##usion
wealth
deal
expect
swift
##ounds
##elia
consider
boys
double
obed
persu
condition
request
walls
trouble
ghost
hol
pos
wol
##ease
##gy
##mbl
##pl
##zard
##oses
##ators
##ances
mem
loath
amaz
whereof
##elve
folly
holl
trumpets
triumph
##ker
winds
##iel
##emn
cloth
smile
promis
tyr
prisoner
street
wait
pun
powers
vent
##oll
threat
##isbury
becom
meant
stock
##ustom
knowledge
##ical
alth
desires
dauphin
holds
##airs
salisbury
until
ancient
dur
due
dance
taste
##bo
##bar
##etrius
##idius
##ieves
##unes
fail
compl
##ission
princely
intend
demetrius
creature
encoun
although
bones
eld
rasc
west
##ores
hap
stain
##alm
enjo
neck
necess
goodly
unp
alack
caius
grand
ways
wits
forgive
borne
aught
towards
motion
juliet
rosalind
melanch
yonder
aj
boot
gard
od
sear
##night
##ze
##ane
forest
##aughter
remain
falls
curs
valentine
claim
grows
extrem
private
several
author
melancholy
ajax
cas
faint
main
py
##bus
##ety
yourselves
sol
revol
deg
shallow
brit
##ingbroke
blows
##icious
greet
twixt
greatness
slaughter
repent
endure
courtesy
weary
choice
terms
prepare
bolingbroke
citizens
hunt
tur
##dain
##ub
##cil
##chance
mend
##itors
stars
unc
glass
honours
precious
tongues
edm
advantage
silver
silence
emplo
princess
malice
whiles
profess
marcus
christian
virgin
employ
aud
bian
bishop
giv
hung
large
ren
rude
##right
##orge
##vell
meat
##ilius
bright
uns
twice
wrath
keeps
proteus
summer
finger
liberty
excuse
bare
fig
ir
nose
owe
root
##ives
##ua
bend
##utation
debt
##stance
seat
##opat
shouldst
slander
charles
victor
discour
silvia
except
prepar
cheek
cheeks
guilty
occasion
encounter
kent
pot
rain
rose
rans
sings
sooth
##oc
##ler
##oral
heels
shore
stone
steel
##ident
##ilia
rogue
##ierce
imag
cleopat
protest
deserve
colours
lament
solemn
safety
edmund
bianca
cleopatra
big
der
dry
few
loud
need
##iance
##with
heat
weigh
ash
env
spend
chall
chain
chang
manners
lav
fond
foes
fears
brothers
humble
swords
accord
wrongs
maiden
anger
legs
public
dishonour
benedick
dwell
fought
fury
lanc
pure
rh
rare
##dem
##folk
##omach
##ads
##idge
madness
twill
quoth
norfolk
##ipe
##iana
remed
assure
monst
discover
corrupt
remembr
##ruction
minister
##ronic
sometime
study
shadow
punish
bas
cuck
custom
fame
kins
squ
##more
##orous
hab
weap
start
stuff
brow
conc
##oler
clou
earn
phys
instr
condemn
athens
circ
monstrous
aid
alex
cord
cress
egy
fain
food
mourn
ox
rat
sens
tree
##app
##eous
##uc
##ways
thief
##orth
##enet
shut
##iment
story
doom
knee
convey
unb
griev
prod
desert
desperate
desdem
particul
compan
follows
undert
throne
winter
forbear
idle
counterfeit
storm
search
lancaster
egypt
desdemona
fre
tut
vows
##orious
##enc
##inia
##read
shrew
##eter
stab
rever
##rows
perfect
foe
roar
cover
smell
wanton
tyb
express
oaths
venge
##otten
practise
becomes
renown
ransom
physic
circum
niece
wre
##ense
reasons
lover
leis
flowers
grat
##udge
betray
pericles
leaves
##orses
paid
tail
miser
fiend
sometimes
lavinia
cressid
tybalt
fee
gown
lang
pis
tune
##eat
##ogue
whis
wives
sheep
hal
##erem
stomach
##entio
dot
ones
herald
##ied
lod
trial
exam
twelve
betw
duc
hastings
##verend
recover
gallant
montague
execution
coriolanus
bab
dun
dust
gate
hid
horses
number
##afe
##wise
##enance
##ences
##ination
wick
##cel
former
weight
##ades
##allow
##athers
##raid
spare
fac
mayst
warlike
armour
natural
kindness
crowns
differ
breathe
lawful
senators
sooner
subjects
oppos
guilt
disgu
easy
discourse
remembrance
leisure
betwixt
bott
ease
feet
grown
hit
line
nest
pick
rank
hall
##itude
stol
stones
##ament
##eeth
fruit
spent
chief
##riv
always
abus
abro
affect
guest
humbly
accus
lucentio
capit
regard
##volio
dreadful
argument
forsworn
nine
##erm
bef
##cend
isab
##ams
reverend
envy
deceiv
##ieur
lovers
comb
##ement
flower
warm
percy
drom
slow
appoint
witch
charity
empt
assur
disple
affairs
evil
cries
credit
broken
spoken
usurp
octavius
cure
dy
fancy
pand
tam
##su
##yond
##erv
##reh
bew
beyond
staff
prick
spite
kne
goodness
arr
grey
clo
thinks
##elt
plead
thrive
traitors
supper
possible
jewel
##umberland
officers
cupid
protector
enjoy
revolt
dromio
dig
ep
maint
oth
wak
##dle
##gs
##mble
##mond
##ution
melt
press
doors
fright
allow
loyal
therein
bride
flood
contempt
bids
##ails
burg
tempt
tyrant
condu
peter
despair
proceed
officer
mirth
admir
vouchs
remedy
abroad
othello
dign
esc
fun
hill
nap
rom
sore
table
teeth
##leep
asleep
##very
##ands
flight
flies
richmond
below
humph
happiness
freely
capul
undone
school
leonato
particular
bottom
aim
able
bard
dagg
wag
##act
andronic
nobl
incl
##uten
dece
ali
disdain
heav
gentlew
heavenly
compass
firm
begins
lieuten
thrust
daughters
countenance
account
lands
voices
buri
temper
ruin
crack
venice
constant
determ
single
unkind
hollow
pyram
langu
humphrey
borrow
mild
pour
sits
ted
wings
##den
##uce
##fer
thick
##arus
toby
##ann
render
arch
lean
abh
##ips
##ivil
joint
merit
dearest
slender
guess
confer
treach
beatrice
griefs
##iety
proph
rule
petr
profit
despite
##asket
tribunes
horns
northumberland
girl
hermia
hopes
benef
clouds
vengeance
knees
romans
lieutenant
tedious
bought
fil
hy
mart
nought
por
pil
wake
##aces
##opp
##pe
##cri
##enge
whore
infect
##imer
reward
realm
hers
##illo
blunt
plot
##rible
sack
##uchio
strang
cock
belov
confirm
##sander
bark
streets
camillo
tomb
lysander
tempest
durst
garden
authority
earnest
ducats
empty
petruchio
da
dom
furn
pack
sic
salt
vice
##ten
##lock
##chant
##lect
wedd
##amour
spake
lock
neg
faces
blest
swore
swell
outward
laun
peril
appears
smooth
devise
imper
wond
minds
vii
##undy
intent
bapt
sickness
bird
provost
skill
angel
suddenly
drops
prevent
innocent
challenge
burgundy
conduct
apt
bade
cease
pound
tid
wander
##dic
##oid
##go
##na
##iny
##iter
wither
dew
knife
cher
##olph
flor
greatest
womb
purch
deadly
villany
disposition
empress
estate
wide
vex
suspect
throat
george
equal
maintain
vouchsafe
bardolph
andronicus
eag
fi
fix
hort
honey
pie
pict
rul
ride
rail
##ault
##fidius
thom
##thum
shot
##cher
pron
tranio
brings
exeter
seas
##igo
##igence
perchance
early
commission
council
begu
##ertes
turns
retire
virtues
object
aufidius
mortimer
ambition
absence
sighs
violent
prevail
conquer
quality
bassanio
obedience
posthum
rascal
capulet
gentlewoman
pyramus
tidings
hortens
thomas
posthumus
cy
ends
gon
hie
ped
rash
##ta
##ton
##kin
##wh
##ano
##ino
ital
prol
suck
loose
##ella
##ote
##oles
##ria
gree
stranger
##apes
appar
repair
merc
imposs
##ifi
prais
mischief
deni
beaten
darest
affli
helena
modesty
gifts
unkn
tarry
kinsman
bill
cerem
dumb
fift
length
miss
nak
names
sour
tort
##iate
##nat
##atio
##ision
##enz
##thur
whipp
inform
hazard
##ado
william
##amp
eng
##ilt
hereaf
arthur
season
clos
clown
followers
villains
bawd
apart
methought
raise
divine
mountain
portia
unworth
contrary
unhapp
plantag
forsooth
conceit
ignorant
observ
concern
baptist
pronoun
hortensio
hereafter
bind
cates
east
sides
ti
##vent
##haps
##jury
thieves
##onius
##inate
##itious
prize
franc
reck
trif
worm
scot
clim
quit
perhaps
roder
glorious
prefer
reputation
puts
attempt
tread
hencefor
horatio
troj
maids
dogs
crave
garments
modest
sacr
memory
habit
undertake
pisanio
fiery
baptista
roderigo
ball
bag
bury
eight
fin
mag
ran
##tl
##rain
##ric
##erve
##ora
##cell
##leans
stat
##alf
##idence
brows
orleans
ung
ariel
lovely
##amemn
sees
mars
agamemn
fairly
ladyship
appreh
complex
##ctions
behalf
treasure
sleeps
bush
advise
dares
build
raven
knights
spec
fatal
avoid
bodies
victory
rhym
plantagenet
agamemnon
boun
civil
fits
hugh
ja
key
pad
south
waste
##aid
##res
##rate
##change
forfeit
stick
lik
liest
##ards
brains
alb
cave
laertes
##istol
##ques
friendship
confound
device
month
market
runs
##avish
window
dreams
shortly
limbs
##ogen
smiles
degree
reverence
francis
cens
duch
fathers
iron
rag
rush
ripe
sell
tide
taught
##dra
##eas
##net
##mit
##hold
##pir
##inite
shout
island
frame
##verse
knaves
chaste
orland
sirs
disch
lew
##ption
graces
pock
party
dearly
pair
assist
senate
imogen
reveng
gaunt
malvolio
accept
esteem
polic
##prise
##chester
groan
satisfi
hubert
banquo
katharina
threaten
cuckold
wreck
whisper
capitol
unknown
orlando
cell
cool
ful
fate
hind
sink
##acle
##bel
##ug
##eret
##esus
##ency
belike
shine
##utes
forc
stoop
##sey
##vert
super
chide
##ellow
conj
unl
##inger
sway
sweat
swallow
alter
scr
proc
serp
slight
afraid
finds
woes
misery
advice
sorrows
infinite
prisoners
wax
relig
monsieur
julia
##head
urg
clothes
haply
odds
displeasure
dagger
alike
catesby
lewis
policy
etern
ner
rt
test
##ever
##ws
##essel
##lys
trade
unnat
blown
##uments
seest
diss
flow
stroke
desir
robb
fairest
slew
resc
intell
sky
saturn
minute
delay
constable
snow
drums
invent
pitch
resolve
famil
midnight
charmian
oxford
abhor
furnish
neglect
##olesome
impossible
bounty
aar
aene
bon
crow
cree
esp
fant
fierce
ire
naught
numb
ol
pill
pear
tend
wants
yond
##ec
##obar
##mon
##ator
nob
ingr
isle
##tery
weeds
enforce
enobar
deer
speed
unse
sends
places
cler
grum
grieve
tells
perforce
fairy
handker
guild
native
consul
impr
edge
monument
sounds
devils
babe
winchester
countrymen
garter
calm
creatures
resolv
disgrace
susp
prodig
lodg
tamora
unhappy
henceforth
duchess
##ereto
unnatural
familiar
aaron
aeneas
bent
band
bull
bite
et
mat
mong
mass
taint
vessel
wink
##fl
##anct
##inct
##inous
whip
forces
withdra
priam
spar
chast
unm
##olute
arise
marina
##arel
heartily
descend
perish
fox
rock
prayer
committ
prey
mistake
emilia
doubl
peers
months
surely
hangs
sentence
lucilius
banishment
favours
ambitious
darkness
fingers
syrac
unfold
pinch
elder
necessity
figure
instrument
pieces
picture
enobarbus
dim
dress
eph
gle
pistol
rap
vin
##erous
##llen
##arg
##enius
nobles
##rees
inher
##asy
##itable
##oops
##sequ
decl
spur
chair
ord
boast
worn
marks
##rift
grec
##assad
strain
wrought
drive
contract
remains
belong
impat
pause
wears
advance
secure
##uteous
kisses
image
hardly
hateful
ambassad
privile
milk
ignorance
weapons
benefit
complexion
padua
felt
mill
nice
odd
scept
tame
##eg
##okes
##soe
##bast
##can
##enes
##oment
ink
##ced
shoot
stretch
##idus
reach
rejo
deb
##iege
neph
bring
##icate
scape
sau
clot
abuse
fairies
leap
joan
coll
##roy
repro
##ension
behe
behav
edgar
##ruct
draws
burth
murderer
record
craft
rais
deserves
oppress
lamb
stirr
undo
belly
amongst
##centio
entertainment
banquet
katharine
companion
difference
unworthy
reckon
special
nobility
ephesus
vincentio
nephew
basket
cym
dow
fold
gather
journ
lor
moment
rotten
sanct
task
##acy
##oard
##so
##vish
##pidus
##way
##just
nobly
whores
inqu
injur
weather
lip
hercul
spl
sple
knit
chid
cominius
hereford
blast
sayest
##ica
maria
mayor
greek
disse
twain
lepidus
quench
breed
eros
wrest
commit
coz
slaves
appet
apparel
slept
stays
curr
faithful
friendly
human
welsh
accuse
pleasures
discret
discont
strikes
instruct
temple
exped
angels
mouths
defence
troubl
destroy
sacri
wales
britain
envious
shrewd
##celot
arrest
language
launcelot
handkerchief
withdraw
hercules
cade
diana
gri
jup
mood
mult
vantage
yoke
##action
thur
##arch
shift
haunt
front
trim
choler
amiss
##ously
##rib
poet
aboard
breach
err
otherwise
##ivia
coat
glo
glove
##ianus
##roll
begg
began
remor
##glas
paroll
kindly
tremble
##clus
paul
douglas
corp
advis
silent
purposes
stronger
biron
distress
petition
term
commonwe
incre
books
rebell
immed
costard
senses
circumstance
combat
pandarus
prologue
pocket
numbers
olivia
jupiter
thurio
parolles
bay
kin
lent
oak
sought
tall
##ok
##gues
##leness
##hem
thrown
##anny
whit
##ldom
##irt
##itch
store
soc
lift
willingly
sup
##ouses
##umer
sebast
marvel
also
##ortion
godd
##edom
serves
fairer
partly
##roclus
remove
pursue
merchant
harsh
younger
courtier
passage
patroclus
substance
cares
pleasant
laws
advent
wishes
provide
skin
gait
hostess
beasts
detest
groans
savage
leonatus
huge
miserable
disguis
dignity
wondrous
italy
##beline
cymbeline
journey
sacrif
immediate
sebastian
bio
bud
je
lat
luck
moral
oh
sine
ulys
ward
##son
##mio
##bow
##zz
thing
##ndello
wheel
wholesome
height
shown
frail
goose
spit
##eap
thereof
branch
exchange
conven
gremio
caus
tooth
strive
perp
adam
nights
league
##iano
appl
services
charg
slee
confusion
villan
accomp
diom
travell
subd
coron
falsehood
barren
message
suppose
birds
afford
calf
polonius
milan
affections
jealousy
acquaintance
tricks
casca
stolen
conference
##enzo
creep
grumio
lorenzo
discretion
goddess
biondello
ulysses
afe
aumer
bore
bot
bert
couch
fret
jess
non
rous
rum
ravish
sins
zeal
##ais
##ole
##tles
##lish
##ubb
##came
thers
thorn
##ative
##aries
toil
medic
##urb
item
stan
stamp
butcher
dol
goths
spurn
knot
chase
##illon
##antus
enterprise
##seless
arriv
seize
##oph
##emantus
flat
design
bread
menenius
cozen
anti
hole
##enstern
conspir
beside
plays
trees
travel
monarch
earthly
signs
exceed
weeps
beaut
depend
apemantus
regan
absolute
liberal
urge
torch
torment
redeem
steph
bassianus
dismiss
rivers
observe
persuade
wolf
tyranny
freedom
gratiano
nestor
isabella
purchase
climb
trojan
serpent
eternal
guildenstern
imprison
suspic
sceptre
saucy
cloten
burthen
appetite
remorse
aumerle
bertram
thersites
bount
cou
cand
mow
pee
pate
pull
tap
##lain
##cke
##za
##inus
##rels
inh
##iron
wed
wept
stubb
asse
rev
deceive
##geon
exper
##umn
plac
scour
shoulders
##emper
abide
perfection
error
dukedom
merri
helm
higher
players
pawn
peas
subtle
drew
attendant
dispos
strife
runn
fields
garland
waters
wisely
bravely
towns
pitiful
lusty
spoil
satisfaction
refuse
innoc
continue
vanish
grandam
cordelia
tailor
fifty
ireland
grecian
spleen
jessica
suspicion
peevish
stubborn
nim
nation
pace
rust
rib
stern
siege
vul
##oy
##oes
##now
##cce
##wl
##eril
##encon
fores
stage
prat
suits
alleg
troop
comest
##ulous
bohem
alencon
score
cloud
graves
strump
hears
gently
##iously
coff
couldst
charac
drag
kindr
lights
corre
barbar
obsc
palm
suppos
supply
recomp
fitt
lately
leads
pucell
stream
camest
written
delicate
quarter
##bridge
penny
addition
foreign
absent
macd
possession
satisfy
varro
directly
obedient
needful
cloak
naples
torture
rhyme
inherit
privilege
beheld
afeard
pucelle
ax
ale
hatch
houses
los
mask
nam
nails
oph
pi
wail
##aus
##aunt
##rid
##hrew
##cise
##orough
##lly
andrew
##isons
##isible
##aniel
##asp
shy
shook
shield
shapes
forty
notice
aspect
thisby
price
soil
dozen
liqu
##eek
succe
spy
space
load
##otion
alc
scur
scru
shoulder
grew
caught
lap
grands
flout
warri
advers
commons
##issa
crest
countess
beshrew
curses
parley
value
accurs
peer
kills
fares
feat
corse
lovest
commands
joyful
burst
beauteous
apoll
strew
petty
venom
jewels
estim
visage
interp
interest
hairs
defy
invisible
resolution
humours
famous
easily
ships
athen
ancest
forswear
prospero
destruction
conclusion
octavia
conceal
audience
befall
beware
daily
cherish
eagle
goneril
pronounce
censure
discharge
nerissa
strumpet
macduff
ophelia
ber
dut
dum
dame
ferd
gid
hom
lin
mile
nar
obl
patch
pierce
rate
tum
##rude
##ially
##vest
##upt
##inand
beth
##sell
spread
howl
theirs
board
sembl
seldom
##ries
outl
ago
twould
##ioch
descri
perf
robert
slay
antioch
preserve
remov
repr
nothing
pursu
elbow
curst
park
##clam
##forc
bank
suffic
misc
ope
happily
phr
##rantz
joys
lesser
aug
clean
tyre
proportion
sitt
cheque
terror
divide
rosenc
cowards
severally
##prus
conquest
steps
robin
conclude
steward
stocks
westmore
extremity
preparation
example
assurance
digest
treacherous
filth
cyprus
apparent
conjure
rapier
whoreson
discontent
stanley
bohemia
ferdinand
rosencrantz
westmoreland
aunt
danc
fif
gild
lower
ora
push
rouse
tick
vous
wot
##teen
##rust
##uish
##eral
##erman
##arm
token
inward
injury
hey
share
shines
##chor
week
##enton
##omed
frank
deaf
##ione
troops
manhood
orch
unjust
theme
box
seiz
aloud
scatter
##ortal
clamour
awak
rod
moons
county
##ival
coin
coast
beget
begun
newly
bidd
accident
overth
farther
husbands
feather
lightn
breaks
beats
messal
bait
kingly
sisters
terrible
gaz
despis
cred
actions
alarums
bleed
##grim
##spur
government
rosaline
##aws
schol
immortal
throats
transform
fleet
wolsey
windsor
virginity
potent
imagination
weapon
deceit
prophet
pilgrim
viii
ceremony
closet
scratch
rescue
clerk
syracuse
##soever
behavior
inquire
increase
appla
recompense
axe
shylock
grandsire
oracle
cent
dian
gert
jun
ming
nun
oce
ris
sands
tun
yellow
##gress
##par
##ule
##ughter
##cute
##kind
##wife
##onst
bee
sham
shun
##uts
meas
medd
##itius
sty
stopp
liver
likes
wills
reve
whate
sue
##ours
chat
mant
##unch
conceive
herein
seeks
worcester
lev
laughter
grass
pole
warn
perjur
##eless
counsell
##iable
begot
mercut
indeed
guide
belch
throng
##ierc
afterno
diomed
matters
justly
dispose
thankful
praises
advanc
barg
senseless
signify
titinius
strongly
yester
distemper
apace
infirm
certainly
##lete
points
pays
divor
event
snatch
chamberlain
thirty
veins
prosperous
philos
redress
hermione
merely
##body
eldest
hungry
instruments
stabb
dote
opposite
isabel
domitius
greeks
apprehend
jaques
intelligence
paulina
perpet
villanous
allegiance
apollo
fifth
orchard
gertrude
mercutio
afternoon
bere
cin
cudge
dat
dine
egg
fenton
lines
mas
net
rack
tig
yon
##some
##bian
##last
##atic
##inent
##cet
##uss
steep
stale
##adle
willow
##eedy
rend
enf
deck
##andal
trench
ourself
thereby
manif
brown
##unken
exh
exile
##ille
unre
thane
##ular
##ulate
blue
swears
##icit
likewise
##ripp
everlast
##ipl
offices
##quish
adri
wrink
##angl
leav
sweetly
dropp
drunken
cox
mightst
repose
purs
harbour
helic
natures
endea
consum
resign
access
horrible
tax
subsc
barn
youthful
strangely
titan
voy
royalty
metal
mettle
provid
disturb
ruff
gaze
require
requite
evils
sufferance
claudius
weakness
create
verona
##pris
kingdoms
miracle
makest
safely
eleven
secrets
rebels
publius
effects
governor
vols
owes
walks
complain
turk
asham
cressida
loyalty
inclin
determine
imperial
beguile
scotland
invention
rejoice
commonwealth
stephano
scurvy
athenian
giddy
##clamation
messala
yesterday
cop
es
game
gower
mich
nourish
nym
ought
pite
sith
tir
tush
vault
wore
##dl
##ead
##oon
##col
thread
thorough
##ese
##incul
beds
beams
hec
##itic
stum
hist
dove
lions
##athe
##rage
sugg
spect
lodge
trunk
trincul
chap
##illy
amend
swain
##icle
##ication
marvell
alto
agripp
disease
laur
process
serious
betimes
##outs
moth
moves
##aph
##ullus
##ossom
contents
reply
keeper
following
sett
believ
courteous
woful
brace
retreat
rightly
divers
fever
discipl
busy
lucio
phe
clapp
prompt
promises
entr
baw
depos
deputy
distract
rug
craves
burns
writes
sovereignty
bosoms
beggars
tribute
mutiny
qualities
shadows
conclud
carries
reignier
owl
forsake
instantly
conditions
meantime
boots
disguise
wager
treachery
beguil
trifle
abhorr
pearl
doublet
adventure
convenient
nimble
phrase
ocean
coxcom
suggest
altogether
agrippa
ack
batter
cel
dst
dil
goss
german
hose
jes
lark
linger
mor
pest
pul
pop
ug
##sion
##ger
##master
##mark
##bers
##light
##father
threw
##osen
##oster
##ndower
##esp
##arius
shak
shade
stout
liken
livery
frost
rear
rece
enforc
defe
##stone
exer
orn
amends
fact
conjur
consequ
une
##ateful
likely
whereon
madman
scope
agree
diseas
somewh
##igent
flint
evermore
strat
commod
##ivity
slipp
preced
compar
contain
indign
putt
endur
crom
devour
impress
hourly
curt
afterward
mothers
trembl
forthwith
##ixenes
denmark
instance
instruction
burden
doubtful
recre
infant
terr
##acles
wonderful
approve
roses
softly
oppose
penit
direction
polixenes
heirs
keen
kneels
groom
limit
rebu
conqueror
sixth
insol
vanquish
neighbours
bedford
venture
complaint
iras
ministers
alexander
grievous
miseries
babes
porter
afflict
glendower
reproach
dowry
current
rebellion
society
sleeve
bottle
medicine
narrow
mantua
diomedes
voyage
trinculo
laurence
phebe
rugby
ugly
bul
cer
gn
hounds
il
jer
les
len
mould
nupt
path
peep
pierc
rar
rhe
rites
tars
vers
##ael
##avery
##sino
##ris
##ipt
##iades
##gen
##nicious
##vil
##bation
##bishop
##port
##inary
nod
whereto
wipe
##omf
became
mys
forms
its
enr
deform
##anders
trip
chiron
chosen
nept
goods
manage
upright
brid
orsino
amorous
lets
##feder
fawn
fabian
conv
converse
confeder
block
blaz
bonds
sed
works
plains
agre
poins
proclamation
strokes
offences
pernicious
deaths
slip
compound
contend
preserv
##liament
purg
execute
mistak
charms
sets
riches
belarius
fortunate
youngest
answers
resist
parent
parliament
passes
brab
backs
acts
feign
##ably
strict
nearer
##ibiades
careful
burial
comforts
recon
distance
ape
lads
explo
affright
sadness
fourteen
champ
##shire
surfeit
incens
salute
tales
##bray
throws
flattery
knocks
forehead
bowels
election
##ursions
philip
decay
continu
corioli
beneath
hunger
imagine
cuckoo
sensible
stabs
physician
guests
funeral
archbishop
florence
hinder
espec
fantast
ingrat
prodigal
mongst
ambassador
expedition
sacrifice
sinews
rousillon
mowbray
peasant
vulgar
alcibiades
juno
bargain
volsces
michael
piteous
entrance
acknow
likeness
cromwell
nuptial
tarsus
neptune
bach
ec
feed
hue
hare
ju
jot
lt
lun
mud
nav
om
ost
obt
pent
rut
roof
sust
tents
vast
vot
vass
wing
zounds
##ders
##dness
##ez
##ele
##ivers
##gre
##ney
##ples
##co
##cli
##wall
thin
thrift
##isp
##anks
##omin
inch
hedge
shin
shores
haw
hack
##led
notes
notwith
##alus
butter
enm
##rand
##raft
sugar
suitor
spark
negl
bru
amity
fav
convers
unman
canker
##umes
worms
##ico
marr
marsh
scandal
##ops
caps
cawd
leont
grim
grain
grieves
rogues
##elaus
dukes
afoot
armado
compare
fires
indiff
dearer
boyet
parson
humbl
bragg
rights
hush
backward
diet
diam
diest
assault
suffice
hangman
discord
mischance
lays
soundly
phoe
titles
cleon
murderous
touches
pupp
infl
infer
straw
gallows
drinks
gaoler
captains
constr
embass
extend
speeches
scorns
politic
starve
admit
admitt
elements
rebel
middle
departure
listen
robes
walter
riot
persuad
solicit
profession
punishment
alexand
ratcli
unkindness
greece
concerns
alban
superfl
saturninus
chastity
immediately
merrily
barbarous
scruple
estimation
dumain
bethink
miscar
scholar
divorce
endeavour
ingratitude
bachel
obtain
notwithstand
cawdor
leontes
indiffer
ratcliff
bully
cook
dain
dart
dors
dash
gap
hun
hates
ice
pir
rot
rip
ross
tie
##acious
##egr
##ob
##sin
##ril
##bon
##pers
##cock
##thren
offe
beau
##utch
##chery
medit
noter
##imo
##imony
stole
print
anoint
fram
##ardy
chin
##uellen
faction
knowest
bliss
boat
boar
scan
savour
flam
flame
flock
fluellen
pox
prover
heap
breeds
brethren
menelaus
moe
moder
adul
nightly
coats
##mph
cannon
meanest
presume
household
mistrust
attends
smoke
crook
imped
resem
brawl
patric
subst
surety
muster
persons
##iban
careless
intents
integr
musicians
murderers
prophe
bounds
skull
garment
##imely
fourth
venus
survey
surpris
division
regent
eaten
mocks
untimely
quarrels
achieve
opport
labours
invite
harmony
troubles
##gnant
broad
hideous
excursions
briefly
corner
cornwall
bondage
bolt
carriage
varlet
dismal
river
deserts
guiltless
nobler
strangers
affliction
ceremon
dissol
impatient
split
corporal
experience
innocence
liquor
ancestors
semblance
sufficient
meddle
perpetual
helicanus
marvellous
coxcomb
pestil
verses
indifferent
dainty
dorset
bone
balth
dion
dower
drows
fan
fem
fount
gun
hood
lur
latter
mum
ny
pang
pope
ring
rud
rab
ragg
sand
vig
##oft
##iard
##iot
##iction
##nes
##mission
##ux
##cip
##wart
##fast
##oubt
##isc
##isement
##ares
toad
tonight
##iner
nobody
beque
heinous
##asions
shoes
haven
##alty
butt
##ida
##amy
##order
fray
reap
defect
##verty
##rag
sung
trow
tresp
cheap
neat
manly
mankind
##unity
shel
moreover
blot
lovell
##inder
##icer
plan
alt
aloof
aloft
outrage
sails
level
flav
grove
poverty
abbey
awe
perd
perjury
robe
rocks
ado
##angers
commends
hasty
sweetest
##oult
male
slumber
afar
serving
complete
longav
mistook
harvest
lief
richer
confident
cram
fallen
treasons
retires
horror
farth
powerful
majest
judas
revenue
bald
countryman
provoke
ladder
frenchmen
watery
malcol
evans
embrac
approv
despise
legions
caliban
relish
simpl
milford
violence
volumn
destiny
fellowship
cruelty
frowns
vanity
stead
drift
wenches
expectation
holp
holid
##boys
bootless
extreme
maine
employment
audrey
alexas
feeble
baby
duncan
escape
sicinius
gonz
merciful
procure
religious
dissembl
##ophy
character
duties
description
reproof
filthy
cinna
history
exercise
consequence
somewhat
commodity
rheum
enrich
especially
sustain
enmity
marshal
alexandria
patricians
integrity
nymph
trespass
flavius
longaville
malcolm
balm
cull
cesar
crows
date
dangers
fow
hire
iach
lan
lame
lute
nigh
pem
ram
rue
##dly
##oqu
##non
##med
##vir
##vius
##hine
##cer
##yard
thereto
noon
whist
##vet
inn
infection
heal
haught
##itive
stake
stuck
stiff
##advent
##ales
lic
##aments
fro
ens
enl
speedy
##ardine
knavery
chest
choke
mantle
##unate
exact
sheets
##feu
##inguish
blank
swim
sweep
sex
mariana
plent
plag
dislike
laz
lafeu
abate
offers
desol
menas
perse
article
##endom
pledge
cob
##room
repeal
repeat
##lihood
purge
undergo
settl
consort
devis
devotion
restor
restore
parents
falcon
horrid
taunt
carr
carp
displ
corin
silk
silvius
sennet
purpos
obst
blessings
suppl
suppli
provok
rub
sights
trusty
waves
##upon
hotspur
suitors
summ
messengers
relent
penance
excellence
vernon
beginn
address
christendom
beastly
miles
famish
utmost
unwill
control
practis
philipp
safer
demands
shrie
transport
grossly
driven
sailors
delights
persuasion
tyrann
necessary
grandfather
debts
ashes
dwells
whispers
noblest
prophesy
purchas
ballad
finish
magic
fulvia
unseen
impatience
collect
injuries
multitude
coronation
bounteous
candle
correction
antiochus
moonshine
counsellor
bereft
manifest
barnardine
titania
defeat
precedent
mystery
brabant
acknowledge
rutland
phoebus
noterbury
bequeath
cesario
iachimo
pembroke
aut
cro
celia
casket
eli
eats
fert
gor
gam
gorge
lart
lime
mouse
muff
osw
pence
row
rig
rene
rope
sow
sire
silly
tu
vine
velve
##abl
##side
##ridge
##groom
##maid
##bit
##bol
##braid
##lot
##liness
##pes
##craft
##jou
thais
##ouder
##ories
##enor
##anor
whel
heed
heel
heigh
shoe
##etic
##ered
##urous
##imon
##iments
stink
stool
thisbe
priz
sober
dover
anjou
froth
##estial
rein
enchant
allay
spell
spot
##andra
locks
trad
chose
upbraid
brass
convert
unlike
univers
##ulation
blossom
##pper
##pple
likelihood
plight
plough
##ribe
##empl
lechery
quaint
##edly
descent
gentleness
roy
articles
errand
prays
partner
covet
##mpath
appeal
pregnant
contag
contempl
foolery
merch
indire
witt
charitable
guider
confin
crush
giant
reserv
curtain
humility
diff
assay
pleases
vizard
falsely
reasonable
returns
windows
entra
support
recount
ruth
puiss
minion
raw
surrey
reports
confession
divin
divid
boldly
vision
summon
battles
scarf
plainly
cowardly
counsels
verse
thirst
motive
mountains
piti
jests
stops
sympath
performance
patiently
lists
torches
shroud
rascals
degrees
deriv
derby
baseness
kinsmen
produce
tutor
witchcraft
epit
bridegroom
proceedings
determin
wonders
pedant
engag
statue
albany
gloves
##zabeth
inhab
ribs
coffin
nuncle
tiger
celestial
diseases
rebuke
parentage
vassal
superfluous
bachelor
drowsy
elizabeth
lartius
oswald
velvet
thaisa
bi
bour
bona
boult
ebb
fath
faster
fates
gage
lance
mast
oliver
pine
pipe
pomf
rings
si
sly
sans
tart
tire
taps
vau
vap
wet
wra
wakes
##ois
##say
##ranch
##get
##nish
##mas
##mish
##late
##lorn
##house
##kens
thurs
##eriff
##nday
##orus
##ester
##the
heath
sha
shap
shakes
shipp
shames
sheriff
forlorn
##itute
notorious
##terity
ascend
##adem
##ids
angl
revel
whatsoever
herd
##raction
alliance
span
spurs
loft
##ctors
exclaim
org
conceiv
enters
unth
unst
unsh
##ulch
arvir
worser
marble
alms
scold
##opt
##opher
ague
dislo
disorder
mustard
leather
lewd
theseus
quince
abomin
proves
stray
strings
##agus
##quenet
pert
perio
road
bloods
leaf
droop
aye
apply
antenor
compell
harp
attach
smother
confine
confidence
crim
crimes
beseem
restrain
##beit
welkin
valu
dial
helps
handsome
discre
breakfast
thousands
imit
cousins
intends
empire
revenges
entire
sickly
expense
leaden
angiers
burnt
requires
profound
profane
##bras
prett
relieve
crept
respects
julius
lacks
flatterer
nurs
feasts
vein
disgrac
cheerful
maker
viola
bastards
bowl
benvolio
occasions
syll
prosperity
storms
refus
visitation
dismay
succession
priests
topas
wolves
ventidius
envoy
challeng
changes
corruption
companions
fruitful
escalus
function
nobleness
joints
pedro
magn
ungent
jaquenet
saturnine
ambassadors
branches
accomplish
couple
scourge
warriors
homage
overthrow
style
revels
levi
infirmity
cudgel
enfranch
jesu
penitent
exploit
female
##adventure
guiderius
epitaph
fathom
pomfret
thursday
lofty
arviragus
jaquenetta
aust
afore
aqu
bor
bate
bail
bands
cities
eur
eun
egl
feeds
guts
hound
hides
kern
lung
mul
mates
puck
pounds
rou
race
russ
##ainder
##take
##rest
##iver
##mont
##lings
##here
##uary
##kins
##worth
##fold
##eration
theft
##ario
toe
##anmer
##inge
##inbras
whet
whir
wil
insp
##asar
shirt
halt
weal
states
##alo
##eems
reh
dedic
##geons
sums
sullen
chaf
nell
broth
ample
sheet
##ula
array
sequ
uses
outside
sap
sauce
clap
grav
##agon
gentry
serge
##quis
roll
moiety
adopt
##oughs
sweeter
dram
coal
slack
slanders
antic
nobleman
courses
##lier
hob
merr
fortinbras
truer
richly
highly
highest
worthless
worthiness
consist
cradle
cranmer
impart
##clos
accent
pleaseth
meets
tavern
assail
readiness
##ific
silken
strik
purple
instinct
instead
##ibly
capable
fiends
built
frenchman
sadly
livest
yields
princip
tenor
raz
malicious
region
talents
ache
simon
invit
stirs
harmless
wiser
resolute
##heard
starv
bells
mortality
limb
smallest
urs
avouch
avaunt
scarcely
##iculous
ridiculous
insult
ghosts
triumphant
threats
unpro
victorious
lamentable
bigger
squire
stomachs
chiefest
stafford
admirable
sicilia
mercury
bills
fifteen
trifles
balls
ranks
rags
religion
naughty
pillow
oppression
griff
causes
subdu
imprisonment
interpret
linen
applaud
subscribe
afterwards
unmanner
impediment
opportunity
balthasar
rabble
gonzalo
philippi
fertile
eunuch
lungs
aed
bide
bows
cu
cad
cele
dw
fut
fol
fence
file
gets
gav
games
gilt
jump
lull
mate
muse
nin
noses
oil
ober
pan
pind
pig
pud
patter
perem
rive
rape
sall
torn
toss
tub
vat
vit
vest
##awn
##eur
##oen
##onds
##til
##rop
##iven
##ique
##gu
##nel
##mbly
##val
##bear
##look
##pulch
##fellow
##esies
##arn
toys
tokens
##thorn
##inu
##inc
wicke
##recy
beam
being
hem
hew
mytil
##owder
shill
haut
mell
notable
asp
asunder
hiss
prate
prime
lily
anno
frant
fraught
##aine
reform
deli
##thern
##str
##stood
spott
##iles
tripp
chim
mangl
upward
bridge
amain
##antity
##antages
faul
unqu
unlo
unsp
blanch
arbit
boil
sext
sepulch
##icity
plenty
plots
scap
scars
scroll
##igation
clay
##ouns
lacke
quake
thinkest
norway
##quity
peruse
perdit
peradventure
foil
moan
adore
erp
##angle
parties
comment
##ivious
glow
##achio
meaner
worldly
composition
compact
wayward
mightily
witty
charges
harms
truce
belief
belmont
worthies
worthily
eloqu
besp
impud
impeach
resort
rests
parch
parle
parcel
hume
retir
patron
tabour
trag
trage
trod
assume
lux
lucet
homely
attended
misfort
##abella
shameful
happier
fights
secrecy
devilish
phoen
obsequ
murders
##eys
quicken
touchstone
bub
buff
apes
coldly
crab
cuts
surgeon
pastime
inconst
mockery
deeply
boldness
events
constancy
approbation
guarded
simp
damnation
cowardice
gladly
saints
privy
idly
idleness
commendations
losses
veil
broach
springs
vilely
churlish
papers
steals
lustre
libert
cornets
blemish
tribune
publish
studi
lychor
succor
approaches
mutual
practises
shrink
circle
decre
hatr
property
loathsome
holla
hunts
soothsay
##ocate
assured
square
habits
circumst
pisa
dunsin
weighty
hallow
heaviness
italian
observance
trojans
apprehension
bushy
keys
discharg
fulf
unlaw
scroop
declin
belongs
million
debate
trimm
latest
traveller
dolabella
beautiful
taper
feature
outlive
pilgrimage
beef
measur
philosophy
adrian
pursuit
ruffian
discipline
insolence
bulk
champion
fantastical
ecst
lunatic
diamond
proverb
prophecy
fountain
shelter
holiday
fowl
haughty
enlarge
shriek
renew
universal
indirect
shaft
disloyal
abominable
period
rouen
wilful
sergeant
simonides
ursula
celebr
gavest
oberon
pindarus
pattern
perempt
mytilene
hautboys
annoy
frantic
perdita
lucetta
lychorida
dunsinane
aem
bench
cim
ced
cush
ech
fer
fide
gad
gul
gains
hipp
ig
lasc
lane
leek
mute
nut
nath
omit
pant
riv
ranc
reek
sixt
tast
tardy
va
yard
##iors
##mur
##vail
##yza
thigh
thumb
##eres
##orp
toy
##omm
##rement
beads
##oward
##chas
meal
melo
##usions
##itan
##itiff
##urity
##imate
##ools
##seth
prim
##idents
dole
liar
anchor
enge
##rav
##anda
excess
orph
##ellus
unch
unru
unarm
##ingale
swoon
boister
sew
dido
madly
albeit
outst
caitiff
tween
clam
grac
##ickle
quantity
abject
project
##wny
brew
betro
perceiv
mole
adder
advert
duck
##ivion
covent
gloss
owner
compet
compul
##blood
presum
longs
remun
repl
##lict
shower
showers
indust
witches
harlot
attain
attorn
attire
underne
truant
peaceful
nativity
worthier
worthiest
crisp
curb
curious
restr
##alties
passions
welcom
fully
brav
brand
brazen
presents
accidents
rightful
meeting
tawny
diadem
traff
feats
banks
dispra
lawy
forgiven
happen
barr
##fortunate
void
furious
doubts
mete
metellus
distinguish
##ancies
proudest
april
pup
puff
cheese
gallants
cambridge
##shipp
gaol
captive
payment
waist
incur
regal
requit
fasten
talks
##acity
interim
interrupt
entreats
achiev
plucks
wretches
badge
##joy
##join
verily
dishes
wisest
judgments
motions
strengthen
lowly
cheerly
fills
excus
beards
woods
hurts
occup
tomorrow
volunt
songs
churchyard
protection
shrill
girls
dishonest
reigns
decius
insinu
transgress
drunkard
fleance
temples
drives
holiness
amazement
##board
compliment
extremes
##uba
uncertain
figures
irish
roots
derive
ashore
discovery
starts
egyptian
twelvemon
accusation
capital
arras
epil
admiration
dignities
hills
napkin
schoolmaster
languish
launce
pronounc
preferr
testimony
fantasy
sanctuary
injurious
wrestl
subdue
rumour
antique
wednes
assembly
dragon
obscure
warrior
oblivion
bankrupt
hecuba
bawdy
battery
gossip
ornament
stratage
##greg
negligence
embassy
offender
beaufort
pestilence
dionyza
lurk
pangs
altar
servingman
plagues
brabantio
##ablish
contemplation
tapster
eglamour
griffith
unmannerly
future
folks
chimney
soothsayer
ecstasy
peremptory
igno
lascivious
nathaniel
sixteen
unruly
underneath
twelvemonth
wednesday
bal
budge
cue
crew
dick
dally
ew
ely
fest
fist
fife
fancies
gest
gust
hart
hic
ken
nick
ou
oman
pip
rats
rages
rises
sess
sblood
tuck
vices
wan
wave
yare
##ae
##aver
##dea
##eius
##oil
##same
##rh
##rates
##ii
##mor
##mouth
##bain
##born
##bonius
##pit
##poc
##ually
##ky
##journ
##ism
##arf
tops
##once
##inat
##inence
##inance
wheres
shop
hag
##utt
mew
meek
withhold
steeds
##albain
##ention
frag
frenz
rele
ensue
ensu
sunder
spain
spher
spacious
##andon
##ilful
loins
chas
chances
chronic
chival
therewith
brim
##unction
exquis
ordain
concept
##ostrate
una
canop
howe
however
arrant
arrows
worshipp
##ics
marg
plants
scale
cab
ages
disper
disob
whoever
levy
flin
flames
quint
abst
abund
abod
abandon
proffer
progress
##tock
greatly
bree
permit
foh
roast
arts
adverse
##elm
##berry
##ighth
leagues
coil
##rog
##ossess
servilius
downright
compos
contriv
follies
hog
hoar
purses
merits
understood
smart
conflict
impl
parth
courtesies
draught
brag
treas
trebonius
educ
pac
pavil
peck
childish
actor
submit
monke
monmouth
husbandry
##inster
lightly
breathless
##ified
forgotten
##izel
denies
bars
barge
luciana
commander
commandment
##enerate
suns
musician
yestern
temperate
growth
comfortable
depose
airy
unclean
infancy
infamy
affair
dreamt
peto
gallia
minutes
venet
surm
pasture
waft
donalbain
incest
requir
questions
deeper
constrain
tenderness
personal
##score
guards
##nox
entreaty
speechless
calais
relief
reliev
penalty
lambs
hurl
idol
selfsame
miranda
ports
singing
##agger
element
eleanor
secretly
##odes
studies
midwife
sixp
contrad
mutius
importune
proofs
sorts
fishes
tyrrel
stockings
cases
pyr
british
wrathful
##ocation
imagin
maidenhead
cloudy
cords
dooms
smells
examine
executioner
chiefly
displeas
pandar
daggers
inclination
deceas
heavier
compassion
hymen
hypoc
domin
florentine
florizel
eager
##whelm
apparition
bags
bagot
shouts
##uggl
rescu
ingrateful
speedily
syracus
dissemble
moody
corpse
suprem
buds
latin
frailty
affords
thorns
designs
correct
inheritance
rode
applause
centre
mingl
mingle
wrinkl
receipt
recreant
gnaw
jerkin
lennox
braggart
hunter
pirates
adulter
##icero
simplicity
lazy
carrion
display
tyrannous
rowland
inhabit
bias
siward
crimson
syllable
ungentle
borachio
whirl
inspir
gravity
merriment
principal
sepulchre
phoenix
cimber
boisterous
betroth
coventry
remuneration
restraint
epilogue
frenzy
exquisite
disperse
disobed
yesternight
bath
bak
bout
cicero
dir
dit
dul
deed
deem
dirt
ditch
fad
gen
gear
gull
gash
hook
jar
jade
jades
larg
mard
mouns
nan
nail
pious
pile
palt
powder
rad
rout
size
tack
tullus
wav
wages
##de
##sm
##rie
##rons
##ium
##iences
##gard
##nam
##mand
##minster
##vis
##bes
##bable
##long
##lph
##ubs
##cies
##cile
##yr
##field
thwart
##orate
##estern
##arre
##enas
##enna
##inish
nom
wip
##red
beck
inches
ingen
##cends
shunn
meca
##itud
##ghan
##ghill
##imach
stare
stew
##sec
##adise
##alls
lick
##amis
herbs
goest
going
sulph
spies
spider
knell
lot
trot
trash
chop
chains
necks
goodman
mansion
orb
orator
shear
sheath
##feits
consec
##otent
uncon
unfortunate
##ulg
##olis
canon
swine
swif
arrog
boon
separ
usage
marcell
plum
wherewith
##ribly
greets
outr
sauc
##ptuous
quill
poll
poly
##edness
daylight
eyel
##agne
bret
##quer
##quess
erth
handle
##ithe
glories
contemn
prescri
remainder
reput
housewife
##liest
indent
betters
##derick
smack
smock
confus
devout
impose
curts
faithfully
parish
paragon
paradise
retain
tables
actors
suborn
submission
farm
sleepy
feathers
dispers
breathes
##ifies
disco
discern
goldsm
gett
denial
barb
senior
illy
signal
murmur
cryst
intr
horsemen
cleave
generation
generally
birnam
capacity
distill
distraction
buzz
demonst
dames
##itories
chok
pageant
text
fourscore
rapt
malign
surprise
incense
establish
buckl
englishman
constance
snake
calam
preposter
scarlet
damnable
plainness
weaker
defiance
invest
motley
woeful
flatterers
broils
bites
christen
wildly
beggary
stark
mirror
detain
detect
singular
poisonous
##quel
shipw
chooseth
midst
volsc
opinions
torments
##conbridge
montano
unfit
decree
geld
continent
blushes
cato
utterance
wealthy
triumphs
westminster
degenerate
britons
solemnity
needless
baser
basest
companies
frederick
covert
recovery
dunghill
pricks
greyh
cloy
digg
heavily
abhors
rewards
perilous
imperious
##where
preferment
statutes
sticks
assistance
unluck
procule
testament
pearls
sparrow
ordinary
crafty
conspiracy
tapers
revive
coffers
pigeons
succeed
adversaries
perfume
tickl
measures
trencher
exhib
copy
hecate
indignation
territories
cerimon
reconcil
reconcile
navarre
ostent
hawk
bruis
miscarry
flaminius
vigour
planet
frozen
plenteous
desolation
whelp
covetous
entrails
ruthless
puissant
wickedness
faulconbridge
sexton
misfortune
unlawful
traffic
pupil
voluntary
##rhus
chivalry
pavilion
pyrrhus
mardian
mounsieur
paltry
mecaenas
##imachus
swifter
marcellus
goldsmith
proculeius
aus
bau
cope
dall
dice
daint
dances
eth
gape
ginger
gasp
jaws
lys
louder
mam
nich
nig
os
pages
tough
vip
vail
vac
vicious
wagg
western
##ables
##dst
##done
##sbury
##resh
##rade
##me
##lets
##purn
##uld
##ugs
##jud
thund
##erds
##erog
##osy
##ater
##atory
##arino
##enny
##onna
##iners
##inction
wight
##omb
##omy
##omfort
beet
beadle
ini
shell
##uto
##che
##chan
##chers
fork
foret
##lend
issu
##irts
##itus
##itimate
##urus
itch
web
stem
aspir
##alms
prerog
soar
##allel
##amer
fru
froward
revell
enth
enow
enact
enrag
herne
##raign
##racious
gobb
spear
spaniel
sphere
knives
##ilities
chanc
chorus
uphold
##unct
exempt
amount
##earse
comedy
##ola
##olas
blister
blade
swan
sequel
marquess
plat
pless
plott
whereby
whereupon
madame
madmen
madonna
scra
##aker
greed
calend
sale
agent
disf
disaster
twin
led
clubs
##pton
flag
flaw
gray
grudge
northern
probable
heave
##ager
hearers
gentler
warr
wary
betide
perple
foam
moi
moist
ador
adorn
wrote
nightingale
plebe
sweeten
drench
coach
glance
sonnet
apple
##rovers
predom
precise
ante
armies
controvers
repute
##onso
attrib
truest
lively
smok
crop
crime
crutch
dieu
emulation
reserve
humorous
courts
courtiers
courtez
braken
treat
treble
edict
antonius
vienna
suffers
##ifully
yeoman
sounded
stately
security
nearest
phry
images
freeze
harder
cassandra
messina
generous
capon
provokes
distinct
distinction
expos
leader
demi
infants
streams
strait
pett
living
chambers
##shill
malady
surv
surly
##ront
##ronius
waits
confessor
incont
incorp
watchful
profan
salarino
evidence
appearance
snail
snuff
intercept
interchange
entreaties
pretence
calchas
calpurn
relate
takest
verity
monsters
sports
witnesses
sprite
offenders
beggarly
stealth
helenus
famine
spoils
model
tribe
bondman
syc
leonine
finely
argues
arguments
volume
##ovico
##olyta
contrive
ldst
towers
virgins
jealousies
refer
important
painter
riddle
geese
flee
requests
memor
member
amaze
tyrants
enjoin
gardiner
faintly
sola
debtor
slanderous
needle
publicly
rarely
shrewsbury
expressly
wreath
dotage
heralds
lodovico
different
abuses
appointment
##rehend
bewitch
allowance
floods
escap
temperance
hyper
pilot
strangeness
cherry
vexation
rashness
tortur
observation
rhymes
decline
humanity
shrewdly
gripe
choleric
globe
commonweal
sinew
wheels
sleeves
breadth
beauties
wedlock
obscur
alehouse
tumbl
tumult
augment
tickle
frankly
overthrown
centa
chatillon
philosopher
adriano
stumbl
chapel
diligence
pulse
receives
ornaments
factious
slippery
rarest
seduc
muddy
ominous
votre
bruise
influ
construe
ripen
moderate
resemble
substitute
ceremonies
perdition
cramm
farthest
volumnia
nymphs
whistle
licence
persever
cobwe
contagious
merchants
divinity
sympathy
vaughan
rehearse
dwarf
tubal
unquiet
lackey
eloquence
tragedy
simply
circumstances
cedar
fidele
gadshill
gulf
hippolyta
clamorous
compulsion
attorney
occupation
tucket
conception
cabin
flinty
education
sixpence
##riend
eyelids
illyria
crystal
calamity
ethi
lysimachus
nicholas
niggard
thunders
perplex
controversy
brakenbury
calpurnia
ara
bourn
bagg
boughs
dor
dane
eve
ecl
fard
fum
fel
foster
gore
gany
hir
hits
ic
jet
jig
jac
juggl
kites
kitch
lar
link
lass
loses
mire
map
nations
ot
oly
oper
pel
pith
rent
rite
reel
ster
tink
vaunt
ware
wins
##aud
##dges
##oa
##sues
##gory
##ns
##nance
##vid
##vation
##back
##lam
##pter
##cus
##yn
##fle
##fall
thaw
##ermen
##orter
##oric
##ena
##onus
##inies
whos
whips
##vels
##omenes
bees
beest
ine
injust
myr
##ases
##asph
shru
shrift
hay
hale
##etition
forfend
##lection
isid
issues
##uster
staves
##ked
##keley
##adel
pry
pranks
sojourn
##idity
doves
ligar
##omel
anch
anim
whatever
deject
herb
heretic
##races
##rages
gobl
goats
sunday
spill
spots
##ardo
knighth
##ilis
##ilts
chides
chaff
chann
atone
brat
brine
briers
oration
##antial
sheathe
conject
unfe
##ively
wasp
blasph
howsoever
arraign
severe
usher
mary
plate
alonso
scal
scri
greasy
gregory
caper
cauld
##emp
##ements
##igonus
lends
##ffrey
grapple
flo
flash
grin
grind
poisons
abb
abound
ability
eyne
##urnish
##fulness
hearken
perus
earls
wrench
wrangl
drugs
maim
jolly
anyth
cod
cog
glit
bearer
##robe
preach
precept
prelate
antigonus
compel
headstr
repetition
##swain
purity
indian
induce
chariot
queens
dearth
follower
harness
harfle
bestr
attaint
belie
confines
endow
consume
litter
resp
residence
passages
kindl
kindle
brake
braver
brands
valer
pease
seemeth
trace
travail
erect
overcame
overdone
carv
carl
carve
asses
assign
banners
hopeful
justify
##ifer
discard
misd
opens
sentine
advantages
strives
barber
lucullus
exceeds
intoler
cleomenes
propos
doubtless
fitter
fitness
provision
buz
buys
proudly
expir
cutt
sinful
camb
mines
minst
tenth
captives
wooer
salve
salique
havoc
##yster
construction
visor
untr
extemp
snout
pretend
basely
legate
opposition
relation
fetter
traitorous
lamp
widows
wretchedness
verd
verges
undes
judges
idiot
commendation
broil
sprung
christians
wilder
##emption
starvel
forego
cheerfully
bellario
elect
seals
easier
worships
wooden
woodcock
unwh
breasts
forswore
mutton
roundly
virgilia
philomel
redemption
counterp
montjoy
unhallow
shepherds
quietly
bitterly
girdle
imports
importun
usurer
costly
tarqu
geffrey
seventh
continual
proclaims
citizen
cater
courageous
equiv
members
necessities
unpre
odious
extremest
casement
faints
solus
briton
uncles
bishops
irre
lamentation
environ
accordingly
basilis
cordial
unborn
particulars
gratify
guiltiness
affects
incline
disdainful
mildly
martial
porp
earnestly
daunt
domest
swells
cherub
engine
tiber
climate
magist
ravenspur
slightly
dissension
bandy
##flow
sparks
glean
ordinance
ordnance
nicely
greekish
expedient
multitud
haunts
poetry
rebellious
accompany
coronet
frett
perfections
rusty
characters
adversary
interpre
berkeley
credulous
tunis
reveal
wrinkles
subscrib
thoroughly
stumble
spectacle
morsel
frosty
strato
comparisons
impression
curtains
insolent
complaints
confederates
blaze
mistaken
continuance
juice
navy
favor
conversation
puppet
inferior
admittance
riotous
boatswain
modern
volumnius
lantern
##mede
summons
gorgeous
tartar
imitate
entirely
prettiest
austria
dedicate
brothel
cups
pudd
delivers
inconstant
fulfill
adriana
echo
forgiveness
ignoble
balance
wheresoe
therewithal
quintus
abode
venetian
doomsday
ingenious
polyd
bretagne
curtsy
bauble
iniquity
calendar
plebeians
incorporate
baggage
ganymede
olymp
injustice
isidore
ligarius
knighthood
blasphem
cauldron
headstrong
harfleur
intolerable
ravenspurgh
ae
aunch
bower
cott
dan
dast
duteous
ege
fickle
gay
gem
hip
hint
hoop
jour
jars
kick
kite
lous
mi
nost
oo
oyster
pall
pag
pau
pelt
rook
rave
range
rides
sams
teem
tilt
vary
vale
wage
yawn
##eon
##oise
##oons
##rat
##rine
##rors
##ibe
##nis
##my
##mber
##mbles
##bbles
##hire
##picious
##uge
##cass
##cund
##while
##jure
thal
thump
##erial
##osity
##esse
##isle
##isome
##enu
##enish
toast
topp
toads
##onge
##anim
##inces
whale
##rell
##reus
insc
shock
shuff
##cham
##charg
forer
mechan
isis
##ird
##itary
##itaine
##urse
##urbs
stag
stings
stalk
stint
stony
prose
##idam
doit
doct
livers
##ampton
ann
anat
anth
enroll
deity
dealt
herr
herod
##rave
##geal
thyreus
goat
spade
spices
knots
lopp
chant
chick
chuck
broo
brood
lett
fails
conrade
congeal
heredit
unus
unable
uncl
unple
unsc
unrest
canidius
sways
##uman
aright
arrow
##amed
sect
seign
seasons
##ically
mariners
plaint
whereat
##rian
##rious
##rives
alm
scy
scab
scald
scales
sconce
##aken
disclos
musty
twig
whoe
lect
speaker
speakest
clip
clout
clime
clog
club
hearty
graft
grapes
flute
quot
gramer
progen
timeless
gentles
warp
foils
erg
erst
erlook
erwhelm
##elius
handl
duly
leaps
hasten
sweets
drove
mace
jocund
coven
coals
coffer
glim
glister
glamis
slips
servile
contains
controll
presage
remn
keepers
hoist
hovel
fortnight
##ensive
lieu
attent
guid
guides
smith
smelt
confounds
elves
consp
died
tongu
imposition
cures
curio
parr
parl
courtship
drab
trembles
accost
eyeb
doubly
righteous
taurus
tract
overcome
overtake
overheard
suburbs
carn
carcass
pleased
attending
thankfully
breaths
discomfort
misg
misbe
miscon
maidens
advocate
hitherto
hitherward
lastly
musk
lucre
##ibel
throughly
carefully
lesson
palate
bale
cleft
suppress
propose
depends
fouler
##ourably
##ompass
castles
dogg
skip
skins
skirm
deme
angle
saddle
certainty
satan
method
cheat
cheques
##shine
surge
deliverance
hellish
regions
profits
estates
buckram
grounds
marching
embark
extort
extenu
quarrell
revengeful
interr
straightway
legitimate
shorten
penet
feels
crick
##askets
moonlight
defil
creation
harmful
verb
verge
teaches
iden
commendable
broker
lowest
sprites
hammer
##ofern
##ittance
battlements
crosses
passionate
violets
limits
bastardy
corners
closely
secretary
##rament
orderly
formal
fresher
freshly
sorcer
athwart
healthful
wisdoms
solely
received
posts
##olycus
mutinous
qualify
jacks
shrunk
sacrament
bitterness
gird
painful
usurper
decrees
owen
forsook
steer
stepp
sailor
bedfellow
bedlam
campeius
utterly
uttermost
equally
holes
holofern
posterity
claims
greetings
uncivil
glasses
audacious
givest
irons
bigot
fondly
remedies
oxen
undertak
gratis
halter
dotes
befits
combine
bewray
arrive
functions
firmly
martius
porridge
dawn
eagles
pictures
rules
objects
pedl
apparell
lengthen
ungracious
forfeiture
censur
rushes
superst
unlook
waxen
##ecary
clergy
massac
chastisement
unmatch
advancement
rejoic
debat
splitt
blasts
multip
##zzl
antium
coupl
inhuman
assembl
assemble
dukedoms
garlands
prattle
hatches
pikes
liquid
adversity
clamours
tigers
turkish
spectacles
suggestion
popular
comparison
curtis
recreation
ceres
lenity
bridal
confederate
blazon
negligent
endeavours
pirate
savours
dissolve
planets
majestical
corinth
autolycus
cropp
royally
vizards
thirsty
bourdea
organ
mustardse
discreet
aquitaine
europe
sequent
hobby
aedile
gamester
shillings
mellow
impudent
parchment
bubble
aemilius
rivals
industry
dispraise
lawyer
transgression
stratagem
ewes
gesture
##borne
spheres
chronicle
canopy
abundance
disobedience
radiant
outrun
barbary
malignant
shipwre
prerogative
fruits
gobbo
courtezan
fleece
influence
cobweb
jacob
glitter
bestride
valeria
carlisle
misdoubt
minstrels
unwholesome
tarquin
porpentine
domestic
aunchient
egeus
lousy
thaliard
##chamber
doctrine
hereditary
unpleas
skirmish
holofernes
bourdeaux
ave
bern
cust
cart
cate
civ
cows
cats
cuff
dard
dive
daff
eb
eke
eff
easter
fid
fust
fang
gy
hoot
hilts
james
lour
lud
lump
lances
ment
oun
pend
pins
rang
raught
rival
sou
tatter
tew
tides
tues
tinct
tithe
vag
via
yor
##di
##dur
##eb
##eks
##oves
##off
##occ
##ture
##rite
##ross
##ienc
##iency
##num
##mid
##mother
##mary
##minate
##metic
##lves
##pable
##penny
##ugg
##cere
##cry
##ye
##yton
##wal
##wood
##wls
##wark
##water
##face
##foot
thames
threes
##erity
##erio
##osp
##nders
##orax
##enter
tot
today
##thage
##thino
##ani
nov
nodd
##omen
beach
inve
##cels
##leuc
mead
medl
ish
##irch
##usale
##iture
##itution
weaver
stam
station
stable
stif
ast
aston
butchers
prouder
sot
##entious
##entimes
doe
doctors
liable
liars
fry
frog
realms
enven
enclos
dex
deign
##ourt
##andise
##ighty
##ightly
knavish
logs
triv
trades
chew
nether
thereon
thereupon
upper
bran
extern
exche
amp
amiable
##eller
##ellows
shed
##feminate
factions
congreg
unad
unity
unsw
ungr
unlock
blots
swe
swarm
swagger
swoons
arith
lovel
seats
selves
seyton
seleuc
##icat
##icial
plume
madest
alice
scare
scots
scapes
##opl
##aks
grease
cage
disb
disclaim
dissu
somebody
twink
##igm
lecher
timorous
clipp
##ounce
##idel
honourably
graze
flay
flows
quir
##ised
abides
abbot
normand
probation
strains
awry
##agate
descends
betake
fog
robs
monday
artific
ert
ergo
ertake
wren
wrangle
##angu
##berate
##berries
partake
partial
commun
fearfully
##reech
##apable
##apolis
drudge
coy
copper
sloth
appell
appli
brotherhood
downfall
contam
##blossom
mightiest
remote
repli
replete
reprehend
quell
puritan
mermaid
india
##ksbury
graceful
charter
##ensions
harb
highway
thron
confisc
endless
devot
counts
besm
besiege
##asonable
curl
player
paramour
parallel
courtly
dragg
womanish
womanhood
brags
bravery
treads
retort
elsewhere
threefold
peal
pecul
pepper
##ulties
horribly
childhood
trail
travels
trodden
subt
cargo
carthage
luce
lucy
lugg
wrongfully
lightens
reading
vict
viands
earthy
earthqu
attendance
dispense
weari
lawless
misl
mispr
##aby
##ability
used
shameless
truths
striv
wiltshire
honestly
commanded
ills
illust
obdur
excels
##ashful
throughout
darken
oftentimes
sunshine
claw
horseback
spiritual
hardy
palaces
strongest
musical
winters
gloucestershire
propert
sicken
depth
recoil
##ipher
distrust
workman
rubb
expost
expound
boundless
dogberry
skies
skipp
skilful
crav
infr
infall
sinn
garb
angus
anguish
tends
generals
gallop
soldiership
contention
colt
raiment
moneys
delays
jewry
jeweller
regiment
wool
wooes
wooers
salanio
salutation
salerio
havior
buckle
changel
##overn
untie
emboss
exton
quarters
snug
intercess
soften
##ixture
penn
scarus
scornful
laughs
ambush
direful
ides
darkly
##heads
churl
wildness
miracles
portly
portion
lioness
admire
macmor
family
fashions
##azz
mortals
fingres
cornelius
effeminate
eleph
acquit
sores
tribut
syria
wheat
encompass
judgement
citadel
qualifi
philostrate
churchman
churchmen
safest
refresh
hug
washes
quietness
brooks
circl
hermit
conclusions
imminent
hopeless
carrier
carriages
ridd
mannerly
owest
vari
thunderbol
translate
continues
fled
flew
temporal
melun
driv
bedchamber
bode
fishermen
consideration
ghostly
clothe
ventures
threatens
rascally
hapless
unpe
solace
repentance
turks
unsat
unset
rosemary
solemnly
weighs
concord
conveyance
reverent
wantonness
physicians
tailors
babbl
hidden
armourer
differences
lineal
regards
befal
befriend
epidam
waken
aliena
mildness
despiteful
benefits
hymn
martyr
strangl
packet
prolong
impossib
mischiefs
engage
complexions
ravenous
wasteful
pockets
hinds
conjunction
alteration
serpents
religiously
eternity
testify
robbers
intellect
resolved
bonf
bonny
bonnet
crowd
prodigious
mature
declare
spurr
grecians
privileg
millions
behead
behaviors
wrestle
wrestler
perpend
ruminate
thorny
dolphin
conspirators
stephen
bountiful
merrier
helmet
peasants
ribb
forester
foresee
loaden
alcides
peerless
dutch
tumble
perfum
pursuiv
august
unjustly
deceitful
cudgell
eggs
masque
trenches
manifold
pursues
ess
esqu
bracelet
disciplines
gossips
uneven
instructions
grooms
jerusale
convoy
omitt
ostler
pentapolis
hawthorn
##ledg
humbleness
diamonds
sufficeth
inflam
constraint
miscarri
darts
offends
adultery
ceremonious
pestilent
sandy
vigil
lanthorn
licio
ensign
desolate
taunts
obstinate
summers
autumn
gorg
muffl
spotless
contagion
merchandise
bourbon
vapour
organs
dialogue
discredit
magnanim
kerns
cadwal
lullaby
panthino
vitae
unspeak
tragic
tragical
luxury
obsequies
liberties
huntsman
indirectly
cushion
rancour
melody
primr
engender
orphans
welcomes
requital
pipes
session
release
unacc
breeches
parthia
monkey
contradict
syracusian
supreme
sulphurous
lottery
consecrate
discovers
preposterous
abhorson
ostentation
dalliance
platform
disfig
phryg
distinctly
pettico
incontinent
sycorax
centaur
ethiope
eclip
fardel
kitchen
myrmid
channel
abbess
precepts
peaseblossom
sentinels
cambio
wilderness
multitudes
interpreter
olympus
aegeon
samson
forerun
brooch
unclasp
seigneur
almighty
conspire
baleful
pedlar
shipwreck
bernardo
cowsl
dardan
tewksbury
tuesday
astonish
trivial
ungrateful
arithmetic
seleucus
normandy
artificial
peculiar
obdurate
macmorris
epidamnum
jerusalem
aven
bits
bathe
cain
cot
cough
cret
cash
ceas
caskets
dus
dank
daniel
daws
dazz
elys
fery
fenc
gum
gig
gud
gins
genius
hats
hoof
ix
icy
ker
loo
lee
lard
ling
lash
mit
mall
mand
moss
mix
nile
nilus
nunn
neap
needy
pon
ply
pell
pander
pities
pool
rop
rates
rav
rider
rails
ramp
sce
sard
surn
siz
til
testy
tunes
tallow
vall
vil
vic
wart
xi
yew
##ah
##aeus
##actions
##dious
##dler
##diction
##obus
##spr
##tis
##tim
##rent
##ration
##iw
##gom
##mers
##miss
##vie
##bun
##bber
##hand
##hement
##pill
##press
##piece
##uity
##ugn
##cal
##cast
##cap
##cils
##cod
##kers
##wink
##full
##zes
theat
thetis
##attl
##llor
##isander
##arage
##inant
##inher
whin
whipt
wive
##reth
##reet
##reds
shorter
haps
hagg
##eta
##etoric
##utish
##utton
##cheap
forn
forres
##lead
meals
##iti
##itat
##itation
##urious
##urable
##teries
##terior
##ims
##ooty
wease
weird
weeks
stall
sting
stains
stung
stairs
##keep
butts
button
prent
prud
prunes
soe
soever
##entford
##iders
doff
willough
rely
reft
revers
engr
enkind
deiph
herds
heresy
##rable
goth
sund
allies
##stock
spi
spin
spart
spout
##eable
log
loos
trudge
trunch
chaps
##uel
upli
brick
brist
brier
brush
bruit
bristol
bribe
brutish
brentford
exil
orange
orbs
##illius
amber
cong
conn
cony
conjoin
##eary
unv
unite
thanes
##ulent
##ulph
##oln
##olfe
blad
blab
blesse
canary
cancel
##venal
swing
swoln
howsoe
seeds
##umps
arden
loved
boats
semp
sevent
usual
marian
plaster
plack
pluto
whereas
madd
madcap
##rip
##riz
alisander
scor
scout
scoff
screech
cav
caves
caution
saves
agony
agrees
aginc
##ortions
disinher
wholly
##igate
leth
leas
lethe
timber
clad
claps
closes
clasp
clitus
##ffeta
lag
lace
laud
##pture
graver
flax
quart
quail
quond
grud
grasp
poise
abridge
norman
##ipotent
##tole
##ists
heaps
stride
eyeless
awful
aweary
##agre
offspr
descry
roars
roger
ersw
ersh
erbear
wring
##berd
##berg
##berds
dug
dues
partners
commence
plea
leaven
hastily
sweetness
##ivo
drug
maw
mach
maced
coeur
slily
appertain
appele
##rove
prec
prede
antip
namely
##blind
headlong
eyesight
mightier
longest
begs
begotten
remiss
cours
poorly
poorest
repul
hover
hoard
mercil
putter
##phos
bestrid
attir
guile
richest
lived
thresh
elsin
crust
devices
gibb
countries
eminent
eminence
beset
impious
imputation
resides
mistresses
parcels
humane
passeng
kinder
brach
brawls
village
values
accout
accents
accustom
paces
seeming
horrors
taffeta
overlook
overborne
##weigh
carbun
monk
dregs
luke
lightness
homeward
bane
justices
dispossess
discuss
discomf
pardons
breaker
misus
misuse
##about
##abouts
sentenc
sentences
strip
barks
barons
lucifer
rung
runaw
instances
commanders
sawest
drawer
career
voc
windy
lessen
empery
promont
hardness
pals
palpable
halfpenny
beaver
supple
##ieties
proportions
depriv
toucheth
metaph
recan
recall
fitly
providence
provinces
bug
serviceable
apoth
rubs
expose
expert
colder
skirts
damsel
craz
craven
infus
sinister
sincer
sincere
pageants
affirm
soonest
galleys
minola
venison
tenant
gaw
gaud
captivity
writers
openly
across
something
register
mocker
fastolfe
salvation
bolder
evident
englishmen
tenderly
marches
extra
##bric
sumptuous
aches
specul
pense
penury
lamps
laments
widower
defl
defile
cream
##joint
invites
undoubt
directions
mote
chrish
flatteries
mounts
severn
officious
military
admon
admits
excellently
bellow
##erdon
lustful
##isfi
safegu
groves
violet
limp
prospect
bleak
bleeds
sharper
syno
chancellor
bolts
encourage
argu
voltim
philario
reflection
refuge
shrine
vainly
unfurnish
target
owls
varrius
variable
varnish
inside
transl
drunkards
flea
vanities
authors
tempor
forbids
forbidden
grossness
shepherdess
strucken
deservings
bodes
delightful
embracements
benediction
swiftly
persuades
postern
amazon
puny
durance
encounters
enjoys
necessaries
odours
forestall
privately
authorities
revolts
turb
turf
uncover
professes
audit
renounce
irks
exceptions
potion
potency
imaginary
protestation
solemniz
ashamed
rhodes
rhetoric
basis
customary
shuts
grievously
forbearance
wreak
gowns
halberds
examin
examples
dungeon
formerly
lineaments
accusers
accusations
warmth
creditors
pandulph
pricket
cloven
cloister
epic
epith
wakest
frights
admiral
vouchsaf
napkins
sorely
capulets
aims
##actors
december
heaviest
firmament
ruinous
constantly
unkindly
infectious
strangle
confirmation
sicily
imperfect
imperfection
prevention
aptly
dews
dispositions
ruler
conquerors
source
eastcheap
reckless
trifl
attempts
henceforward
eighteen
finer
finest
builds
southwell
likest
albion
francisco
acceptance
nerves
dissolute
desirous
robbery
consuls
imprim
bullets
dimm
dimin
securely
shoots
reprove
nephews
dowager
sanctity
breeder
currents
welshman
discontents
shifts
errors
petitions
increas
whitmore
sociable
detestable
sacrifices
##zzle
accompani
travellers
frets
nonny
dolour
spurns
arrival
monarchs
exceedingly
reviv
innocency
vulcan
foresaid
dragons
pennyworth
berries
obligation
bethought
outlaws
reprieve
augur
digestion
creditor
scholars
levity
thankfulness
distemperat
infirmities
masqu
masks
nettle
nettles
exhal
consumm
clapper
bawds
disguised
celerity
diligent
germany
pulpit
populous
unex
indignity
terrors
penitence
gnats
ilion
convince
preservation
purgation
exploits
fantastic
juvenal
votar
married
puppy
meditation
resembl
prophecies
surveyor
dissolv
gunner
hoodwink
##ragon
outrageous
servingmen
ensues
chests
exactly
carpenter
supplant
supplication
suppliant
unwillingly
quaintly
royalties
puissance
vapours
spaniard
exclaims
unthrift
challenger
enfranchisement
austere
aqua
russian
unprof
unprovid
aediles
ninth
vestal
reformation
arbitrement
erpingham
bespeak
bespoke
obsequious
celebrate
cushions
melodious
engenders
presumption
brandish
meteors
insinuate
festival
gusts
kennel
oui
abstract
implore
treasury
idolat
hypocrite
dominions
dirty
dulcet
tackle
unconst
arrogance
quillets
erthrown
demonstrate
volscian
greyhound
unlucky
exhibition
auspicious
mamillius
osric
beetle
foretell
treaty
survive
hyperion
tinker
unfeign
respite
verdict
undeserv
caterpill
equivoc
magistrates
cottage
danish
dastard
ooze
pauca
unusual
twigs
parrot
tractable
lucrece
superstitious
massacre
catech
civility
eastern
ounce
medlar
stamps
envenom
external
exchequer
appellant
confiscate
earthquake
intercession
elephant
unsatisfi
unsettl
magnanimous
myrmidons
dusky
elysium
nunnery
neapol
##missive
theatre
weasel
willoughby
engross
deiphobus
truncheon
uplift
sempronius
seventeen
agincourt
disinherit
quondam
macedon
merciless
elsinore
promontory
apothecary
sincerity
safeguard
voltimand
ace
ald
aery
bil
bust
bum
bier
bashful
cert
cakes
certes
cote
cools
eu
eel
egreg
fen
fines
fann
fester
gin
gal
gout
goot
hest
hive
hies
hild
ili
jur
keel
lath
lone
leak
lout
lisp
lids
mish
mice
mince
mint
mickle
nipp
oily
oats
pas
pep
piety
ptole
rood
rial
rays
rams
sam
sib
sinks
sangu
tas
tet
tour
tires
ul
ump
vom
vult
vantages
wards
zealous
##dame
##dains
##eer
##ege
##ext
##rom
##rall
##roof
##romach
##iat
##iens
##iory
##iars
##iots
##iards
##ga
##gotten
##mong
##vils
##bble
##burn
##bia
##bures
##lin
##las
##lic
##ham
##pipe
##uble
##upp
##cas
##cles
##cont
##cension
##kest
##wor
##wind
##zel
##zwater
thrac
##erce
##erver
##oured
##osh
##orm
##ority
##ato
##llity
andromach
##arl
##arily
tool
##onet
##inor
##inter
nods
noisome
whoop
##reant
##render
##rehe
bead
beli
inj
incess
hemp
hedges
##asus
##asies
##owick
shent
shone
shove
thatch
##chy
forge
meg
meads
meagre
##urd
##urre
weed
stou
stal
stoops
ascension
##alion
buttock
pridge
prostrate
soph
##allows
doers
doig
doings
lione
willing
anew
##ordinary
frid
fraud
recept
reyn
ense
##ieg
##ieth
##ractions
goal
sues
sucks
spits
spilt
spiders
##iless
lob
loll
loam
logg
tram
trains
trophy
chal
chink
chatter
chron
chairs
chafe
choughs
lordly
nevils
##astly
mann
upro
brib
britt
##unge
##unto
orisons
##illery
amiens
coming
compt
factor
convent
##eart
comely
union
unne
unpr
unaw
##olt
##olog
blam
blench
swallows
##umny
argue
arragon
sayings
##inders
sem
##ppery
marrow
plumes
plunge
wherever
##rig
##rick
##river
scre
scrib
scouts
outrages
outface
caut
cavil
saith
disqu
disli
disdains
##areil
lease
leans
timandra
##icet
clink
clod
clutch
##ounc
lac
lave
laps
honne
flown
flap
flats
flung
qui
quote
quittance
grate
poict
abort
abrah
abilities
tellus
##agant
##agues
timely
##astery
hearer
seriously
betime
##qual
##quent
perch
perils
earldom
fairs
moans
artillery
adds
adjud
erflow
wrung
masterly
handmaid
bloodless
##acks
partis
commotion
##ighter
councils
drain
maz
mail
macc
jollity
cocks
##eph
standard
standers
cannons
slough
slime
slumb
slavish
appeas
pref
prejud
afric
##ache
downward
##bler
presages
headless
mightiness
begone
begets
noblemen
courser
repay
repast
repaid
purest
purblind
indies
daub
##uckle
graceless
##orship
fortitude
##ensible
bestows
sleek
peacock
attest
attract
stillness
smear
smote
everyth
thrall
thrill
confir
confront
elinor
consult
consents
cres
crouch
gib
giver
gibes
besieg
impos
impiety
curer
playfellow
faiths
parado
kinds
brawn
brandon
##close
validity
edifi
pav
paus
index
patr
peg
husks
divert
trap
active
overween
overboard
overture
carbon
monuments
monastery
lubber
fees
fealty
banner
victors
disput
dispute
disprop
disparage
camel
mispris
mislead
##abaeus
busi
silenc
stripp
seconds
denis
denny
denied
nearly
senator
pha
phar
##avour
##rup
##ruis
install
signieur
youths
excel
darl
judicious
talkest
##nerable
furr
provender
palter
palates
revenues
entice
bac
winn
winner
sorrowful
comfortless
businesses
deputation
foundation
foulness
fitzwater
cape
capar
distil
distant
distaff
distrib
sisterhood
apish
apolog
rugg
footman
expire
expel
desired
airs
damask
cracks
crawl
choos
garg
garnish
garlic
affable
affront
team
straws
cheval
gallus
gallery
gallops
graciously
camps
minc
minions
beholders
tennis
favourites
raze
knightly
mortifi
surg
surges
surrender
blacker
captiv
writing
paste
waver
acorn
incite
incomp
incision
incapable
watches
esteems
##icester
deepest
##aculate
morning
changed
visible
untun
untaught
embow
extent
extol
sneak
snakes
snares
approves
subjection
intervie
guardian
valiantly
legg
calumn
calumny
simples
hairy
feelingly
cripple
weakest
define
deface
defac
thirteen
hurly
hostile
mots
motives
poland
##gniz
gotten
mounteb
proceeds
strengths
vehement
adders
lowliness
spring
consciences
christopher
disgraces
understands
##heath
churches
makers
singly
belli
##azar
excrement
groat
violate
spoon
possessions
bleat
utters
satisfied
worshipful
urch
healths
forgett
encamp
argosy
midway
duller
posture
births
birthright
savag
contrar
destinies
mutter
mutually
##aldo
virtuously
philot
yearly
redoubt
montagues
sched
schools
forwardness
stories
refrain
importance
importunate
immaculate
dishonourable
usurers
tarri
tarpe
clocks
forsaken
transpar
conceits
ghastly
pinion
riots
successful
roughly
grosser
properly
clearly
benedict
swiftest
holmed
positive
loathe
loathes
tyrus
venturous
##boy
westward
unpar
prepared
turke
turtle
turtles
##ubber
rudely
unsk
unsure
barefoot
figur
iris
exception
ransack
derog
derision
basin
habil
mournful
rattl
unbur
unbruis
grievance
produc
desperately
freer
tutors
heraldry
lodges
lodowick
examination
ducat
executioners
faculties
abused
combin
slowly
dye
digress
tempts
escapes
gentlewomen
determination
pours
thicket
jointure
conferr
prophes
files
##cription
whoremaster
strangest
furniture
retirement
violently
cypress
afflictions
billow
dumbness
##adoes
wormwood
modestly
ballads
ungovern
buildings
ravens
southampton
islanders
fulness
fulsome
desirest
inventory
creeps
olive
pillage
pillars
ingrate
enforcement
unseal
clerks
grumbl
suspicious
matron
material
mongrel
massy
taints
vessels
##flies
chastise
unmeet
unmask
orders
sauf
burthens
momentary
inquir
currish
welshmen
instructs
troublous
combatants
oaks
adventurous
sacrific
lucky
wardrobe
convenience
villanies
subdues
conspirator
monarchy
bounties
couples
candles
pulls
revoke
experienc
running
innocents
obscene
cloaks
venomous
estimate
ancestor
homic
patches
perfid
transformation
prophetic
risen
shamest
shuns
meddl
counsellors
throngs
divorc
snatches
cinque
helicane
taxation
stumps
spectators
procession
prompts
concludes
beguiles
conveniently
germans
jester
conjurer
paths
##risy
deformity
triple
bridle
confederacy
blocks
affrights
lunacy
vasty
##cox
thrifty
sparkl
discords
embassage
hunters
meditat
proverbs
carelessly
troublesome
indifferently
rudeness
defects
defective
majesties
simpleness
extremely
rambures
blanket
plagu
falconbridge
magician
crocod
gamut
gambol
rigg
tuft
vineyard
heedful
prizes
spells
traduc
blossoms
reservation
entrap
scarfs
sympathize
vaux
wrap
wrapp
heathen
anglois
unthank
perturb
prettily
nursery
magnific
enfranchis
rehears
rivet
vesture
aspire
deliberate
unloose
unspott
arbitrate
luxurious
buffet
buffets
inconstancy
libertine
hallowmas
fulfil
enlargement
celebration
annoyance
aemilia
gainsay
rancorous
##ommod
outstretch
advertis
competitors
presumptuous
replies
disprais
lawyers
gaolers
stratagems
releas
unapt
margent
margery
hogsh
hoarse
monkeys
uncleanly
incestuous
contradiction
hypocrisy
supremacy
whirlwind
genoa
gashes
larger
bucklers
volscians
greyhounds
unluckily
exhibit
vacan
enthron
enthrall
greedy
predominant
precisely
attribute
spritely
reference
dwarfish
arabia
operation
whosoe
anchors
animals
goblins
float
codpiece
extempore
counterpoise
unprepar
polydore
jourdain
pagan
shuffl
annual
anthony
lecture
gramercy
progeny
remnant
attentive
parlous
misconst
demean
extenuate
penetrate
crickets
multiply
gyves
pendent
vagab
yorks
##ospitable
dexterity
unadvis
sweats
dissuade
contaminat
besmear
luggage
misprision
expostulate
infringe
infallible
tributary
riddles
thunderbolt
bonfires
dutchman
augustus
esquire
unspeakable
primrose
unaccustom
disfigure
petticoat
cowslip
crete
cashier
leeks
predecess
antipodes
repulse
threshold
discomfit
gaudy
extraordinary
deflower
synod
imprimis
distemperature
unprofitable
idolatry
caterpillars
neapolitan
euph
ilium
pepin
rialto
siby
touraine
##monger
thracian
andromache
##rehends
incessant
doigts
lionel
reynaldo
chronicles
brittany
unawares
honneur
poictiers
abraham
adjudg
maccabaeus
paradox
apology
interview
tarpeian
transparent
holmedon
crocodile
aes
bang
bough
borough
bunch
booty
ce
core
cake
cive
cub
cumberland
cicat
cipher
dere
dong
dip
datch
dates
dav
diable
ell
ean
ewe
eaves
eton
fou
fed
fade
flex
fume
ferv
fuel
fighter
gurn
gab
gips
gnat
hight
hous
hull
hann
hips
ip
ild
ivy
jay
jad
jangl
jamy
jumps
jeph
lain
lake
lank
mu
mord
mun
mol
mau
moul
malt
mash
mule
munch
mops
mention
nake
nic
omn
ps
pish
piss
pew
pint
panc
pont
punk
pines
position
pots
pension
pester
ray
rake
rift
rote
sar
sieve
sift
sandal
tere
tore
tish
tip
tug
tangle
tattl
vere
vener
vines
videl
wad
wand
xii
yell
yards
##ai
##aos
##dest
##dia
##dient
##eld
##eck
##eers
##ender
##ody
##odd
##set
##sum
##ties
##ral
##rity
##rcan
##ien
##iosity
##gone
##nut
##nets
##mo
##min
##met
##vous
##vial
##vitable
##bard
##bell
##brand
##low
##lay
##ling
##lude
##lots
##lips
##pre
##pole
##pareil
##uard
##core
##cises
##kward
##yon
##yards
##war
##wack
##woman
##fy
##fter
##fly
##ffe
##fare
##fathers
##fellows
thrives
thwack
##erves
##erals
##erga
##oubl
##ouds
##orc
##oras
##att
##atives
##esper
##lley
##isk
##isse
##arable
##argy
##thest
##thag
##thia
##thah
##anes
##inst
##inable
##inency
noises
nook
whiter
wiv
wilf
wizard
wield
##ompt
##reast
beer
beld
ing
inly
inland
ingre
heb
heady
##asps
##ceives
shins
shiver
shirts
haud
hags
hazel
##eteen
##etical
##utches
##chus
##chion
##chang
##chew
##chets
forem
forew
forfeits
##leon
##lements
##learn
##irr
##irp
##usters
##itar
withhe
##urg
##urally
##terate
##imm
wean
wether
weav
stow
stup
stagg
stagger
stalls
##seilles
##keth
ascri
##alogue
butler
pror
prome
prone
prior
prisons
sob
sop
sobs
sodden
##entic
liby
licent
lizard
##amo
##eez
##orders
frust
franch
friars
##estine
reins
whatsoe
ench
enam
ensc
enamour
enigm
deities
##ckl
##ioness
suis
sups
alli
ally
allure
allons
allows
##ourse
##ourner
spong
spouse
speeds
sponge
##eaf
knits
knaver
lop
lots
tres
trent
trun
trice
trull
troph
##ctify
chame
chalk
chins
chaos
neut
ate
##ued
thereabouts
goodw
manag
manacles
bray
exas
exalt
exterior
exorc
orig
orators
oratory
ambl
ambles
comet
comfor
##anta
shedd
shears
##few
fable
fabric
##otions
##otchets
cometh
hereof
unn
unve
unit
unbe
unav
unmer
unheard
unlearn
##ingl
##ulk
##ulnerable
wass
##olv
##olour
blo
blott
blanks
blithe
bluster
##venny
swath
swound
sweeth
swerve
swinst
##ums
##umel
bove
seam
sender
seques
##ications
mariner
marseilles
plies
plash
plutus
plod
plaus
plodd
##riety
##ription
alight
alps
alac
scent
scott
scenes
##opa
##akin
##akers
outw
cable
caph
sag
sage
sable
saff
agate
diso
disarm
disclose
twist
twins
##emen
##emon
##eman
##igious
##igree
leer
leop
leash
leander
lepr
leicester
lapp
laure
lawn
laund
##ptions
honester
godly
godlike
grape
fliers
flush
quo
quips
quiver
gris
grateful
ponder
poets
poesy
looker
abjure
aberga
##istinguish
strut
awkward
desk
desper
hearse
menace
perdy
perfor
perverse
permission
perceives
foison
foppery
roan
roam
fairness
adj
erh
ercharg
wrings
##elcome
bloodily
dubb
commune
commerce
pleach
pledges
lifeless
counters
##ivol
drone
dross
jovial
##ilemon
glor
glide
glib
glanc
standest
cannib
slut
slide
slavery
slutt
appease
approof
owners
bearers
##rov
prem
preys
precip
premed
servitor
servitude
meanly
meaning
meanwhile
worlds
compose
compounds
comprom
contriver
contumel
##blie
remit
poorer
repos
repossess
housew
housekeep
##lives
indu
indict
indisc
indulg
witten
misty
finder
newer
newest
##onsider
fortress
fortify
hares
attainder
attention
guise
guerdon
underm
setter
smirch
believes
endear
elf
consign
cried
crutches
crotchets
counties
##perance
emulous
beseems
impotent
resid
curate
curbs
curiously
curiosity
curfew
faithless
##ocks
behoves
restless
restitution
paras
falchion
##beys
drave
bides
braves
bravest
villages
accommod
accompt
patent
patrick
tongueless
peat
peasc
pebbles
peopl
dict
dizz
trapp
erewhile
oversh
overpe
overwhelm
overflow
overcharg
##weth
submissive
carous
assoc
farmer
sleepers
readiest
vial
helpful
disprove
##iferous
##ification
prabbles
discolour
cormor
mislike
mispl
useth
shamefully
forges
##pective
silius
silks
happiest
stripes
lasts
##ials
musc
denote
remembers
philemon
saws
major
##ibal
##eshu
oftener
voic
volley
horseman
##vered
promotion
furrow
furies
furthest
palf
pales
cassibel
entit
entomb
baff
clears
winnow
burs
wanteth
beacon
supposition
tyrian
propagate
doubtfully
founder
recomm
recourse
##iphile
province
distaste
casts
apron
ruins
expend
exposition
demure
conduit
condole
purposely
trusts
cutp
singe
sinner
sinners
chooses
garr
angers
affiance
petter
cheers
galls
galliard
minority
terribly
gravel
commonly
commoners
wounded
contented
tenants
surfeits
blackness
blackheath
possib
possibly
delivery
pastoral
hellesp
delicious
acres
donation
incertain
incarn
divines
divulg
regreet
hotter
hotly
fasts
salutes
having
buckler
evasion
changeable
##iffs
visages
untaint
untru
marchioness
embraces
extant
extract
extrav
revenged
snores
intermission
interlude
bosk
legacy
shortness
cardinals
similes
traitorously
plainer
defi
defences
default
invinc
invocation
stirrup
veriest
verifi
undaunt
undisc
sportful
hurri
teachest
flourishes
offerings
hostages
hostility
privily
respective
respected
polack
flatters
knocking
##ethon
fetches
pitifully
pitiless
vehem
severity
sprink
sprightly
claribel
fatt
wildest
alarm
alarbus
portent
portend
portents
absurd
singl
singer
bellows
lordships
lusts
kneeling
groats
violation
limbo
spokes
hundreds
bowls
possesses
##odest
acquire
drowns
benison
prevails
urinal
bondmen
horner
matches
shares
dangerously
moveables
effectual
unwise
unwelcome
forgetful
forgetfulness
student
volumes
voluble
approacheth
sixty
##ogues
savages
blindness
contraries
destin
mutinies
rounds
qualm
yearn
foolishly
montgom
reflect
unholy
unhands
cruelly
avail
hugg
joiner
acquainted
smiling
girdl
unfeel
importunes
immur
immodest
dishonesty
hopkins
painfully
usurps
catches
plantain
troyan
riseth
throes
heroical
sharply
varlets
insupp
insurre
pinn
pinches
dismount
fleer
steads
authentic
successive
neighbourhood
yok
defendant
cattle
catalogue
bodi
embracement
cunningly
equity
dealings
swiftness
##plus
amazed
amazedly
ventur
duell
complot
complices
elders
unpol
unpaid
unpiti
grandmother
grandpre
gardon
odour
extremities
mainly
pythag
solid
solic
solinus
revolve
brittle
slaughters
uncur
professions
brightest
unsay
unsafe
unsavour
barely
figs
slanderer
victories
discourses
kentish
pottle
soothe
protests
dercet
envi
lavish
maidenheads
rhenish
assuredly
remembrances
customs
customers
squar
squad
squeak
squires
ratify
sensual
unbound
undertook
##eterre
reverse
perfectly
gratitude
gratulate
langley
sheeps
ducdame
baboon
armours
kindnesses
pickle
halloo
fruitless
accuser
appointed
displease
knead
presses
burgonet
dignifi
escanes
wagon
andronici
thrusts
determinate
unkindest
languages
borrows
milder
thickest
leanness
jointly
profitable
benefactors
tediousness
filch
hydra
hyrcan
martext
porch
infects
cockle
tempests
gardeners
dais
domine
outwardly
devised
suspects
pedigree
rashly
mercen
unknit
billows
sourest
tortures
hazards
engines
apartment
unworthiness
unhappily
scotch
bagpipe
stature
statute
specify
islands
assistant
cuckolds
cuckoldly
forcibly
superf
conjunct
procur
infinitely
nero
dissentious
flowery
intelligent
espouse
fantasies
ireful
tenders
##atories
guildford
prodigy
prodigies
bulls
bullen
mattock
matrons
sparrows
chastis
doublets
diminish
rapine
inheritor
oddly
sceptres
reaches
debase
debosh
records
crafts
reckonings
sanctifi
inquis
chidden
appetites
expedience
moods
poetical
distressful
whiteness
societies
lifts
supers
removed
provided
budget
toothache
goddesses
botch
fretful
nonino
nonpareil
medicines
dolours
flatly
cozenage
antiates
antiquity
beautify
remorseful
helmets
vanishes
nimbly
barbarism
fittest
additions
losers
scruples
lapw
athenians
ancestry
concealment
dumps
lincol
semblable
outlaw
perfumes
sufficiency
miscreant
phrases
cleanly
seizes
gazes
credo
prophetess
clerkly
##parable
liveries
bereave
renders
rendez
unreasonable
everlastingly
wrinkle
drunkenness
endeav
ruffle
created
esperance
nourishment
chaplain
amendment
feverous
bawcock
coxcombs
morris
morocc
popilius
shaken
exercises
conjuration
unequal
slipper
opposed
rebukes
bulwark
rarer
rarity
mysteries
seduce
agreement
champions
acknowledg
roofs
vassals
butterflies
sparkle
favourable
unmanly
puppies
inflame
inferr
politician
meditations
flocks
impediments
resembles
substit
skulls
achievements
balthazar
guns
malef
gonzago
lamely
whistl
plentiful
cobham
carried
carpet
obstruction
rubies
controlment
shrieks
muffler
rigor
rigorous
traders
tradition
differs
diffic
inhabits
shapen
shapeless
angleterre
spanish
unstain
leathern
pertains
harpy
imitation
enfranchise
fathoms
euriphile
kernel
mules
whetstone
chafes
sequence
rolls
adoption
anticip
consists
consistory
strikest
interpretation
lulla
ninny
nineteen
sallet
unload
lackeys
eloquent
impudence
traged
simpcox
huntsmen
tastes
vaward
thighs
doleful
unchaste
advertisement
competitor
industrious
harlotry
crispin
crispian
meteor
incurr
insinuat
ignobly
oublie
meekness
withholds
fragrant
fragments
abstinence
abundant
breech
implor
parthian
treasures
temperately
surmise
guardsman
apparitions
syracusa
adulteress
disobedient
ditty
dulness
jarr
largess
nominat
beckons
sulphur
consecrat
canoniz
arrogant
separat
separation
sauciness
prescribe
prescription
indenture
indentures
discovered
intrusion
preposterously
viper
vacancy
waggon
beetles
foretold
upholds
scraps
greediness
disasters
twinn
warrants
smoky
interchangeably
memorable
sinewy
tumultuous
niggardly
doricles
felon
ott
sterile
whoso
inex
inevitable
shrug
conjecture
waspish
scripture
floor
flashes
endowments
buzzard
untrue
starveling
irreg
basilisk
basilisks
dauntless
nostril
mechanic
prosecute
anatom
anatomy
chickens
plaints
scabbard
covenant
covenants
glimmer
smithfield
eyeballs
misbegotten
unmatchable
avez
effusion
fangs
southern
inveterate
frogmore
disburs
twinkl
quirks
appliance
victu
illustrious
properties
unpeople
impossibility
pursuivant
essent
phrygian
eclipse
dardanius
aveng
hoofs
mandate
poniards
ravin
sardis
vilest
vicar
haggard
fornication
prentice
prudent
reversion
enkindl
sundry
sparta
bristle
scorch
cavale
lethargy
grudg
appelez
gibbet
passengers
carbuncle
vocation
metaphor
gawds
admonish
translat
epithet
imperfections
diminut
masquers
consummate
unconstant
bustle
egregious
galen
sanguine
umpire
vulture
stoup
logger
uproar
unnecess
disquiet
abortive
slumbers
prefix
confirms
crescent
patrimony
carbonado
disproportion
phaethon
caparison
gargrave
surgery
incomparable
embowell
##gnizance
schedule
benedictus
turkey
unskilful
derogate
habiliments
prophesi
homicide
perfidious
unthankfulness
hogshead
misconstru
vagabond
yorkshire
predecessors
euphronius
civet
datchet
foully
fervor
hannibal
jephthah
mordake
moulten
masham
mopsa
nakedness
tereus
venerable
wilfully
ingredient
foremost
forewarn
withheld
staggers
libya
licentious
frustrate
spongy
knaveries
trunks
trophies
chameleon
comforter
unavoid
sweetheart
swinstead
sequester
alacrity
scottish
caphis
saffron
leprosy
abergavenny
desperation
sluttish
wittenberg
peascod
dizzy
overpeer
cormorant
cassibelan
hellespont
invincible
montgomery
unhandsome
pythagoras
unsavoury
dercetas
lincoln
rendezvous
morocco
ai
az
aur
bom
biss
balk
bans
bates
bats
bays
bots
bores
border
bomb
cite
cister
cels
cement
cinders
dad
dand
dight
dic
dout
dough
dap
dia
dump
dung
dale
eighth
fay
fins
font
fug
fierc
fangl
ger
gan
gil
gill
gag
gory
gatories
hoo
hent
hange
hilt
hospitable
hesper
ib
iter
jill
jell
jart
jury
june
jesus
jule
ket
kid
kil
kine
lou
latch
loop
lunes
math
mous
mason
mows
mesh
magg
masc
mixture
mourner
nill
nous
nip
nave
nets
nnight
nips
nuts
oe
oven
oars
orac
ovid
pom
pome
pam
pion
pight
pic
pink
pare
peak
pies
porn
pia
pens
pier
pants
pouch
pork
pash
pump
poop
pann
rand
rice
reeds
rott
ripp
rago
rapes
rye
sill
sies
sip
sakes
sally
tan
tight
tost
ties
tout
tang
tith
tourn
tied
tours
tinder
teems
vor
vell
vel
wade
wye
##ait
##dg
##dn
##dens
##dock
##eith
##eathe
##oven
##ss
##sive
##tels
##tered
##rus
##rils
##ried
##iad
##gan
##gers
##ggl
##gets
##gne
##grav
##nard
##nia
##nac
##nker
##mb
##mast
##mun
##mies
##mitt
##msey
##moil
##maker
##vise
##venty
##voc
##ban
##ball
##bine
##bows
##bels
##bub
##lon
##hor
##hall
##hill
##hog
##pan
##pond
##priz
##uan
##unds
##uities
##upper
##ci
##city
##cio
##cience
##cerous
##cole
##know
##yan
##wr
##fry
##fac
##zine
##jor
thim
thie
thiev
thriv
##err
##eron
##eries
##erits
##oure
##osies
##osby
theoric
thess
##orest
##orum
##orable
##orical
##atine
##attle
##atical
##atiate
##esnes
##esseth
##iser
##isions
##iseration
##enum
##enia
toes
toll
topple
younker
##onven
##onians
##there
##tham
##anery
##inado
noont
novel
whor
whits
wider
##omies
##omites
##rear
##rements
##regn
beak
bedd
bevis
inse
inest
inund
heifer
##owl
##owess
##cease
sho
shack
shave
shotten
shriv
shanks
shops
hales
hams
haberd
##utor
##utions
##chem
##cheek
foren
forum
forage
forrest
##leg
mender
meats
isbel
##iro
##irrel
##iramis
##erel
##itory
##itches
notion
noted
withstand
##urt
##urr
##urst
##uries
##imp
##imy
##imation
##imable
##imitar
wend
ween
stile
stakes
stench
stanch
steter
stools
stables
stigm
asia
asks
ascends
thistle
butchery
prest
prun
pries
prave
prains
primer
priory
prowess
soak
soles
softer
##ently
##idian
##idorus
doll
docks
onion
onset
lipp
lighter
libr
##amor
##amon
##amore
##amage
##amond
##eeze
frames
frivol
##estion
##estry
##estick
##estration
reli
reclaim
rectify
ensh
enrage
deanery
herit
herbert
##cken
##verent
##veril
##verness
##verts
##raph
##raught
##geia
gond
goad
sull
sult
sully
allot
##stones
##stantial
sph
spun
spak
spice
spru
spitt
spouts
spawn
knott
knog
knoll
##ilet
loads
loiter
tran
trots
chir
chea
chill
chert
chants
chapp
cheshu
neb
atomies
##asty
##astrop
thereat
thereunto
goodliest
mans
manor
manes
manors
manacle
mannish
upst
upsh
brats
brisk
##unities
##unches
exist
exult
excom
exaction
exclamation
exigent
exactions
orld
orient
ampl
##anto
##antas
confection
##ostle
enterpr
hereby
hereabout
uny
unic
unbl
ungar
unlet
unac
unready
unrel
unbar
unres
uneas
unatt
##ingales
##uls
##uline
##ulty
##oned
wasps
blink
blades
canv
cancell
cankers
##vener
swar
swart
swash
swounds
sworest
howbeit
seeth
seeing
ard
arc
arose
aroint
loveth
lovedst
##ated
bob
bobb
boils
bogs
seventy
##ican
##icip
##icates
##icient
usest
mare
marquis
marjor
plung
ales
alman
alph
alab
alchem
scath
scam
scone
scum
scau
scaff
screw
scann
scathe
scutch
scorp
scimitar
##oper
outsw
outright
outlives
capp
caud
cavern
caval
sax
sacks
sapl
agents
agues
aggrav
##ortable
disabl
disjoin
disrobe
disorders
##areth
##ember
##ematic
##emidorus
##iger
##igest
levell
speaking
client
clift
clouts
cluster
##ided
laced
laisse
godhead
godfather
graz
grapp
graff
flaws
quis
quid
quand
quire
quaff
quod
grange
grains
grants
grub
pond
pois
popp
thinkings
abrupt
abreast
##edst
norwe
##asses
##assus
strove
strides
strays
strutt
struggl
awakes
##udes
##agio
##agnac
offal
fatherly
desist
descan
hearth
bred
breather
wares
bett
betid
##quit
##quaint
pertain
pervert
perjure
periw
##outez
foi
fogg
foams
fogs
foemen
roe
roi
rods
rochester
rogu
earliest
moll
mobl
moys
artemidorus
adher
adjoin
erm
erle
ercome
erfl
erupt
erheard
erboard
mastership
##elp
##berus
handiw
ducks
dugs
called
parted
partition
partaker
particip
commiss
commits
commenc
commiseration
pleads
fearless
leagu
##apert
##ivor
drones
droops
mab
mah
maze
##ileth
copp
coign
covers
cogg
cognizance
glances
sont
sonnets
standards
slid
slink
slower
slug
slugg
appert
apples
appeach
apprehends
##iavel
bearing
##rob
##rogr
predic
prediction
afores
afresh
##ossus
servest
servitors
brotherly
armipotent
armagnac
meanings
downy
nameless
comply
comprehend
contest
contrib
##blin
preserver
prescience
remark
remission
removes
repairs
repres
keepest
nothings
evenly
hoy
older
quean
queasy
purer
exec
meritor
induc
indigest
witless
##ainties
finding
charters
chariots
newt
newness
##onshire
puttock
firstlings
fortifi
##enses
##ensation
harlots
bestial
bestrew
helms
attires
settle
liveth
livelong
smite
smokes
naturally
belove
conform
endamage
elbows
eltham
conson
consol
conserves
crad
crum
cramp
critic
crupper
crosby
crassus
devours
counten
countless
fallow
##ieldy
impet
impost
impert
impute
impair
impawn
impregn
reside
resume
curds
playfellows
behove
resteth
##alkin
answerable
parings
fals
hums
##beard
passado
passport
drach
welfare
kindest
woven
womanly
treats
trebles
retention
presenteth
##cloth
edif
edges
accum
accurst
pah
paw
paunch
pates
pebble
meetest
meetings
horum
horace
forthcom
crowner
dives
traverse
activity
actae
actium
overb
troll
##wept
subs
carouse
carters
carouses
assum
assays
luces
wronger
banns
vials
helpless
justifi
justicer
markets
disport
suffocate
suffrages
thankings
thankless
hanging
hangers
hangings
wearisome
lawfully
morrows
corres
coragio
misch
misenum
buss
pardonne
sententious
forgets
fighting
sounder
stripl
stricken
mush
musters
denier
dennis
denounc
barric
barnet
lucina
senis
runagate
phantas
##rups
##rupter
instigation
swearers
illusion
signet
signories
signiors
signifies
seacole
persist
murrain
##ibus
##ibit
##asher
marries
marriages
darnel
intimate
sunk
sunny
sunburn
faultless
weeping
claws
joyfully
promotions
##versary
harden
hardiness
hardiment
paly
paler
messes
entre
entail
baits
bacon
cleav
burgh
burdens
wantons
beaum
supposes
##hne
situ
protract
deput
deprav
foundations
metals
metamor
reco
fitchew
capet
capers
capilet
provident
bugs
castaw
workmen
warwickshire
rememberest
apiece
aprons
laden
ladders
coldest
skim
skitt
demerits
demesnes
damm
damage
crabb
sightless
furtherance
furthermore
infuse
infidel
cutter
sinon
chopp
garters
affin
affability
sadder
teen
hateth
streak
streaks
strand
dreamer
satire
satiety
learns
learnt
learnedly
chequer
cheveril
gallow
charged
minx
mineral
venuto
colic
colts
colossus
gale
gaberd
served
mortally
malcont
malmsey
malapert
surer
surcease
blackest
blackamo
posset
##ronom
delud
delphos
confessions
acre
acute
academ
donc
incident
inconven
divides
divisions
watchmen
regia
eater
woollen
sala
salut
buckles
talent
talons
deeps
##aculous
visag
visits
visions
untir
untoward
untender
untutor
marcheth
embold
extinct
extirp
quarry
summit
personage
personally
snar
snore
snare
snip
snapp
interm
interior
interchang
praised
acheron
softest
legion
ivory
shortens
spends
relics
simois
scarr
scarcity
fetters
lammas
feeling
pompous
pompeius
crier
gladness
badness
badges
weaken
weakly
defiles
defunct
invulnerable
scornfully
rooms
excellency
undiv
undistinguish
sportive
hurry
teacher
ambig
motto
privacy
darkl
pitt
broom
severals
addle
bitch
bookish
lowness
spright
sprays
springe
christmas
hammers
##religious
bastinado
milch
milks
##itted
##ittary
starlight
miraculous
portable
portends
paph
forever
foreknow
absolv
detraction
stealer
lustier
lustily
excit
poisoner
spoons
spokest
briefness
hundred
eleg
proscription
blew
blear
bleach
promiseth
easiness
woodv
woodman
woodbine
shipboard
freshest
prevents
urn
urine
athversary
occident
forced
unwash
unwitt
unwieldy
conquers
argus
argal
argosies
tombs
northampton
movest
lying
midsum
volupt
succors
##ernal
virginal
treasonous
protects
protectorship
susan
##concil
reduce
redeems
redoubl
countermand
counterfeits
ignomin
ignomy
shades
unhand
unheed
leonati
avis
avar
##remove
shrive
shrinks
shrouds
smilest
bitterest
unfirm
unfinish
unfriend
unfledg
importunity
hopest
##icular
##iculty
basset
tarre
targets
##iolable
executors
carriers
riddl
innovation
decays
decision
decipher
decorum
sharpest
sharpness
gender
insist
insert
insensible
insatiate
conceives
blameful
dismant
dismember
riband
vane
successfully
##culate
properer
deservest
deserving
catastrop
bodily
bodkin
clearer
clearness
equals
topmast
dealer
expects
holily
posy
wolvish
memories
loathness
holloa
complots
intendment
unpriz
gardener
##zebub
casque
casual
casements
turret
##ubstantial
glassy
edmunds
professors
largely
unsound
unsought
unsuit
unsanct
irreligious
preparations
rainy
rainbow
deserved
lamentations
derives
needles
fondness
accords
maidenhood
angerly
dishonours
discoveries
squier
squash
squirrel
startle
startles
stuffs
condemns
condemnation
ratifi
sensibly
unbat
unbrac
unbutton
unbolt
grievances
undertakes
stormy
egyptians
frequent
shrewish
expressure
circumsc
circumfer
circumvent
feebl
feeder
halters
dotard
trials
exampl
gallantly
babble
babies
weightier
facility
opposites
ranker
rankness
befell
combination
appointments
cured
beweep
bewail
spiteful
epist
maintains
maintenance
melts
melted
contemptuous
temptation
dignifies
funerals
sorel
schoolboy
decease
alias
accounts
determines
hollowness
thicker
archer
archers
prophets
beneficial
film
bluntly
cockat
tempestuous
earnestness
furnace
sicilius
sicyon
negot
neglection
baptism
skills
skilless
challenged
##goblin
##nawn
florent
fiction
piec
objections
cyn
cygn
cydn
cythere
prolix
prologues
lengthens
williams
bawdry
methoughts
mountaineers
unworthiest
observances
pronounced
binds
habitation
fineness
statues
unguard
apprehensions
bushes
southwark
##resseth
liking
censures
chastely
assistants
gauntlet
##ugal
conjures
slightest
waxes
testimon
intellig
inventor
inventions
pitchy
espy
espous
espies
espials
pillar
pillows
tendance
##ecost
speediest
unseasonable
monumental
lodgings
familiarly
familiarity
etes
mater
monger
mongers
priami
spares
foxes
rocky
committed
unfolds
dimpl
gleek
rapiers
declines
milky
inky
rejoices
clotp
collars
college
reprov
recorders
sanctify
sanctimony
sanctimon
splinter
spleens
dissever
discretions
grip
gripes
fronts
frontiers
errs
gloze
remorseless
petitioner
petitioners
baynard
lenten
harshly
harshness
adventures
journeys
budd
moralize
spital
causer
causeless
adamant
applies
coronets
botcher
nonce
rumours
ruminat
medicinable
knotty
cozeners
dependants
dependency
liberality
candi
candy
tapestry
wedg
deceived
experiment
merriest
disposer
stubbornness
rustl
rustic
foresters
pratest
palmers
recompens
fitteth
loser
losest
maskers
pike
pigeon
aspects
lapis
crests
features
berri
berwick
gidd
narbon
obloqu
##clamations
divided
pushes
deafen
boxes
seizure
scatters
begett
accidental
accidentally
credent
credence
potentates
pilgrims
inquired
increaseth
junius
nuns
chattels
mantuan
levies
polec
bargains
perpetually
perpetuity
masques
masked
steeple
enfee
enfold
browner
exhort
unreverend
unreverent
harbours
consumption
barns
ruffians
required
volsce
copi
historical
concluded
suggestions
batters
morgan
stoutly
frosts
consequently
somewhere
commodities
comparative
indignities
impressure
curtal
narrowly
bulwar
cerberus
gnarl
pathetical
rareness
rheims
noddy
tripolis
bridget
sedition
sedges
mistakest
fortunately
continually
hungerly
especial
ecoutez
feeders
july
muddi
pentecost
votary
thriftless
##ispos
hedgehog
hawks
butterfly
favoure
conversant
humbler
assaults
phoebe
strawberries
constrains
superfluity
bachelors
cooks
hungar
savoury
substantial
quarrelsome
opportunities
dissolution
impatiently
sufficiently
lurks
mummy
rabbit
altars
altitude
perdu
cramps
farthings
farthingale
majestic
holidame
rheumatic
trespasses
fowls
whistles
ensn
sweeps
plentifully
lazar
abatement
perseus
persecut
repeals
tyrannize
collection
croak
muffle
muffled
rigour
tugg
whelps
heedfully
reinforce
upbraids
unlikely
likelihoods
ploughman
contemplative
wittingly
diffus
difficulty
ruthful
divinest
bien
mastiffs
sigeia
tapsters
wrapt
##thean
unthought
unstaid
unsheathe
aguecheek
lewdly
leafy
criminal
handsomely
ungently
leviath
epitaphs
europa
mulier
russet
russia
russians
inspire
dedication
sequestration
hobgoblin
maliciously
resolutely
triumphantly
unprov
gamesome
panther
vital
##valu
##bearer
wicked
hemm
hemlock
aspic
faulty
unquestion
unlov
sextus
patroness
misfortunes
bubbles
blemishes
circumstantial
unlawfully
ferret
fidel
gules
vaulty
orphan
orpheus
outstare
outstrip
clamber
molehill
replication
replenish
attorneys
incurable
interruption
excuses
insinuation
uncertainty
derived
schoolmasters
subdued
ewer
harts
sessa
fragment
spherical
chronicl
brimstone
composure
draughts
childishness
sunset
surmount
surmises
imaginations
dominator
eagerly
braggarts
adulterate
inspiration
genitive
nomination
nominate
unconf
plummet
erthrow
smocks
devoutly
subornation
intrud
rapture
singularity
shipwright
coverture
covetousness
austerity
dainties
vipers
viperous
amounts
scrap
scrape
disfurnish
flags
predominance
phrynia
incontinency
profanation
sycamore
centaurs
ethiop
perplexity
arabian
dorcas
icicles
icarus
larks
otter
pelican
reels
tinkers
##ynna
anchises
animal
conjectures
unfelt
grinn
inducement
expiration
extemporal
counterpois
irrevoc
cherubim
cherubins
magistrate
puddings
wheresoever
polydote
blaspheme
blasphemy
nostrils
pallas
pagans
ravel
shuffle
mechanical
sects
scythe
lectures
gramercies
progenitors
ergrown
remnants
carnal
carcasses
misgives
demeanor
cricket
verbal
sorceress
sorcerers
undertakings
arrived
clergymen
assembled
minstrelsy
custody
ebbs
ebony
fiddler
fusty
fustian
ludlow
mental
menteith
ranges
threescore
totter
novice
stifle
astronom
amply
ampli
congregation
scarec
lecherous
communicate
harbinger
subtly
unpeopl
impossibilities
ribbons
pursuivants
essence
vigilant
vigilance
phrygia
eclipses
forerunner
ceases
dazzl
dazzle
kerchief
kersey
lingers
mitigation
mitigate
ropes
scepter
surnam
surname
valley
valleys
congru
bladders
blabb
blessedness
plackets
scoffs
abridgement
normans
erswell
machiavel
runaway
runaways
palsy
bugle
sincerely
speculation
temporize
posterns
turbulent
irksome
epicure
dissolutely
augurers
votaress
resemblance
unthrifty
unfeignedly
equivocator
catechise
bilbo
lonely
ptolemy
tasks
tetchy
ulcerous
vomit
##worths
tools
injunction
hempen
shovel
stalks
sophy
willingness
friday
receptacle
lobby
bribes
semiramis
scribes
cautel
partisans
prejudice
pegasus
pharamond
calumnious
mountebank
urchins
savageness
philoten
unparallel
gambols
whosoever
sibyl
cicatrice
davy
gurney
gabble
gipsy
molest
maugre
omnipotent
pancakes
videlicet
hebrew
ascribe
prorogue
promethean
enamell
ensconce
enigma
chalky
neutral
exasperate
origin
unveil
bloom
plashy
plausive
sagittary
disobey
leopard
laurel
grisly
ponderous
glorify
cannibals
premises
premeditat
compromise
contumelious
undermine
parasite
dictynna
misplac
muscov
cutpurse
garrison
untruths
extravagant
boskos
undiscover
vehemency
sprinkle
portentous
insupportable
insurrection
pinnace
unpolish
uncurrent
squadrons
mercenary
endeavor
substitutes
ottomites
irregular
victuals
essentially
cavaleiro
unnecessary
bombast
bisson
cistern
celsa
dighton
daphne
fugitive
fierceness
gerard
gilbert
ibat
iteration
jelly
jarteer
kiln
mathematic
masculine
oracles
picardy
random
ragozine
thievery
thievish
thessal
noontide
novelty
inestimable
inundation
haberdasher
steterat
library
frivolous
spakest
spruce
chertsey
excommun
enterprises
unicorn
ungarter
unletter
unacquaint
unrelent
marjoram
almanac
alabaster
scauld
scaffold
caudle
aggravate
clifton
laissez
norweyan
periwig
foggy
adheres
eruptions
handiwork
commissions
predicament
aforesaid
represent
meritorious
beloved
impregnable
actaeon
sunburnt
skittish
gaberdine
midsummer
voluptuous
ignominious
catastrophe
edmundsbury
circumference
cydnus
cytherea
obloquy
bulwarks
favouredly
irrevocable
mathematics
2s
aer
aea
ail
ains
avert
auss
bou
bin
bess
bake
bung
bals
bisc
baskets
cere
cul
cum
cice
cumber
cites
cuc
corses
coph
doo
drow
dile
dens
dowers
ditt
dites
daw
dalm
dapp
eg
eter
eft
eels
fere
fatter
fens
fans
fund
folk
fern
fumes
fixture
gos
gat
gord
gast
gel
gens
gagg
gasc
germ
gapes
gilly
gosp
gimm
gnawn
hou
hos
hing
hud
hott
hitt
hoops
hinge
ion
ith
ira
jan
jut
jure
jau
jaw
jasons
janus
kat
kim
kend
kates
kib
kitt
kibe
lus
lid
lure
lown
louse
lint
leech
links
lym
lards
lutes
longe
lakin
leman
mes
mop
mope
maps
moles
menton
mandra
malkin
nas
nit
ness
nio
nag
nib
nape
napp
nerve
ninus
nouns
nasty
oy
ore
operate
obeys
pow
pere
pore
pother
pout
pave
pans
peel
pied
poult
pensive
pumps
ral
rant
rind
ration
reech
rents
rump
rina
rural
rann
ss
sere
ske
souse
sque
tin
tus
tad
tard
tag
tel
tert
tench
tory
tib
tipp
tape
tully
tua
tips
tiny
tangl
tilts
tightly
tanta
ugl
umber
umb
vl
vet
vra
vince
vend
viv
vint
vents
veal
vides
vicer
wow
wain
wry
wist
wince
winks
wots
wails
wands
yer
yesty
yarn
yellows
yelp
zir
zod
##ao
##aul
##aian
##acc
##aca
##ainders
##aemon
##aileth
##do
##dis
##dar
##don
##drew
##dities
##dale
##ean
##ept
##egl
##oi
##oder
##oison
##oided
##si
##som
##ster
##sop
##spect
##te
##tas
##tus
##tice
##turn
##tons
##tino
##ros
##rin
##ras
##rion
##rive
##rum
##rise
##rang
##rench
##rices
##rations
##rility
##ringer
##rator
##rative
##rops
##iare
##ihood
##ikin
##ialties
##gle
##got
##gate
##gown
##giv
##gia
##grown
##goth
##nago
##ma
##mes
##mar
##mut
##mus
##main
##mire
##mons
##meg
##makers
##vre
##vice
##vity
##vors
##vails
##vres
##bre
##bet
##bur
##bish
##bate
##book
##bare
##bears
##bark
##bane
##bread
##boles
##bulous
##lord
##lies
##lains
##laid
##lication
##lgoth
##ho
##hi
##has
##hear
##horn
##hardy
##homm
##pse
##pent
##pose
##pass
##pret
##pitude
##pulous
##powder
##uf
##uus
##uic
##uist
##ucon
##ualties
##uerdon
##cot
##cius
##cery
##count
##cenet
##cative
##watch
##work
##warm
##waul
##xy
##xom
##xico
##fi
##fes
##far
##zy
##erp
##ervers
##ouple
##nde
##ndor
##ndice
thews
##orb
##orre
##orters
##orals
##atur
##atians
##ateral
##ativo
##esby
##escend
##lla
##isdiction
##arr
##arse
##arms
##enom
##enets
ton
tofore
toils
toler
##onis
##onne
##onnet
##thood
##thol
##thian
##thew
##thog
##thume
##thread
##thrift
##thecary
##anth
##anate
##anmo
##inue
##inqu
##inates
##inations
##initive
nois
noint
noah
whine
whey
whiff
whites
wharf
wiles
##vets
##omon
##reach
##reys
##reads
##reux
##requent
bem
bech
bends
beag
bevy
becks
bewept
inord
inmost
invert
inforc
infortunate
inverness
inacc
heure
hewn
heft
hectors
hedg
##asi
##asseth
##owls
shes
shard
shady
shud
shag
shire
shaf
shog
shards
shoon
shivers
shreds
sheaf
hacks
##eto
##eters
##etua
##utter
##cho
##ched
##chool
foresh
foreth
forsp
##lement
##lemain
##ldo
med
mends
medea
medi
media
mexico
isles
isbels
##ircle
##ereth
##uses
##usive
##uspect
##itate
##itical
##itably
nots
notle
notation
notary
notify
withers
withdrew
##teriors
##imus
##imers
##imau
itches
weke
weave
weaves
ston
stee
stith
stap
stump
stair
stages
stub
stablish
stocc
stitches
##sex
asketh
##adio
##adation
##alment
##aloon
##alanta
thisne
butto
buttery
prain
prost
prig
prist
prings
prib
prune
prank
prenz
prenom
sops
soho
##entive
##entinus
##entieth
##idl
##idable
##idences
##idden
##allels
doer
doest
dolt
dobb
onward
ongl
onions
lien
liker
lichas
lilies
##atham
##amous
##ammar
##eemer
##esses
##essence
##essible
anvil
frat
fring
frol
frize
fract
fractions
frugal
##estri
rex
real
reave
recks
whatsome
enw
enfor
enno
envel
enorm
deum
degr
deuc
deuce
deux
heresies
hereto
##vergne
##ioners
##ionable
##iever
##ieces
##rais
##rale
##raea
##rands
##rawl
thyme
##therly
goers
goli
goffe
golgoth
suum
alla
allur
allig
alley
allusion
alleys
allege
##stool
spous
spic
spins
spav
spites
spangl
sprawl
shallows
##andy
kno
knack
knapp
knacks
##ilfully
##ilhomm
loy
loan
local
tray
trink
trop
trance
trist
trott
trident
tressel
truckle
tresses
##ctar
chart
chine
chough
chime
chaud
chatham
lordings
nevil
neme
nedar
neanmo
nectar
ates
atlas
atalanta
goodlier
mane
manfully
mantl
manager
mangle
upside
uprear
upturn
uprise
bras
brink
brute
brides
bringer
bringe
brinish
##unal
##unctions
ort
ork
orts
orthog
##illity
##illades
amid
amort
amities
comf
comer
comic
comets
comical
comrade
##antine
##antag
siren
sheer
sheen
sheds
faust
fagg
fables
facul
fabulous
faucon
conjoint
converts
##eari
##ustion
##ustious
##ustrous
##ined
##inem
##ineth
##ostication
##otle
comed
hereabouts
unr
unan
unear
unass
unction
unken
unbr
unpl
unright
unmit
unroll
unforc
unweigh
unurg
unremove
unvalu
##ingle
##ingers
##ingness
##ingworth
##ulsion
##oneer
##oneous
knower
knowing
knowist
knowingly
##olicit
blent
blames
blubber
canakin
##veng
swam
swill
swum
swains
swab
swoop
swerv
switch
swinish
wells
seel
arist
arbour
arrives
ariad
lovelier
whene
whenever
whensoever
##ately
##indle
bog
boor
boards
seld
sedit
select
##ppo
worry
worts
##icut
##icia
##icite
##icock
##icially
##icraft
usance
usury
usually
mares
marig
maries
marrows
marullus
plus
plood
plump
plural
planks
whereunt
whereabout
whereunto
mads
madrig
##ript
##riously
mayest
scion
scuse
scull
science
scuff
scores
scribe
sciences
sciat
scowl
maketh
##aky
outd
outgo
outsell
outcast
caith
cauc
cackl
sapp
sabb
sables
saunder
agone
agitation
disem
disable
disapp
disann
disjoint
mustachio
twos
twit
twine
twangl
twentieth
##ared
##emont
##emperate
##emaker
whoa
##igat
##igib
##igations
##igod
tisick
lees
leven
lender
leper
clang
clipt
clasps
clusters
##ffers
giveth
##idels
laby
lavol
label
laban
##ptures
honor
honoured
godliness
godmother
godfathers
graven
flib
flask
flutes
flanders
flux
##icker
quak
quip
quag
quits
quails
##isel
grop
grise
grunt
grime
grasps
gradation
grammar
pody
poys
pothecary
lookest
aby
abat
abet
abase
abel
abys
abram
abjur
teller
tellest
##ipro
proh
progn
proclamations
proffers
##topp
##istinct
heaves
string
strung
strugg
awl
awards
aweless
await
##udemont
##agates
fatherless
hearest
hearing
hearkens
gentility
gentilhomm
breton
brevity
sermon
warble
warbl
warily
warms
warmer
menec
betr
betook
beteem
##qualt
##quoi
perge
perig
permitt
fois
foin
foix
fobb
focative
roads
roared
earlier
moat
movers
monde
##enel
artist
articul
adage
adram
adores
adhere
adjourn
adonis
erru
erween
ersp
erta
ermaster
erjoy
ercast
erweigh
ercles
erbears
erreach
errands
wrist
wrens
masterless
##elter
nightingales
nightgown
handful
handless
handicraft
bloodsh
dub
callat
callet
callest
otherwhere
parti
partlet
particle
partridge
comma
comments
commixture
hastes
sweetme
##apen
##apse
##apius
##oulter
##ivals
##ivered
dray
drest
drank
dried
maur
maul
maud
maws
jog
joins
coins
coher
coarse
glu
glid
glans
glides
glares
glutton
##iances
stander
standing
standeth
cannoneer
slop
slice
slings
slash
slays
sluts
sliver
slubber
sloven
slimy
sluic
##acet
appal
appall
appel
appals
##iae
##iac
##iteur
bearest
afire
antid
serviteur
arme
armenia
armiger
##achum
##mances
twofold
wombs
compil
compost
computation
comprehends
complements
complement
##bla
##blo
##bless
##blown
presumes
firk
foolhardy
remotion
remainders
couriers
repe
repin
repents
repays
reputes
repugn
##swich
##swoman
##glasses
hoa
hogs
oldest
showest
merlin
indued
indispos
indistinct
##uckles
witnes
graced
mista
mistakes
mistemper
charnel
charlemain
newborn
##isses
##onsive
putre
holdeth
##phes
##phon
forts
harrow
lieth
lieve
bestir
bestirr
sleight
fellest
peach
helper
attractions
guy
guin
underw
underpr
underhand
peaceable
peaceably
seteb
madams
smites
smug
everywhere
belzebub
belgia
highways
##cyon
thrum
thrason
thrash
thrones
throstle
confl
confutes
confusions
endu
endue
endings
endanger
elm
elbe
consangu
crann
cranny
critical
youngl
devant
##percal
englutt
emm
emul
emble
emulate
boyish
caesars
caesarion
falling
fallible
besort
besott
##asonably
impon
impure
impugn
implements
improv
placeth
resident
resumes
curd
curan
curtle
curls
playhouse
behest
behave
parks
parric
parallels
falter
falser
humm
humidity
turned
turnco
##beck
##beams
##beards
passable
draff
draweth
fuller
wofull
braz
braid
brakes
bracel
mindless
##retion
retold
retail
retrogr
retentive
presentation
presentment
villi
##clout
##clops
valorous
valentinus
edg
sworder
accurse
pax
pail
paws
indebt
patents
peu
peard
solder
##ultier
##forms
meeter
huswife
childb
tabl
tails
killer
killed
killingworth
crownets
dials
track
traps
travails
actual
erection
erebus
overta
overbear
overjoy
overplus
overhear
overblown
natured
caret
carver
carol
assent
assails
assumes
farest
monachum
pleasest
sleeper
sleepest
lug
lupercal
wrongful
feu
feod
lighten
lightest
farewells
justle
dispensation
hangmen
##ifs
##ifery
wearer
wearies
weariness
praet
discase
discandy
cork
coral
coram
corriv
corrig
coranto
corrupter
corros
misth
misers
misdem
misbel
misadventure
misinter
##abbl
##abreth
thousandth
##pside
opes
opulent
gentlemanlike
useful
busily
maidhood
pardonner
advises
advances
advantag
loving
lovingly
forgery
forgave
forgeries
wishest
soundest
##ciously
strifes
reasonless
musings
##izz
denay
denot
deniest
nearness
barm
barne
bareness
barley
barthol
lucianus
landed
landlord
runagates
phill
pheas
pheeze
purpl
institute
instalment
swearest
swearings
commandments
illum
illeg
illusions
signifi
signific
returneth
persian
perspect
perspective
murk
##ibble
##ibition
drawing
bodykins
darlings
firebrand
cared
titl
jude
intit
intemper
intrude
intestine
intemperate
sunken
talker
weepest
horsed
joyou
joyless
freez
lessons
lessens
empir
emperial
empoison
emphas
prompter
blessing
furlong
furbish
proveth
hardest
palms
palmer
paleness
palestine
palatine
messages
entic
entang
auburn
auvergne
baes
clep
cleans
cleitus
winners
burr
burly
buried
burton
wanted
quickens
growing
suppler
supporter
type
typhon
props
proposition
propriety
doubted
sickens
depl
deprive
foulest
metre
mettl
recit
recoll
reciter
recomfort
recipro
##iphers
fitment
capel
capons
capuc
provinc
provocation
somerv
distrain
distractions
distraught
buoy
buxom
pitying
##ancer
apost
apople
apric
ruby
footboy
football
expell
expenses
explication
expulsion
bounden
coldness
skirt
skirr
demon
demois
demigod
condign
condescend
purposed
purposeth
dams
damp
crabs
puis
puzz
infix
infusion
infernal
infamous
infidels
sinfully
choir
garish
garners
garbo
frenchwoman
saddler
saddest
teat
hated
straggl
satin
satyr
methegl
saved
loseth
livia
chequ
cheater
gallian
galley
gallimau
banished
##lety
cambric
minerv
terra
drinkings
commoner
commonalty
contentious
beholding
##shell
favourer
burning
burnish
burneth
columb
colbrand
raves
deserver
gaultier
mortar
mortify
warranty
males
surest
surgeons
surplus
blackberries
writer
writings
pasty
pastimes
delve
deluge
delivered
delabreth
jewish
confesses
confessing
donn
donner
incag
incony
incursions
inconsider
divest
divination
watchers
watchman
reguerdon
thanksgiv
eaters
requis
requites
trumpery
woolly
mockers
fastest
salad
estrang
buckets
bolden
boldest
evilly
##acent
##acies
##acinate
mornings
appeareth
cards
constitution
unti
untent
untro
untouch
untread
untrain
embar
embro
embattl
wallow
personat
personages
snort
snap
sneap
snarl
##script
guardant
chambermaid
batt
batten
rosy
roscius
despairs
striketh
bosworth
calves
calculate
speciously
forbad
relapse
questionless
penth
pencil
penalties
simper
simular
waterish
fetlock
labourer
laboursome
pompion
plainest
wretched
##uffic
gladd
defer
defensive
deficient
definitive
creak
invade
invades
invocate
inviolable
lestrale
harmon
taker
verier
verify
verified
liegemen
dishclout
laughed
undid
undress
undrown
hurric
teachers
teacheth
##volence
judgest
hosts
hostage
hostilius
privates
idea
idiots
lackest
granted
beginners
nurses
nurture
##inacy
darker
darkest
brokers
added
addict
addiction
addrest
bitum
bitten
##ggle
resolves
sprang
offended
hampton
disgorge
disgracious
understanding
wilds
##itti
##ievous
dinners
starr
stares
miry
mirrors
portal
portra
portance
portage
forefather
forehand
foregone
forefathers
dreads
dreadfully
detract
famously
fillip
bellies
##aze
secondary
lustrous
lustihood
excite
talbots
corns
cornish
cornelia
possessor
proserp
fashionable
blend
utens
##odi
##odils
##granate
beardless
modo
module
promised
acquir
acquitt
acquittance
fordone
fordoes
smaller
bennet
woodstock
shipman
formless
formally
freshness
sorcery
tribes
tribunal
unkiss
cupboard
cupbearer
matchless
shark
consented
occurr
syrups
synago
noiseless
leonardo
performers
moved
moveable
headsman
effectless
unwish
unwind
bolster
studious
##unnest
argier
governs
northward
moving
adieus
lydia
dully
dullest
dullard
postures
postmaster
postscript
volub
greenly
##erns
neighs
blindfold
prosperously
destitute
mutes
mutine
mutines
mutability
muttons
lendings
virginius
churchyards
torrent
protectors
buyer
yearns
redeemer
counterm
countervail
counterche
refin
reflex
unhous
unhack
unhatch
unhair
cruell
avow
avails
avoided
robber
robustious
shrilly
shrimp
measureless
smilingly
circe
vainness
wastes
annex
hermits
unfill
unfix
unfrequent
importeth
immoder
trumpeter
trumpeters
visitors
thirdly
usuries
cliffs
costs
catcher
tarries
rids
ridges
ridden
heroes
##ractis
sharpens
geck
hatfield
hatred
insoc
insuffic
transm
transpose
blameless
continents
continency
pinfold
walnut
dismall
dismission
fleas
fleeter
tempers
tempters
successes
successors
successively
neighbourly
paintings
rougher
roughest
##culapius
##bertigib
banquets
observer
directitude
views
drier
dries
drizzl
yokes
receiving
catar
cataian
bedew
bedeck
bodements
triumvir
benedicite
cunning
courageously
equall
equino
fishers
fishmonger
vouches
vouchers
wealthily
expectancy
considerate
persuasions
troubled
holier
posies
posterior
##pler
loathly
loathsom
amazons
amazedness
holly
holland
hollander
cloths
clothier
promising
punto
becomest
ancientry
compliments
stainless
unpin
unpart
unpossess
unpractis
julietta
gardens
odorous
forests
remaineth
casualties
faintness
solitary
solomon
revolv
revolution
slaughtermen
turmoil
turpitude
uncrown
uncouth
uncont
uncaught
uncurb
uncapable
uncurable
unconsider
uncouple
advantageous
princesses
employments
auditor
audible
audacity
bianco
brightly
brightness
unsubstantial
unschool
unsuspect
unsolicit
wraths
excusez
barehead
barefac
figo
discours
potions
potpan
raineth
protestations
lamentably
solemnize
deracinate
fewer
fewest
ashford
envies
spendthrift
publicola
dwellest
remembrancer
shadowy
bases
customer
squint
squander
squares
squeez
concave
concert
concup
physical
circuit
mourns
mourners
oxlips
conveyances
unbow
unbind
unbuckle
unbonnet
undertaker
freckl
##encies
##etera
revert
reverenc
reverberate
perfectest
vengeful
ransomless
physics
circumspect
leisures
##udgeon
halcyon
stomachers
recoveries
dungeons
dusty
numberless
weights
facit
armoury
armourers
opposer
opposers
guiltier
disguises
leisurely
bottl
bottles
lined
lineament
nests
picking
rankle
rankest
hallo
stolest
##amental
fruitfully
abroach
affectation
accuses
accusative
capitulate
combustion
flowerets
slowness
empties
emptiness
usurpers
usurpation
cureless
panders
pandars
tameness
tamworth
cupids
digs
epile
melteth
frightful
contempts
contemptible
conduce
conduits
proceeding
proceeded
admiringly
hillo
flights
schoolboys
particularly
particularities
bottoms
bottomless
wags
wagers
##acts
##active
includes
inclusive
deceits
deceives
alien
accountant
ruinate
hollowly
borrower
mildest
mildew
pourquoi
thickens
archery
archdea
ruled
profitless
profitably
lieutenantry
tediously
filial
filths
hybla
martlet
porters
porringer
piles
pilch
pilate
pilfer
wakefield
infected
sackcloth
strangles
cockney
cockerel
confirmations
packets
packthread
sicil
sicils
smoothly
smoothness
intention
aptness
wanderer
wanderers
##iterate
vexations
equality
honeys
pictur
seaside
retired
hortensius
cyclops
hiems
pedler
sucker
suckle
mercies
mercade
billet
sources
tortoise
whipped
information
engirt
engrav
closer
closure
clowns
apartments
divinely
mountainous
mountaineer
unworthily
unhappiness
plantagenets
observant
concernings
tike
climber
preferments
modesties
ballast
finch
##raine
statua
ungall
ungain
seese
apprehensive
advised
advisedly
buildeth
specially
specialties
bounc
jaunt
paddl
paddock
southam
southward
likings
brainsick
monthly
marketable
censor
duchy
seller
##easurable
accepts
esteemed
whispering
whisperings
hindmost
forcible
supervise
unlaid
sweaty
procre
procures
procrus
serpigo
urgent
urgest
rescues
pitchers
bonne
espi
pills
pillory
pillicock
enforced
speedier
unseem
grumble
handkercher
handkerchers
guilders
guildhall
consulship
edgeless
calmly
suspend
lodgers
banditti
bullet
bullens
matthew
whipstock
withdrawn
priamus
sparingly
unmu
unmake
unmind
unmuff
unmov
unmingl
unmeasurable
ariseth
##arelon
ambitiously
dimension
dimensions
inherits
declension
spurio
boasts
driveth
advanced
milkmaid
mills
miller
milliner
millstones
tamely
inkle
inkhorn
stretches
debile
debitor
clotens
colli
collop
colliers
collateral
reprobate
recorder
craftily
stirring
bellyful
dowlas
folds
journal
lorraine
rottenness
weathercock
splits
splendor
herefordshire
breeding
breeders
faithfulness
troubler
sacrileg
arrests
grizzl
frontier
breaches
erroneous
gloomy
distresses
petitionary
termagant
incred
kinswoman
lentus
oaken
taller
tallest
whitest
storehouse
adventur
detests
jeer
later
lattice
luckless
warder
warders
frailties
conveniences
conveniency
caused
villanously
coronal
supposed
tricksy
afear
roussi
rumor
ruminates
ravisher
medicinal
stanz
butcheries
##ophag
flattered
antiqu
exceeding
beautifi
dependent
##cked
inhibit
wedges
revile
revives
deceiveable
experiments
scourg
townsmen
vanishest
spleenful
ribbon
forespent
prating
prattl
bohemian
coffins
charactery
barbara
barbarian
pennyworths
axle
aleppo
##auspicious
##ridg
shields
succeeds
scurril
scurrility
scrubb
scrupulous
lapse
grandsires
flouts
countesses
featly
venomously
estimable
interpose
discharged
berry
bergom
dutiful
dumbly
homes
linstock
oblique
patchery
rated
semblances
outliv
describes
preserved
reprieves
pursuest
miscall
auger
augury
cleanse
sitting
stewardship
digestions
dancer
tickles
inwardly
franklin
awaken
coinage
coasts
lightnings
messaline
gazer
potently
potential
prophetically
century
mingled
oceans
rising
tuns
tuneable
shambles
styx
warning
warnings
disposed
advancing
philosoph
bereav
cudgels
nettl
racks
steeples
enfre
exhale
exhales
unreal
unreconcil
unreveng
everlasting
drunkenly
pursy
accessary
taxations
voyages
disturbers
eleventh
determined
beguiled
copest
copies
copulation
essay
essex
nourisheth
piteously
sithence
vaults
##dlestick
threadbare
chapless
chapmen
##icleer
marvellously
believest
courteously
disciplin
suggests
dilat
dilate
dilatory
gossamer
jesters
pestiferous
pulp
stoutness
rearward
defends
defender
conjurers
conjurations
slippers
precedence
endurance
curtail
tremblest
recreants
territory
terrestri
limitation
rebuk
vanquisher
afflicts
reproaches
reproachful
lena
peeps
##genorth
bridl
bridges
bridgenorth
fawns
convict
convocation
purgatory
resistance
brabble
brabbler
saluteth
continuate
hungerford
fantastically
michaelmas
nuptials
ecu
ecus
mudd
omne
rutt
sustenance
votaries
thinly
##ominable
hacket
hackney
favore
converses
conversion
unmann
scandalous
scandaliz
grimly
humblest
puppets
captainship
embassies
politicly
persuaded
alexandrian
miscarried
cookery
dashes
iceland
ripest
ripens
ripeness
meditate
mediterr
households
substances
achievement
opportune
broader
ceremoniously
dissolves
dowerless
females
fountains
gunpowder
hoodman
lurch
mumbl
ringlets
ruder
rudest
rudder
rudiments
rudesby
buttons
reapers
##ragora
cheapen
cheapest
shelves
grovel
grovell
perdurable
malecont
liefest
confidently
despiseth
simpler
holidays
babylon
dissembler
balmy
cullion
cullions
dateless
lanes
ramm
froze
enlarg
chestnut
choked
swims
swimm
sweepers
lazars
cobbler
undergoes
falconers
horridly
carrions
displant
displace
displac
obstacle
obstacles
obstinacy
supplie
supplies
supplications
unwillingness
practiser
philippe
tyrannical
collected
manifests
defeatures
fertility
vinegar
vineyards
##bolical
##bolton
heedless
enchantment
upbraidings
university
indirection
diffidence
supportance
sympathiz
derivation
tartness
vaporous
wrack
##theon
notoriously
unstate
unstanch
unshunn
unshaken
scolds
lewdness
pertly
pertinent
periods
syllables
companionship
magnif
accomplished
eglantine
kernels
mulberry
mulmut
muleters
thefts
whirls
halts
statesman
dedicates
sapless
slackness
antics
impartial
taverns
razor
razors
avouches
griffin
interprets
rabblement
eunuchs
dwelt
dwindle
lulls
pantheon
pigmy
puddle
puddl
rivets
sallets
vater
vestments
##ropophag
##valued
shilling
fraughtage
##strue
trippingly
arbitrator
erpast
erpower
commenting
impeachment
retiring
patronage
tabourines
decreed
decrease
decrepit
debatement
lunatics
shafts
disloyalty
celebrat
patterns
benches
cedars
echoes
ferr
ferry
nutmeg
pantler
pantaloon
rivall
reeky
vaudemont
primal
sewer
abjects
advertise
advertised
competent
competency
compulsive
pupils
dishonestly
irishman
languishes
chimneys
festinate
festivals
gestures
ouphes
ratsbane
sessions
yarely
##pital
whereso
brimful
canopi
worshippers
margarelon
flinch
quintessence
pacifi
pacorus
deposed
venetia
surmis
wafts
waftage
displeasures
compassionate
corrects
adulterous
inhabitants
direst
ditches
fadge
hooks
radiance
tackl
beckon
shearers
unconquer
separate
wherewithal
saucily
quills
pollut
pollution
polyx
bretons
prescript
smacks
confused
curtsies
parishioners
denials
barbason
intrench
demonstration
surprised
dunghills
digging
succeeders
reconciles
planetary
dallies
daintily
daintiest
gingerbread
mamm
osiers
waggish
shells
##chanals
prerogat
reveller
revellers
enacts
gobbets
blisters
leda
graybeards
betideth
adoration
adornment
coaches
predominate
attribut
attributes
reserved
courtezans
treatise
edicts
exposure
straitly
survives
survivor
memorial
wreaths
hyperboles
hyperbolical
torturer
bruised
influences
moderately
resembled
perseverance
cobwebs
unquietness
eclips
fumble
fumbl
felony
felicity
icicle
juggler
kitchens
larum
larums
operant
pelf
pelion
sterl
sterner
vaunts
myrtle
shrub
shrubs
heretics
goblin
spills
channels
conjectural
severely
scalp
scrip
scrivener
induced
assigns
sentinel
cambria
verdure
woodcocks
philomela
importunacy
caterwaul
equivocation
unpregnant
multitudinous
interpreters
subscribes
olympian
cottages
dastards
gems
rooks
topples
inscul
inscription
shocks
stags
anthropophag
herrings
chanticleer
chicken
unscarr
sectary
plaintiff
scythia
scythian
clogs
quotidian
ergrow
glimpse
controller
presageth
parrots
parlor
eyebrows
carnation
misgovern
misconstrue
hitherwards
penetrable
verba
steerage
superstition
massacres
multipli
assemblies
popularity
discreetly
custard
cuffs
daffodils
fiddle
fiddlestick
tincture
yorick
total
novices
invect
meadows
stifl
astray
astraea
dexter
tradesmen
congregat
unsway
unswear
unswept
unlocks
swept
dissuad
ertop
ertook
erturn
communication
contaminate
harbourage
harbingers
besmirch
retorts
subtlety
victual
illustrate
properti
rubbish
infring
infallibly
garbage
tributaries
hermitage
riddance
variation
thunderbolts
reverently
hymns
intellectual
bonfire
privilegio
perpendicular
esquires
gorgon
primroses
disfigur
petticoats
cowslips
cotus
ceased
fencer
giglot
linguist
mandragora
sceler
sizes
tilth
tilter
##fullest
##keeper
prentices
prudence
enkindle
herdsmen
sundays
spartan
logic
bricklay
bristl
brushes
blessedly
placket
letharg
laudable
grudges
abridged
ersway
ershot
ershades
commencement
coursers
guileful
gibbets
humanely
passenger
accoutr
accoutrement
accoutrements
overlooks
carbuncles
lukewarm
palsi
metaphys
expertness
tenantius
tenantless
gawsey
mockeries
speculative
admonition
encouragement
temporiz
amazonian
wreakful
epithets
diminution
augurer
exhalation
exhalations
consummation
unexpect
votarist
austerely
unconstrain
foretells
equivocal
superstitiously
catechism
alderman
aldermen
certainties
gouty
hests
jurors
jurisdiction
loneliness
leaky
mishap
mishaps
nipple
passeth
ptolemies
sampler
tassel
tetter
ulcer
beadles
injunctions
fridays
enseign
trample
trampl
chalice
unprun
unproper
screen
dislikes
dislikest
partisan
mazzard
appeased
attracts
attractive
imposthume
pausing
disparagement
misleader
pharao
bacchus
bacchanals
distribute
distribution
chevalier
captivate
untuneable
defaced
hurlybur
mountebanks
christophero
urchin
savagery
contrarious
philotus
positively
unparagon
unburi
unburth
unmasking
inquiry
obscenely
perturbation
magnificent
magnificoes
rehearsal
released
whirlwinds
paradoxes
aesculapius
flexure
flexible
ipse
ipswich
muzzl
muzzle
munition
nicanor
psalms
pewter
pensioners
sarcenet
xiii
##ffed
beldam
beldams
ingraft
stupe
priority
sobriety
lizards
enchants
enchaf
goodwin
exorcist
unnot
unnumber
unmeritable
wassail
wassails
seaman
outwear
laundress
performs
performances
adjunct
adjacent
erhang
sluttery
precipitation
composed
housewives
housewifery
housekeeper
induction
indictment
indiscreet
indiscretion
indulgence
criedst
trappings
overshot
associate
horsemanship
palfrey
palfreys
entitl
entitle
baffl
baffle
recommend
recommends
demurely
possibility
possibilities
incarnate
urinals
duello
duellist
odouriferous
solicits
solicitor
sensuality
wagoner
hyrcanian
daisies
domineer
superficial
superficially
conjunctive
inquisition
inquisitive
superscription
malefactors
difficulties
anticipat
tragedians
nominativo
inexorable
anatomiz
anatomize
diminutive
diminutives
ingredients
azur
aurora
bombard
dandle
dialect
dungy
hangeth
hesperides
kettle
kidney
louvre
maggots
oeillades
pomegranate
pamper
pierces
pannonians
tanner
tourney
velutus
##ciqualt
##writ
thimble
whitsun
inseparable
shackles
forenoon
stigmatic
priesthood
primero
reliques
heritage
##raphy
gondola
sultry
tranqu
chirrah
cheapside
upstart
upshot
amplest
unyoke
unrespective
uneasy
canvas
swarth
ardour
alphab
alchemist
scambl
scutcheon
scorpion
outswear
cavaliers
saxons
clients
lacedaemon
grappl
quiddities
roguery
mollis
ermatch
erleap
erflows
participate
mahu
sluggard
contribution
remarkable
execrations
conformable
consonancy
consolation
cradles
countenances
impetuous
impostor
impertinent
drachmas
edifice
accumulate
subsid
correspond
mischievous
pardonnez
barricado
burghers
beaumont
situate
metamorphos
castaway
gallowglasses
malcontent
blackamoors
academes
doncaster
salutations
embolden
snapper
intermingle
undivulg
undistinguishable
ambiguities
paphos
excitements
elegies
woodvile
unwittingly
lyingest
unhandl
unheedful
avarice
dismantle
unprizable
unsuitable
unsanctified
circumscrib
circumvention
epistles
cockatrice
negotiate
florentines
cynthia
cygnet
prolixity
testimonies
intelligenc
clotpoll
sanctimonious
giddily
polecats
enfeebl
hedgehogs
hungary
reinforcement
leviathan
fidelicet
unconfirm
intruder
ethiopian
amplify
scarecrow
congruent
epicurean
cautelous
unveiling
muscovites
thessaly
excommunicate
unicorns
voluptuousness
aeac
ainsi
aussi
bouciqualt
balsam
biscuit
cucullus
cophetua
dilem
ditties
dalmatians
eterne
fundamental
gosl
gordian
gascony
germens
gillyvors
houseless
hospital
huddl
hottest
ithaca
january
jutty
jaundice
kimbolton
kendal
kibes
kitten
luscious
longeth
naso
nessus
nibbl
oyes
pavement
ralph
rational
reechy
rinaldo
rannest
skein
squeal
tuscan
tadpole
toryne
uglier
vlout
vraiment
vincetino
vendible
vintner
viceroy
yerk
zodiac
##rinth
##break
##orrect
tolerable
bechanc
inordinate
inaccessible
shafalus
foreshow
steely
stubble
buttocks
prostitute
pristine
pribbles
prenzie
prenominate
dobbin
ongles
frolic
enforces
degrad
deucalion
golgotha
spousal
spinsters
trinkets
tristful
chartreux
nemean
neanmoins
bringeth
orthography
faculty
fauconberg
conjointly
unassail
unkennel
unbridl
swabber
aristotle
ariadne
seditious
marigold
whereuntil
madrigals
sciatica
caithness
caucasus
sabbath
disembark
labyrinth
flibbertigib
quagmire
abysm
prognostication
struggle
gentilhomme
menecrates
articulate
adramadio
errule
sweetmeats
glansdale
armigero
witnesseth
underprop
setebos
thrasonical
improvident
bracelets
retrograde
accursed
feodary
corrigible
corrosive
misdemean
misinterpret
pheasant
illegitimate
significan
intemperance
emphasis
furlongs
recollect
reciterai
capucius
provincial
somerville
apricocks
demoisell
garboils
gallimaufry
minerva
inconsiderate
hurricano
synagogue
volubility
countercheque
insociable
archdeacon
sacrilegious
bergomask
terrestrial
mediterrane
mulmutius
bricklayer
pharaoh
hurlyburly
flibbertigibbet
2d
4d
5s
6d
8d
aet
aves
aio
aeg
aerial
bord
bight
bunt
boss
batch
bakes
bents
bav
bund
bash
bump
bask
bowers
bina
ballow
berm
bouts
borders
bunches
bicker
bibble
cos
ces
cet
cath
cess
cil
cak
caster
cout
cors
cower
coud
cents
cues
coura
cne
cask
coop
casion
cots
ciel
copat
cades
clys
cinct
coops
cesse
cicester
coulter
ciphers
cerns
cetera
dee
dore
dich
dild
dought
dint
dows
dans
dern
dips
dangl
douts
dulch
dabbl
dunnest
dudgeon
eo
ees
eves
eau
eets
eject
eale
eeds
ego
ecce
egress
ecol
ebon
eget
eisel
fu
fos
fis
fas
fart
fick
foss
fides
fats
fils
fidius
fane
filius
fives
fico
fops
fenny
gis
gour
gip
gang
gend
gau
gail
gask
gays
gaps
gathers
gelt
gouts
gales
gagne
gatory
gutter
gudgeon
hi
hul
hig
hick
huse
hors
hench
hib
hys
hives
hirt
hutch
hinc
hyster
hulk
io
ils
jam
jord
jol
jose
jull
jakes
jets
jeal
junk
jays
jane
jug
jutt
jenny
josh
jolt
jounc
jingl
jeshu
jowl
jowls
jacet
kere
kam
kild
keech
lis
las
lorn
lakes
lade
lush
loof
louses
louts
lomb
lemon
mim
mome
mose
mic
moun
mio
mack
mith
mull
mite
muck
mower
mought
mains
mister
mund
mixt
mites
masons
mores
moult
mugs
mugg
nd
nu
nere
nee
num
noun
nons
nsc
nines
naps
nub
nerv
noster
nicer
nazar
nai
neaf
neeze
nieces
ov
oat
oes
oar
ous
oli
ods
obe
omen
osc
oils
osp
ocul
olives
pes
pim
poo
pid
pose
poun
pold
pius
paster
pree
pign
pears
pits
pany
piers
pible
pott
pipp
peds
pella
parel
pione
pomm
pashful
pareil
penel
poulter
pizz
pibble
ry
rere
rim
rak
rother
rio
rakes
rains
rins
rif
rony
raps
routs
rangers
rims
rakers
san
sut
soo
sest
sain
sould
sie
sant
sate
sene
soss
satch
sne
sipp
sym
sallow
slys
sde
sfoot
sutton
sooty
tos
tous
tic
tile
touse
tens
tund
tutus
tally
tank
targe
tames
tann
tester
testern
tattle
ub
udd
udge
useless
vur
vid
vant
vive
vind
vort
vide
ved
vene
vert
voud
vix
volk
vina
vald
vails
vais
vouts
vhere
vicero
vivo
vesper
wn
wer
wri
wains
wott
wane
wann
wanders
wester
wouns
xv
xiv
xanth
yest
yed
yau
ycl
yaw
zo
zw
zen
zan
zone
zany
zeph
zenel
##aes
##aea
##aust
##aol
##aire
##aber
##aith
##aign
##aiss
##aits
##acl
##actor
##avers
##autus
##aime
##aider
##ailles
##aurs
##aquit
##dance
##down
##dder
##dles
##diness
##dits
##days
##duc
##dalls
##drops
##disses
##ees
##eall
##eard
##eful
##eons
##eens
##ecl
##ecut
##eque
##eurs
##eges
##eads
##eche
##echo
##oan
##oin
##oas
##oit
##oge
##oct
##oks
##oken
##oys
##obb
##offer
##oker
##oics
##oculate
##sa
##sil
##sol
##sides
##suff
##sley
##smore
##satory
##slips
##tes
##tur
##test
##tak
##tress
##tree
##tro
##tiss
##tail
##tesy
##tler
##trip
##tieth
##tereth
##rut
##rim
##rue
##rast
##run
##rich
##ring
##rence
##rink
##rance
##rook
##round
##ratch
##rung
##rider
##rines
##rites
##riel
##ricious
##riment
##rades
##roph
##rangle
##rised
##rists
##ios
##ige
##iour
##iation
##iber
##iap
##iates
##iations
##ictions
##iverse
##iatic
##ikins
##iases
##gm
##gest
##gare
##gian
##gister
##gates
##gays
##god
##gorge
##gado
##guish
##gamo
##nn
##nal
##nell
##name
##nise
##nown
##nier
##nock
##nows
##nines
##naw
##nails
##nesus
##nuts
##nomy
##mos
##mere
##math
##mill
##mell
##mness
##much
##mel
##mouse
##mits
##mates
##mires
##maf
##mek
##matic
##monds
##mirch
##malkin
##macet
##vat
##van
##vouch
##vally
##vities
##vantage
##vado
##vator
##vais
##ville
##vised
##viat
##vato
##vonshire
##ba
##bas
##bal
##bold
##bed
##bery
##bbl
##bier
##bru
##brace
##bod
##brey
##bals
##borough
##buts
##bulate
##balls
##bird
##brave
##bien
##breast
##bdis
##lim
##loo
##lest
##lie
##lant
##lers
##lius
##lough
##lap
##lace
##lave
##lins
##lime
##lices
##luous
##laughter
##licate
##lagon
##lubber
##lestick
##lasses
##lvan
##hun
##hers
##hort
##heet
##hab
##hav
##hires
##hives
##hopp
##hoard
##houses
##hole
##hapen
##pos
##pur
##pra
##post
##pate
##pic
##pence
##pick
##paint
##poke
##plet
##pters
##pane
##pierc
##pered
##passeth
##pieces
##ponsive
##uk
##uar
##uent
##uid
##uest
##uence
##uage
##uces
##ubl
##uild
##uits
##uys
##ucul
##ubar
##ubus
##uption
##ugnant
##uosity
##uvres
##uffed
##cu
##cos
##cis
##car
##cre
##cit
##cur
##cter
##cim
##cake
##cun
##cill
##cust
##cive
##cate
##corn
##case
##cull
##ciss
##cret
##cents
##cally
##cument
##cility
##cony
##ciful
##cote
##cced
##cule
##cuss
##crest
##cadoes
##cchus
##curg
##ka
##kil
##kley
##kirt
##kworth
##yer
##yers
##yance
##yris
##yrian
##ydon
##yvally
##ybdis
##ylvan
##word
##wich
##wine
##worn
##wist
##wald
##wax
##wler
##women
##wedst
##weari
##xes
##xit
##xim
##xicates
##fth
##fas
##fish
##fig
##fire
##ffect
##fond
##fitt
##fters
##fied
##finger
##fares
##zur
##zand
##zant
##zers
##zens
##zaments
##zonet
##zonians
##ja
##jay
##jus
##jour
##jock
##jaz
##jug
##junction
##journer
thar
thas
thra
thum
theret
thaws
thoas
##eros
##erin
##erit
##erly
##erra
##erate
##eric
##eriz
##erner
##erary
##erne
##erald
##erica
##erza
##eratur
##ercim
##oux
##ousel
##osa
##oser
##osom
##osella
##ndre
##ndle
##ndra
theise
thebes
theban
##orch
##orse
##oration
##orister
##orps
##oriz
##orily
##orary
##orally
##orges
##ata
##atus
##atim
##atant
##atures
##atoes
##atulate
##esile
##esian
##lless
##llors
andir
andren
##iso
##isy
##isar
##isen
##isit
##isal
##isant
##isance
##isition
##isms
##iseness
##isque
##isco
##isky
##isadoes
##isoned
##ara
##ari
##arri
##ariss
##arina
##armon
##aritable
##arnish
##aritably
##arvonshire
##arosa
##eno
##enon
##enit
##eniss
##enible
##enne
##enters
##enitive
##ennines
tod
tog
toge
tods
todd
toled
toaze
##onc
##onour
##onia
##onable
##onair
##oniam
##oncer
##onato
##onimy
##onnesus
##onwald
##thl
##thly
##thee
##thill
##thook
##theus
##thoriz
##anie
##ania
##anize
##anied
##anapes
##anquish
##inx
##inse
##inine
##inity
##inap
##inian
##inister
##inents
##inople
##inally
##inters
##inoc
##inaries
##inquish
##inquity
##initat
##inhab
##injay
noes
nole
noces
nooks
noyance
whi
whim
whoo
whew
wholes
whales
wheez
whizz
wire
wiry
wipes
##veys
##oms
##omer
##omet
##omest
##omuch
##omaster
##omber
##omile
##omper
##omeness
##ominy
##omuld
##omitus
##reas
##reath
##ream
##reate
##reets
##report
##reviat
##rendre
bean
bever
beart
beare
beto
beel
beans
befort
bepr
bechance
beliest
beaks
bemo
bemoil
beareth
bepaint
bezonians
init
inure
inurn
inro
ingl
inaid
inshipp
inaud
injure
injoint
inlay
inlaid
informs
inshell
inauspicious
inoculate
hect
heli
hems
heats
heires
hews
heareth
##asive
##asily
##asoned
##ceas
##ceable
##ceiver
##cepter
shir
shoo
shal
shive
shrow
shorn
shatter
shav
shank
shod
shaw
shov
shrows
shiny
shales
shoughs
shrives
shooty
shrove
shriver
hai
hac
haver
hander
hamp
hagar
haec
haunch
haeres
haunches
hauf
##eton
##etas
##etter
##eties
##utors
##utify
##utual
##utiful
##chos
##chain
##chia
##child
##chne
##chford
##choll
##cheat
forag
forks
forweari
##leth
##lemen
##lebr
meer
meus
meed
mement
meph
melf
meac
meher
meeds
meiny
mewl
meille
meanders
memph
mede
medler
meisen
ise
isra
ista
iscar
##ira
##irl
##irical
##ereal
##usse
##usical
##usium
##usadoes
##uscadoes
##itl
##iton
##itas
##itie
##itant
##itto
##itress
##itless
##itier
##itans
##itime
##itters
##itations
##itaries
##itoes
##itopher
##itifully
##itivo
##itutions
##itimation
##itzers
notre
notly
notest
noting
notons
notations
notably
notedly
notling
notched
withold
withered
withstood
##urer
##urie
##urance
##urdy
##urial
##urions
##urren
##urses
##urday
##urden
##urten
##urgeon
##uriously
##urably
##urmur
##urism
##urcho
##urpos
##urisy
##tereness
##termin
##gham
##ima
##iman
##imit
##imber
ition
##oolf
wee
weet
weals
weathers
weavers
wezand
stell
strown
steed
stover
stinks
stunk
stog
stokes
stitch
stabl
stacks
staider
stoics
stuffed
sturdy
##sea
##sed
##seur
##kept
##kels
ascent
asher
ascan
asaph
aspers
asked
asmath
aslant
##add
##ader
##adus
##adine
##adies
##adne
##adoc
##addl
##adrangle
##advantage
##alut
##alour
##alia
##alable
##alions
##aliti
##alteries
hisper
hisses
thistles
prie
prene
prief
prides
pranc
prague
pragg
primo
prisc
prouds
priser
priap
sod
soit
soly
soto
soars
sobb
soils
socks
sots
soaks
sojourner
##entum
##entry
##entrion
##idom
##idery
##ididence
##idency
##idulch
##idicut
##idatus
##allas
##alline
##alling
##allible
##alliest
doin
dock
doing
doorn
doits
dodge
doters
doxy
document
dozens
lig
lither
libb
lictors
libell
lifter
libels
##omew
##athy
##lytes
##lygod
willers
willful
willeth
willfully
##amin
##amas
##amble
##ampt
##amia
##amander
##amuff
##ambles
##amonius
##ambulate
##eezes
ansel
ancle
anna
##orde
##ordo
frock
frush
fripp
frays
frances
framp
fraction
fringe
frisk
frutify
fritters
##estone
##estate
##estibus
rends
rewell
recl
rector
redd
reject
rears
really
reaps
reclus
rectors
rejourn
reenter
rebeck
reiterate
recheat
enra
enst
enfe
encl
enoint
encel
enwh
enchas
enrages
enrobe
enclose
enrob
enridg
enpierc
deo
deft
decept
decent
deals
deify
dewd
decks
delect
deesse
deja
herbl
hercule
##ckles
##cknock
##verin
##ionate
##iem
##iew
##iez
##iels
##ieurs
##rak
##raves
##raff
##ractor
##raps
##railles
##raws
##raffed
##rabas
##geable
##gedness
##gemont
##thers
##theran
goer
goeth
goads
gogs
governess
suive
sump
suret
sueth
sunders
succed
suerly
allich
allott
allays
allied
##ourous
##ourne
##ston
##stain
##stake
##step
##stable
##stals
##stairs
##stores
byzant
spea
spil
spri
spig
spire
spears
spans
spied
spades
sperm
spelt
spann
spaces
sprag
spangle
spinster
spieth
sperr
spreads
shallenge
##ando
##andine
##andler
##andums
##eaux
##eagu
##eaceable
##aked
ifs
##arden
##ardinate
##ardism
##ardonable
knitt
##ilon
##ilial
##iliest
##iliano
##ilworth
##ilitud
loa
loon
loather
loach
lobb
loaf
loaves
loosen
lozel
loquit
locust
trill
trout
trough
trier
tromp
tranc
tripe
tried
trouts
truster
trusters
tromper
triton
##ctus
##ctial
##ctuous
chi
chus
chess
chol
chry
chic
chare
chud
churn
chans
changer
chats
chipp
chape
chinks
chuff
china
chines
chaces
chops
chopt
chien
chirp
chisel
chorister
chetas
chitopher
chandler
ourage
lordliness
nec
neop
nemes
nefas
##astic
##astrous
thereabout
goodfellow
goodrig
goodfellows
manus
manur
manure
manual
mangy
manna
mantles
mangers
manikin
manka
upmost
upris
uphoard
brind
brig
brunt
brock
brund
briare
briber
brisky
brambles
##unter
##unire
##unite
##unci
exto
excl
exchang
exclamations
exteriors
exsuff
extermin
##ichard
ords
orife
orodes
##illant
ames
amour
amble
amph
amaim
amyn
amerce
amamon
america
nowhere
##ellish
##ellation
##elligent
comers
comag
comings
comfect
comond
combless
comrades
##antos
##antly
##antua
shew
sheal
sheff
shelf
shews
sheweth
shekels
##feer
##fecter
fap
fais
faut
fait
faites
fausse
conies
conca
congr
congre
##earts
##earten
##ustres
##artite
##artarosa
##inel
##inew
##ineal
##ineous
##inego
##ousus
##osted
##ostoph
entering
##otes
##otence
##ottle
##otinus
##otaurs
##otamia
##otartarosa
comeliness
comelius
hereupon
unow
unri
uned
unau
unro
unach
uncome
unper
unint
unfor
unband
unfort
unner
ungue
unno
uncom
unclaim
unser
unque
unbroke
unapp
unread
unriv
unblood
unvis
unrip
unagre
unblind
unjoint
unroof
unimp
unvener
unwept
unarms
unrais
unactive
unauspicious
universe
uninhab
unkept
unrak
unctuous
##ingue
##inglike
##inguit
##ingoes
##ingdon
##ingtree
wouldest
##erson
##erspur
##ules
##ulis
##ulus
##ulge
##ulence
##ulity
##ulkin
##ulency
##ulked
##ulatives
wasters
knowings
moreo
##oli
##olver
##olate
##olies
##olier
##olois
##oluble
##ologe
##olinel
blur
blith
blither
blains
blues
blanc
blowers
blurs
bluish
blois
blusters
blesseth
blurt
blurr
blustrous
bluest
blomer
canis
canons
canaries
cancer
cancels
canzonet
##vency
##venoms
sward
sware
swag
swans
swung
swagg
swoll
swinge
swerver
switches
swelter
sweno
swirl
switzers
swaddl
howls
howso
howsome
##osed
seed
seely
seedness
seethe
##umond
ark
arion
arous
aries
arto
aria
arouse
arises
artery
arde
arteries
arrear
##bled
themes
loveliness
##amels
##ishonour
whences
sayst
##indo
##indure
boom
bobl
boors
bobt
boars
boggl
boggle
bohun
bocchus
boitier
seer
sept
seash
severs
sedge
seym
seams
seamy
segreg
seige
##ppen
##ppish
##ppado
##ppele
wort
worest
worri
worries
##ici
##icos
##icter
##icam
##icest
##icers
##icable
##icens
##icians
##icative
##icums
##icircle
##icorde
user
usances
ushers
marl
marle
marge
marbl
marvels
marmos
maritime
likedst
##rowl
pli
plue
plates
plats
pliant
planch
plantage
plighter
plait
plautus
plurisy
oneyers
didest
diddle
##inker
whereout
madst
##rix
##rike
##riest
##riff
##riation
##riptions
maypole
alit
alters
almond
alton
alway
scut
scall
scound
sciss
scions
scram
scroy
scripp
scoffer
sciatic
scamels
scrowl
##oples
##opoly
##opts
##oportion
##opulate
##opardy
##oponnesus
##opotamia
shouldest
greens
greener
greases
greasily
outro
outsc
outsp
outcri
outstood
outdone
outcry
outweigh
outfly
outpriz
outfac
outworths
outgrown
outbreak
outsides
outbrave
outvenoms
cag
caw
cael
cabb
cables
caelius
cacal
cacod
caulk
cauf
caetera
caulked
saxt
saba
agu
agood
agile
aglet
agaz
aggr
agenor
aground
agnise
dised
disag
disbr
disjo
disrel
disallow
disnat
disanim
disability
disorb
disarms
disvalued
disvouch
dislim
disjunction
disadvantage
disastrous
disunite
##ookish
tway
tweak
twang
twel
twits
twitt
##emious
##eminence
##emunire
##igl
##igre
##igance
##igig
##igies
##igness
##igable
##igram
##igrates
tissue
leve
leet
leur
lege
leers
leets
levers
lecon
lequel
lechers
levels
leases
leiger
timor
speakers
##icehood
clare
clack
clatter
cluck
clover
clung
clov
clowder
clinqu
##ffs
laus
laqu
laces
labe
lagg
labras
lacies
labell
labien
##pts
##ptic
##ptoe
honi
godheads
hearten
hearted
heartless
heartiness
heartlings
heartstr
heartbreak
gravest
grafters
flar
flour
flakes
flail
flagg
flann
flote
flirt
flaunt
flagon
fluster
flieth
flutter
flaky
flicker
fluent
taketh
##ickers
quat
quay
quam
quare
quies
quatch
quakes
qualt
quitt
quern
quoint
quilt
quivers
quae
quinces
quitted
quasi
quaes
quoniam
quinap
quadrangle
##isees
gros
grates
grund
grubb
grubs
gruel
##orne
pok
poke
poem
ponds
poised
thinking
looking
lookers
abates
abash
abler
absey
abuts
abutt
abbeys
abridg
abaiss
abrook
##edd
##edos
##edalus
##editat
##edral
##edgeable
norways
northerly
norbery
##ipation
##iples
##ipool
propp
procl
progne
probal
##tolly
##uchadne
##assination
##isting
##istress
##istrel
##isticat
##istration
heapt
strid
stross
stroy
struts
stricter
eyas
eyest
eyases
award
awhi
awaits
##udition
##udges
##urnt
##urnal
##urnity
##agu
##agery
##agation
##agons
##agancy
##agulate
offered
offensive
timelier
descents
hearings
hearths
gentile
gentlest
breff
brews
breese
brevis
brecknock
server
sermons
sereniss
warren
warkworth
menon
menac
menaces
menaph
betoss
##quar
##quam
##quers
##quies
##quents
##quities
##quote
##quoise
perk
peria
perman
pervers
peradvent
percies
permissive
permaf
percuss
peroration
perfecter
fob
foal
fonder
foins
foals
foisons
foamy
foeman
fodder
foppish
exits
roes
rove
rover
roist
roguish
rochford
frieze
earwax
fairings
moy
mover
mopp
moors
moths
moorship
moated
##enean
artus
artless
artif
artists
adown
adult
adsum
adallas
adopts
erbl
ergl
ermen
erwe
errant
ernight
erread
ercame
erval
erborne
erdo
erwatch
ertopp
erslips
eruption
erworn
eringoes
erudition
praying
wrang
writs
wroth
wringer
wronge
wrists
masterdom
masterpiece
##elier
##eliest
##eliev
##eliver
##elestibus
deathb
deathful
deathmen
##berates
handy
handles
handwrit
bloodi
bloodier
bloodiest
bloodstain
dupp
duff
##ressive
otherwh
othergates
partest
parting
partakes
partially
partaken
partakers
comme
commix
commixt
community
commotions
commingl
commutual
##endo
##endre
##endum
##endix
plebs
pleines
##ighbour
leah
leaver
lifelings
##aub
##auce
##aper
##apets
##aplas
##ivility
##ividable
drought
drains
drouth
drov
droll
drugg
droven
droit
drudges
mais
mapp
maces
maison
mails
maled
mazes
mappery
maxim
madeira
job
jole
jogg
jocke
joinder
joineth
beforehand
cocy
cods
codd
cogn
cohere
covets
coblo
coactive
cohort
colebr
coctus
coistrel
coagulate
coelestibus
glar
glut
glue
glose
glare
glows
glues
glover
glaz
gloster
glanders
glutt
ladybird
ayez
sonance
sonties
##ianc
##mpl
trueborn
truepenny
honourest
slit
slake
slish
slak
slope
slab
slides
slunk
slipt
slops
slaver
slobb
slomber
##acels
appren
apperil
appris
approp
apprent
appurt
appeall
apprendre
appurten
appendix
##iacy
owns
ownself
##ulli
##iteth
##itect
##iteous
##ropp
##roach
##roys
##rovest
##robable
##rocos
pread
preform
predi
preocc
preface
predest
prethee
preambulate
preeminence
afield
aflo
affeer
##ossible
antick
antres
servility
brotherlike
arma
armed
armory
##manity
##manuel
meaneth
worldlings
downs
downstairs
womby
compile
comprem
composes
compris
compunct
compeers
compensation
comprised
contre
contends
contume
contraction
contusions
contrives
waylay
waylaid
##bleness
##blaze
leavetak
prester
presag
president
presences
presupp
preservers
presenters
headed
headier
headsh
firing
firago
mightest
mightful
longly
longing
longings
longbo
##ccare
##ccicos
fooleries
begnawn
begrim
begnaw
remonst
remercim
courier
couronne
intoxicates
repur
repine
repass
repel
repliest
reporter
repugnant
##swer
##swear
##swick
##swold
keepdown
##gless
##glance
##glary
tillyvally
##lipp
##liction
hoc
hoise
hovers
hoary
hoars
hodge
hobb
hoxes
olden
oldness
queas
queubus
showing
purr
purus
purify
purvey
purifies
purlie
exequies
nayward
nayword
merest
merops
mervail
meridian
thoughten
indit
indue
indite
indiss
indues
indub
indigent
indistinguish
indrench
indurance
individable
##uckl
##uckold
wittolly
gracefully
mists
mistful
mistlet
mistread
mistres
findest
findings
findeth
chares
charon
chariness
charmer
charne
chariest
charities
charbon
charitably
characts
charybdis
charolois
newts
newgate
##ilds
##issor
##issart
##onsul
##onsolate
dears
dearness
##erti
##erton
##ertime
##ertainties
holder
holden
holders
##phere
##phire
##phoses
##phlets
fortified
fortifies
fortification
followest
followed
harum
harri
harper
harford
harrows
liegers
bestain
bestraught
sleid
sleave
sledd
fells
fellies
peaces
peaches
attains
attask
attraction
guys
guiana
guien
guerra
guichard
underlings
underbear
underborne
undergone
underpriz
undervalu
undervalued
underwrit
undercrest
truie
trundle
stilly
stiller
peacemaker
peacemakers
richmonds
livelihood
livelier
livedst
smit
smatter
smatch
smoth
smalus
smutch
smulkin
natur
natifs
everyone
belt
belman
belock
belches
belfry
highmost
highwr
thrush
thralls
thromuld
throttle
##dsters
worths
worthi
confix
confron
confutation
confesseth
fortuna
staying
endart
ended
endows
endures
endym
endavour
##ewail
elvish
conspect
conserv
conserve
considers
crost
crone
crare
crants
crash
crank
crams
cranks
cringe
crusadoes
littl
litigious
literatur
younges
youngly
younglings
diedst
devin
devest
devises
devoid
devote
devonshire
tongs
giber
gibe
giants
givers
gibber
counted
##perates
##perienc
##pernell
engluts
ember
emerald
emmanuel
emblaze
fallows
falleth
fallacy
besom
beslubber
bescre
impal
imply
impast
impound
impaint
impale
impenet
impres
imposter
impetic
improve
impieties
impotence
improbable
placed
resum
resound
resounds
resurre
reserves
resorters
curlish
curled
curvet
curdi
curvets
playing
playeth
faithfull
##opefullest
behoof
behowls
resty
restem
restful
restores
answerer
answerest
answering
parable
parles
parca
parfect
paritors
parler
parcell
paraquit
parsley
parmacet
paragons
parapets
paracels
friended
friendless
friendliness
falourous
humbles
courtney
turneth
turnips
##beat
##becility
passy
passant
passing
passive
passio
drake
drabs
drabb
fullam
fullest
fullers
##intida
biddy
bidden
kindless
kindlier
woos
wode
womankind
bracy
braced
brawler
bragless
minded
##retia
trebl
treys
tremor
trempl
retract
retails
retinue
retourne
villager
villagery
vales
valence
valance
valenc
valentio
eden
edition
edifies
accit
accidence
acclam
accrue
paction
paby
pails
pailful
pabble
paunches
pajock
patay
pattle
patines
patrons
paternal
##mency
peis
peise
peize
pecks
pegs
pecus
peereth
peoples
soldat
soldest
seemly
seemest
seemers
seemingly
meetly
horiz
horrider
horologe
childness
childeric
tapp
taber
tavy
tawd
tacked
tacit
killen
killest
killeth
forthright
forthlight
crownet
crowned
backdo
diver
dipp
diction
dieter
diverse
dibble
dizy
diurnal
diaper
traces
travers
traitress
actively
ereye
antoniad
overt
overcom
overgo
overhold
overhead
overfl
overmaster
overshine
overcast
overweigh
overset
overgone
overgrown
overpass
overwatch
overfar
overtopp
overrun
overgorge
overmuch
overloo
overfond
overswear
overglance
troat
troien
trovato
subvers
submer
subsequ
submitt
subverts
submits
cars
carat
carest
carves
carack
carman
carper
carcan
carlot
caracks
assence
assures
assub
asshead
assaileth
assuage
assyrian
assinego
assassination
spirt
spirts
farc
farer
farrow
farms
monks
monastic
monopoly
pleaser
pleasers
pleasance
saidst
husbandless
dreg
dreary
sleeping
marrying
lutheran
luccicos
wrongly
fends
feud
feith
fevers
fecks
fehement
febru
##insicate
lighted
reader
readins
readily
bann
banister
banbury
viand
vizaments
earthen
earthlier
helpers
attendeth
heardest
justs
justl
justest
justness
justles
justeius
justified
justification
justicers
dispark
disputation
disputes
disponge
disprov
dispenses
dispiteous
disprovest
suffices
suffoc
suffrage
suffered
suffocation
suffigance
thanking
breathest
breathed
camels
camelot
powerless
powerfully
##ifes
##ifiers
##ifical
##ifluous
wearest
wearing
wearers
wearily
weariest
prawls
praecl
praemunire
##garnet
handsaw
handsomeness
lawrence
causeth
discomm
discerner
disciples
disconsolate
godson
henn
henri
henric
pardo
coroll
corbo
corky
corrup
corrob
corantos
misapp
misadvent
misgu
misde
mispriz
misanth
misreport
misquote
##abit
##abble
##abel
##abris
##abras
##abilitud
##psy
##pses
##pson
opal
opulency
yeas
yead
yeomen
ratherest
shamefast
buskin
busky
pardoner
layer
layest
laying
advocation
##caonia
forgone
fellowly
getter
##fectness
wisher
wished
wishful
wisheth
fightest
fighteth
soundness
soundless
soundpost
statelier
strivest
reasonably
secur
secund
##lands
muss
muses
mussel
musco
muscles
denounce
denunci
baron
barter
barrow
barful
barrel
barrels
barrabas
lucretia
##fortable
##entship
seniory
senoys
landless
landmen
runner
runners
runyon
phib
phars
pheez
phleg
photinus
honestest
##rubb
##ruosity
##rucio
purport
purples
instate
insteep
instigate
instigat
instigations
institutions
swearer
swearing
commande
illness
illume
illiterate
obidicut
signor
signum
signified
signiory
sealed
seafar
tearsheet
##undity
returned
persia
persists
perspic
sawpit
sawyer
majority
mural
murray
murky
murrion
##ibell
##ibans
##ibald
##ibindo
##ashionable
##ountered
drawl
drawest
drawers
drawbridge
darter
darius
darks
darraign
imbr
imbar
immanity
imbecility
fired
firewor
firework
careers
careires
tittle
tittles
crying
flying
intil
intric
integ
intimation
intenible
intestate
sunless
sunris
sunbeams
sendeth
talkers
vox
voce
faultiness
windr
windpipe
windmill
windlasses
weepings
clause
##jections
villainous
villainies
freezes
empale
promulg
blesses
furor
furze
furzes
proved
provexit
spirited
hardiest
palat
palamed
palisadoes
palabras
cassado
cassocks
entry
entame
entangl
entered
entwist
entendre
musics
auld
aubrey
aucun
baa
baily
bawl
baille
baiser
bajaz
baisant
baisees
baccare
clew
clef
clept
clement
clepe
clemency
wincot
wingham
countrywoman
burrows
burglary
temps
wantest
quicker
quickness
quicksand
quicklier
quicksil
halfwor
halfpence
groweth
suppers
suppresseth
supporters
suppertime
believed
generations
generative
generosity
sorrowest
types
tymb
propre
propound
propend
propont
proposes
propension
propugn
propinquity
propagation
protester
##byses
sicker
sickli
sickliness
sicklemen
depress
depute
depths
deprave
depender
depeche
depraves
depopulate
royalize
metres
metrop
mette
mettest
birch
recure
fitful
capite
capoc
capric
capability
capricious
provand
provides
provider
provoker
proviso
somme
##ourag
distain
distast
distains
distingue
##ompreh
##ompani
##ompasseth
castigation
castigate
castalion
castiliano
worky
workers
sisterly
proudlier
apter
apostle
apennines
rugs
rupture
ruptures
footmen
footboys
footfall
footstool
footstep
expels
expires
expiate
expec
explain
expuls
expresseth
boundeth
dogfish
leaders
airless
skains
skulk
skilfully
skitless
skamble
skinker
demur
demise
condol
damon
damasc
damosella
oathable
antipholuses
craver
craker
asker
askance
unclew
puk
puke
pugg
puzzl
puzzle
puerit
sightly
furtherer
infest
infold
infusions
inflict
infamon
infliction
cutler
prisonment
prisonnier
chokes
chollors
choicest
garret
garner
garcon
anges
affi
affy
affray
affined
affaire
affianc
saddles
tether
teips
tevil
dared
dareful
strands
straits
straps
straiter
strachy
strappado
dreamest
dreamers
certainer
petre
petit
petard
petrucio
satis
satiate
saturd
satirical
saturday
methink
learned
learnings
waterton
livings
chez
check
cheats
galling
gallons
galliases
banishers
yielder
yielders
yielded
##othy
##othanize
chargeth
chargeful
##imecu
camlet
cambr
camomile
cambyses
minos
minim
minces
minime
minnow
minimo
minerals
minikin
minimus
minnows
minotaurs
ministration
terre
terrace
terram
tercel
gravell
gravely
graveless
woundings
princox
contentless
contenteth
veni
venit
venue
venial
venereal
beholds
beholder
beholdest
wiselier
##udeo
tenors
tenable
tenures
tenths
tenement
tenfold
tenements
tenedos
##shows
##shape
##shaw
favourers
favourite
pointed
burnet
colourable
coloqu
colme
coloured
colmek
colchos
raft
raises
raileth
deservers
gaul
gawd
gaffs
gaudeo
serveth
mortis
mortise
mortimers
warrantise
warranted
warranteth
warrantize
mala
malchus
maladies
surance
surpl
surpass
surpasseth
surveys
sided
blacks
blackberry
blackmere
captum
captious
possets
possitable
possesseth
mouthful
payest
paying
payments
##merian
pastry
pasties
pastors
pastures
pastorals
wafer
wawl
wappen
waiteth
delat
delver
delations
delicates
delinqu
reportest
reported
reportingly
sovereigns
sovereignly
opened
openness
jews
jewess
##upi
acordo
##asured
donne
incan
incites
incivil
incorrect
incorps
incidency
incardinate
incivility
diviner
divulge
watchings
regress
regina
regular
regiments
regenerate
regreets
regentship
requiem
quests
questant
questrists
proficient
woof
wooing
wooingly
##affle
##ippe
mockable
mockwater
salv
salter
salary
salads
salmon
salmons
salamander
salicam
estime
estrid
estridge
havings
bucks
bucket
talon
marcians
groundlings
bolds
evade
evades
evasions
evitate
evidences
##acable
##acens
##acute
suiting
suited
suitable
englished
englishwoman
changeth
changeful
changelings
appearer
carders
cardmaker
carduus
cardinally
towardly
##oothes
canstick
heartsick
constancies
constellation
visitor
visibly
viscount
untast
untold
untalk
untune
untemper
untangl
untangle
untwine
untreas
untitl
untimber
marchpane
embay
emball
embers
embound
embrew
embalm
embalms
embatt
embattle
embras
embodi
embellish
wonderfully
wallon
wallet
wallets
walloon
walking
extends
extortion
extinguish
extinguit
quarries
revengement
personate
personates
snor
snipe
snails
snipt
snaky
snaffle
##scomb
approvers
interess
intermit
interjoin
interrog
interdiction
intermissive
interrupter
intertiss
intercepter
interchain
interjections
guardage
guardians
chamberers
chamberlains
batty
batlet
battl
batailles
cowl
cowers
cowish
entreatments
despoil
pretia
pretences
pretext
praiseworth
achieves
achiever
baseless
valiantness
straightest
bosky
gainer
softness
softens
leges
legerity
legatine
legacies
legitimation
calv
calms
caliver
calaber
calydon
calibans
township
shortcake
sufferd
sufferances
opposes
opprest
oppugn
opprob
oppresseth
speken
plucker
drumm
drumble
drummer
forbears
forbade
forborne
relat
relates
relents
relations
relume
relieves
relative
reliances
relinquish
questionable
penker
pencils
penurious
pencill
simile
simony
simulation
hairless
scarre
waterford
waterflies
waterdrops
knewest
fettle
labourers
traitorly
lames
laming
lamond
lameness
lambert
unlesson
damns
damnably
feeler
pompae
widest
widens
plainings
cowardship
crib
criest
cribb
moonish
moonbeams
glads
badg
badly
badest
weakl
weakens
defus
defam
defies
defuse
defense
definite
defunction
defensible
crevice
invoke
invasion
invasive
stirreth
stirrups
excellencies
taking
verite
verbs
verones
verities
veroles
veritable
vermin
vergers
thrower
throwest
throwing
liegeman
disheart
dishearten
dishabit
laugher
laughest
laughable
thirds
thirties
thirtieth
fleshes
fleshly
fleshment
fleshmonger
monsieurs
wisp
wiseness
undint
undeed
undeter
unduteous
undeck
undeaf
undispos
undream
undutiful
undraws
undishonour
hurdle
hurries
hurried
teaching
##volent
##volences
ambuscadoes
flourisheth
motes
privity
witnessing
respectively
woefullest
idles
ideas
poli
poles
polite
polacks
poltro
julio
lacking
lackbeard
flatterest
creator
creates
nursh
nurser
nurtur
heirless
lipsbury
mountant
mounted
mounteth
mountanto
guilts
darkens
strengthless
pitie
pitied
pitcher
pitfall
veux
veget
vehor
whitehall
doorkeeper
brok
brokes
brogues
brocas
severest
biter
biting
bookful
bookmates
resolutes
lowt
sprat
spray
sprit
springh
whereinto
claret
conscienc
conscionable
humourous
christom
##prit
##priev
offending
offendress
offendeth
offendendo
hames
hamstr
hamlets
disgorges
droplets
fatness
fatally
fatigate
fatuus
beastliness
beastliest
hideth
##comb
understandings
understandeth
churls
official
basta
bastes
milo
militar
wildfire
diner
dines
starl
starry
starves
starings
alarms
mirable
portugal
portcull
portotartarosa
paps
papist
foreward
forefend
foreheads
forecast
forehor
forefinger
absyr
absolver
cheerer
cheerest
cheerless
detains
detention
detractions
making
makings
singest
singles
singleness
stealers
admission
administer
maculate
maculation
filly
fillet
filling
##cution
belle
bellman
bellona
crossly
crossest
crossness
crossings
crossways
troiluses
kecks
keisar
secondarily
lustig
lustiest
rageth
excites
excurs
excrements
passioning
violat
violates
violator
limn
limber
limps
limander
limbeck
briefer
briefest
talbotites
bastardiz
bowler
bowcase
cornuto
elevat
offenceful
offenceless
secretaries
proscri
prospers
prospered
orderless
sealing
bleats
utility
uttered
uttereth
##odly
##odope
##odorus
##grinate
issueless
modena
modicums
satisfies
acquitted
acquisition
drowning
drowned
eases
eased
easiest
easiliest
fordo
fordid
smallness
benign
benumb
woodland
woodmonger
##quements
shipmen
format
stopt
freshes
prevaileth
affectionate
affectionately
hurtl
hurtless
hurtling
sorer
sorriest
urges
urns
urswick
rebus
rebate
rebound
tribulation
unkinglike
bondmaid
parisians
athol
hornbook
sharers
sharps
ancus
valourously
occult
occurren
syenna
noised
healthy
healthsome
forceful
forceless
leonitus
performer
moveth
patients
effected
effectually
fined
finem
fineless
solemness
unwip
unwatch
unweed
unwares
unwarily
unweari
unwrung
unwedgeable
bolter
bolins
bolters
vowel
vowels
studd
studs
students
studied
studiously
encore
encave
encertain
encumber
encircle
encroach
encertainties
encountered
encourag
encompasseth
blowse
argo
argentine
breasted
breastpl
tombe
tomboys
tombless
tomyris
governance
governors
londoners
northampt
movingly
movables
movousus
cursed
lyra
lynn
lycurg
lycaonia
midas
middest
midriff
receiveth
dulls
dullness
romano
romanos
volant
volquess
volivor
greenwood
greenwich
birthdom
approachers
sixscore
##ovies
titleless
departs
departed
##ogu
##oges
##ogism
##ernible
##ascule
##ursors
savor
savoy
saviour
blinds
blindly
contrite
prosperities
cital
cittern
destroys
mutest
mutation
mutable
mutations
mutiners
rounder
roundest
rounding
roundure
rounded
roundel
towton
entertainer
entertainest
entertained
entertainments
lenders
qualite
qualmish
qualifies
qualification
virgo
treasonable
practic
philo
philadel
philarmon
torcher
safeties
protected
protectress
quarrelous
suspir
rede
redound
redness
redder
redime
redbreast
redeliver
counterchange
foolishness
montant
montfer
montez
montacute
ignis
ignominy
schoolf
stepmother
stepdame
earliness
jackanapes
##oever
thitherward
refell
refined
refractor
brainish
brainless
brainpan
unhop
unhold
unhang
unharm
unheedy
unhospitable
unhurt
unhelp
unhidden
unhousel
unhorse
unharden
unhearts
unhopefullest
cruels
troths
hugs
hujus
washer
washed
washford
quieter
quietus
demanded
acquaints
##remeditat
shrieve
perceiveth
jovem
charming
charmeth
charmingly
smilets
circa
girt
girth
vainer
##iams
##iament
hermes
conclave
unfee
unfought
unfool
unfenc
unfellow
unfamed
unfaith
unfallible
unfilial
unfashionable
fearfulness
imported
importless
importancy
falstaffs
immures
immask
immoment
imminence
immater
visitings
visitations
hoping
hopdance
vieweth
##axes
##iculo
costlier
tarr
targes
tarentum
##iolat
trickl
plantation
planteth
executor
ridest
ridge
riding
riders
throe
throb
throca
throbs
throbb
innovator
decide
decides
decimation
deciphers
decerns
decoct
heroic
herods
##ractors
goldenly
sharpen
hater
hatest
haters
owy
owed
owlet
owedst
vara
varld
varies
variest
variance
variety
##oints
thunderer
insane
insubstantial
insanie
insomuch
forslow
transcend
transcends
transylvan
transfig
transshape
conceals
sevenfold
drunkest
continence
pinse
pinked
tearing
tearful
frowningly
dismes
dismask
##apsody
flem
fleck
fleers
fleec
flemish
rien
ript
steers
blushest
blushing
blushed
tempter
successor
successantly
paints
painting
painted
roughness
hailstone
hailstones
melius
priestly
priestess
##berts
observers
properest
directs
directive
directed
viewest
viewless
cliffords
drily
drizz
drivest
drizzle
dribbl
wenchless
yoemen
receivest
defenders
defended
sailmaker
catl
caters
catlike
catlings
cataplas
bede
bedward
bedash
bedrid
bedazz
bedimm
bedrench
bedabbl
bedaub
bodg
bodiless
moorfield
clearest
clearstores
embraced
widowhood
benevolence
benevolences
cunnings
equival
fisher
fishifi
fisherman
fishpond
voucher
topful
topless
topmost
wealthiest
dealest
dealers
expectance
expectations
considering
considerings
considerations
conditionally
requested
holborn
posse
posters
posteriors
##place
##plicable
loathing
amazes
hollanders
triumpher
triumphers
clothiers
clothair
clotharius
smiledst
waiting
waited
punch
ventages
ventric
##ollut
threatest
threatener
becoming
becomings
stockish
althaea
ancients
danceth
##box
failing
complott
intended
intendeth
rascalliest
staines
enjoineth
necklace
necessiti
necessarily
unpath
unpink
unpack
unpress
unpav
unpeg
unpurg
unpubl
unpitifully
unpurpos
unpeaceable
unpardonable
unpossible
unpremeditat
unpollut
grande
grandeur
grandchild
motionless
rosalinda
melancholies
booties
booted
garde
gardez
ode
odor
odes
searches
##zebel
remaining
remained
curster
cursing
cursorary
authoriz
casa
casques
casually
fainted
pygm
solon
solum
solidity
revolutions
shallowest
greeting
slaughterer
slaughterous
slaughterman
repentent
repentant
repented
choicely
preparedly
hunted
huntress
hunteth
huntingdon
turd
turph
turvy
turlygod
turquoise
##ubine
##ubtle
uncas
uncase
uncape
uncurse
uncompass
uncross
uncourt
uncolt
uncorrect
uncoin
uncropp
uncuckold
uncompreh
preciously
advantageable
silverly
professest
virginities
virginalling
employer
audis
auditors
giving
givings
renounc
unsur
unsort
unsist
unsift
unsunn
unsoil
unsightly
unsmirch
unsalut
unsinew
unsquar
unsulli
unslipp
unsphere
wrathfully
irres
irremove
noseless
nosegays
oweth
rooted
rooteth
rootedly
bending
debtors
slanderers
discourser
discoursive
discourtesy
exceptless
prepares
encounterd
encountering
encounterers
potch
potter
potents
potations
potato
potatoes
rainold
soothest
##ocrates
##ocked
imagery
deservedly
lamentings
solemnities
bigamy
biggest
derides
dryness
dryfoot
drybeat
fewness
loudly
loudest
needly
needest
heatest
ashy
spendest
changest
lavache
humbled
accordant
accordeth
maidenly
maidenliest
publican
publication
foughten
purely
rhesus
rhubar
rhinoc
rhodope
rhapsody
remedi
remediate
monstruosity
corrupts
corruptly
corrupted
corruptible
corruptibly
shadowing
punishes
punishments
basan
basins
basimecu
squiny
squeezes
squabble
startl
started
startingly
browse
concur
concurs
concerne
concolinel
concubine
earns
monstrously
monstrousness
aidant
aidance
aidless
alexanders
cordis
cressy
cressets
fainter
mournest
mournings
mourningly
mournfully
rato
rattle
rattles
ratified
ratifiers
##apper
##eously
##ucat
shuttle
conveyers
conveyed
unbent
unbid
unbak
unback
unbend
unbatter
unbitt
unbraid
unbreech
unbashful
unbidden
unbuckles
unbodi
unbuild
unbosom
unbreath
unbookish
unburnt
unbeliev
unbuckl
unbewail
grievest
grieving
grievingly
proditor
produces
desertless
underta
winterly
counterfeitly
stormest
searchers
searcheth
frees
freed
freeness
freeman
freestone
freckles
frequents
freelier
tutto
reverbs
reverberates
perfectness
roarers
coverlet
smelling
tyburn
expressive
vengeances
renowns
renowned
ransoms
circummur
circumcis
wrecks
wreathe
wreaks
gratii
gratillity
miserably
misericorde
cressids
tybalts
feebly
langage
langues
langton
pismires
sheepcote
halves
halbert
halidom
dotant
doting
doteth
dotards
lode
examines
betwitch
recoverable
gallantry
baboons
dunks
dunsmore
dunstable
hidest
wicky
spared
facere
facile
faciant
faciner
naturalize
differency
guiltian
guiltily
easeful
lineally
pickt
picker
pickers
picklock
pickaxes
rankly
ranking
hallown
hallond
abuser
abrogate
affecting
affected
affecteth
affectations
accusativo
capitaine
regardance
regarded
regardfully
nineth
befit
befitt
befrie
befitted
deceivest
combinate
dromios
appoints
empti
emptier
brokenly
usurping
usurpingly
dyed
tamer
tamings
##rehensible
bewet
bewast
bewails
bewhor
prickest
greybeard
cloves
cloys
clogg
cloistress
pleader
pleading
pleaders
thrived
digt
epida
epigram
presser
pressure
pressures
frighten
burgomaster
temptations
conductor
proceeders
mirthful
admirer
dignify
escot
hilloa
napes
napless
romish
romage
flighty
humphry
particularise
aimest
bards
waggl
wagtail
includ
include
inclines
inclips
deceivers
deceiver
disdaineth
disdainfully
heavings
compasses
compassing
firmness
lieutenants
thrusteth
accounted
crackers
constantine
constantinople
pyramis
pyramid
pyramides
pyramises
pyramids
languor
##uceus
##ucement
thicken
thicklips
archelaus
archidam
architect
archibald
leaner
abhominable
jointress
slenderly
guesses
guessingly
treachers
petrarch
profited
northumberlands
benefice
filches
filberts
hyen
marts
martin
martem
martino
porches
pilates
pilots
waked
##cript
whoremonger
infectiously
rewarder
blunts
bluntest
bluntness
plotter
sackbuts
sackerson
strangler
strangled
cockl
cocker
cockles
cockpit
cockscomb
confirmers
barky
barkest
barking
barklough
daedalus
furnaces
furnival
packs
packings
saltiers
viceger
##locks
wedded
lockram
negation
negro
negative
negatives
swellings
launch
launces
smooths
imperator
imperiously
imperceiver
intentively
baptiz
birdlime
skillet
angelical
angelica
dropsi
dropsy
dropsies
prevented
preventions
ceaseth
tiddle
wanderingly
dewy
dewberries
dewlap
cherries
flora
vexes
vexest
vexeth
equalness
equalities
fixes
fixure
fixeth
honeyless
honeycomb
rulers
rideth
railer
railest
prononce
prononcer
commissioners
aufidiuses
ambitions
violenta
violentest
violenteth
prevailment
cyrus
pedascule
rasher
##taunt
suckers
mercer
mercatio
mercifully
mercuries
mercatant
mercurial
praisest
unknow
billets
billiards
dumbshows
fifteens
lengths
misses
missive
missions
missingly
missives
misshapen
misspoke
sours
sourly
tortive
##natural
whippers
informal
informations
enginer
engrave
enguard
engaol
engraffed
engilds
##ilties
closest
closeness
clownish
raised
unworthier
unhappi
conceited
conceitless
observants
observingly
observations
concernancy
baptists
pronouns
bindeth
eastward
tiptoe
francois
franciae
trifler
wormy
scotches
climbs
climbeth
climatures
gloriously
preferreth
attemptable
craveth
eighty
finn
finless
finally
finny
finical
magot
magical
##orah
statist
statures
statilius
statists
ungor
ungot
ungrown
ungotten
ungird
ungrave
unguid
ungenit
ungodly
ladyships
behalfs
bushels
avoids
rhymers
bounce
paddle
forfeiting
forfeiters
forfeitures
stickest
stickler
caveto
friendships
marketplace
##ogenitive
francisca
franciscan
censer
duchies
ragamuff
raggedness
rushl
rushy
ripely
sells
islander
framed
lewdsters
pocky
pairs
assisted
revenger
revengers
revengingly
gauntlets
esteemest
esteemeth
policies
threatenest
threateningly
cellar
cellarage
hinders
hinderd
##eretto
shineth
superior
supervis
supernal
superpra
supernatural
unlink
unlick
unlace
unlustrous
unlimit
unlineal
unlicens
sweaten
scrimers
procreant
procrast
serpentine
slights
slightness
religions
eterniz
eternally
nervy
neroes
testiness
testril
unnaturally
dissensions
dissipation
flowing
strokedst
desirers
slewest
intelligo
skyish
skyey
minutely
snowy
snowball
snowballs
inventors
resolveth
resolvedly
familiars
oxfordshire
furnished
furnishings
neglectingly
bonos
bonum
bonto
bonville
bonjour
creek
creeks
fantasi
fiercely
naughtily
numbness
tendence
##ecake
##ecrable
nobis
ingross
enforcedly
enobarb
speediness
unsee
unsex
unseam
unsever
unseason
unsearch
unsemin
unseparable
unseasonably
unseduc
unsecret
unseasoned
imprint
improper
edged
calmie
calmness
disgraceful
suspire
prodigally
prodigals
prodigiously
unnaturalness
bentii
bentivol
bandi
banditto
bullocks
ete
etc
etre
etna
matin
maturity
mattress
mongrels
masses
tainture
withdraws
chastised
unmaster
unmix
unmade
unmellow
unmoan
unmarri
unmusical
descended
perishen
perishest
perisheth
foxship
prayerbook
preyful
mistaketh
doubler
doubleness
unfolded
unfoldeth
instrumental
dims
dimples
dressy
dresser
dressings
ephesian
gleams
gleeks
gleeful
pistols
vincere
noblesse
inherent
inheritors
declares
declensions
ordure
ordered
ordinant
ordinaries
boastful
drivell
contracted
belongings
privileges
mille
nicety
oddest
sceptr
inkl
inkles
inkling
reacheth
rejoindure
debility
debonair
deborah
bringest
bringings
collar
collier
collusion
colleges
colleagu
reproves
reprovest
reprobation
recorded
recordation
crafti
craftier
raisins
oppressor
oppresses
lambkins
stirrest
stirrers
undoes
undoing
banqueting
specialty
cyme
cymbals
dowle
dowery
dowdy
dowries
lorum
momentany
sancta
sanctified
sanctifies
sanctuar
tasker
##soons
whoresons
injurer
splay
splenitive
splinters
knitters
chidest
chiders
blastments
disseat
dissembly
quenchless
cozener
coziers
currance
currants
welshwomen
accuseth
discontinu
discontinue
expeditious
troublest
destroyer
destroyers
enviously
shrewdness
grize
grizzle
yoked
yoketh
##archus
haunted
frontlet
trims
trimly
errest
errun
gloz
gloom
glozes
##rollers
corporate
corpulent
corporals
advisings
silently
terminations
immediacy
combatant
bayonne
whittle
##irtuous
socrates
lifteth
##umerable
removedness
pursued
pursueth
merchante
pleasantly
skinny
gaitist
savagely
hugely
disguiser
wondrously
journeyman
journeymen
sacrificial
budger
jeopardy
jezebel
latten
luckier
luckily
luckiest
moraler
morality
sinel
warden
##zzar
heighten
branchless
exchanged
causest
toothpick
strived
applaus
applications
appliances
accomplices
accompanied
travellest
coroners
barrenness
affordeth
calfs
boreas
botches
botchy
couchings
fretten
jesses
nonage
rumble
rumination
ravishments
zeals
thornier
items
staniel
stanze
butcherly
dolorous
chaseth
arriving
arrivance
##ophon
flatness
designment
designments
antiopa
conspirant
conspiring
conspirers
monarcho
monarchies
monarchize
exceedeth
beauti
beautified
dependant
dependance
dependents
dependencies
absolutely
torchbear
torchbearer
tormentors
freedoms
purchaseth
suspicions
burthenous
bountifully
couper
couplet
candlestick
candidatus
puller
pullet
tapesty
inhears
inhoop
inhospitable
inhibition
assez
revil
revok
revisit
revania
review
deceiveth
experiences
placentio
scouring
pawns
townsman
spleeny
peevishly
stubbornly
stubbornest
nimbler
nimbleness
rusts
rustle
rustics
rustically
ribald
ribaud
sternest
sternness
sternage
vulgo
vulnerable
foresay
foresaw
foresees
foreskirt
prater
prattler
allegation
allegiant
allegations
cloudiness
strumpets
hearsay
dragoned
barbarians
obscures
obscurity
palmy
supposal
supposest
supplyant
supplyment
fitted
streamers
foreigner
foreigners
macdonwald
tortured
inheritrix
hatchet
hatchment
losing
masker
namest
piu
wailful
##ausive
##ridates
soilure
liquors
lapland
adversities
crestless
valueless
feater
featur
bursts
apollos
apollinem
apollodorus
strewings
strewments
estimations
interposes
interpeter
interposer
defying
destructions
concealments
befalls
befallen
cherisher
cherishes
berattle
bergamo
berkley
dumbs
homo
homily
homager
hommes
hominem
linens
linsey
narines
narciss
oblig
oblations
oblivious
obligations
pierceth
tumbles
bethump
howling
howlings
boarded
semblative
semblably
outlook
outlustres
describe
described
perfumer
slayer
slayeth
reprisal
pursuers
curstest
curstness
sufficit
miscreate
augurs
cleanliest
proportionable
divideth
conquests
treacherously
apparently
discontentedly
aunts
fifes
gilded
ticklish
tickled
inwards
inwardness
franker
frankness
frankfort
franklins
deafs
deafness
manhoods
orchards
seized
seizeth
clamourous
awakens
coiner
biddings
overthrows
baited
baitings
gazers
despiser
credible
credulity
immortality
immortaliz
transformed
transformations
scratches
centuries
centurions
junior
nuncio
tuners
yellowness
##parate
beeves
beehives
shaming
shunless
measles
meddler
styled
styga
stygian
reveals
levied
grassy
grasshopp
polemon
warns
perjuries
guided
diomede
bargulus
yesterdays
paysan
paysans
eventful
snatchers
redresses
stabbed
apprehendest
bereaves
cinable
nett
rackers
rackets
steeps
rendered
enfetter
trenchant
trenchers
trencherman
brownist
exhaust
unreward
unrevers
unreclaim
unregard
unrecount
unreasonably
unregister
unrecur
unrepriev
##icitate
##ipline
adriatic
leaving
dropper
droppings
droppeth
reposeth
pursents
consumes
consumed
consumptions
resignation
accessible
taxes
subscription
barnes
barnacles
disturbances
ruffs
ruffl
requireth
complainer
complainest
complainings
inclinest
inclinable
rejoiceth
copious
copulatives
eschew
micher
nourisher
nourishes
oughtest
tirest
tirra
vaultages
##eadfast
threaden
thoroughfare
thoroughfares
spectanda
spectacl
lodged
trinculos
chapter
chaplet
chapels
chapeless
chaplains
laura
mothy
believing
diversity
phebes
clapped
prompture
promptement
entrench
entrances
bawbl
depositaries
distracts
distracted
distractedly
concludest
forsaketh
adventured
suggested
acknown
dilucul
germane
lingering
morr
mori
morisco
pestered
pulcher
pops
popish
popedom
poperin
popinjay
shakest
shaking
receiver
enforcest
defeats
factors
conjuro
consequences
uneath
unelect
uneffect
agreeing
somewhither
flints
stratford
commodious
preceding
containing
indigne
indignations
putting
endurest
cromer
devourers
tremblingly
burdened
recreate
terras
terrene
opposeless
penitents
keenness
vanquishest
vanquisheth
ventured
reproachfully
sleeveless
bulks
gnaws
ilbow
jerks
jeronimy
moulds
mouldy
mouldeth
mouldwar
pathways
pathway
peepeth
rarities
versal
enround
enrings
enrank
deformities
triplex
tripartite
tripoli
uprightness
uprighteously
fawneth
convive
convents
convinc
convinces
convuls
conversed
blockish
blazes
blazing
bondslave
sedg
sedgy
plainsong
agreed
perniciously
deathsman
contended
preservative
purgers
purgative
mistakings
resists
backside
strictly
stricture
apex
champains
champagne
champaign
surfeiter
incenses
decayer
decayed
continuer
archbishopric
ingratitud
prodigality
peasantry
vulgars
vulgarly
entranced
feedeth
harebell
juic
jugs
juggle
luna
lunacies
navigation
omission
omittance
ostents
ostrich
ostlers
vastidity
wingfield
wingdalls
##wallader
thrifts
incharitable
shinest
enmesh
enmities
sugarsop
sparkles
favors
favourably
favoured
marshall
armadoes
compared
bragging
braggardism
hushes
backwards
backwardly
dieted
inference
inferiors
inferreth
strawy
strawberry
gallowses
constring
embassade
extended
politicians
starved
starveth
admitting
admitted
middleham
solicited
solicitings
solicitation
superflux
miscarries
scholarly
divorcement
bachelorship
indifferency
dartford
gaping
rotundity
riper
meditates
prints
printless
factionary
boarish
flamen
flamens
moderation
adulation
householder
mistrustful
crookback
impedes
patrician
substitution
carelessness
integritas
surveyest
achieved
hideousness
bolted
varletry
varletto
ceremonial
dissolutions
liquorish
boneless
drowsiness
drowsily
fanes
fanatical
feminine
founts
hoods
lurketh
mumble
mummers
panging
ringwood
ringlead
ruddy
ruddock
ruddiness
rudeliest
rabato
vigitant
##iscible
toadstool
bequeathe
heinously
havens
buttress
trowest
trowel
cheaply
neatly
shelv
shelvy
shelters
perdie
perdona
perdonato
perdurably
malevolence
malevolent
horrorable
majestas
majestee
majestically
judases
baldrick
baldpate
provoked
provoketh
embracing
fellowships
steadier
steadfast
procured
dissemblers
characterless
rheums
rheumy
enriches
marshalship
marshalsea
fowler
ramps
ramsey
ramston
inns
innkeeper
innumerable
infections
haughtiness
stiffen
stiffly
licens
froissart
ensky
ensched
enlard
enlink
chestnuts
exactest
swimmer
swimmers
lazarus
abatements
persevere
persevers
cobble
cobbl
##rooms
settlest
restoration
restorative
restoratives
falconer
tauntingly
carpets
obstruct
suppliest
suppliance
suppliants
provokest
rubi
rubious
summa
summary
beginnings
christendoms
unwilligness
controls
practisers
practisants
philippan
transportance
transported
tyrannically
purchases
purchased
finisher
bounteously
acknowledgement
autre
croaks
gorget
gormand
gorbell
gorbod
gammon
gamboys
gambold
limehouse
limekil
rowel
renege
reneges
renegado
sowl
sowter
tuition
tubs
vinewedst
##bols
whelm
whelk
whelks
heedfull
stinkingly
prizer
prizest
prized
soberly
reinforc
enchantress
enchantingly
allaying
allayment
allayments
traducement
brassy
converted
convertite
convertites
universities
ploughs
ploughmen
roynish
covetings
covetously
appeals
pregnantly
contemplate
indirections
wittol
wittily
wittiest
confiners
crushest
giantess
diffidences
entrapp
supportable
recounts
recounting
recountments
rawer
rawly
rawness
divineness
dividant
dividable
summoners
thirsts
derivative
epitome
bridegrooms
determinations
pedantical
inhabitable
rebukeable
vassalage
superfluously
bourbier
lanceth
masts
mastic
mastiff
tartly
tartars
vauvado
vapians
wett
wraps
##theads
heathenish
shaven
shaped
shipped
ascendeth
angler
anglish
angliae
revelry
spaniels
orgulous
unthink
unthread
unstable
unstuff
unstoop
unstring
unsteadfast
unshak
unshown
unshout
unshap
unshapes
unshapen
unshrink
unshaked
unshrubb
almsman
almshouses
agueface
dislodg
dislocate
disorderly
abominations
abominably
perttaunt
droopeth
antenorides
harpier
attachment
confined
confineless
crimeless
beseemeth
restraining
valuation
discredits
imitat
imitations
imitari
profoundly
profoundest
profanely
prettier
prettiness
nursing
sylla
syllogism
refusal
refused
challenges
challengers
fruitfulness
magni
magnus
ungentleness
accomplishment
couplement
penitently
penitential
fathomless
aforehand
aquilon
borest
bated
bailiff
muli
mulberries
rougemont
whett
whirr
statesmen
dedicat
broths
brothels
sapit
sapient
gravities
adoptious
adoptedly
slackly
anticly
hobnails
merriness
merriments
merriman
consisteth
imparts
impartment
assailant
assailable
assailants
##ificabilitud
striking
strikers
instinctively
principle
principles
principals
razure
razeth
razorable
invitis
invitation
ursa
avouchment
insultment
fifteenth
bowsprit
cuore
cubs
cuique
cuisses
cuppele
cadent
cadence
caddis
cadmus
caddisses
caduceus
cadwallader
futurity
folio
jumpeth
panel
pigmies
pigrogr
pudency
rivell
sallies
vita
vitness
vitement
vitrav
vestals
##ropos
##ropes
##iveness
hewgh
mellifluous
aspen
aspicious
aspics
##strill
spotted
chimurcho
mangles
upwards
unqualiti
unloos
unloads
unspoke
unspoken
arbitrat
sepulchr
sepulchres
scaped
scrolls
adoreth
erpart
erpress
erpays
erpaid
commentaries
waywarder
waywardness
bespake
bespice
impudency
impudique
impeachments
parlez
tabours
tabourer
luxuriously
phoenicia
phoenicians
obsequiously
bubbl
bubuk
churlishly
liberte
libertines
publisher
mutualities
decreas
circumstanc
beefs
measurable
ecstasies
enlarged
enlargeth
wilfulness
celebrates
peremptorily
franticly
bencher
cimmerian
cedius
eche
echapper
fervency
gadd
gainsays
hipped
hipparchus
nutme
nutshell
nutriment
pantry
pantingly
rivo
rancours
vaunter
vaillant
vaumond
beadsman
beadsmen
mealy
##itania
primy
primest
primitive
primogenitive
anchorage
excessive
unchain
unchang
unchild
unchary
uncharge
uncharg
uncheck
uncheque
uncharitably
boisterously
outstay
outstrike
caitiffs
abjectly
projects
projection
brewer
brewers
brewage
betroths
glosses
compulsatory
remunerate
replant
replied
industriously
crispianus
curbed
restrains
welcomer
welcomest
braving
branded
traffics
traffickers
distinguishes
distinguishment
puffs
gaols
regalia
requited
interims
interrupts
excused
excusable
occupy
occupat
occupations
voluntaries
voluntarily
shrills
shriller
transgresses
complimental
irishmen
epilogues
languishings
languishment
subduements
rumourer
dragonish
obscured
obscurely
bankrupts
balms
balanc
balcony
crews
dicky
dickon
dickens
ewers
feste
festivity
fists
fistula
gests
gusty
kenilworth
nicks
nickname
omans
piper
pipers
wanes
wanion
##rhs
topsy
topsail
wheresome
haggl
meekly
fragile
chaser
chronicler
chivalrous
brims
conceptious
conceptions
canopies
canopied
worshipper
worshippest
cabins
cabby
levying
quintain
abstains
abstemious
aboded
abodements
profferer
progression
breeze
adversely
smartly
conflicts
implies
implacable
parthians
treasuries
treasurer
educat
educate
pavilions
uncleanness
uncleanliness
venetians
wafture
constraineth
sixpences
sixpenny
pyrenean
imaginings
displeased
deceased
hymenaeus
hypocrites
dominion
dominations
dominical
eagerness
syracusians
receipts
adulterers
adulteries
adulterates
rowlands
whirligig
whirlipool
inspirations
principality
principalities
dispersed
dispersedly
baths
baker
bakers
dirge
direness
dirges
dulzur
deedless
ditchers
fadings
gennets
genoux
genitivo
gulls
largest
largeness
radish
route
tackles
tacklings
##yrs
thwartings
nomi
ingenuous
ingeniously
shunned
stews
stewed
licker
chopine
mansionry
shearing
shearman
sheathes
sheathed
canonize
arrogancy
separates
plums
outran
outrunn
outrunnest
saucers
pollusion
eyelid
erthrows
ertheless
contemns
prescriptions
reputed
reputeless
confusedly
imposed
retainers
farmhouse
discerns
discerning
discernings
illyrian
murmurers
crystalline
intrinse
intrinsicate
distilled
distillation
buzzers
demonstrat
demonstrable
demonstrative
pageantry
raptures
malignancy
incensement
calamities
investments
christenings
starkly
detects
detector
detection
singularities
singulariter
unfitness
gelding
covertly
cloyment
cloyless
revived
reconciler
reconciliation
reconciled
reconcilement
ostentare
goldsmiths
austereness
baubles
dalli
daintry
daintier
daintiness
gingerly
mammer
mammet
osier
ossa
tougher
toughness
vacation
viciousness
wights
wightly
iniquities
stemm
aspiration
fruition
fructify
enactures
upholdeth
platforms
greedily
calendars
graybeard
graymalkin
warrener
moisten
moisture
adorer
adorest
adorations
adorns
adornings
plebeii
coachmakers
antechamber
attribution
crimeful
courtsi
treaties
expositor
straited
straitness
pettish
pettiness
pettitoes
incorporal
profaners
profaneness
snuffs
intercepts
interception
interchangement
stealthy
contrived
contrivedst
referr
referred
importantly
fleeces
memoris
memorise
memorials
memorandums
needlework
wreathen
bewitchment
escapen
escapedst
torturest
torturers
declined
tumbler
augmented
augmentation
stumblest
seducer
resembleth
unquietly
gulfs
attorneyed
attorneyship
araise
dormouse
dorothy
fardels
fardingales
fumbles
fumiter
fumitory
felicitate
ici
jett
jigg
jaculis
jugglers
larron
larges
lasses
otecake
operations
operative
pelter
peloponnesus
pithy
pithless
sterility
vauntingly
whipster
inequal
shrugs
anchovies
animis
goblet
goblets
chaffless
atonement
atonements
arraignment
ushering
scalps
scriptures
grindstone
abbominable
abbreviat
perusal
perused
wranglers
maims
anything
codpieces
cogitation
cogitations
glitters
preaches
preachers
preachment
preceptial
repetitions
bestrides
attainture
respice
respites
responsive
valerius
erects
misdeeds
proposer
minstrel
untrad
untried
untruss
untroubl
untrimm
extemporally
pretending
oppositions
lampass
verdun
undescri
undeserver
undeservers
foregoers
unwhipp
counterpoints
tarquins
equivocate
unprevent
unprevail
irreparable
irreconcil
basilisco
porpus
domestics
cherubin
cherubims
engineer
tiberio
expediently
fretted
subscribed
morsels
favorers
lanterns
dedicated
fulfills
polydamas
knighthoods
blasphemous
aeolus
danes
gayness
geminy
hooped
kicky
kickshaw
mihi
mienne
nostra
oozes
oozy
pallabris
palliament
paucas
pauvres
rooky
raved
ravell
samsons
tilting
waged
toasts
toasted
inscrib
inscroll
inscrut
inscriptions
forerunn
mechanics
stints
proselytes
prosecution
annals
annothanize
anthem
goatish
chantry
chantries
chucks
brooked
lettuce
congealment
unclog
unscour
unscann
unscratch
unscorch
unscalable
unscissor
unrestor
unrestrain
seigneurs
plaintain
plaintiffs
almain
scylla
scabs
twiggen
grafted
quotes
erga
ergall
ergone
erstep
erstunk
handlest
glimmers
glimpses
glisters
hoists
attentiveness
guidon
conspires
impositions
parlors
eyeball
eyebrow
righteously
overtaketh
carnally
carnations
carnarvonshire
discomfortable
misgive
misgiv
misgraff
misbecome
misbecom
misbegot
misbehav
misconceiv
muskos
musket
muskets
cheaters
extortions
extenuat
extenuation
extenuates
quarreller
quarrelling
penetrative
defiler
verbosity
verbatim
sorcerer
sorceries
jacksauce
girdles
steppe
audaciously
combined
dawning
pedlars
censurers
clergyman
rejoicing
rejoicingly
debating
multipotent
couplets
corinthian
mustardseed
impudently
outruns
malignantly
shipwrecked
misdoubts
misdoubteth
unpleasant
skirmishes
custure
custalour
carts
civilly
daffest
ebrew
effus
effuse
effigies
gyv
gyve
hoots
lumpish
mentis
ounces
pendulous
pendragon
rivality
souvie
southerly
soulless
tatters
tinctures
vagram
vagrom
totally
totters
novi
novum
noddle
noddles
inveigl
meadow
medlars
stammer
stifles
stifled
envenomed
tradesman
chewet
netherlands
exchequers
ampthill
congregate
congregations
unadvise
unadvised
unsworn
swaggerer
##icatest
##icatress
disbench
disburse
disburden
disclaims
twinkle
timorously
clipper
clippeth
quirk
abbots
ertrip
partialize
communities
communicatest
coystrill
slothful
appellants
brotherhoods
queller
mermaids
confiscation
devoted
paramours
peppercorn
childhoods
subtractors
subtilties
victress
earthquakes
lawlessly
misprison
misproud
illustrat
spiritualty
propertied
distrustful
workmanly
workmanship
exposture
expostulation
skipper
woolward
woolsey
woolvish
intercessors
pennons
admired
elephants
wheaten
encompassment
hugeness
circlets
variations
fledg
unsatiate
unsettle
martyrs
prolongs
engaged
engagements
intellects
spurrer
beheaded
perfumed
masqued
manifoldly
omitted
hawthorns
ensigns
obstinately
magnanimity
unaccommod
unaccompani
contradicts
incontinently
myrmidon
dardanian
arithmetician
avenge
avenue
cotes
cotswold
cretan
dankish
gums
gumm
giglots
larder
larded
lingare
mallard
mallows
malleable
mallecho
poniard
pellet
pellmell
panderly
ropery
raving
ravage
rampir
rampant
scepters
sardians
sardinia
viler
vileness
vici
##pressive
wived
haggish
haggerds
fornications
fornicatress
stinging
stingless
buttonhole
reverso
herdsman
spinners
spinii
bricks
bruited
congi
congee
congree
connive
unvulnerable
unviolable
unvarnish
unvanquish
unviolat
unvirtuous
bladder
blabs
blessed
seedsman
plasterer
cavill
caviare
claspings
laudis
flaxen
quarts
##tolemus
rogero
ersways
ershower
ershade
leavens
machine
machination
machinations
appertainments
appelee
precor
precinct
precurse
preciseness
preconsul
precursors
predeceas
antipathy
remissness
coursing
repuls
thresher
crusts
crusty
homewards
discomfiture
misusest
vocatur
vocativo
palsies
bugbear
exposed
crazy
crazed
cravens
affirmation
affirmatives
extraught
sumptuously
speculations
deflow
defiled
undoubtful
undoubtedly
bellowing
synods
translation
translates
temporary
forbiddenly
shepherdesses
turban
turbans
turbulence
turfy
auditory
renouncement
solemnized
examinations
epicures
epicurus
epicurism
vouchsafes
imperfectly
imprimendum
increased
distemperatures
exhalest
unexecut
unexamin
unexperienc
unexpressive
fantasticoes
votarists
unthrifts
unprofit
insinuateth
idolatrous
demonstrated
caterpillar
equivocates
catechis
envenoms
neapolitans
engrossest
truncheoners
alder
bilbow
bilberry
bustl
bums
certify
certifi
certified
egregiously
fennel
ginn
galathe
hildings
juror
keels
misheard
mints
passed
sample
samphire
sampson
sanguis
umpires
vomits
vomisse
vultures
shovels
weedy
weeder
stouter
staleness
sophister
sophisticat
fraudful
reception
receptacles
ensear
enseam
ensemble
lolls
loggats
trammel
chalic
chalks
chalices
manningtree
uproars
bribed
comptible
comptrollers
convented
conventicles
unneighbour
unproportion
semi
semicircle
marrowless
scream
screens
screams
scribbl
scribbled
cautions
cauteriz
disquantity
disliken
clinking
cloddy
clodpole
lavee
lavender
grated
abortives
handmaids
cocksure
slumbery
prefers
prejudicial
prejudicates
african
downwards
repaying
repasture
daubery
sleekly
peacocks
thrills
confirmer
crescive
crouches
gibingly
brawns
pauser
pauses
pausingly
indexes
patrum
lubberly
bannerets
disputest
disputable
disputations
disproperti
disparagements
phaeton
paltering
enticeth
enticements
bacons
winning
winnows
caparisoned
distilment
distaffs
distribut
crawling
chooser
gargantua
garnished
chevaliers
surgere
captivat
captivates
waverer
incomprehensible
embowel
extolment
calumniate
calumniat
definement
defacer
defacers
##gnizances
springes
birthrights
contrariety
contrariously
contrarieties
schedules
tarriance
turkeys
unskilfully
derogation
habiliment
unburden
dyeing
digression
prophesier
grumblest
grumblings
sacrificers
revokement
homicides
perfidiously
meddlers
spectatorship
meditating
plaguy
riggish
tufts
unthankful
perturbations
magnificence
dispraisingly
unaptness
hogsheads
bucklersbury
exhibiters
misconstruction
vagabonds
predecessor
euphrates
sibyls
sibylla
incessantly
aeson
aesop
bangor
boroughs
bunchback
cubit
cubiculo
cicatrices
daventry
elle
eanlings
federary
gurnet
gabriel
gipsies
muniments
molto
mauvais
nicander
niceness
omnes
psalm
psalteries
pancake
ponton
pontic
pontifical
sarum
saracens
tattlings
videlicit
waddl
yells
wizards
ingener
ingots
hebenon
stowage
stupid
stuprum
ascribes
prorogu
prometheus
prioress
priories
franchis
franchise
franchises
franchisement
enamoured
ensconc
enigmatical
allycholl
allurement
trescher
neuter
goodwill
goodwins
exasperates
exteriorly
exorciser
exorcisms
original
ambling
unvex
unbecom
unbegotten
unbegot
unbefitt
unmerit
unmerciful
bloat
swathl
seamen
plausible
plodders
outwent
outwork
disobeys
disarmeth
leopards
leicestershire
laurels
lawns
laundry
quods
quoifs
grissel
menaced
perversely
erhear
erhasty
glorified
glideth
cannibally
premis
precipice
precipitat
premeditation
compromised
contumeliously
reposal
inductions
indulgent
indulgences
fortresses
underminers
elflocks
residue
parasites
accommodat
accommodate
accommodation
accommodations
peaten
dictator
overshines
overshades
associat
associates
misplaces
muscadel
distasteful
condolement
condolements
cutpurses
singeth
garrisons
affianced
deliciousness
incarnal
incarnadine
untruth
extravagancy
bosko
undiscernible
vehemence
sprinkles
fattest
spokesman
unwisely
hugger
girdlest
insuppressive
insurrections
unpolici
solidares
uncurls
kentishman
kentishmen
squarer
squarest
squadron
sheepskins
hallooed
hyrcania
daisi
daisy
mercenaries
procurator
guildfords
craftsmen
supersubtle
superscript
outlawry
endeavors
seduced
substitut
malefactions
malefactor
rigorously
traditional
difficile
difficult
anticipation
anticipates
unloaded
tragedies
tragedian
abundantly
implorators
waggoner
felonious
ottoman
inexplicable
inexecrable
buzzards
irregulous
mechanicals
victuall
essential
cavaleire
carbuncled
admonishing
admonishment
admonishments
epitheton
loggerhead
loggerheads
unnecessarily
disquietly
derogately
misconstrues
sluttishness
lincolnshire
azure
auricular
borderers
bombards
dandy
dicers
dicipline
doute
doughy
diablo
finsbury
fontibell
gills
gillian
gilliams
hanged
hesperus
jills
ketly
loureth
latches
masonry
meshes
maggot
nousle
navel
nnights
oeuvres
pomps
pomander
pomgarnet
pomewater
pamphlets
pioner
pioners
pensively
pumpion
pannier
rotting
silliness
silliest
tanquam
tournaments
tinderbox
vorld
velure
thimbles
whorish
whitsters
inseparate
shoal
shoals
shoemaker
shackle
forenam
stanchless
stigmatical
prunest
dollar
dollars
reliquit
reclaims
enshield
enshelter
enshrines
enraged
heritier
##raphas
gondolier
sulli
sullies
sullens
sultan
allottery
sphery
sphered
sphinx
spuns
spitteth
loiterer
loiterers
tranect
chirurgeon
cheaper
chappy
nebor
nebuchadne
manslaughter
upstairs
upshoot
exultation
ampler
confections
confectionary
unyok
unbless
unblest
unblown
unbarb
unresolv
uneasiness
unattend
unattaint
unattempt
canvass
swarths
swashers
seethes
ardent
arcu
alphonso
alchemy
scathful
scamble
[...]
