[PAD]
[UNK]
[CLS]
[SEP]
[MASK]
!
$
'
(
)
,
-
1
2
3
4
5
6
7
8
9
<
>
?
[
]
a
b
c
d
e
f
g
h
i
j
k
l
m
n
o
p
q
r
s
t
u
v
w
x
y
z
##h
##a
##k
##e
##d
##r
##i
##n
##g
##s
##c
##t
##y
##o
##w
##v
##u
##l
##m
##f
##b
##x
##p
##q
##j
##z
th
##er
##ou
##os
##nd
the
eos
##or
##at
##in
##es
##ll
and
##is
##ar
##en
to
you
##on
##th
##ed
##an
of
no
wh
wi
##ve
##ing
##om
##re
be
in
he
my
##as
##ow
sh
##ce
that
ha
##et
##ut
##ch
for
##ay
##ld
##le
me
is
##ir
##ere
##us
##it
not
##ur
with
##ter
##im
##gh
it
##oo
we
st
your
##se
as
##ke
thou
##ad
##al
his
this
but
pr
so
##ent
##id
##all
have
do
on
him
li
##ome
##ath
##ght
##ly
will
##am
##ess
an
##ord
de
fr
##est
##ain
re
what
##ould
en
se
her
##ood
##ore
##ck
##ver
##ion
##ra
##ie
thy
##ther
go
##ge
su
all
##our
##st
by
##pe
shall
##and
##ight
if
##ake
##ard
kn
##il
lo
are
tr
##ct
ch
ne
our
lord
thee
at
##ue
##ak
##ast
there
good
man
up
br
##un
ex
##ich
or
##ill
am
now
she
let
com
##ant
sir
##ell
##fe
fa
con
##ust
##art
from
##ous
##ine
##ost
enter
##ot
le
come
they
##sel
ll
here
un
would
than
##ers
##ul
##one
was
##ive
know
more
##ol
bl
can
##ven
sw
how
which
well
then
##ose
see
##um
ar
##ble
them
##ry
love
##ame
##ear
##ish
their
when
say
##ee
##ate
##ind
bo
wor
##ic
king
##ence
spe
##self
us
hath
mar
pl
like
##row
one
did
##ri
##ink
where
mad
sp
##ong
may
upon
al
sc
##pp
should
##ure
make
ho
gre
##other
out
##ance
ca
sa
##ves
were
##fore
ag
##ort
dis
##ook
yet
##ather
some
had
must
tw
##ound
why
##are
who
##em
##ig
too
tis
tim
pro
speak
such
##ice
##ff
cl
give
these
##pt
##oun
again
##ity
##ace
la
hon
##ide
##ies
god
##nds
heart
##io
gra
##ave
po
fl
##nder
take
##ick
qu
gr
##orn
ever
think
look
ab
##ise
nor
tell
##ness
most
##to
##ved
##uch
day
##ass
##ag
great
##ist
##ius
str
mine
ey
##age
hea
aw
##ady
##wn
##ud
##urn
##ip
##own
##ery
##ep
off
father
co
time
##aster
des
##ful
hear
gent
bre
ser
war
men
fo
much
never
bet
##ng
##qu
per
ro
##out
##ft
##ase
pe
##ire
exit
##ation
frie
ear
mo
gentle
fair
##ene
##ince
art
ad
er
##ro
##ang
pray
wr
master
##ber
death
night
hand
##ious
blood
##ings
##eet
word
##ack
du
##ress
call
other
##per
part
comm
##igh
fear
##el
heaven
foo
##au
life
ple
##ith
##ach
hast
##ither
##ough
coun
sweet
away
##ree
##oul
made
##ces
##thing
##use
ma
doth
##ign
jo
any
before
##ile
gl
lady
##unt
ay
son
##ian
##ward
very
stand
true
scene
honour
cann
sl
##tle
##end
##ia
thus
own
##ull
##ite
cannot
em
bear
im
##ph
af
##ment
##oss
ant
pre
been
##ty
##ouse
brother
arm
##ction
##ving
##man
mean
world
done
##li
two
##eep
wom
down
name
dr
cont
way
leave
pres
head
eyes
could
fir
##bl
foll
might
##orrow
long
##cc
fool
beg
being
rem
noble
comp
cour
poor
duke
into
##sw
##ief
##rown
##atter
nothing
house
till
serv
##gl
##ghter
therefore
even
old
que
show
though
pur
##atch
exe
comes
nay
mer
thought
keep
whose
ind
##ks
dau
both
##op
##uck
wit
rep
##eed
##aint
gi
better
mist
grace
find
myself
char
##ap
new
##iss
queen
##ors
##ied
dead
##ons
put
soul
cr
##able
dear
first
##less
against
hold
fort
follow
##ens
har
many
lie
lords
best
##ild
sle
fell
##ert
hel
att
gu
under
tru
still
peace
set
conf
rich
madam
##ower
sm
##akes
those
nat
every
##come
live
bel
high
##cy
##ought
thr
friends
pa
worth
daughter
ye
##iv
##ears
##ange
##der
fortun
stay
end
el
cons
wife
lit
app
young
fare
##esar
##ew
exeunt
dev
rome
tong
within
count
engl
bring
little
##ier
boy
die
answ
prince
caesar
thing
fall
##ield
##ason
bes
none
##les
place
res
cur
hour
mistress
play
##ience
faith
after
##ock
##well
gone
himself
beh
rest
##alk
answer
par
##alt
friend
fal
hum
court
ed
turn
##be
whom
another
mother
pass
vir
##oud
ap
dra
wel
full
##int
bid
kind
wo
##ows
unto
aside
since
##iness
woman
bra
mind
indeed
##ret
tre
ret
##its
present
else
vill
##cl
val
##ctor
sword
acc
three
ii
once
eye
words
ta
bed
thine
dou
face
pat
##ench
##reat
##esty
tongue
right
##men
sold
please
dost
##ult
seem
hence
##for
meet
france
hus
##ison
imp
##ps
##ans
child
has
hor
##old
about
kill
forth
##lt
crown
##ains
##sand
tro
##ced
need
##hip
back
##ished
tra
##ition
ere
##lf
anton
matter
##ged
##ants
##eel
over
##dy
##ouch
car
##we
sub
##oke
##band
nature
ass
spir
far
mon
pleas
letter
said
husband
dre
sleep
##ix
##ised
marry
hope
wrong
lu
welcome
act
##ins
light
home
read
without
ban
earth
fortune
vi
##eng
##ets
attend
farewell
##bt
sure
makes
heard
just
##ister
disp
mark
##led
suff
thank
breath
hang
##red
##ned
te
came
power
##if
wear
##uty
pra
virt
help
##gar
hands
##ca
law
cause
disc
gods
morrow
does
hen
pard
##ury
##selves
break
cor
mis
##ab
thousand
##ieve
gentleman
##ail
false
rather
shame
henry
bus
##cle
gold
maid
pardon
##ial
lay
sent
adv
use
##ates
##pect
##ient
things
fellow
sil
get
##fect
truth
hither
##ect
##ond
happ
enough
fight
sound
##yal
##cious
state
only
forg
stri
england
##iz
reason
same
last
sec
ob
##land
mus
op
##ute
near
##ried
den
wilt
bar
##any
luc
##fort
##ents
remem
news
sen
devil
land
run
ph
##rant
shalt
honest
##ru
purp
##av
inst
swear
command
fe
##ily
##ory
ill
sign
beat
##med
##ork
youth
tears
##und
sea
exce
return
##ions
##gether
pers
yourself
saw
maj
born
kiss
mur
##ib
##bour
##esh
##ash
##ount
draw
body
strange
york
##cester
enem
through
dar
fire
##ener
##ides
appe
tit
oft
cous
cry
care
lost
##vy
fly
jud
wish
int
send
sun
talk
vo
##iet
fault
grief
wind
weep
cla
##anger
##iers
deed
joy
villain
antony
##ms
arms
horse
free
less
##ered
bless
means
seek
sing
##vere
##ues
together
##vers
##eal
prom
seen
majesty
##ove
fur
spirit
hard
pal
##ject
yours
prove
strong
cass
##ner
reven
##ump
cousin
mess
##ning
music
##ars
##ary
ent
left
au
ba
cle
yes
##oucester
##ade
gloucester
besee
win
##iff
##ne
richard
country
bur
tem
want
quick
##outh
half
lear
##ken
bea
murder
grow
##air
supp
gener
sorrow
ty
while
believe
sit
##lo
##ceive
itself
prot
comfort
doubt
business
##by
sick
##hn
royal
john
found
##ween
foul
touch
met
##dd
##oney
bir
##dom
rec
##iph
fit
##ting
lies
thoughts
fie
##ats
som
##wick
##oura
##alth
servant
told
##ush
between
##ertain
bu
worthy
cast
work
warwick
sister
beseech
##ple
alas
cap
service
##ople
edward
che
says
pity
proud
remember
each
field
late
bloody
##ours
gave
lad
ru
##fend
people
prith
##cked
prithee
bound
dog
lead
dist
air
sk
##cei
##oot
##olus
cond
cold
oath
ask
dem
antiph
antipholus
cra
dam
##itor
cho
fav
uncle
purpose
pu
sight
trust
desire
further
inf
##ained
cut
danger
##utus
##ures
prison
alone
gar
page
ang
french
aff
ra
sad
##ys
##ls
soon
sin
stre
stra
dream
certain
dare
pet
sat
##cess
meth
general
hate
wat
thyself
foot
##ior
save
gentlemen
lose
brutus
looks
called
##liver
gall
brought
##ible
##pped
gracious
company
ga
yield
##let
##ime
exp
cam
min
ter
holy
drink
##oth
##xt
##ched
cham
prov
grave
common
given
charge
soldiers
wound
prin
dep
knows
content
ven
wa
##ened
behold
virtue
wise
##ined
##ches
##ude
happy
##sh
##most
point
burn
col
ten
loves
##ague
deser
brave
iii
patience
##ling
days
lives
knight
known
##olk
others
mort
years
mal
##ted
##ugh
beca
loved
warrant
because
four
sur
##osed
ange
deliver
black
capt
times
serve
highness
money
poss
side
##aking
writ
mouth
pay
##ron
past
hell
sovere
neither
mercy
report
sovereign
##mer
whil
age
jew
del
confess
ac
##up
women
don
hot
##ren
##ship
inc
##asure
##ured
something
##ength
watch
##iest
##anc
reg
thanks
div
eat
requ
trump
prof
quest
woo
##aff
pleasure
fast
sal
##ift
goes
est
##ices
didst
yea
buck
tal
marc
ground
ring
##over
##enty
deep
##aste
bold
ev
##rew
##iece
suit
morn
##iant
##ated
##els
english
open
card
pom
##inal
toward
##owed
canst
hearts
either
##oman
##fection
const
tender
appear
beauty
vis
##og
emb
wonder
wall
walk
sum
knave
unt
quar
ears
dro
##br
hector
##ooth
change
next
twas
haste
truly
appro
person
red
##ham
ext
enemy
ke
sake
inter
##ments
guard
messeng
entreat
##ceived
chamber
##no
##oward
##ceed
##oof
##ally
revenge
ah
##inks
took
soldier
##aves
speed
desp
pret
base
##iar
spee
almost
heavy
valiant
subject
justice
strike
straight
bos
ros
##sue
soft
leg
cal
iv
sn
town
short
hark
praise
favour
opp
having
worse
pluck
heavens
stands
drum
##ixt
cardinal
twenty
bat
forb
rel
above
prep
voice
palace
question
ach
pen
sim
##ym
##uous
##anio
hair
scar
course
claud
##ander
knew
coming
march
##like
merry
fet
##ask
note
married
labour
perfor
traitor
water
bosom
duty
lam
##bs
##tern
##ourish
##stand
unless
sons
emp
coward
feel
##uff
##bly
wid
plain
gain
wret
##ont
moon
glad
romeo
bad
##kes
##ready
weak
def
mock
methinks
##jo
inv
stir
##rah
scorn
room
counsel
excell
city
lest
##dle
##owers
ready
themselves
##riage
presently
messenger
ver
throw
##ones
sirrah
spoke
already
liege
cassio
##umber
laugh
dish
##ac
##bb
thir
##eness
##ities
flesh
harm
prote
ladies
mons
wis
##ford
##ires
withal
##ument
##dden
und
chee
sport
deny
hur
##vol
##une
amb
##rice
##ully
needs
teach
creat
di
dire
##ape
##ring
speech
host
mot
saint
##com
##ired
##used
priv
trou
flatter
witness
respect
woe
pol
##ott
jul
become
chr
grant
begin
five
nur
heir
lips
got
knock
##ils
wherefore
flourish
pale
feast
signior
action
mount
ri
##gn
##sc
##ina
##feit
proceed
wars
add
commend
guil
dark
##ourable
##ank
sworn
strength
morning
loss
pit
ve
white
door
sever
lucius
bit
book
##bury
##erd
bro
timon
speaks
resol
judg
somet
captain
low
##eth
ham
sudden
wherein
clar
gives
consc
##anch
offend
disg
claudio
jest
beast
##oop
##ilus
##unk
##bles
attendants
fetch
hide
##via
##rel
##ays
wouldst
kingdom
understand
hours
letters
banished
vile
##of
chur
marriage
offic
office
slain
slave
bast
mil
##af
wild
self
##empt
beggar
christ
clarence
##bot
##ingham
star
##race
alar
twere
honourable
behind
suffer
sense
battle
fat
port
fore
lion
##ung
abs
children
killed
dread
conscience
det
mir
sigh
##ying
##ines
steal
kings
whole
lack
adm
mac
helen
##ize
pretty
excellent
fam
fill
fash
##cut
bell
anon
##iled
##aken
among
cross
troilus
suffolk
##hood
##az
##mn
##cept
##tered
lordship
second
quickly
mortal
fing
lust
rage
wed
##isf
##lex
##ites
liber
exc
##ries
safe
poison
fortunes
passion
spirits
feed
##cent
##pr
kneel
##aked
gro
seems
viol
lim
##ked
##que
brief
spo
##ages
buckingham
talbot
bastard
hund
lar
##vel
ourselves
margar
write
cheer
hundred
margaret
corn
ef
ele
##hile
##od
##ters
##imes
seal
order
close
offence
mighty
tale
secret
often
possess
alarum
##ram
##ny
pros
along
##ations
##aught
##ainted
fashion
ble
ut
##aim
##ek
##gr
beard
issue
friar
mod
gift
besides
satisf
acqu
hamlet
drown
eas
##ead
ford
##ames
loving
worship
longer
small
##bey
##claim
whilst
pompe
nurse
kate
wood
##gg
##ued
ship
##ited
living
fresh
##antage
##umb
arg
masters
##ians
affection
prev
souls
promise
choose
cup
sor
ur
##ser
##ndon
##ona
whe
##ural
##ool
stop
reb
trib
unk
bond
paris
enemies
hurt
ath
dies
horn
match
##rous
##ises
shar
anc
breed
presence
consent
valour
publ
dangerous
princes
pompey
died
occ
health
tri
chance
leon
emper
heads
patient
damned
wisdom
effect
##sed
##ancy
noise
sole
unw
awhile
parts
bears
forget
bol
din
fine
##ale
##rey
form
stud
going
gover
##ility
conqu
breast
move
antonio
emperor
went
##ared
tom
force
london
blow
north
offer
adie
deeds
judgment
mid
##under
##fully
succ
##illes
looked
dull
curse
reads
rosal
post
roman
takes
vol
##aw
ins
##als
##ider
green
hadst
fools
birth
approach
adieu
case
gates
six
##esy
##ony
rog
title
depart
marcius
bow
piece
##ners
##ses
##wd
##ingly
##asc
shake
pride
doctor
herself
shows
paper
humour
##beth
judge
prosper
whether
tent
##tain
##oly
forsw
neigh
##erset
blind
carry
opin
##ealous
somerset
castle
angelo
dest
ld
med
mut
round
song
wert
##ald
##ges
##yed
tow
lend
unh
qual
##ago
virg
treason
pract
virtuous
phil
angry
church
list
tor
##osition
##entine
enc
least
worst
saf
cloud
##agg
contr
##bled
##ledge
##rupt
achilles
sus
year
##inius
##omed
stood
step
plague
prayers
counter
foolish
turned
mont
buy
colour
quarrel
cre
ign
##asion
shad
forward
stor
receive
earl
##aps
fellows
learn
jack
jealous
pi
##con
##oe
thither
##asons
ref
##ishop
##icles
crue
troth
kept
leonat
av
cit
won
##ding
##bro
##arch
##amed
##cted
brook
sheph
wash
quiet
rob
##ify
scarce
##broke
shepherd
hu
taken
##ends
##ray
##vest
shr
measure
sac
perceive
jove
faults
demand
gainst
third
bitter
cir
gir
pains
vain
wast
##ror
##iam
##ife
##uit
whither
##rem
anne
herm
##staff
ours
##ello
concl
alive
proper
laid
calls
fearful
falstaff
import
titus
blessed
cassius
trumpet
dishon
dinner
rh
sy
sch
tar
vie
##ax
proof
##icul
usur
cliff
dispatch
sorry
bass
cost
catch
iago
oct
obey
##iol
##ual
##ught
##chief
fors
trick
plant
glory
army
execut
troy
##ourage
octav
rid
rise
##oved
thro
inno
dec
reign
##cks
clock
fled
drawn
golden
sharp
opinion
ge
ow
pain
sort
var
##oint
thunder
##ths
##ley
seven
hero
lod
trans
blame
honesty
grie
drunk
contin
purse
cred
forgot
ignor
cruel
gh
tear
vow
wal
##een
##bed
frown
try
manner
uns
unf
##ume
dism
harry
simple
monster
es
van
##ern
##anus
held
shape
blush
##perate
##phin
servants
coriol
instant
auth
temp
forbid
govern
success
neighbour
tower
rough
yo
##cul
mel
priest
##ided
received
brain
##unning
amen
conce
##ots
whence
gross
##bert
##ressed
banqu
obser
learned
view
clifford
mere
wench
lived
defend
broke
##rius
hop
proclaim
struck
charm
smil
##iffer
wounds
citiz
bened
cat
kath
##irm
thence
quite
greater
awake
hearing
moor
delight
macbeth
trium
kathar
bene
courage
equ
odd
pin
vouch
wine
##day
##ipp
##iful
thrice
top
mem
##usion
##itors
wealth
deal
expect
entertain
swift
##ounds
##elia
boys
double
obed
persu
bird
condition
request
embrace
walls
ghost
cunning
hol
pos
wol
##gy
##ts
##zard
##oses
##ators
##ances
inj
hail
loath
amaz
whereof
holl
sail
moved
##elve
folly
pleased
trumpets
widow
wretched
triumph
fish
##right
##bar
winds
brit
hanged
tyr
prisoner
street
visit
trouble
fle
pun
powers
vent
threat
##isbury
becom
meant
stock
##iel
knowledge
##ical
alth
cloth
desires
bearing
dauphin
holds
smile
##airs
salisbury
until
drop
ancient
encoun
dur
due
dance
taste
##oll
##bo
##ased
##etrius
##idius
##unes
pla
commit
compl
##ission
princely
intend
demetrius
creature
although
bones
ce
eld
rasc
west
##pl
##ores
hap
enjo
train
necess
goodly
bod
alack
caius
grand
##aughter
ways
wits
banish
forgive
borne
aught
towards
motion
juliet
rosalind
yonder
melanch
aj
boot
cried
gard
##ipped
##night
##ze
##ane
forest
neck
prop
proph
armed
falls
valentine
claim
clear
grows
extrem
private
several
bleed
author
melancholy
ajax
cust
ly
making
py
##ker
##ub
##edy
wicked
##ingbroke
##ety
yourselves
##alm
doing
deg
revol
shallow
chang
blows
##icious
greet
twixt
greatness
slaughter
##bling
repent
endure
courtesy
promised
choice
camp
terms
bolingbroke
citizens
hunt
main
tur
##bus
##chance
mend
stars
sol
used
glass
honours
precious
tongues
edm
weary
advantage
silver
silence
princess
wait
malice
whiles
profess
marcus
emplo
christian
aud
bian
bishop
faint
hung
id
ren
rude
##zen
##vell
meat
##ilius
bright
twice
wrath
remain
keeps
discover
proteus
direct
liberty
excuse
large
virgin
bare
cas
fig
ir
led
nose
owe
pot
##ua
##ped
##orge
bend
inh
##utation
debt
##stance
##ilia
fail
shouldst
charles
victor
silvia
except
summer
cheeks
guilty
occasion
kent
rose
rans
root
sings
##king
##ler
##oral
##atra
heels
shore
stone
steel
##ident
unc
unp
imag
##opatra
##ierce
trem
cleopatra
protest
colours
delivered
lament
cheek
solemn
rogue
safety
edmund
bianca
big
der
dry
few
loud
mour
##oc
##with
weigh
env
chall
manners
spend
spring
lav
fond
foes
fears
brothers
swords
accord
wrongs
maiden
legs
finger
public
benedick
dri
dwell
fought
fury
pure
rare
sooth
tee
##dem
##iance
##folk
##ising
##vey
##omach
stuff
madness
sav
twill
quoth
norfolk
##iana
humble
monst
corrupt
remembr
##ruction
minister
##ronic
prepare
sometime
cuck
fame
kins
##more
##orous
##read
hab
##urs
weap
start
enfor
conc
conj
##oler
phys
instr
condem
utter
athens
circ
monstrous
alex
bas
cord
cress
egy
fain
food
idle
lanc
ox
sens
tree
##eous
##ways
thief
##orth
##enet
##reed
shut
##iment
story
##idge
##ourse
knee
chain
unb
prod
desert
desperate
desdem
particul
compan
follows
undert
throne
winter
deserve
forbear
perform
counterfeit
shadow
storm
dishonour
egypt
lancaster
desdemona
aid
hors
tut
tune
vows
##orious
##inia
##eds
heat
shrew
stab
##sem
rever
brow
##rows
sau
cover
foe
perfect
followed
smell
wanton
tyb
oaths
venge
##ogue
##otten
study
practise
becomes
custom
renown
physic
circum
niece
rain
rag
wre
##ense
##reh
##eter
reasons
lover
leis
leaves
plot
flowers
##udge
betray
pericles
meaning
following
paid
##form
miser
fiend
sometimes
lavinia
cressid
tybalt
dun
gown
hit
lang
pis
##cil
##mon
whis
wives
heed
stomach
##entio
ones
herald
##ract
trial
exam
sheep
twelve
grat
betw
hastings
slander
giving
consider
tail
##verend
recover
gallant
montague
execution
coriolanus
bab
dust
differ
gate
hat
hid
number
##afe
##wise
##ination
##enance
##ences
##cel
former
weight
##ades
##athers
mayst
warlike
duc
plead
join
natural
kindness
crowns
crowned
breathe
##ified
lawful
discourse
senators
weeping
anger
sooner
subjects
guilt
disgu
easy
remembrance
horses
leisure
betwixt
bott
ease
feet
grown
nest
pick
rank
hall
##itude
stol
stones
doom
##ament
fruit
chief
spent
spare
always
disd
abro
affect
guest
humbly
lucentio
capit
deserved
regard
##volio
diomed
dreadful
argument
forsworn
challen
cries
fee
nine
squ
##ging
##erm
bef
##cend
hal
##ayed
isab
##ams
reverend
envy
##ieur
lovers
##ement
clo
flower
percy
earn
empt
drom
charity
appoint
disple
affairs
evil
broken
spoken
octavius
fancy
line
pand
##app
##yond
bew
beyond
shed
staff
prick
search
goodness
comb
spite
grey
thinks
slow
showed
witch
traitors
supper
possible
jewel
##umberland
protector
officers
cupid
ransom
dromio
dig
ep
maint
oth
wing
##gs
##mond
##ution
melt
press
doors
fright
seat
loyal
therein
bride
saying
##eem
flood
armour
contempt
remedy
thrive
bids
##formed
##ails
burg
buried
tempt
tyrant
condu
peter
despair
officer
mirth
vouchs
abroad
othello
dign
fun
hill
nap
rom
sore
table
wag
##rest
##char
##leep
asleep
deceived
##very
##raid
##ands
spar
flight
flies
richmond
below
answered
humph
seeming
meeting
happiness
freely
capul
wretch
undone
acquaint
leonato
encounter
teeth
particular
aim
ape
able
bard
cure
da
dagg
##ees
##mit
andronic
nobl
incl
##uten
render
##rac
##ieves
ali
gentlew
heavenly
imm
imper
preser
firm
begins
compass
lieuten
beloved
thrust
daughters
countenance
played
account
##ixed
##ized
lands
returned
voices
single
temper
venice
constant
determ
unkind
conquer
hollow
pyram
langu
bottom
humphrey
borrow
mild
sits
ted
wings
##fer
thick
##osing
##arus
toby
##omp
knees
lean
seeing
quit
abh
joint
purs
dearest
bestow
slender
guess
confer
##ivil
tread
treach
wronged
denied
beatrice
##iety
griefs
bawd
touched
petr
despite
##asket
drowned
tribunes
horns
northumberland
clouds
girl
hermia
hopes
benef
vengeance
romans
lieutenant
tedious
bought
mart
nought
por
tam
##lled
##oned
whore
infect
##iter
##imer
reward
realm
hers
##illo
blunt
##rible
spr
##uchio
strang
roar
honoured
cursed
##sander
streets
camillo
profit
tomb
credit
tempest
durst
garden
authority
lysander
ducats
earnest
petruchio
dom
furn
naked
pack
rul
sic
salt
vice
wake
##ten
##lock
##chant
sto
dece
neg
faces
blest
swore
swell
spake
outward
sack
laun
##ips
coz
cock
served
warm
peril
wond
minds
vii
##undy
appears
intent
bapt
sickness
rule
skill
express
provost
angel
drops
suddenly
prevent
innocent
burgundy
apt
bade
fi
pound
rat
tid
##den
##na
##go
##iny
dot
dew
knife
cher
ord
##olph
arch
flor
greatest
serving
purch
deadly
villany
disposition
burning
estate
empress
wide
vex
suspect
school
throat
george
equal
tyran
cease
vouchsafe
bardolph
andronicus
cere
eag
hort
honey
pie
ride
rail
##head
##ault
##ives
##fidius
thom
##ored
##thum
shot
pron
seas
tranio
bred
brings
exeter
swe
##igo
##igence
perchance
early
parted
commission
council
##ctions
womb
begu
##ertes
smooth
turns
virtues
aufidius
##ney
mortimer
ambition
absence
sighs
violent
prevail
quality
pict
bassanio
obedience
posthum
rascal
empty
capulet
gentlewoman
pyramus
tidings
hortens
thomas
posthumus
cy
ends
gon
hie
ped
pour
rash
##ta
##wh
##ino
##inate
##ano
##itious
ital
prol
loose
##akest
##ella
##ote
##oles
##ria
gree
stranger
perj
##elt
merc
repair
##apes
appar
appreh
imposs
assure
assured
mischief
bark
beaten
affli
resolved
helena
modesty
gifts
satisfied
unkn
tarry
kinsman
challenge
conduct
bill
dumb
fil
fift
length
miss
names
pil
painted
ran
tort
##act
##kin
##iate
##nat
##atio
##ining
##ision
##enz
##thur
##anced
hazard
##ado
william
eng
season
convey
hereaf
swall
arthur
##rived
dise
diss
clown
##ption
feared
followers
devise
apart
retire
villains
darest
methought
divine
mountain
portia
unworth
unhapp
contrary
avo
forsooth
plantag
ignorant
baptist
pronoun
hortensio
hereafter
ball
bind
cates
dying
east
sour
sides
##haps
##ton
##vent
thieves
##ating
##onius
prize
franc
reck
##pend
trif
ung
worm
##icate
scot
clim
perhaps
roder
glorious
prefer
merit
reputation
puts
attempt
hencefor
horatio
troj
sleeping
maids
object
blessing
dogs
crave
garments
raise
offended
modest
sacred
memory
undertake
pisanio
fiery
baptista
roderigo
bag
bury
eight
hy
mag
wished
##cri
##ug
##ora
##inous
##ening
##leans
stat
##alf
##idence
sees
brows
orleans
knowing
ariel
lovely
##amemn
spec
mars
agamemn
abused
fairly
ladyship
complex
behalf
treasure
sleeps
bush
dares
build
raven
knights
fatal
amazed
bodies
victory
disdain
plantagenet
agamemnon
boun
civil
fits
hugh
ja
jour
ner
pad
south
waste
##aid
##res
##ric
##cing
forfeit
ste
stick
liest
##ards
brains
faced
alb
cave
laertes
##istol
heav
##ques
##atched
confound
friendship
device
passed
month
market
runs
exceed
dreams
##ogen
shortly
##bbed
limbs
usurp
smiles
degree
according
reverence
negle
francis
cens
duch
fin
fathers
iron
nym
rush
tide
taught
wander
##hold
##dra
##rate
##net
##inite
##lle
shout
##change
island
##amour
sell
##ieved
knaves
##ilt
chaste
orland
sirs
dischar
speaking
graces
pock
thinking
looking
party
imogen
dearly
assist
senate
damn
gaunt
##chester
malvolio
accept
polic
ripe
admir
groan
hubert
rhym
banquo
katharina
punish
changed
employ
cuckold
whisper
capitol
unknown
orlando
cell
ful
fate
hind
sink
##acle
##wis
##bel
##eret
##esus
##ency
belike
shine
##utes
##cher
stoop
##sey
frame
##verse
super
chide
lewis
unl
scr
proc
serp
slight
afraid
finds
##aped
pair
woes
attended
misery
advice
window
revenged
sorrows
infinite
prisoners
wax
relig
monsieur
julia
admit
possessed
odds
clothes
haply
displeasure
dagger
alike
catesby
policy
etern
rt
test
##ever
##ws
##essel
##edge
##ads
##lys
willing
seest
trade
unnat
blown
##uments
fairest
slew
resc
advise
intell
sky
saturn
minute
constable
snow
drums
prepared
invent
famil
##prise
midnight
charmian
enjoy
revolt
habit
oxford
abhor
##olesome
impossible
bounty
aar
aene
crow
fant
fierce
fixed
ire
naught
numb
pill
pear
tall
tend
taking
wants
yond
##obar
##ator
nob
ingr
##asy
isle
##tery
weeds
stain
deer
##ested
enobar
sends
##ellow
cler
grum
grieve
tells
stroke
fairy
handker
standing
guild
native
consp
consul
monument
praised
sounds
devils
babe
winchester
countrymen
perforce
performed
creatures
disgrace
conceit
places
condemned
prodig
renowned
tamora
unhappy
henceforth
duchess
##ereto
unnatural
familiar
aaron
aeneas
bent
band
bull
bite
et
mong
mass
vessel
wink
##vish
##fl
##anct
whip
##rees
forces
withdra
stam
##aded
priam
repe
sem
chast
unm
##olute
arise
marina
saved
##arel
heartily
descend
fox
rock
peers
prayer
emilia
mistake
edge
impr
months
surely
hangs
sentence
lucilius
commanded
favours
ambitious
darkness
fingers
susp
syrac
unfold
elder
necessity
banishment
figure
instrument
pieces
picture
avoid
enobarbus
dim
eph
gle
pistol
rap
vin
##eld
##erous
##inct
##llen
##enius
nobles
##ita
##itable
noted
##oops
##sequ
decl
chair
unse
boast
worn
marks
##rift
spur
grec
flow
##assad
coff
wrought
image
drive
remains
belong
pause
impat
wears
advised
secure
##uteous
kisses
hardly
hateful
wounded
pomp
ambassad
privile
creep
ignorance
inher
weapons
maintain
complexion
padua
bon
felt
mill
nice
oli
rav
scept
tame
##sp
##soe
##can
##bast
##ering
##enes
##oment
ink
stret
ash
##idus
deb
reach
rejo
##iege
knit
neph
exper
scape
proved
clot
hearted
abuse
fairies
joan
prey
repro
##ension
confirm
edgar
hanging
draws
burth
murderer
murdered
record
craft
deserves
delay
lamb
undo
belly
amongst
##centio
destro
griev
banquet
katharine
entertainment
enforce
companion
difference
disguised
benefit
sweat
unworthy
special
nobility
ephesus
vincentio
nephew
basket
cym
dow
esc
fed
gather
lor
moment
rotten
sanct
task
##acy
##ict
##so
##oard
##okes
##way
##pidus
nobly
whores
whipped
inqu
forced
weather
##aled
lip
hercul
suck
alle
chid
cominius
lepidus
hereford
blast
arrest
sayest
##ica
maria
spl
sple
mayor
greek
twain
quench
fold
eros
slaves
slept
stays
stayed
appet
apparel
curr
faithful
friendly
human
welsh
accuse
seemed
pleasures
reading
discret
discont
advance
strikes
instru
temple
ruin
crack
exped
angels
mouths
defence
milk
acquainted
sacri
wales
britain
mourn
envious
shrewd
##celot
language
launcelot
handkerchief
withdraw
hercules
cade
diana
freed
gri
jup
mood
mult
paint
tied
vantage
##action
##wed
##uce
thur
shun
shift
haunt
##ursed
knot
trim
choler
amiss
##ously
spit
poet
aboard
offered
breach
perish
ado
otherwise
glo
glove
##ianus
immed
began
remor
##glas
paul
paroll
kindly
##clus
accus
douglas
corp
silent
purposes
stronger
biron
petition
commonwe
calm
pitch
books
rebell
costard
tremble
senses
circumstance
pandarus
ruled
prologue
pocket
numbers
olivia
jupiter
thurio
parolles
kin
lent
sought
yoke
##hem
##ope
##leness
thrown
##ark
##eder
whit
##ldom
withered
store
stained
soc
lift
willingly
sebast
sup
allow
##ouses
sway
##umer
marvel
also
##ortion
godd
serves
fairer
##roclus
##ression
partly
merchant
charged
harsh
younger
behav
courtier
passage
drag
patroclus
cares
substance
pleasant
suffered
laws
advent
crying
wishes
skin
plucked
prepar
hostess
##scri
beasts
groans
sealed
leonatus
huge
committed
savage
concern
miserable
dignity
wondrous
italy
##beline
cymbeline
sacrif
immediate
sebastian
bio
bud
je
luck
mat
moral
oh
sine
ulys
ward
##mio
##bow
##pul
##ndello
##enc
wheel
wholesome
height
shown
shoot
stu
frail
goose
thereof
conven
lea
league
gremio
tooth
clos
perd
adam
wrest
nights
##iano
services
pursue
slee
confusion
appl
passing
villan
travell
subd
marked
coron
falsehood
barren
message
afford
incre
calf
oppos
polonius
knocking
resolve
milan
wedding
affections
jealousy
tricks
birds
casca
stolen
acquaintance
conference
##enzo
grumio
lorenzo
discretion
goddess
biondello
ulysses
afe
aumer
bore
bot
bert
couch
fret
jess
mask
non
nun
od
oak
pee
rous
rum
sins
zeal
##ais
##ded
##son
##came
##tles
##mant
thers
thorn
##eres
##ative
##aries
##irt
##uses
item
stan
dol
depend
front
seize
##raced
goths
chase
exchange
##illon
enterprise
##seless
spurn
hole
dissem
strain
strive
coat
design
bread
menenius
##enstern
beside
plays
trees
travel
monarch
earthly
signs
weeps
beaut
regan
constr
guarded
rivers
absolute
liberal
urge
medic
torch
torment
steph
bassianus
dismiss
observe
persuade
wolf
injur
saucy
gratiano
nestor
isabella
appointed
apemant
purchase
tyranny
reckon
trojan
serpent
eternal
guildenstern
imprison
suspic
sceptre
cloten
appetite
freedom
remorse
aumerle
bertram
thersites
apemantus
bay
bount
cou
cand
lat
ling
pate
pull
##rid
##tled
##vation
##uc
##lain
##za
##inus
##rels
##ases
##urance
wept
asham
rev
##geon
##umn
spot
scour
shoulders
##emper
abide
perfection
peas
error
duked
joined
anti
merri
higher
pawn
players
accursed
subtle
drew
attendant
strife
kissing
suppose
fields
asked
garter
garland
waters
gait
wisely
bravely
##ancing
wooed
towns
##bborn
pitiful
lusty
satisfaction
refuse
innoc
continue
smiling
grandam
cordelia
tailor
combat
fifty
ireland
grecian
spleen
stubborn
jessica
peevish
suspicion
ashamed
dukedom
cool
mow
nim
nation
pace
rust
rib
stern
siege
vul
##oes
##oph
##ming
##pet
##pass
##zing
##eril
##encon
toil
##celle
##che
fores
sting
stage
##alled
ens
##vert
suits
troop
comest
bohem
##ripp
alencon
score
##ooked
graves
flat
##agues
strump
gently
rod
##iously
couldst
removed
charac
helm
beheld
kindred
doubl
needful
carried
lights
corre
sounded
obsc
barbar
singing
palm
supply
recomp
lately
leads
pucelle
raised
stream
camest
provide
written
delicate
##bridge
key
penny
feeling
laughed
troubled
addition
foreign
absent
macd
possession
varro
proclaimed
obedient
bleeding
directly
wreck
cloak
naples
journey
rhyme
privilege
instruct
afeard
ax
ale
houses
lying
nails
oph
wail
##hrew
##aunt
##cise
##cceed
##lar
##orough
##lly
andrew
##isons
##isible
##omin
shy
shook
shield
shapes
forty
notice
aspect
assem
thisby
price
dozen
liqu
recei
succeed
load
lovest
##aker
##otion
leap
space
spread
alc
scur
scru
grew
caught
aged
lap
grands
flout
coll
desired
warri
mocked
advers
parting
commons
antio
##lied
remove
##issa
countess
beshrew
curses
restr
humours
apoll
value
kills
fares
corse
commands
joyful
burst
beauteous
rug
distra
petty
provided
beholding
jewels
estim
esteem
visage
interp
interest
hairs
invisible
granted
resolution
starve
famous
easily
ships
urged
athen
ancest
prospero
forswear
destruction
conclusion
octavia
placed
audience
befall
beware
daily
eagle
goneril
torture
pronounce
climb
nerissa
censure
burthen
alleg
strumpet
macduff
ophelia
ber
ben
dut
dum
dame
ferd
gid
hom
mile
nar
ope
pierce
tum
wot
##rude
##ially
##oy
##upt
##inand
##aniel
beth
steed
liking
deceive
seldom
entered
theirs
board
##pping
ago
twould
##aged
hears
perf
robert
slay
contem
contract
repr
crest
bestowed
ended
elbow
reser
curst
parley
##clam
killing
assurance
suffic
misc
happily
phr
##rantz
feat
kissed
joys
lesser
aug
clean
learning
growing
tyre
sitting
cheque
term
terror
rosenc
cowards
defy
severally
##prus
breeding
conquest
steps
robin
conclude
pinch
stocks
westmore
proportion
extremity
employed
conjure
example
treacherous
cyprus
apparent
filth
##cription
steward
sembl
rapier
whoreson
split
discontent
preparation
appla
stanley
bohemia
antioch
ferdinand
rosencrantz
westmoreland
aunt
cro
fif
hated
lower
ora
push
rouse
tick
vous
##rust
##now
##co
##teen
##mony
##ping
##just
##eral
##erman
token
nod
inward
inform
hey
share
shines
##iring
##tering
week
##enton
deaf
frank
##ione
locked
troops
manhood
orch
unjust
arrived
theme
box
##ication
kingly
spy
aloud
scatter
shoulder
##ortal
coast
moons
county
beget
begun
gild
##apers
newly
##ival
falling
park
braw
accident
overth
farther
husbands
bank
breaks
running
feather
beats
talked
messal
sisters
terrible
drinking
opposed
actions
alarums
##grim
satisfy
rosaline
##aws
schol
throats
government
wolsey
injury
windsor
fleet
prophet
virginity
potent
imagination
immortal
deceit
viii
ceremony
pilgrim
neglect
discharge
rescue
clerk
syracuse
inherit
##spur
##soever
behavior
closet
increase
recompense
axe
shylock
grandsire
oracle
cent
gert
jun
ming
oce
rate
sands
yellow
##kind
##cute
##wife
##ule
##ughter
##zed
##osoph
##onst
bee
##uts
##chor
meas
##itius
sty
liver
likes
wills
reve
whate
sue
chat
chir
mant
compe
conceive
lev
herein
une
seeks
worcester
outl
laughter
pole
grass
telling
perpet
err
fearing
##ached
counse
##ended
begot
begged
mercut
throng
afterno
apace
bidding
matters
justly
thankful
praises
breaking
barg
senseless
phe
titinius
talking
strongly
yester
supposed
touching
working
distemper
infirm
certainly
##lete
points
pays
divor
wooing
event
chamberlain
thirty
veins
prosperous
philosoph
washed
hermione
merely
##body
eldest
hungry
weapon
instruments
betrayed
isabel
winged
preserve
domitius
dote
greeks
perjured
jaques
intelligence
paulina
villanous
opposite
apollo
allegiance
fifth
orchard
gertrude
mercutio
afternoon
bere
bour
cin
cudge
dat
dine
dian
egg
fenton
kee
lines
makest
net
pier
rack
tig
ug
yon
##eav
##ns
##some
##uing
##last
##bers
##bian
##atic
##inent
##lling
##enced
##cet
##uss
##itch
steep
stale
asp
##adle
butcher
willow
##aming
trench
ourself
thereby
manif
brown
##unken
exh
exile
##ille
##illed
unre
thane
blue
swears
likewise
sph
everlast
offices
cox
adri
wrink
sweetly
##igned
##iable
drunken
mightst
repose
##ensed
harbour
helic
guide
natures
belch
endeav
consum
curt
accom
access
tax
horrible
subscri
lightning
disposed
breathing
discip
signify
beating
youthful
strangely
titan
voy
protect
royalty
metal
mettle
ruff
distur
gaze
writing
divide
requite
evils
appeared
redress
redeem
claudius
weakness
verona
kingdoms
sufferance
miracle
safely
##prised
eleven
secrets
rebels
publius
effects
vols
owes
transp
walks
governor
turk
solic
enforced
cressida
loyalty
imperial
roaring
scotland
invention
conspir
rejoice
commonwealth
leaving
stephano
scurvy
athenian
giddy
##clamation
messala
yesterday
fan
game
gower
mich
named
ought
pite
ram
sed
sith
tun
taint
tush
vault
wore
##aus
##ived
##ger
##col
##bation
##zz
thread
thorough
##incul
##ese
##llor
beams
hec
##itic
stum
hist
pred
soil
lions
##athe
rend
sugg
kna
lock
trunk
trincul
bran
##illy
##ulate
swain
##icle
spect
marvell
##rib
alto
outra
agripp
process
laur
eyed
serious
betimes
##outs
moth
moves
##ullus
##ossom
contents
keeping
reply
setting
courteous
turning
woful
brace
retreat
accused
beds
rightly
carries
attending
dispose
breathed
busy
lucio
fever
drawing
prompt
promises
entr
craves
deputy
contented
venom
burns
writes
sovereignty
despised
marching
bosoms
divers
beggars
filled
crossed
tribute
mutiny
qualities
philip
shadows
conclud
forsake
reignier
owl
instantly
##ipping
conditions
meantime
complain
boots
treachery
stopped
disease
trifle
pearl
inquire
convenient
nimble
doublet
phrase
ocean
keeper
coxcom
altogether
agrippa
ack
batter
cel
goss
german
hose
jes
lin
mor
pul
rot
sand
waking
##sion
##uish
##light
##master
##mark
##father
threw
##osen
##ndower
##arius
shade
##uring
stout
stead
dove
liken
livery
defe
frost
##stone
##pec
tres
##asted
bru
exer
orn
amends
fact
consequ
blot
##ateful
likely
whereon
madman
alter
scan
scope
agree
somewh
##igent
flint
evermore
strat
commod
sland
preced
indign
putting
crom
##ivity
devour
hourly
afterward
mothers
bedford
forthwith
##ixenes
denmark
instance
instruction
seeking
doubtful
recre
remembered
infant
yielded
wonderful
approve
keen
roses
softly
penit
##acles
direction
polixenes
heirs
proceeding
forehead
kneels
groom
spoil
lark
rebu
insol
sixth
lodge
lodging
vanqu
neighbours
punished
complaint
iras
ministers
alexander
miseries
babes
diomedes
determine
conqueror
porter
beguile
prevailed
glendower
reproach
grievous
dowry
current
rebellion
society
adventure
sleeve
bottle
medicine
rugby
narrow
mantua
phebe
ugly
discipl
voyage
trinculo
laurence
bul
dil
diet
ec
gn
hounds
il
jer
les
len
mas
mould
nupt
path
pest
rar
rites
tars
vers
##ael
##ec
##ez
##iades
##nel
##nicious
##gen
##sino
##oon
##oked
##vil
##uced
##bishop
##pes
##inary
whereto
wipe
became
mys
forms
its
enr
enf
herd
allowed
trip
chosen
nept
goods
manage
upright
brid
orsino
amorous
lets
fawn
fabian
conv
convers
##ulous
block
blaz
bonds
works
plan
plains
##orted
proclamation
poins
##orne
strokes
offences
coin
pernicious
robbed
peer
deaths
slip
##ossed
##liament
compound
execute
charms
cram
holding
sets
confeder
riches
belarius
fortunate
youngest
bringing
answers
resist
resign
curs
parent
parliament
passes
brab
backs
acts
##ably
strict
nearer
barn
##ibiades
careful
burial
comforts
recon
lads
distance
affright
sadness
explo
champ
deposed
##shire
fourteen
surfeit
surprised
watched
require
salute
tales
##bray
##standing
throws
flattery
knocks
election
bowels
rhe
espec
corioli
conceal
beneath
venture
greeting
hunger
imagine
cuckoo
##ursions
alexand
sensible
dishonoured
stabs
physician
guests
digest
funeral
archbishop
florence
swallowed
abhorred
fantast
ingrat
prodigal
mongst
stamp
ambassador
destroy
expedition
sacrifice
sinews
rousillon
peasant
mowbray
vulgar
alcibiades
juno
chiron
volsces
michael
piteous
acknow
likeness
cromwell
nuptial
tarsus
neptune
bach
diest
hue
hare
hedge
ju
jot
lt
lun
mud
nav
ost
obt
omit
pent
peep
rut
roof
rising
sust
tents
vast
vot
vass
waked
zounds
##ders
##cli
##wall
##val
##ples
thin
thrift
shores
haw
notes
notwith
##key
##alus
##idered
##athed
enm
##rand
##raft
sugar
suitor
negl
amity
converse
leont
unman
##umes
##eemed
worms
##ico
marsh
scand
##pper
caps
cawd
clam
grim
moving
dukes
##elaus
afoot
armado
contend
fires
compar
indiffer
dearer
devised
boyet
parson
rights
hush
backward
assault
pleasing
suffice
hangman
discord
mischance
lays
soundly
phoe
swearing
titles
inte
cleon
burden
wanting
murderous
touches
pupp
infl
infer
straw
gallows
gaoler
terr
drinks
captains
embass
speeches
favoured
stirring
scorns
diam
politic
riot
churl
poisoned
kneeling
elements
rebel
middle
rogues
departure
create
robes
grieves
walter
observ
profession
mourning
picked
wager
unkindness
borrowed
furnish
ratcli
greece
alban
exceeding
punishment
superfl
saturninus
chastity
concerns
immediately
reckoning
merrily
barbarous
scruple
estimation
dumain
bethink
miscar
scholar
divorce
everlasting
entrance
ingratitude
bachel
notwithstanding
leontes
cawdor
ratcliff
bully
dain
dart
dors
dash
gap
hun
hates
ice
pir
patch
rip
ross
tie
##acious
##ril
##ivers
##non
##sin
##mission
##bon
##oubt
##thren
offe
beau
informed
##chery
##itation
noter
##imo
##imony
butt
print
anoint
framed
##ardy
tried
chin
##uellen
##illing
amend
faction
knowest
bliss
boat
boar
prover
pox
flame
flock
fluellen
cop
coats
brethren
menelaus
moe
moder
adul
nightly
cannon
meanest
contain
presume
compare
household
mistrust
cran
attends
confir
smoke
resem
playing
patric
imped
carriage
subst
surety
##cape
persons
##iban
careless
intents
musicians
bait
murderers
bounds
distress
skull
garment
##imely
venus
fourth
confessed
incensed
regent
division
eaten
walked
untimely
quarrels
snatch
opport
labours
mocks
invite
harmony
troubles
river
##gnant
broad
hideous
excursions
briefly
cornwall
bondage
breeds
meddle
shroud
dispatched
varlet
grieved
dismal
slaughtered
condemn
deserts
ragged
guiltless
spark
nobler
infected
strangers
furnished
stole
prevented
cherish
ceremon
affliction
swallow
dissol
scratch
impatient
stretch
experience
corporal
innocence
ancestors
sufficient
semblance
perpetual
helicanus
suggest
marvellous
coxcomb
pestil
verses
indifferent
integr
dainty
dorset
bone
balth
dion
dang
dress
dower
dressed
drows
dancing
fem
fount
gun
hood
hatch
lur
latter
losing
mum
pang
rud
rab
tired
vig
vowed
##ris
##iard
##iot
##iction
##nes
##cip
##oft
##wart
##mp
##fast
##pers
##iner
##isc
##isement
##ares
toad
tonight
##the
nobody
beque
inch
heinous
##asp
##asing
##asions
shoes
haven
##uted
iss
##alty
##ida
##amy
defect
##verty
sung
##andra
##iles
trow
neat
manly
mankind
##unity
shel
##elled
level
moreover
lovell
##inder
##icer
alt
aloof
aloft
sails
disord
clamour
pope
poverty
flav
grove
abbey
awe
description
robe
robb
rocks
wring
commends
hasty
sweetest
##oult
male
slumber
afar
headed
longav
complete
evening
mistook
harvest
lief
confident
richer
endured
fallen
bragg
treasons
retires
horror
powerful
purposed
majest
revenue
baw
bald
countryman
cheap
ladder
frenchmen
watery
malcol
evans
summ
quarter
approved
despise
legions
caliban
oppose
achieve
simpl
milford
violence
corner
governed
volumn
destiny
coloured
fellowship
executed
cruelty
frowns
escape
vanish
vanity
wenches
expectation
holp
holid
threatening
##boys
bootless
extreme
maine
audrey
discovered
drift
alexas
stabbed
raging
duncan
recovered
baby
affected
feeble
sicinius
swelling
beguiled
gonz
perjury
merciful
nymph
employment
religious
liquor
duties
reproof
filthy
bargain
cinna
history
outrage
trespass
exercise
consequence
somewhat
commodity
enrich
rheum
especially
alexandria
enmity
marshal
scandal
patricians
integrity
flavius
longaville
malcolm
cook
cull
cesar
crows
date
dial
fow
hire
iach
lan
lame
lute
nigh
pem
rue
sym
##hine
##cer
##tance
##yard
##oqu
##vir
##vius
##zy
thereto
##oster
##isp
##arm
##aned
##anks
noon
whist
infection
hav
haught
##itive
stake
stuck
stiff
##advent
##ales
butter
lic
##aments
fro
fray
sex
##ardine
chest
mantle
##unate
sheets
##feu
blank
swim
sweep
arr
mariana
plent
pledge
span
altered
sap
agreed
dislike
lafeu
grain
abate
offers
cob
cove
desol
menas
perse
article
##roll
##room
##endom
##lihood
purge
undergo
considered
devotion
restore
parents
falcon
taunt
horrid
displ
corin
advanced
silk
silvius
fighting
obst
sennet
judas
blessings
suppl
rub
cracked
sights
trusty
strew
dreamed
provoke
waves
survey
##upon
hotspur
divided
suitors
messengers
speedy
relent
penance
laboured
excellence
vernon
flattering
pitied
beastly
miles
christendom
detest
wedded
utmost
conquered
safer
control
shrie
demands
esp
grossly
delights
persuasion
persuaded
sailors
necessary
grandfather
hunting
debts
unpro
driven
dwells
corrupted
whispers
disguise
noblest
determined
tyrann
apprehend
ballad
magic
wandering
fulvia
procure
unseen
impatience
ashes
multitude
subdued
coronation
injuries
bounteous
candle
correction
antiochus
moonshine
counsellor
bereft
titania
knavery
precedent
mystery
brabant
barnardine
reconc
acknowledge
rutland
phoebus
noterbury
anointed
dangers
cesario
iachimo
pembroke
aut
coo
celia
casket
diff
dined
eli
eats
fer
fert
gorge
lart
lime
mouse
muff
osw
pan
pence
row
rig
rene
sire
silly
vine
velve
##gre
##groom
##side
##craft
##ties
##tained
##lot
##lings
##liness
##maid
##bing
##bit
##bol
##path
##jou
thais
##ouder
##ories
##enor
##anor
whel
##veyed
inn
heigh
heel
sha
shoe
##etic
meed
##urous
##imon
##iments
stink
stool
thisbe
prat
sober
dover
anjou
deck
froth
##estial
enchant
seized
##arded
locks
chose
upb
brass
##unch
exact
entertained
##oted
lewd
lechery
unlike
univers
##ular
blossom
plight
plough
likelihood
quaint
eyel
cozen
descent
gentleness
roy
rope
articles
errand
prays
wrang
calling
pregnant
##lier
contag
longing
foolery
merch
indire
giant
charitable
crush
guider
smother
belie
believed
humility
minded
carri
pleases
vizard
falsely
reasonable
returns
flying
windows
entra
recount
ruth
leading
puiss
raw
minion
burned
deserving
surrey
reports
confession
boldly
vision
walking
summon
battles
relish
scarf
cowardly
plainly
mocking
counsels
verse
throwing
laughing
thirst
motive
beginning
mountains
proceedings
jests
understanding
limit
stops
patiently
lists
torches
decay
blushing
during
intended
rascals
degrees
inhab
derby
derived
weighed
stuffed
kinsmen
baseness
produce
performance
covered
witchcraft
bridegroom
wonders
pedant
engaged
diseases
statue
albany
ravish
gloves
nuncle
##zabeth
ribs
character
contempl
scattered
tiger
accompl
solicit
concluded
celestial
rebuke
vanquished
parentage
sustain
vassal
superfluous
bachelor
drowsy
sympath
elizabeth
lartius
oswald
velvet
thaisa
bi
bona
balm
boult
fre
fath
faster
fates
gage
lance
mast
maker
ned
nourish
oliver
pere
pine
rings
rated
si
sly
sans
tart
tire
taps
vau
vap
wet
wra
wakes
##he
##house
##kest
##kens
##get
##say
##late
##lorn
##mas
##fret
##par
thurs
##eriff
##nday
##orus
heath
shakes
shames
shamed
sheriff
forlorn
##itute
##itary
notorious
##terity
weed
ascend
##adem
##ids
angl
##aine
revel
whatsoever
enlar
allay
alliance
loft
##ctors
choke
branch
exclaim
org
conveyed
enters
leather
leaf
unth
unst
unsh
canker
arvir
worser
spell
marble
spurs
alms
scold
ague
diso
dislo
mustard
proves
theseus
##iod
quince
abomin
##agus
strings
##quenet
pert
period
road
bloods
partner
aye
slipp
antenor
contro
crim
crimes
helps
settled
confidence
apply
##beit
welkin
accomp
handsome
breakfast
thousands
obli
appeal
cousins
intends
clapped
revenges
entire
support
sickly
leaden
angiers
gazing
yielding
expense
provoked
burnt
requires
profound
profane
pomfret
##bras
prett
relieve
empire
flatterer
respects
julius
feasts
added
vein
##afed
detested
lacks
viola
bastards
cheerful
uttered
occasions
prosperity
philipp
crept
storms
pipe
syll
succession
priests
topas
wolves
visitation
ventidius
prophesy
changes
trembling
envoy
maidenhead
corruption
companions
hatred
fruitful
epita
pressed
function
nobleness
inclined
joints
pursued
vexed
pedro
afflict
ungent
magn
jaquenet
saturnine
ambassadors
escalus
painting
couple
scourge
warriors
benvolio
homage
gilded
overthrow
style
revels
infirmity
cudgel
branches
jesu
penitent
enfr
exploit
female
##adventure
guiderius
fathom
thursday
lofty
arviragus
epitaph
jaquenetta
aust
afore
aqu
bail
bands
cities
ded
dried
eur
eun
egl
guts
hound
hides
kern
lung
mul
mates
puck
pounds
rou
race
russ
sall
tu
tainted
##ainder
##ky
##kins
##ridge
##gress
##core
##cock
##take
##worth
##uate
##uary
##ually
##mont
##fold
##pled
##eration
theft
##inbras
##ario
toe
whet
whir
wil
heal
##asar
shop
shirt
halt
##lebr
weal
states
##alo
livest
deformed
reh
rein
rear
enra
sequ
##vern
##geons
sums
sullen
##str
trad
nell
broth
ample
sheet
##oused
##ula
##ulation
##umed
array
##iced
uses
hob
outside
causes
saving
clap
lac
awaked
coal
gentry
serge
##quis
moiety
##oughs
sweeter
slack
antic
dram
droop
nobleman
courses
merr
cradle
fortinbras
truer
confine
confined
richly
highly
highest
worthless
worthiness
consist
curtain
parle
accent
pleaseth
meets
impart
assail
readiness
##ific
wearing
discom
laying
silken
##ected
muster
landed
purple
instead
instinct
##ibly
fiends
built
capable
distressed
frenchman
sadly
yields
princip
tenor
malicious
region
talents
wondered
dropped
extend
oppression
ache
simon
stirs
scorned
harmless
wiser
created
flattered
resolute
disgraced
starved
bells
mortality
feeds
limb
smallest
urs
studied
insp
insult
avouch
avaunt
scarcely
##iculous
ridiculous
frowning
dealing
ghosts
triumphant
threats
encountered
waiting
bending
victorious
lamentable
bigger
sauce
rags
stomachs
chiefest
squire
stafford
melted
preserved
sicilia
cozened
mercury
bills
fifteen
ranks
balls
trifles
usurping
discharged
admirable
religion
naughty
pillow
repeat
coffin
ravished
stretched
griff
imprisonment
interpret
applaud
compelled
subscribe
linen
defeat
slanders
afterwards
cranmer
confirmed
impediment
opportunity
balthasar
rabble
gonzalo
covet
fertile
philippi
enfranch
eunuch
lungs
aed
bor
bal
bate
bide
bows
bowed
cer
cad
dw
dit
ebb
fut
fol
fence
file
gam
gets
gav
games
gilt
lull
mate
muse
nin
noses
oil
ober
pind
pig
pud
patter
papers
rive
ti
torn
tub
vat
vest
##awn
##abl
##eur
##ecy
##rion
##iven
##til
##oen
##onds
##vity
##me
##mpt
##fellow
##bear
##pen
##jour
##esies
toys
tokens
##thest
##thorn
##reet
##recy
hem
mytil
##owder
haut
##utch
mell
##itate
notable
wither
asunder
butch
prate
prime
lily
anno
deli
frant
fraught
reap
sext
sepul
##thern
##stood
trained
chim
mangl
upward
bridge
amain
##antity
##antages
fac
faul
unfe
unqu
unlo
arra
arbit
##icity
plenty
plots
scars
scaped
scroll
disting
##igation
proff
clay
##ouns
lacked
graced
popul
quake
thinkest
norway
##quity
peruse
permit
peradventure
moan
adore
erp
prayed
parties
comment
footing
##achio
impe
meaner
worldly
wayward
mightily
composition
compact
witty
charges
crooked
harms
truce
belief
belmont
worthies
worthily
eloqu
rests
restored
parcel
hume
apes
brag
presented
##closed
valued
taper
tabour
patron
impud
trod
trag
traged
assay
assume
lux
lucet
homely
misfort
##abella
shameful
happier
fights
lasting
secrecy
obsequ
devilish
phoen
murders
daring
touchstone
bub
buz
buff
coldly
crab
cuts
rape
surgeon
pastime
reported
inconst
divin
fasting
esteemed
deeply
boldness
events
constancy
embraced
approbation
keys
oppressed
simp
labouring
cowardice
gladly
mockery
saints
privy
commendations
losses
vilely
steals
stealing
admired
lustre
cornets
blem
tribune
matched
succor
approaches
bowl
mutual
practises
shrink
circle
property
usurped
transformed
loathed
loathsome
holla
celebr
prophecy
lychor
hunts
idly
idleness
##ocate
soothsay
habits
concer
conjur
circumst
dunsin
pisa
weighty
square
frighted
tempted
pursuit
springs
purchased
italian
apprehension
trojans
bushy
heaviness
neglected
damnation
fulf
hinder
unlaw
scroop
belongs
million
debate
perdita
traveller
dolabella
dissembling
beautiful
latest
spotted
distracted
reserved
feature
discontented
pilgrimage
beef
levied
outlive
philosophy
piercing
manifest
adrian
ruffian
insolence
discipline
bulk
ecst
champion
fantastical
lunatic
diamond
churlish
observance
fountain
holiday
haughty
shaft
universal
indirect
perempt
disloyal
abominable
obliv
rouen
wilful
sergeant
simonides
ursula
gavest
oberon
pindarus
mytilene
hautboys
frantic
sepulch
lucetta
lychorida
dunsinane
aem
bench
cu
ced
cim
cri
cush
fide
gad
gul
gains
ig
jump
lasc
lane
mute
nut
nath
pant
ranc
sixt
tardy
va
yard
##her
##aces
##aced
##de
##iver
##iors
##yza
##ois
##vail
##bes
##po
thigh
thumb
##orp
##inc
toy
##rement
beads
hew
shining
melo
##usions
##itan
##itiff
##urity
##imate
##seth
hiss
prim
##idents
dole
liar
reek
enge
sear
seated
##ourished
##anda
trot
chape
excess
orph
##ellus
leek
unru
blanch
boister
plagues
dido
madly
albeit
outst
caitiff
tween
flam
##ickle
quantity
abject
stray
##wny
covent
warning
betro
perceived
roared
mole
adder
advert
duck
glow
gloss
owner
##lict
presum
##bler
##blood
longs
remun
compet
compul
showing
showers
indust
witches
finding
##apol
harp
harlot
attire
attorne
underne
truant
peaceful
nativity
worthier
worthiest
##ivious
##ewed
resort
curious
##alties
educ
passions
april
welcom
fully
brand
brazen
presents
accidents
tavern
tawny
rightful
traff
submit
banks
dispra
dispers
lawy
forgiven
##fortunate
feign
feats
furious
##nerly
doubts
mete
metellus
fitted
cheese
proudest
pup
puff
galled
gallants
gaol
cambridge
waist
captive
payment
incur
##ancies
regal
talks
interim
interrupt
entreats
plucks
achieved
wretches
badge
stirred
verily
dishes
##acity
protection
wisest
diadem
motions
respected
mounted
proceeded
judgments
lowly
fills
wednes
cheerly
beards
woods
hurts
occup
bolt
tomorrow
volunt
insin
songs
churchyard
listen
shrill
girls
dishonest
decius
reigns
lodged
transform
drunkard
temples
holiness
amazement
fleance
threaten
##board
compliment
extremes
##uba
mended
discovery
figures
irish
roots
uncertain
drives
starts
egyptian
tutor
wrecked
##month
twelvemonth
capital
epil
dignities
hills
napkin
rendered
launce
servingman
schoolmaster
pronounced
admiration
testimony
fantasy
descended
ashore
sanctuary
accusation
dragon
masked
rumour
injurious
antique
assembly
warrior
brawl
bankrupt
endeavour
hecuba
battery
gossip
ornament
stratage
negligence
unmannerly
embassy
offender
beaufort
proverb
pestilence
dionyza
pangs
shelter
altar
bawdy
fowl
arras
brabantio
##greg
upbraid
contemplation
tapster
enlarge
eglamour
griffith
future
folks
impeach
soothsayer
ecstasy
peremptory
oblivion
igno
lascivious
nathaniel
sixteen
unruly
underneath
wednesday
actor
budge
cue
crew
dul
dick
dally
ew
ech
ely
fest
fist
fife
fancies
gest
gust
hart
hic
ied
ken
nick
ou
om
oman
obl
pip
rats
rages
rises
sow
sess
sblood
til
tack
tuck
vices
wand
wave
yare
##ae
##eks
##ds
##dling
##rh
##rates
##ii
##ique
##same
##ye
##mouth
##bain
##bable
##bonius
##pit
##poc
##inence
##ism
##arf
tops
##once
##thed
wheres
hag
##chas
meal
meek
withhold
wea
##albain
prating
##ention
anchor
frag
frenz
rele
ensue
seed
sunder
sucked
##peak
##iling
##ilful
loins
chop
chap
chances
chronic
chival
therewith
brim
##uned
##unction
exquis
concept
##ostrate
levy
leagues
una
canop
howe
however
arrant
arrows
worsh
##ics
marg
marred
plants
##inked
spain
spacious
scale
##pple
hog
hoar
cab
ages
whoever
project
lazy
gravity
flin
flames
quint
abst
aband
abund
abod
##tock
##agon
greatly
coil
desc
desir
bree
foh
arts
adverse
##rog
##anged
##berry
nighting
##ighth
##ossess
##liest
downright
follies
servilius
purses
merits
repl
crisp
understood
conflict
smart
pavil
parth
parch
courtesies
draught
treas
trebonius
impl
childish
carrion
monmouth
husbandry
##inster
lightly
breathless
pardoned
forgotten
##izel
opened
denies
bars
barge
luciana
##avish
commander
commandment
##enerate
intr
suns
void
musician
yestern
temperate
growth
comfortable
airy
unclean
infancy
infamy
affair
dreamt
peto
gallia
gallop
expressed
minutes
venet
waft
pointing
surm
mouthed
pasture
donalbain
incest
eating
required
questions
deeper
opening
tenderness
personal
guards
entreaty
entreated
##nox
speedily
calais
relief
penalty
lambs
teaching
directed
speechless
selfsame
suffering
ports
miranda
feeding
element
eleanor
##odes
secretly
acquit
studies
midwife
mutius
cloudy
contrad
refr
refused
wasted
importune
proofs
sorts
vanished
fishes
british
tyrrel
stockings
pyr
revolted
changing
idol
wrathful
cases
##ocation
savour
cords
smells
examine
executioner
dooms
chiefly
pandar
maintained
daggers
inclination
compassion
tempered
languish
domin
deceased
florentine
florizel
eager
##whel
apparition
bags
bagot
hymen
hypoc
##uggl
heavier
shouts
ingrateful
syracus
moody
adopt
corpse
suprem
buds
frailty
affords
thorns
dissemble
designs
imprisoned
latin
rode
obscure
receipt
collected
restraint
steeds
applause
inheritance
centre
mingle
mingled
wrinkled
disturb
recreant
gnaw
jerkin
lennox
hunter
pirates
adulter
bequeath
##icero
braggart
simplicity
tyrannous
rowland
renew
bias
siward
disobed
syllable
ungentle
merriment
principal
borachio
annoy
mangled
phoenix
concerning
sepulchre
cimber
boisterous
coventry
betrothed
remuneration
dispersed
epilogue
frenzy
exquisite
yesternight
ae
bout
cow
cicero
dir
dirt
fours
gor
gen
ging
gear
gull
gash
hook
hipp
jar
jade
jades
mard
mouns
nan
nail
pious
pile
palt
powder
rad
rout
riv
size
tapers
tullus
wes
wan
wages
##rie
##rons
##ium
##iences
##nam
##sm
##tling
##ov
##ubs
##long
##lph
##mor
##mand
##minster
##field
##pence
thwart
##orate
##iners
##llus
##aring
##arre
##enas
##enna
nom
beam
inches
ingen
shaking
##cends
##cellus
hacked
forged
meca
##using
##itud
##imach
##ghan
##ghill
stare
##sec
##adise
##alls
doting
##amis
deem
freder
separ
herbs
##racted
goest
sulph
knell
lot
trash
chains
necks
goodman
mansion
orator
##feits
consec
##ustomed
##otent
uncon
unfortunate
canon
swine
swif
swoon
howling
arrog
##eared
boon
usage
marcellus
##ribly
wherewith
spies
spider
scri
greets
outr
caused
##ounded
progress
##ptuous
poly
##orned
daylight
##agne
heap
bret
foil
##quess
peck
erth
##rolled
##angled
handle
##ithe
glories
contrived
remainder
composed
housewife
indent
betters
confused
smack
smock
staying
ending
consort
devout
cured
curts
faithfully
parish
paradise
retired
tables
needless
submission
farm
sleepy
marrying
actors
dispro
thanked
breathes
text
##ifies
goldsm
getting
##izes
denial
barred
senior
feathers
illy
signal
murm
cryst
sending
horsemen
singular
cleave
generation
generally
birnam
capacity
##ceiving
asking
demonst
dames
##itories
choked
trusted
pageant
rapt
strewed
malign
incense
establ
englishman
constance
calam
snake
relieved
preposter
scarlet
plainness
weaker
defiance
motley
flatterers
woeful
address
bites
biting
broils
wildly
beggary
stark
mirror
sighed
famed
poisonous
##quel
shipw
chooseth
midst
volsc
opinions
practised
torments
montano
pigeons
##conbridge
schoo
planted
decree
geld
continent
unfit
blushes
observed
cato
pinched
wealthy
triumphs
britons
flee
threatened
westminster
enjoyed
wickedness
degenerate
rooted
solemnity
dwelling
utterance
baser
basest
companies
covert
dunghill
recovery
challenged
pricks
greyh
sparrow
imperious
abhors
rewards
perilous
ordin
ordinary
##where
preferment
preferred
statutes
sticks
heavily
assistance
damnable
unluck
procule
admitted
testament
rescued
pearls
coffers
crafty
destroyed
chiding
arrested
trimmed
lingering
correct
adversaries
distraction
perfume
measures
steeped
trencher
exhib
conspiracy
hecate
indignation
planet
navarre
ostent
obtained
territories
miscarry
copy
vigour
frozen
plenteous
desolation
stinking
entrails
ruthless
puissant
inhabit
accomplished
##heard
crimson
enraged
covetous
cerimon
pattern
sexton
chimney
faulconbridge
misfortune
unlawful
flaminius
traffic
pupil
voluntary
##rhus
chivalry
pavilion
pyrrhus
fourscore
mardian
mounsieur
paltry
mecaenas
##imachus
frederick
swifter
goldsmith
proculeius
aus
bau
dall
dice
daint
dances
ditch
eth
gained
hatched
jaws
los
lys
louder
mam
nich
nig
os
pages
tough
takest
vip
vail
vac
vicious
wagg
##ables
##done
##rade
##ipt
##gard
##sbury
##wing
##ux
##uld
##ugs
##look
##lets
##purn
##je
##jud
thund
##erog
##osy
##ater
##atory
##inction
##ester
##arino
##onna
wight
wiped
##inged
##omy
beet
beck
beadle
ini
heave
shipped
hack
##uto
##chan
foret
##lend
##irts
##itus
##ital
##itimate
##urus
web
stem
##keys
##ading
##alms
prized
prerog
sojour
##allel
lick
##amer
anch
depe
fru
froward
revell
enth
enow
sequel
herne
##racious
gobb
knives
##ilities
trun
chased
chanced
chorus
chafed
##akers
uphold
brained
##unct
exempt
amount
shell
comedy
conver
conceived
##ola
##olas
blister
blade
swan
howl
arri
##earse
##icing
spear
marquess
pless
whereby
whereupon
madame
madmen
madonna
sped
scra
greed
calend
sale
agent
disf
disaster
disper
twin
probable
clubs
##pton
poll
flag
flaw
quill
gray
grudge
abuses
northern
##ager
string
cope
coach
hearers
gentler
wary
betide
perple
##fted
moi
moist
wrote
##aux
plebe
glance
sonnet
emulation
images
##phy
ante
precise
armies
drench
contracted
fooling
remed
shower
purg
purged
witted
repute
##onso
crime
crutch
attach
attrib
truest
smiled
lively
yeoman
apple
dieu
paragon
humorous
courts
courtiers
courtez
edict
braken
treat
treble
##clip
impose
needle
antonius
farthest
lighted
vienna
suffers
##ifully
praising
misd
advancing
stately
striking
security
nearest
barb
phry
dared
wishing
freeze
##versy
harder
cassandra
messina
beseeming
generous
capon
ruined
leader
distract
distinct
distilled
distinction
demi
infants
streams
pett
footed
gape
chambers
provokes
depose
waits
##shill
malady
surv
surly
##ronius
confessor
incont
incorp
watching
watchful
salarino
evidence
appearance
visited
untr
quartered
extra
intercept
interchange
entreaties
pretence
calchas
calpurn
snail
snuff
relate
verity
monsters
sports
witnesses
nurs
knocked
commended
severed
broached
offenders
beggarly
stealth
helenus
famine
wedlock
kneeled
spoils
model
##gging
argues
arguments
bondman
tribe
leonine
finely
volume
sixpence
##olyta
carrying
ldst
medit
towers
virgins
jealousies
refer
refle
hug
important
syc
catching
obeyed
riding
riddle
geese
owed
painter
lodov
transg
continu
dismayed
observation
memor
member
expected
requests
amaze
tyrants
gardiner
sola
faintly
debtor
unpre
derive
publicly
rarely
shrewsbury
plotted
heralds
slanderous
different
appointment
pricked
floods
temperance
pursu
sprite
strangeness
expressly
dotage
cherry
ordained
vexation
rashness
pilot
hyper
building
rhymes
stamped
dimin
humanity
shrewdly
gripe
choleric
globe
commonweal
allowance
wheels
perdition
wrestling
sleeves
subdue
breadth
beauties
construe
constrained
revive
ensuing
obscured
alehouse
receives
tumult
augment
crop
tickle
frankly
overthrown
centa
measured
chatillon
philosopher
sphere
adriano
disturbed
transported
tuned
pulse
ornaments
factious
diligence
rarest
crammed
muddy
obtain
votre
clamorous
influ
##oubted
moderate
substitute
ceremonies
volumnia
nymphs
enriched
whistle
licence
cobwe
persever
reconcile
eyelids
contagious
merchants
sympathy
vaughan
slippery
controversy
rehearse
dwarf
tubal
unquiet
distinguish
eloquence
tragedy
divinity
simply
blemish
circumstances
cedar
fidele
gadshill
gulf
chapel
compulsion
education
occupation
ominous
tucket
conception
flinty
nightingale
ginger
hippolyta
western
##riend
illyria
crystal
calamity
ethio
lysimachus
nicholas
niggard
thunders
disperse
perplex
brakenbury
calpurnia
lodovico
ara
bated
bagg
boughs
dor
dane
eve
eclip
fen
fard
fum
fel
fix
gore
gany
hits
hired
ic
jet
jig
jac
juggl
kites
kitch
lass
loses
mire
nations
ot
oly
oper
pith
rent
rite
ster
sque
tink
vaunt
ware
wins
##aud
##ey
##ex
##eys
##nish
##nance
##gory
##cus
##yn
##oa
##lam
##lic
##fle
##fall
##back
##poke
##zes
thaw
##ermen
##orter
##oric
##inies
##inated
##ena
##onus
##edges
whos
whips
whipping
##vels
##omenes
bees
beest
myr
##asph
sham
shill
shru
shrift
hay
hale
##etition
forfend
isid
##itt
itch
staves
##keley
##adel
pranks
##iding
##idity
##allowed
doves
ligar
liked
##omel
willed
anim
deject
whatever
sele
severe
herb
herod
heretic
##races
gobl
goats
sunday
##ardo
knighth
##ilis
chan
chides
chaff
atone
brat
brine
briers
orb
oration
sheathe
##antial
conge
conject
convert
##ustice
##otted
lends
unpe
wasp
##ively
blasph
swo
howsoever
mary
marched
plate
spots
spaniel
alonso
greasy
gregory
caper
cauld
##emp
##ements
##igonus
##ffrey
clip
closed
clog
grapple
poisons
flo
flash
grin
grind
abb
abound
ability
eyne
awaking
cod
cog
##fulness
hearken
roll
pease
earls
##robe
wrench
map
maim
joc
jolly
anything
glit
bearer
imitate
antigonus
precept
prelate
drugs
headstr
##blest
##bleness
##swain
purity
indian
reputed
repetition
mistaking
mistaken
charmed
chariot
queens
dearth
follower
harness
harfle
bestr
attain
confines
##owered
consume
resp
residence
curb
answering
humbled
passages
kindle
brake
braver
brands
retain
valer
seemeth
impress
impression
trace
travail
overb
overcame
overdone
carl
carve
asses
hopeful
banners
justify
##ifer
discern
misg
mispr
sentine
advantages
strives
opens
barber
lucullus
commanding
feigned
##mede
exceeds
judged
intoler
cleomenes
quicken
supplied
doubtless
fitter
fitness
fitting
buys
proudly
##ceives
gartered
##yster
sinful
strait
camb
mines
minst
provision
tenth
surprise
captives
wooer
fastened
salve
salique
suited
construction
visor
quarre
redempt
extemp
basely
legate
snout
opposition
relation
traitorous
widows
##joy
invited
verd
verges
undes
hurl
commendation
strengthen
judges
offending
wilder
christians
forego
sighing
famish
famished
filling
bellario
limed
cheerfully
seals
fashioned
drowning
easier
worships
wooden
woodcock
urging
publish
effected
unwh
unwill
unwilling
breasts
offering
forswore
mutton
roundly
unhallowed
virgilia
philomel
montjoy
quietly
shepherds
demanded
bitterly
gird
girdle
imports
tarqu
usurer
costly
decreed
geffrey
seventh
continual
credulous
proclaims
citizen
cater
courageous
equiv
members
injustice
wretchedness
briton
necessities
extremest
solus
professed
bishops
faints
idiot
casement
irre
uncur
uncles
lamentation
envir
accordingly
basilis
cordial
unborn
particulars
gratify
guiltiness
hallowed
disdained
affects
displeased
melting
sparks
daunt
incline
mildly
martial
porp
sprung
earnestly
domest
swells
cherished
cherub
ordnance
railed
missed
engine
dissension
climate
magist
ravenspur
disdainful
finish
finished
groaning
slightly
admittance
winking
repeal
decline
nicely
escaped
gathered
blasted
greekish
expedient
multitud
shunned
haunts
poetry
rebellious
coronet
couched
odious
linger
perfections
rusty
characters
assembled
adversary
restrained
interpre
starveling
berkeley
compel
distempered
bourn
wrinkles
curtains
tunis
thoroughly
stumble
spectacle
morsel
frosty
bruised
strato
insolent
complaints
moulded
conversation
blaze
confederates
juice
navy
comparisons
puppet
inferior
riotous
miscarried
gaping
boatswain
modern
issues
disorder
summons
volumnius
lantern
havoc
displayed
unprov
gorgeous
muffled
whelp
smothered
tartar
accompany
entirely
prettiest
austria
whirl
brothel
lackey
inspired
insulting
balance
tiber
delivers
inconstant
adriana
cups
forgiveness
ignoble
echo
wheresoe
therewithal
cabin
quintus
abode
venetian
doomsday
ingenious
outrun
polyd
bretagne
curtsy
ordinance
bauble
iniquity
calendar
plebeians
incorporate
continuance
baggage
ganymede
olymp
isidore
ligarius
knighthood
blasphem
cauldron
headstrong
harfleur
intolerable
redemption
ravenspurgh
aunch
bower
baked
cott
ceres
dan
dast
duteous
ege
fickle
gay
gem
gasp
hip
hint
hoop
jars
kick
kite
lous
mi
mace
nost
nourished
oo
obe
oyster
pag
pau
patched
range
rides
sne
sams
tour
vary
vale
vita
yawn
##hire
##aved
##aph
##rine
##rors
##ibe
##nis
##gon
##cass
##test
##ob
##off
##overs
##while
##vings
##uge
##lest
##lers
##my
##mber
##bbles
##picious
thal
thump
##osity
##inces
##isle
##isome
##arn
##arked
toads
##editary
##anim
##anied
whale
##reus
ing
shin
shock
shuff
##cham
forer
mechan
isis
##ird
##iration
##itched
##itaine
##urbs
##ooting
stings
stalk
stint
stony
stagg
stewed
##seed
##adv
prose
##idam
doit
doct
livers
##ampton
ann
anat
anth
deity
dealt
decked
reared
reform
encom
enrolled
sect
seign
seasons
hereditary
##rave
thyreus
goat
##ourt
##peius
knots
lopped
chant
chick
chuck
##aks
brood
expe
fails
conjo
conrade
entering
lect
leaps
leaped
unch
unable
uncl
unple
unsc
unrest
cank
canidius
sways
swagg
swayed
##uman
aright
arrow
##eems
##ically
mariners
plat
plun
plaint
##rian
##rious
whereat
spade
spices
alm
scy
scab
scald
scales
sconce
hoist
hovel
disclosed
musty
twig
whoe
progen
speaker
speakest
clout
clime
club
laced
hearty
grapes
flute
gramer
##isting
heaved
coven
coals
colle
timeless
gentles
brew
foils
roasted
pelt
erg
erst
erfl
erwhel
praying
handed
duly
##eless
##elius
sweets
sweeten
glim
glister
glamis
slut
slips
contri
contains
presage
begging
remn
servile
keepers
replied
givest
fortnight
##ensive
lieu
attent
guides
confounds
smo
smith
smelt
elves
tongued
counted
cures
curio
parr
parl
courtship
drab
braved
accost
eyeb
taurus
bedfellow
bedlam
doubly
righteous
imposition
backed
tract
overcome
overtake
overheard
carn
carcass
suburbs
##enger
thankfully
breaths
discred
discours
discreet
misbe
miscon
maidens
advocate
hitherto
hitherward
strip
lastly
musk
lucre
##rup
##ibel
##ashed
throughly
carefully
palate
bale
cleft
wanted
murdering
suppli
doubted
fouler
##ourably
castles
cheques
dogged
skip
skins
skirm
deme
cutting
angle
saddle
dreaming
certainty
satan
method
campeius
waving
##shine
surge
deliverance
hellish
regions
profits
estates
buckram
grounds
##overed
drove
exten
interred
revengeful
pretend
straightway
legitimate
oppress
questioned
penet
##askets
lamp
feels
moonlight
invest
verb
verge
harmful
teaches
feasting
mounting
adding
commendable
broker
lowest
##ofern
battlements
crosses
excused
passionate
violets
limits
spoiled
bastardy
corners
ordered
orderly
closely
secretary
##rament
fresher
freshly
sorcer
athwart
consented
healthful
wisdoms
solely
formal
posts
##olycus
mutinous
contrive
counterpo
creation
stored
jacks
pikes
shrunk
sacrament
bitterness
importing
usurper
forsook
decrees
owen
painful
equally
holes
holofern
posterity
sailor
enjoined
propose
claims
greetings
glasses
audacious
iden
irons
inhuman
failing
uncivil
trembles
bigot
fondly
savours
conjured
utterly
uttermost
oxen
gratis
hiding
numbered
regarded
befits
bewray
digged
functions
##charged
aimed
dawn
firmly
conquering
martius
porridge
sprites
packing
rules
dotes
eagles
railing
pictures
apparelled
apprehended
avoided
ungracious
objects
##cribe
forfeiture
confounded
rushes
whispering
superst
unlooked
waxen
clergy
massac
chastisement
declined
coffer
creeping
blasts
advancement
multip
mater
sinew
roused
dismissed
pulled
antium
pawned
garlands
dukedoms
##cheon
liquid
succeeding
adversity
reserve
cropped
bourde
pierced
tigers
spheres
endeavours
consumed
curtis
transport
turkish
seduced
##zzled
predomin
spectacles
bruise
slandered
recreation
lenity
##ecary
bridal
blazon
planets
compounded
confederate
negligent
clamours
comparison
pirate
resemble
dissolve
suggestion
hatches
majestical
corinth
reconciled
autolycus
prattle
royally
wrangling
vizards
thirsty
organ
mustardseed
aquitaine
dedicate
europe
sequent
hobby
drooping
discomfort
aedile
gamester
##penny
arraign
popular
impudent
bubble
aemilius
crick
industry
dispraise
lawyer
puffed
stratagem
ewes
gesture
chronicle
canopy
worshipped
abandoned
abundance
parchment
disobedience
radiant
rivals
malignant
shipwre
fleece
prerogative
depends
fruits
gobbo
remedies
courtezan
misdoubt
barbary
transgression
influence
cobweb
jacob
shillings
jocund
glittering
bestride
valeria
carlisle
minstrels
undeser
unwholesome
tarquin
porpentine
domestic
aunchient
egeus
lousy
thaliard
##chamber
doctrine
skirmish
holofernes
bourdeaux
ave
bern
cart
cate
civ
cows
cats
cuff
ding
dard
dive
daff
eb
eke
eff
easter
fid
fust
gy
hil
hym
james
lour
lud
lump
lances
ment
mun
oun
pall
pins
rook
rave
raught
rival
sou
tang
toss
tatter
tew
tides
tues
tinct
tasted
tossed
tithe
vag
via
wage
yor
##acted
##eb
##dur
##rite
##iency
##ienced
##num
##cere
##ture
##yr
##yton
##oil
##oves
##wal
##wood
##wark
##water
##vous
##uard
##lves
##mid
##mother
##mary
##minate
##metic
##face
##foot
##pable
thames
threes
##erity
##erio
##nders
##oring
##orax
##inations
##iser
##armed
tot
today
##onge
##thage
##thino
nov
nodd
##omen
inve
##asped
shaked
shaped
##cels
##chy
forked
mead
mewed
ish
##usale
##iting
##iture
##itution
noting
stag
station
stable
stif
ast
aston
pry
prouder
sot
soar
##entious
##entimes
doe
doctors
liable
liars
dex
deform
fry
frog
realms
enven
sew
seats
seyton
selves
sued
##andise
##ighty
knavish
logs
triv
trades
nether
thereon
thereupon
upper
broo
extern
exche
##ills
amp
amiable
sheath
letting
##eller
##ellows
##feminate
factions
congreg
leth
lecher
unv
unity
unsw
ungr
unlock
unarm
unadv
blots
swer
##ums
arith
lovel
##icial
using
plume
madest
spied
spright
alice
scare
scots
scapes
scoff
grease
caus
cage
cape
##ortions
disb
disclaim
somebody
twink
##igm
timorous
probation
##ounce
honourably
graze
flows
abides
abbot
normand
##agate
##agued
strut
strains
heaped
awry
copper
descends
warr
warn
warmed
fog
betake
perused
perpend
robs
pend
peal
pecul
earned
monday
artific
adorn
ergo
ertake
##angu
wren
##berate
##berries
partake
partial
commun
fearfully
##eling
hasten
sloth
slipped
preach
brotherhood
downfall
drudge
drug
contam
##blossom
mightiest
longed
remote
quell
puritan
merited
mermaid
india
induce
##ksbury
##opled
repreh
replete
graceful
##apen
##apable
##ensions
confisc
highway
throned
endless
consorted
devoted
counts
##asonable
besm
besiege
curled
player
behead
parallel
humbleness
courtly
edo
kindled
womanish
womanhood
brags
bravery
retort
elsewhere
threefold
bedchamber
##ulties
childhood
horribly
trodden
trail
travels
carved
cargo
carthage
subt
suborned
monkey
hopeless
wrongfully
luce
lucy
acted
acting
lightens
earthy
earthqu
vict
viands
attendance
dispense
##ledged
tends
wearied
helping
lawless
discovers
misled
##aby
##ability
shameless
truths
happen
sounding
striving
obdur
wiltshire
honestly
ills
illust
excels
##ashful
throughout
darken
appell
oftentimes
sunshine
horseback
spiritual
hardy
palaces
strongest
musical
baited
cleared
gloucestershire
winters
workman
cheered
boundless
dogberry
distrust
skies
skilful
infall
infring
garb
angus
angered
anguish
raz
raising
raiment
razed
generals
expost
termed
soldiership
wounding
depth
contention
pointed
moneys
jewry
jeweller
delays
regiment
requital
wool
wooes
wooers
salanio
salutation
salerio
buckle
embossed
walled
untie
quarters
dropping
changeling
redeemed
exton
intercess
snug
##ixture
scarus
defiled
scornful
laughs
ambush
direful
addressed
darkly
veiled
wildness
staring
portly
portion
lioness
detain
detect
miracles
macmor
family
fashions
##azz
mortals
fingres
libert
liberties
cornelius
effeminate
eleph
sores
wheat
tribut
tripping
blowing
approaching
departed
judgement
qualify
qualified
philostrate
churchman
churchmen
safest
citadel
brooks
washes
quietness
circl
hermit
conclusions
importuned
syria
ridd
reigned
owest
thunderbol
translate
continues
mannerly
unsat
unset
ess
esqu
temporal
melun
conceited
concealed
ghostly
fishermen
ventures
threatens
becoming
clothe
rascally
hapless
bode
proposed
prophes
repentance
turks
solace
fainting
ides
bended
rosemary
imagined
lamenting
solemnly
weighs
driving
concord
conjunction
stabbing
reverent
sauc
covering
wantonness
physicians
wreath
consideration
tailors
differences
hidden
regards
befal
befriend
halter
lineal
bewitched
combine
epidam
armourer
inclining
##racing
aliena
imminent
accounted
mildness
pursues
treads
despiteful
benefits
packed
packet
suspected
pedlar
poured
prolong
impossib
mischiefs
afflicted
missing
conveyance
dissu
complexions
ravenous
wasteful
stepped
rushing
shouting
pockets
hinds
hindered
scratched
serpents
religiously
eternity
testify
intellect
conspire
prodigious
bandy
declare
declining
grecians
flowing
belonging
bonf
bonny
bonnet
millions
recorded
sucking
quenched
behaviors
mature
wrestle
wrestler
travelled
ruminate
thorny
dolphin
constraint
stephen
bountiful
coupled
##ucus
spotless
peasants
merrier
##passed
forester
foresee
ensign
helmet
loaden
alcides
restrain
climbing
dutch
tumble
boarded
perfumed
august
unjustly
deceitful
uneven
bourbon
eggs
aspiring
trenches
manifold
subscribed
conspirators
bracelet
gossips
sandy
alteration
devoured
instructions
grooms
disciplines
jerusale
masqu
convoy
peerless
cursing
affrighted
ostler
pentapol
hawthorn
sufficeth
diamonds
darts
dashed
offends
adultery
ceremonious
pestilent
vigil
disordered
robbers
summers
culled
dialogue
lanthorn
havior
licio
desolate
taunts
obstinate
shriek
autumn
cooling
panthino
wrangle
contagion
merchandise
carrier
carriages
vapour
organs
accompanied
magnanim
kerns
cadwal
lullaby
butchers
butchered
tragic
tragical
luxury
obsequies
huntsman
fulfilled
indirectly
cushion
rancour
melody
primr
engender
searched
orphans
attorney
welcomes
insinu
pipes
session
wandered
weaver
release
unacc
breeches
parthia
refresh
syracusian
adopted
supreme
aegeon
sulphurous
lottery
consecrate
established
preposterous
abhorson
ostentation
dalliance
disfig
phryg
distinctly
pettico
incontinent
sycorax
pursuiv
centaur
ethiope
fardel
myrmid
seleucus
channel
swoons
abbess
peaseblossom
precepts
sentinels
cambio
wilderness
environed
multitudes
interpreter
unprovided
olympus
samson
vitae
forerun
seigneur
platform
almighty
baleful
bernardo
cowsl
dardan
hilts
tewksbury
tuesday
trivial
exchequ
ungrateful
unadvised
arithmetic
normandy
peculiar
artificial
obdurate
macmorris
epidamnum
jerusalem
pentapolis
aven
aches
bom
bath
bits
bathe
cain
cough
cret
cash
caskets
dus
dank
dyed
danced
daniel
daws
dazz
elys
fos
fery
fang
gig
gud
gins
gored
genius
hats
hoof
ix
icy
ker
loo
lace
mit
mall
mach
mated
mixed
nile
nilus
pon
ply
pell
pander
pities
pool
rang
rates
rained
rider
rails
sce
sard
surn
tast
tap
testy
tunes
tug
vall
vil
wart
wakest
xi
##hand
##hement
##ah
##actions
##ea
##dious
##dler
##rent
##ration
##ross
##rated
##iw
##ipe
##nery
##nished
##nered
##gom
##gle
##gers
##guard
##cal
##cast
##cap
##cils
##cod
##tis
##tim
##ole
##obus
##vie
##uity
##ugn
##ugg
##mo
##mers
##miss
##full
##bard
##bun
##bber
##pill
##press
##piece
##pronius
thie
thri
##oser
theat
thetis
##inher
##llors
##isen
##isander
##arage
##arned
##things
##ann
whipt
##reth
shipping
shorter
haps
hagg
##eta
##etoric
##utish
forn
forc
forres
mew
meals
##usual
##ustering
##itied
##urd
##urers
##urious
##teries
##terior
##ims
##ooty
wease
weeks
weird
stains
stung
stairs
##keep
butts
prent
prud
prunes
soe
soever
##entford
##iders
doff
likest
willough
deign
deiph
rely
reft
revers
reformed
engr
enact
enkind
enclosed
seiz
seeds
sevent
herring
heresy
##ioned
##rable
goth
sund
allies
##stock
##peth
log
trudge
cha
chaps
neapol
##uel
upli
brick
brist
brier
brush
bristol
bribe
brutish
brentford
exiled
orange
orbs
##illius
amber
shearing
failed
cony
conceiving
unite
unarmed
unusual
thanes
##ulent
##ulph
##oln
##olfe
blab
canary
cancel
##venal
swin
swinged
swoln
howled
howsoe
##umps
arden
##eary
boil
boats
boding
##icat
specul
usual
marian
marches
plum
plaster
plack
pluto
whereas
madcap
spin
spart
spout
spared
alisander
scal
scout
scree
hover
cav
caves
caution
saves
agony
agrees
aginc
disjo
disinher
wholly
##igate
timber
##ffeta
clad
claps
closes
clitus
##pture
lag
laz
laud
##idel
graver
pop
poise
fling
flax
quart
quail
quond
grud
abj
norman
##aging
##ists
stride
strained
heaps
awful
aweary
##ipotent
offsp
coy
cocks
coeur
roars
peering
ersw
ersh
erbear
##rop
##berd
##berg
##berds
##acked
dug
dues
partners
commence
plea
hastily
sweetness
maw
maced
slily
eminent
eminence
##phos
antip
prec
namely
headlong
eyesight
##blind
mightier
longest
begs
begotten
remiss
compr
poorly
poorest
mercil
repul
gibb
charter
putter
crust
crook
bestrid
attaint
attired
attached
guile
confron
richest
thresh
paces
paced
yew
##ivo
elsin
litter
appertain
devices
countries
beset
bespeak
bespoke
resides
mistresses
rested
paramour
parcels
humane
apoth
##inted
kinder
brach
presenting
village
values
accout
accents
accustomed
taffeta
doubled
pated
impious
imputation
horrors
needy
erect
overlook
carpen
carbun
##weigh
farthing
monk
dregs
luke
lightness
homeward
bane
justices
##istered
dispossess
##ifying
helped
discuss
discarded
pardons
breaker
misuse
##about
##abouts
sentences
sentenced
happened
barks
barons
lucifer
rung
runaw
instances
commanders
sawest
drawer
appele
career
voc
##ieties
windy
winded
clapper
promont
promising
spirited
hardness
pals
palpable
beseem
halfpenny
beaver
supped
supple
comforted
sicken
##weening
toucheth
metaph
recan
recom
recoil
fitly
buzz
serviceable
rubs
ruinous
skirts
colder
craven
favor
trusting
pageants
affirm
soonest
sinister
sinned
sincer
sincere
galleys
gaud
exposed
minola
providence
provinces
deprived
venison
waited
tenant
deservings
captivity
writers
paying
##mering
across
profan
fastolfe
salvation
buckled
##overned
bolder
evident
englishmen
openly
tenderly
appearing
embarked
embracing
wondering
sumptuous
##bric
extended
snatched
plucking
pense
penury
scared
lamps
laments
empery
widower
defl
mocker
invites
verified
##acock
denying
directions
mote
flatteries
chrish
nursed
mounts
pitched
veil
severn
broil
officious
military
lacking
admon
admire
admits
excellently
lustful
##isfied
safeguard
groves
violet
larg
prospect
bleak
bearded
sharper
breeder
chancellor
bolts
posted
voltim
inside
roger
medlar
meditation
philario
listening
encourage
cream
refuge
shepherdess
shrine
vainly
rhodes
rhetoric
syno
target
owls
varrius
variable
transl
grieving
drunkards
continued
creditor
creditors
tearing
unspeak
unfurn
dismay
vanities
blushed
authors
tempor
forbids
forbidden
grossness
defended
hoped
hoping
strucken
charming
benediction
delightful
expecting
swiftly
persuades
embracements
postern
amazon
flea
flew
puny
encounters
durance
enjoys
necessaries
bodes
proportions
prophec
privately
bleeds
authorities
revolts
turf
turb
professes
audit
renounce
remaining
irks
potion
potency
excepted
exceptions
ransomed
imaginary
protestation
lamented
solemnized
challenger
ministered
starting
basis
shuts
forbearance
smelling
customary
wreak
dungeon
gowns
examples
babbling
formerly
halberds
cloven
cloyed
lineaments
pandulph
pricket
combined
digested
epic
epith
frights
despairing
napkins
sorely
capulets
aims
imperfect
imperfection
preservation
firmament
compassed
constantly
unkindly
conquerors
bawds
infectious
strangle
strangled
ruler
sicily
december
warmth
prevention
aptly
dews
servingmen
dispositions
##actors
engage
seasoned
diseased
eastche
source
reckless
attempts
henceforward
eighteen
builds
nerves
southwell
steer
albion
heaviest
exceedingly
francisco
censured
finer
finest
acceptance
admiring
admiral
stooping
tallow
tending
conspired
consuls
bullets
stamps
repealed
sempronius
imprim
securely
rejoicing
expert
reprove
confirmation
grievously
nephews
dowager
sanctity
folded
currents
welshman
discontents
instructed
shifts
haunted
accusers
accusations
petitions
whitmore
sociable
dragons
sacrifices
shoots
leaven
travellers
frets
nonny
nunnery
odours
dolour
depending
spurns
monarchs
innocency
vulcan
foresaid
ensues
pennyworth
receiving
berries
bethought
reprieve
tickled
tickling
brawls
brawling
scholars
livered
reveal
levity
unex
outlaws
errors
thankfulness
distemperat
infirmities
cudgelled
nettle
nettles
consumm
consuming
##zzle
prede
complaining
celerity
germany
pulpit
indignity
devouring
penitence
vanquish
diligent
gnats
ilion
masks
masque
herds
fawning
convince
exploits
digestion
fantastic
juvenal
votar
hawk
puppy
terrors
containing
swallowing
dissolved
gunner
hoodw
lurking
bequeathed
issued
robbery
bragging
outrageous
chests
spaniard
supplant
supplication
surveyor
detestable
unprof
enchanting
exactly
quaintly
eyeless
royalties
believing
puissance
vapours
heathen
exclaims
unthrift
scolding
austere
aqua
russian
discomf
enfranchisement
aediles
ninth
pudding
vestal
mellow
unfeigned
arbitrement
proffer
proffered
populous
erpingham
obsequious
celebrate
cushions
melodious
engenders
advertised
presumption
meteors
insinuate
dulcet
festival
gusts
kennel
oui
obligation
tackle
##aeus
abstract
descry
desirous
treasury
implore
contradict
idolat
dominions
hypocrite
dirty
arrogance
erthrown
volscian
greyhound
unlucky
exhibition
auspicious
mamillius
osric
##jection
beetle
foretell
sojourn
truncheon
arrival
quillets
purgation
treaty
survive
reflection
hyperion
perplexed
kitchen
tinker
dejected
congealed
respite
overborne
quarrelling
verdict
unwillingly
caterpill
equivoc
magistrates
cottage
danish
dastard
ooze
pauca
reformation
encompassed
unpleasing
twigs
pelting
erwhelm
glistering
parrot
tractable
lucrece
suppliant
dawning
superstitious
massacre
catech
civility
eastern
ounce
brooch
external
lethar
confiscate
beheaded
earthquake
appellant
intercession
elephant
unsatisfied
unsettled
magnanimous
myrmidons
exchequer
dusky
elysium
##missive
theatre
weasel
willoughby
deiphobus
seventeen
screech
agincourt
quondam
offspring
macedon
merciless
elsinore
apothecary
carpenter
promontory
sincerity
voltimand
prophecies
eastcheap
ace
ald
aery
bord
bil
bust
bier
bathed
bashful
cot
cert
cakes
ciph
cited
certes
cote
cripp
diz
dye
eu
eel
egreg
fated
fines
filed
gin
gal
gum
gout
goot
hos
hest
hive
hies
hild
hedges
ili
jur
keel
lath
lone
lout
lash
lined
lids
linked
mish
mice
mince
mint
mickle
makers
ol
oily
oats
pes
pto
pep
pied
pours
piled
piety
rood
rial
rays
rams
risen
sam
sib
sched
sowed
sinks
sangu
tat
tas
tet
tight
tires
tamed
ul
ump
vom
vic
vult
vantages
wards
zealous
##here
##eer
##eard
##ext
##dain
##dame
##roof
##romach
##ralled
##iation
##iving
##iens
##iory
##iars
##icted
##iots
##iards
##ga
##gotten
##cas
##cles
##cont
##cension
##tish
##tany
##teth
##oving
##occ
##wl
##wor
##wind
##vis
##vils
##uble
##upp
##lin
##las
##looked
##mong
##mod
##burn
##bia
##bures
##pur
##pared
##pitable
##portion
##potted
##pipe
##zel
##zwater
thrac
##erce
##osh
##osure
##orm
##ority
##ato
##inor
##inable
##llity
andromach
##isto
##arent
##arison
##arily
toast
tool
##onet
##edst
noisome
whoop
wive
##inge
##reant
##render
bead
beach
belied
ine
incess
hemp
##asus
##asies
##owick
##owmas
shent
shone
shove
shilling
##utton
forge
formed
##aying
##lead
meg
meag
meads
##irched
##usive
##itar
##itting
##itated
##urer
##urre
##urable
stou
stall
stoops
ascension
##alion
button
buttock
pridge
prostrate
prizes
soiled
doers
doig
doings
doomed
lione
##amp
anew
##ordinary
frid
fraud
recept
reyn
ench
enamour
##raction
##raham
##raided
##ieth
##ieged
goal
sues
sucks
allied
##oured
##peian
##anders
##iless
lob
loam
loosed
logg
trains
chal
chink
chatter
chron
chaf
chairs
chafe
choughs
nevils
lordly
##akings
##astly
upro
brib
##unto
orisons
##illery
amiens
shear
compt
factor
cong
conned
convent
lease
leans
lethe
leeks
comely
union
unne
unaw
##ulg
##ulged
##olic
##olog
blench
blamed
swar
swarm
##umny
sayings
##inders
##icates
ush
usher
marrow
plumes
##rig
##rip
##rick
wherever
spill
spits
spilt
spiders
scre
scrib
scouts
##ppery
greedy
outli
outface
caut
cavil
saith
disqu
disli
##areth
##areil
timandra
##icet
clink
clod
closing
lave
laps
honne
grafted
poict
flown
flap
flats
flung
flayed
flaming
qui
quir
quote
quoted
abort
abilities
abraham
tellus
##agant
##eph
timely
##astery
desiring
hearer
seriously
warp
warned
foaming
betime
##qual
##quent
perils
peg
peacock
earldom
moans
fairs
artillery
ador
adjud
ert
erring
##angling
wrung
masterly
handmaid
bloodless
##acks
partis
commotion
##ighter
##ache
##aching
councils
sweeting
macc
jollity
standard
standers
cannons
sla
slough
slime
slumb
slavish
##pher
##phis
afric
pref
prejud
arming
downward
presages
headless
##blous
mightiness
begone
begets
noblemen
compreh
courser
purest
purblind
indies
induced
index
##ops
##uckle
repast
repaid
giver
gibes
graceless
##orship
cres
crouch
fortitude
##ensible
harbing
bestows
sleek
attract
guided
stillness
smote
everything
paved
endow
elinor
conser
consult
consents
besieged
curer
playfellow
faiths
parado
edified
apish
apolog
kinds
brawn
braving
brandon
##retched
retiring
##close
validity
patr
##forced
husks
impro
impressed
impiety
trophy
trap
overfl
overboard
overture
overweening
carbon
subjection
assign
monuments
monkeys
monastery
lugg
lubber
active
banner
victors
##engers
dispute
disposing
disparage
team
camel
misused
##abaeus
##ailed
busied
silenced
seconds
nearly
denis
denny
senator
pha
phar
##ruised
##avour
installed
fees
fealty
signieur
##medon
youths
excel
returning
darling
appeased
judicious
talkest
winding
claw
lesson
singly
furred
palates
provender
##nerable
revenues
entice
bac
winner
##neys
burd
suppress
sorrowful
comfortless
doubting
businesses
foundation
foulness
birding
fitzwater
sisterhood
caparison
cheat
chequ
cheval
remembering
distil
distant
distaff
distrib
airs
skipping
cracks
crazed
damsel
damask
favored
infused
garg
garlic
affable
affron
raze
straws
footman
gallus
gallery
graciously
gawd
expose
expound
expire
expired
camps
minions
deputation
venomed
waver
beholders
##shead
colt
tennis
knighted
knightly
mortified
warranted
surg
surges
surrender
blacker
##roned
paste
incite
incomp
incision
incapable
watches
requited
esteems
##icester
bucklers
deepest
tendering
visible
##ogues
embow
untaught
approves
redoubted
extent
extol
extort
intervie
guardian
valiantly
soften
legged
calmed
calumn
calumny
snakes
snares
favourites
penned
simples
hairy
feelingly
weakest
define
defile
##aculate
##bbing
thirteen
fleshed
undoubted
hurly
hurried
hostile
mots
motives
sainted
troublous
poland
christo
gotten
feasted
mounteb
riots
proceeds
adds
adders
strengths
vehement
lowliness
consciences
disgraces
jesting
understands
churches
beggared
christening
dreaded
bellied
crossing
##azar
excrement
groat
violate
spoon
larger
elected
possessions
utters
worshipful
argue
argosy
urch
published
healths
tripped
forgetting
midway
duller
posture
births
birthright
destinies
mutually
##aldo
virtuously
philot
contrar
yearly
montagues
forwardness
stories
properly
importance
importunate
dishonourable
tarpeian
usurers
catched
forsaken
decre
decayed
clocks
lodges
lodowick
ghastly
unsk
unsure
unspotted
successful
neighbouring
roughly
yoked
conceits
grosser
observing
benedict
delighted
vouched
swiftest
holmedon
positive
loathe
loathes
brittany
tyrus
visiting
venturous
##boy
westward
enjoying
forestall
clearly
##ubber
hunted
turtle
turtles
rudely
barefoot
iris
exception
steeled
uncovered
unpar
derog
derision
mourned
weighing
savag
habil
habited
basin
unbur
unbruised
desperately
undertaking
counterfeiting
tutors
sauf
heedful
heraldry
examined
examination
executioners
ducat
pleading
picking
hallowmas
disdains
cloy
cloister
searching
slowly
tempts
sparing
gentlewomen
immaculate
thrusting
determination
thicket
leaning
quittance
jointure
bestowing
whoremaster
strangest
furniture
rattling
orders
sweats
sweating
beguiles
violently
cypress
afflictions
billow
dumbness
files
tortured
##adoes
swallows
dissolute
retirement
ballads
reckoned
trifling
ungoverned
wormwood
modestly
##cript
buildings
ravens
jourdain
southampton
forfeited
rushed
islanders
fulness
fulsome
sinking
stooped
inventory
crowd
pillage
pillars
ingrate
clerks
mongrel
massy
vessels
##flies
chastise
chastised
unmeet
unmask
suspicious
dimmed
glean
boasting
privileged
creeps
debating
experienced
burthens
undoing
grievance
enforcement
escapes
momentary
sanctified
inquired
currish
welshmen
cracking
mournful
shuns
adventurous
lucky
matron
wardrobe
convenience
villanies
travelling
subdues
increasing
fretted
oaks
monarchy
bounties
couples
candles
pulls
revoke
revived
innocents
combatants
obscene
cloaks
instructs
wailing
assemble
rugged
estimate
ancestor
homic
tumbled
perfid
contemned
reservation
crocod
##cox
nods
prophetic
counsellors
throngs
cinque
racked
aspire
exhal
helicane
taxation
transparent
conspirator
rambures
taints
stumps
stumbling
spectators
outrages
procession
prompts
venomous
concludes
conveniently
germans
jester
dieted
paths
triple
bridle
conversed
blocks
confederacy
resisted
affrights
lunacy
vasty
##valued
thrifty
contending
hushed
discords
embassage
hunters
patches
ripened
proverbs
carelessly
snatches
troublesome
sparkling
indifferently
lurk
rudeness
##risy
defects
defective
robbing
wringing
majesties
simpleness
extremely
blanket
arrive
falconbridge
magician
cooled
cools
vineyard
blossoms
entrap
scarfs
accomplish
sympathize
freer
vaux
wrap
wrapped
##heath
anglois
unthank
spells
pertur
prettily
magnific
tuft
halting
rehears
traduced
assailed
enfranchised
gamut
gambol
pudd
vesture
deliberate
faculties
unloose
arragon
arbitrate
luxurious
buffet
buffets
inconstancy
celebration
conjurer
fulfil
aemilia
rancorous
reeking
outstretched
presumptuous
competitors
lawyers
feigning
gaolers
transformation
stratagems
enlargement
released
unapt
margent
margery
hogshead
hoarse
descried
desirest
replies
uncleanly
gallops
incestuous
contradiction
refrain
hypocrisy
supremacy
annoyance
genoa
gashes
waning
murmur
demonstrate
volscians
schools
greyhounds
unluckily
exhibit
vacan
anchors
enthralled
enthroned
converted
precisely
attribute
extraordinary
nursing
nursery
meditating
reference
unprepared
spritely
dwarfish
arabia
juggling
operation
whosoe
shamest
animals
goblins
codpiece
maimed
misprision
extempore
whirlwind
polydore
obeying
pagan
touraine
annual
anthony
expel
conjoined
lecture
unclasp
cankered
plunge
progeny
gramercy
remnant
attentive
parlous
discredit
misconst
extenuate
penetrate
counterpoise
multiply
material
predominant
crickets
shipwreck
gyves
hymn
vagab
yorks
dexterity
deformity
pendent
contaminated
infallible
infringe
expostulate
libertine
tributary
riddles
thunderbolt
esquire
dissuade
bonfires
dutchman
augustus
primrose
engendered
unaccustomed
disfigure
petticoat
cowslip
crete
cashier
neapolitan
antipodes
repulse
threshold
gaudy
deflowered
synod
unspeakable
unfurnished
imprimis
distemperature
predecess
unprofitable
idolatry
caterpillars
cripple
euph
ilium
olive
ptole
pepin
rialto
siby
##monger
thracian
andromache
incessant
meagre
doigts
lionel
reynaldo
enamoured
chronicles
unawares
honneur
poictiers
adjudged
maccabaeus
paradox
apology
luggage
interview
christopher
crocodile
aes
bum
bough
borough
bunch
booty
core
cake
cive
cub
cumberland
cicat
dere
dong
dip
dia
datch
dates
dav
diable
ean
ewe
eaves
eton
fou
fade
flex
fume
faded
foster
fading
fuel
fighter
gos
gurn
gab
gips
gnat
hight
hull
hoot
hips
housed
hann
ip
ild
ivy
jay
jamy
jumps
jeph
lain
lake
link
lank
larded
mu
mord
mand
mol
mau
moul
moss
malt
mash
mule
mandra
mention
nic
naming
ov
omn
ps
pas
pish
pap
piss
pint
pined
panc
pont
punk
pines
position
pots
pension
rake
rift
rote
sar
sieve
sift
sized
tan
tere
tore
tish
tip
tilt
vere
vener
vines
waken
xii
yards
##held
##ai
##aper
##kers
##kward
##dest
##died
##ral
##rity
##rcan
##ien
##iosity
##nut
##nest
##nings
##nets
##gone
##sing
##set
##sum
##cies
##cises
##tied
##yon
##yred
##yards
##ody
##odd
##oided
##war
##wack
##woman
##vor
##vial
##vitable
##ville
##uished
##ucing
##low
##lay
##lude
##lots
##lips
##met
##fy
##fter
##fly
##fare
##fathers
##fellows
##bble
##born
##brand
##pre
##pter
##pri
##port
##pont
##pareil
thwack
##erals
##erga
##oubled
##orc
##oras
##att
##atives
##ativo
##inter
##inency
##esper
##espont
##isk
##isse
##arable
##enish
##thag
##thia
##thah
##anes
##anched
noo
noises
whiter
whining
wilf
wizard
wield
##ominate
##reast
##reement
beer
beld
inly
inland
insc
inscri
inex
heb
heady
heated
##asps
##owing
shri
shins
shaken
shiver
shirts
shooting
shapen
haud
hailed
hags
hazel
##eted
##eteen
##etical
##utches
##chus
##chion
##chets
forem
forew
forfeits
##leon
##lements
##learned
##usters
##uries
##urally
withheld
##terate
##oothing
wether
stal
stalls
##seilles
##alogue
butler
pror
prome
prone
prior
prisons
sob
sop
sobs
sodden
##entic
liby
licent
lizard
##amo
deities
deceiving
frust
franch
friars
##estine
reins
whatsoe
ense
enfe
ensc
enacted
enigm
seam
sender
seques
sewed
seizes
##veries
##ioness
##rav
##raved
suis
sups
ally
allure
allons
allows
##stant
##stead
knits
knead
lop
lots
lolling
trent
tram
trice
trull
##ctify
chame
chew
chalk
chins
neut
ate
##aky
##akin
##akened
thereabouts
goodw
manned
manacles
bruit
exas
exalt
expend
exterior
exorc
orig
orators
oratory
ambles
amended
shears
sheathed
comet
comfor
##anta
##few
fable
fabric
##ousing
##otions
##otchets
leer
leop
leander
lepr
leicester
cometh
hereof
unn
unve
unbe
unav
unmer
united
unlearned
##ulnerable
wass
##olis
##olved
blo
blad
blanks
blithe
##venny
swath
swee
##umel
bob
bove
boiled
boiling
##icip
##ications
mariner
marseilles
plies
plash
plutus
plod
plumed
pledges
plodd
##riety
spong
spouse
sponge
alight
alps
alac
scor
scut
scent
scott
scenes
hoard
outw
cable
caphis
sag
sage
sable
saff
agate
agreement
disse
disarm
disclose
twist
twins
##emen
##igious
##igree
clipped
clasp
lab
laure
lawn
laund
lapped
honester
godly
godlike
godhead
grape
##avel
ponder
poets
poesy
fliers
flush
flourished
quod
quips
quiver
gris
grate
grateful
grasped
looker
abed
abridge
aberga
awkward
cogn
desk
desper
hearse
foison
foppery
perch
perished
perdy
perverse
permission
perceives
roan
roast
rolling
pew
pel
peat
peasc
pepper
pebbles
peopled
mops
fairness
adj
adored
erh
erlook
erlooked
##roph
##anging
wrings
handled
blooded
bloodily
dubbed
##perance
commune
commerce
##elcome
lifeless
pleached
counters
jovial
##ilemon
glor
glide
glib
standest
cannib
slide
owners
emulous
bearers
imitation
##phies
prem
premed
preys
precip
armours
meanly
meanwhile
worlds
##liance
drain
drone
dross
contumel
prescription
prescribe
fired
##blie
remit
compounds
poorer
housew
housekeep
servitor
servitude
##atchable
indisc
indulg
daub
witting
witten
repay
repossess
bettered
misty
finder
newer
newest
crutches
crotchets
fortress
fortify
fortified
##enses
hares
bestir
attest
attained
attainder
attention
guise
guerd
underm
setter
smeared
believes
pac
##ivol
endowed
endeared
elf
approof
appliance
counties
curate
curbs
curiously
curiosity
curfew
faithless
##ocks
behaved
behoves
resting
restless
restitution
paras
falchion
passengers
apron
drave
bides
braves
bravest
minding
villages
patent
patrick
##enched
tongueless
imposed
impotent
trophies
needed
erewhile
overpe
oversh
overwhel
overcharged
carp
cared
carpet
##weth
suborn
submissive
assoc
assigned
farmer
sleepers
lug
readiest
vial
justified
disput
suffra
##redient
##iferous
##ification
prabbles
helpful
discol
cormor
mislike
mispl
mislead
shamefully
##ials
useth
##pected
##pective
silius
silks
happiest
forges
stripped
stripes
strikest
##izance
lasts
musing
mustered
musco
oped
denote
remembers
runn
philemon
saws
major
##ibal
##eshu
##ounted
appease
oftener
volle
voiced
horseman
lessened
singer
singled
promotion
furrow
furies
furthest
palf
pales
palter
cassibel
entom
entit
baff
clears
beseems
winn
winning
##iffs
burs
wanteth
beacon
supposition
supposing
tying
tyrian
comforting
doubtfully
recourse
##iphile
fittest
casts
beseeching
cheers
pitying
ruins
distaste
skir
conduit
condole
demure
craving
chooses
choosing
favourable
purposely
trusts
cutpur
garr
angers
sinner
sinners
petter
galls
galliard
gazed
gazes
exposition
mincing
minority
terribly
provo
province
gravel
commonly
commoners
tenants
surfeits
delivery
delivering
blackness
blackheath
captiv
possib
possibly
pastoral
hellespont
delicious
delayed
acorn
acres
donation
hotter
hotly
incertain
incarn
##ancer
regreet
registered
divines
profaned
fasts
fasten
salutes
buckler
evasion
visages
embraces
untru
untainted
changeable
extant
interch
intermission
interlude
speeds
speeding
bosk
legacy
snores
shorten
shortness
opposing
cardinals
similes
marchioness
fetter
fetches
fettered
traitorously
plainer
defied
defences
default
defaced
##joyed
invinc
invocation
inviting
stirrup
scorning
veriest
##acing
undaunt
undisc
sportful
teachest
creating
dict
hostages
hostility
##coming
privily
flatters
respecting
respective
polack
flourishes
pitifully
pitiless
vehem
severity
broach
##ethon
claribel
##ooped
wildest
christen
alarm
alarbus
portent
portend
portents
absurd
detained
bellows
lordships
lusts
groats
violation
limited
limbo
spokes
hundreds
elect
##odest
ordering
possesses
bleat
acquire
drowns
##claimed
prevails
urg
urinal
bondmen
horner
horned
matches
matching
shares
consenting
dangerously
effectual
unwise
unwelcome
forgetful
forgetfulness
bolted
student
moveables
offerings
volumes
voluble
insupp
insurre
approached
approacheth
sixty
bowls
neighing
blinded
blindness
destined
meddling
mutter
mutinies
rounds
rounded
unheed
unholy
unhands
unheard
qualm
clouded
contraries
foolishly
montgom
cruelly
avail
washing
properties
importunes
dishonesty
rhenish
tarried
usurps
catches
plantain
troyan
riseth
throes
deciph
sharply
painfully
sorted
varied
varlets
heroical
credo
frowned
unsay
unsafe
unsavour
esperance
shapeless
authentic
successive
neighbourhood
defendant
hopkins
cattle
catalogue
equity
oddly
pinches
dealings
swiftness
embracement
cunningly
injured
sailing
brittle
ventured
stocking
duell
committing
complot
complices
elders
##plus
bodied
grandmother
grandpre
gardon
propagate
extremities
pythag
revolve
revolting
slaughters
repented
mainly
turkey
solid
solinus
silvered
professions
brightest
barely
figs
figured
pottle
victories
excepting
kentish
unpaid
unpitied
trembled
protests
dercet
envied
lavish
fingering
soothe
teeming
savages
remembrances
started
conjunct
sensual
undertook
counterfeited
tutored
reverse
sauced
perfectly
customs
customers
##eterre
langley
sheeps
gratitude
gratulate
slanderer
considering
baboon
hating
numbering
joiner
kindnesses
pickle
ranked
halloo
fruitless
feeed
squad
squires
flowering
displease
shedding
pricking
digress
presses
burgonet
vouchsafed
dignified
wagon
sparrows
dais
andronici
immured
immodest
thrusts
determinate
unkindest
languages
borrows
milder
thickest
leanness
jointly
benefactors
tediousness
martext
martyred
porch
infects
sprink
profitable
tempests
gardeners
domine
nakedness
swelled
outwardly
cockle
ratify
ratified
suspects
smoothed
pedigree
rashly
mercen
assuredly
unknit
tarrying
billows
lengthened
tortures
hazards
engines
dissentious
apartment
unworthiness
unhappily
sourest
ungu
bagpipe
hydra
hyrcan
stature
statute
specify
amazedly
disdaining
nero
sticking
islands
assistant
cuckolds
cuckoldly
superf
infinitely
waxed
intelligent
fantasies
ireful
tended
tenders
##atories
guildford
prodigy
prodigies
bulls
bullen
unmatched
unmatchable
unfolded
gleaned
rapine
unseal
spurred
flowery
inheritor
sceptres
debase
debosh
reaches
records
crafts
banqueting
escanes
inquis
chidden
blasting
appetites
expedience
moods
shifted
poetical
adoption
accuser
whiteness
societies
lifts
supers
dragged
budget
mattock
matrons
toothache
goddesses
fretful
fretting
nonino
nonpareil
odour
dolours
straining
beautify
medicines
reckonings
remorseful
pulling
antiates
antiquity
nimbly
ribbed
flatly
helmets
doublets
barbarism
additions
scruples
lapwing
athenians
ancestry
benison
dumps
tumbling
perfumes
sufficiency
miscreant
phrases
cleanly
chequeed
semblable
splitting
splitted
feathered
prophetess
neglecting
clerkly
liveries
unequal
outlaw
thronged
divorced
bereave
manifested
unreasonable
everlastingly
wrinkle
drunkenness
accompt
accommod
taxed
ruffle
vaulting
##coln
stumbled
renders
rendez
suggested
knaveries
feverous
prompted
coxcombs
lincoln
morris
morocc
puling
sandal
steads
bruising
exercises
agreeing
rebukes
bulwark
rarer
rarity
mysteries
reconcil
champions
surfeited
concealment
acknowledged
omitted
roofs
vassals
hawking
sugared
unmanly
puppies
inflame
inflamed
politician
amendment
flocks
confirms
resembles
impediments
substit
baiting
distressful
skulls
snatching
shrouded
sparkle
balthazar
guns
##theart
issuing
malef
bawcock
achievements
vanishes
gonzago
lamely
whistling
butterflies
plentiful
spanish
cobham
obstruction
rubies
controlment
shrieks
shrieking
espouse
differs
diffic
fervor
muffler
rigor
rigorous
enchanted
upbraided
ploughed
cozening
cozenage
crushed
inhabits
nourishment
##parable
angleterre
leathern
unstained
pertains
maidenheads
fathoms
euriphile
kernel
mules
sallet
whetstone
sequence
traders
tradition
lackeys
anticip
consists
consistory
interpretation
enfranchise
ditty
lulla
ninny
nineteen
unfeeling
eloquent
impudence
buzzard
buzzing
simpcox
blemished
huntsmen
conjuration
gainsay
vaward
##pole
thighs
doleful
advertisement
competitor
industrious
harpy
harlotry
attorneys
welcomed
brandished
meteor
incurred
ignobly
dulness
oublie
tilting
meekness
withholds
fragrant
fragments
chaplain
worshipp
abstinence
abandon
abundant
crispin
crispian
parthian
treasures
intrusion
temperately
surmise
guardsman
apparitions
syracusa
adulteress
disobedient
gorged
jarring
thwarted
separation
separated
sulphur
consecrated
unconstant
canonized
arrogant
scripture
indenture
indentures
disprove
disproportion
murmuring
establish
preposterously
schooled
gelded
gelding
losers
viper
vacancy
waggon
wagging
##jections
beetles
beckons
foretold
trunks
upholds
scraps
greediness
disasters
twinned
flawed
drenched
untrue
extrav
intercepted
interchangeably
meditations
reflect
memorable
diminut
tumultuous
niggardly
doricles
eclipse
felon
ott
sterile
whoso
shrug
conjecture
unpeople
waspish
floor
flashes
rolls
irreg
basilisk
basilisks
dauntless
nostril
varying
ingredient
mechanic
staggers
prosecute
anatom
anatomy
chickens
unchaste
swaggering
plaints
scabbard
covenant
covenants
sluttish
contriver
smoking
smoky
smithfield
eyeballs
discourses
misbegotten
sinewy
undeserved
avez
effusion
southern
tangle
tattered
inveterate
astonish
frogmore
envenomed
swerve
sprightly
disbursed
warrants
reprehend
victu
illustrious
circled
essent
prophesied
sauciness
prolonged
impossibility
masquers
insinuating
phrygian
pursuivant
dardanius
avenged
fostered
fangs
hoofs
poniards
scep
sardis
tastes
vilest
thrives
haggard
fornication
forcibly
prentice
prudent
reversion
engross
enkindled
sundry
chaos
uplifted
bristle
swinstead
sparta
cavale
timbered
popilius
abjure
comprom
gibbet
confronted
appelez
vocation
metaphor
recomm
admonish
largess
translated
epithet
imperfections
consummate
discomfited
lethargy
bustle
cipher
dizzy
egregious
galen
hilding
schedule
sanguine
umpire
vicar
vulture
inevitable
stoup
logger
chafes
uproar
unnecess
disquiet
quirks
abortive
slavery
slumbers
prefixed
crescent
endowments
patrimony
carbonado
phaethon
gargrave
affront
gawds
surgery
incomparable
embowelled
unskilful
benedictus
derogate
habiliments
homicide
perfidious
unthankfulness
misconstru
multiplying
vagabond
yorkshire
cashiered
predecessors
euphronius
civet
datchet
foully
hannibal
jephthah
mordake
mandate
moulten
masham
tereus
venerable
wilfully
foremost
promethe
libya
licentious
frustrate
chameleon
comforter
leprosy
unavoided
sweetheart
spongy
alacrity
scottish
saffron
abergavenny
desperation
peascod
mopsa
wittenberg
cormorant
volley
cassibelan
invincible
undaunted
unhandsome
montgomery
unsavoury
pythagoras
dercetas
deboshed
rendezvous
morocco
ai
az
aer
aur
biss
balk
bans
bates
bats
bays
bots
bores
bayed
boned
cite
cors
cister
cels
cased
cement
cinders
dad
dand
dight
dout
dough
dump
dung
dale
ell
eighth
fes
fay
fad
fier
fins
fined
font
fug
fangled
ger
gan
gil
gory
gaming
gatories
hoo
hent
hilt
hooting
hesper
ib
iter
jut
jell
jart
jury
june
jesus
jaded
jule
jangling
ket
kid
kil
kine
lou
lis
lunes
lisp
math
mason
mows
mesh
masc
magg
mixture
nill
nous
nip
nets
nnight
nips
nuts
oe
oven
oars
orac
pome
pam
pight
pic
pink
pare
pies
porn
pia
pens
pants
pouch
pork
pump
pained
rand
rice
rago
rapes
rye
sies
sip
sakes
sally
tost
ties
tout
tith
tours
tiring
tinder
vor
vit
vell
vel
vital
videl
wade
wye
wakened
yell
##ho
##hom
##hall
##hill
##hog
##heres
##aving
##know
##eas
##eus
##eck
##eart
##eers
##ender
##eith
##eathe
##dn
##dge
##dock
##diction
##rus
##rain
##resh
##rained
##rils
##iad
##iath
##iavel
##nal
##nard
##nace
##nia
##nac
##nker
##gan
##gies
##gings
##ggl
##gets
##gne
##grav
##ss
##city
##cio
##cience
##ceness
##cerous
##tels
##yan
##oing
##oise
##wr
##venty
##voc
##uan
##unds
##uities
##upper
##lon
##mb
##mast
##mun
##mies
##msey
##maker
##fry
##fied
##ball
##bell
##bine
##bons
##bows
##bels
##bub
##xed
##pan
##pent
##pond
##jor
##zine
thim
##eron
##eries
##erits
##erical
##osies
##osby
theoric
thess
##orest
##orum
##orph
##orable
##orical
##atine
##atical
##atiate
##inqu
##inished
##inado
##esnes
##esseth
##lls
##isions
##iseration
##arling
##enum
##enia
##enished
toes
toll
topped
topping
toasted
topple
younker
##onven
##there
##tham
##edged
##anery
##anqu
noont
novel
nothings
whits
wived
wider
##ingled
##omies
##omites
##rements
##regn
beak
beamed
bevis
inse
inest
inund
healed
heifer
##asant
##asures
##asping
##owl
##owess
sho
shave
shack
shotten
shanks
##cease
##celled
thatched
hales
hams
haberd
##utions
##utched
##utted
##utored
##ching
##chers
##chee
##chem
##chew
fork
foren
forum
forage
forrest
forcing
##leg
##lect
mender
meats
isbel
##iro
##irrel
##iramis
##erel
##itory
##itches
##itted
notion
##urst
##urged
withering
##imy
##imp
##imation
##imable
##imitar
##ools
wend
wean
stile
stakes
stew
stench
stowed
stanch
steter
stabl
stables
stigm
stools
asia
asks
ascends
ascribe
##keth
thouedst
##alment
thistle
butchery
prest
prun
pries
prave
prains
primer
priory
prowess
soles
soaring
sophy
softer
##enting
##ently
##idian
##idable
##idorus
doll
docks
onion
onset
lied
lighter
lipped
libr
##amon
##amore
##amage
##amond
##amorph
deanery
fron
frames
frivol
##estry
##estration
reed
reel
reli
reels
reeds
reaped
reeling
rectify
enam
ensh
seared
seventy
herit
herbert
##cken
##verent
##veril
##verted
##verns
##ioners
##ionable
##ractions
##ieving
gond
##geia
sull
sult
sully
allot
##stones
##stantial
knog
knoll
##ilet
loiter
loads
trots
chert
chants
chained
chewed
cheshu
neb
atomies
##asty
##astroph
thereat
thereunto
goodliest
mans
manor
manes
manors
manacle
mannish
upr
upst
upsh
brats
brisk
##unches
##unities
exist
exult
excom
exaction
exclamation
exigent
exactions
orld
orient
ampl
ambling
##anto
##antas
confection
conceives
##ostle
enterpr
leas
leash
levell
hereby
hereabout
uny
unic
unri
ungar
unlet
unready
unac
uncom
unrel
unbar
unres
unatt
##uline
##ulty
wasps
##olt
##olished
bled
blur
blink
blades
blustering
canv
##vener
swart
swash
swounds
sworest
howbeit
ard
arc
arose
arched
aroint
loveth
boils
bogs
bobbed
##icers
##icient
##icated
##icament
kinged
spends
usest
mare
marri
marring
marries
marquis
marjor
plagued
madding
madded
spra
spun
spice
spru
spakest
spouts
spawn
ales
alph
alman
alab
alchem
sci
scath
scam
scone
scum
scau
scaff
screw
scaled
scathe
scorp
scimitar
##ppings
##pples
##ppered
hoy
outsw
outright
caud
caval
sax
sailed
sacks
agents
agues
aggrav
##ortable
disa
disrobe
##emon
##ember
##ematic
##emidorus
##iger
client
clift
clouts
clutch
clustering
##ouncing
laisse
godfather
graff
graft
pond
poised
flowed
flaws
quo
quis
quid
quand
quot
quire
quaff
grange
grains
grants
grained
grub
thinkings
abrupt
abrid
abusing
abreast
norwe
##asses
##assus
##agio
##agoned
##agnac
strides
strove
strays
strayed
struggl
awa
awakes
##udes
##uding
##urned
##urnish
offal
fathered
fatherly
coign
covers
coated
coining
copul
cogging
desist
descri
descan
hearth
breather
brewed
wares
warped
menace
foi
foam
foiled
fogg
foams
fogs
foemen
betid
##quit
##quainted
pertain
periw
roe
roi
rochester
roaming
ropes
##outez
peach
pelic
pebble
peppered
earliest
moll
moys
mobled
movest
artemidorus
adjo
addle
adorned
adheres
erm
erb
erle
erto
ercome
erred
erupt
erboard
erheard
ercharged
##rogr
##angle
wrested
mastered
mastership
##berus
handling
handiw
ducks
dugs
partition
partaker
particip
commiss
commits
commiseration
fearless
mab
mailed
maze
mazed
##ileth
glances
glanced
sont
sonnets
standards
slo
slink
slower
slug
slugg
##phon
##phas
##phne
afores
afresh
##ossus
brotherly
armipotent
armagnac
meanings
downy
nameless
drones
droops
contest
contained
contrib
prescript
prescience
##blin
##bless
##blance
##blown
fooled
remained
remission
removes
removing
comply
compared
composure
servest
servitors
evenly
older
quean
queasy
purer
exec
meritor
keepest
inde
indu
indig
indued
indict
##opa
witt
witless
repairs
reposing
repres
##ainties
gib
mistakest
charters
chariots
##aping
newt
newness
##onshire
puttock
crad
crum
critic
crupper
crosby
crassus
firstlings
##ensation
harmed
harlots
bestial
bestrew
helms
attires
attainted
guiding
settle
conform
smite
smokes
smirched
natured
naturally
liveth
livelong
thrall
pah
paw
paunch
##ivor
endamage
elbows
eltham
conson
consol
consign
littered
appert
apples
applied
devours
counten
countless
fallow
##ieldy
reside
resume
resigned
residing
curbed
curds
playfellows
##ocked
behove
restor
resteth
##alkin
answerable
pared
parings
friended
hums
humbler
ede
edear
edged
edif
edges
##beard
passado
passport
apiece
aprons
drach
dragging
welfare
kindest
woven
womanly
treats
trebles
retention
presenteth
##cloth
accum
accurst
bedded
doubling
pates
##force
meetest
meetings
##isoned
impet
impost
impute
impair
impawn
impregn
horum
horace
forthcoming
crowner
needles
backing
traverse
erected
##ouched
carters
carouses
carping
caroused
##wept
subs
assays
assayed
farthings
husbanded
wronger
luces
activity
actae
actium
banns
vials
justicer
disport
disposer
marking
markets
suffocate
thankings
thankless
hangers
hangings
teen
wearisome
helpless
lawfully
discer
discard
morrows
corres
corrup
coragio
misch
misprised
misenum
pardonne
sententious
sounder
forgets
stricken
reasoned
objections
mush
musters
denier
dennis
barric
barnet
barns
lucina
senis
runagate
phee
phantas
##rups
instigation
swearers
illusion
signed
signet
signified
signories
signiors
signifies
seaco
persist
murrain
##ibus
##ibble
##asher
darnel
intimate
sunk
sunny
sunburn
faultless
claws
joyed
joyfully
lessoned
singe
##versary
promotions
hardiness
hardiment
paly
paler
messes
entail
baits
bacon
cleaving
burgh
wantons
quickened
beaum
suppressed
supposes
protract
founder
foundations
metals
metamorph
recall
recalled
fitteth
fitchew
bug
bugs
bugle
casting
castaw
workmen
warwickshire
capet
capers
capilet
cheated
cheveril
rememberest
laden
ladders
rubbed
bounded
skim
skitt
coldest
demerits
demesnes
craw
craved
crabbed
damage
sighted
sightless
furtherance
furthermore
infuse
infidel
cutter
garters
garnished
affined
affiance
affability
sadder
sinon
streaks
strand
dreamer
satire
satiety
hateth
calledst
galling
gallow
gaz
gale
gaited
gaberd
expul
expiration
minx
mineral
provident
deposing
venuto
waved
colic
colts
colossus
deservest
mortally
malcont
malaper
malmsey
lovedst
surer
surcease
blackest
blackamo
posset
##ronom
delphos
confessing
confessions
acre
acute
academ
donc
incident
inconven
watchmen
regia
divides
divining
divulged
divisions
eater
requiring
woollen
sala
buckles
talent
talons
grounded
deeps
tendered
visits
visions
visaged
embat
embold
summit
untoward
untune
untuned
untender
untutored
quarry
personage
personally
reduce
redeems
redoubled
extir
extract
interior
speediest
softest
legion
ivory
snore
snare
snip
shortens
shortened
relics
aching
acheron
simois
scarred
scarcity
marcheth
fetters
##asked
lammas
gladness
badness
badges
weakly
deface
defiles
defunct
invested
invulnerable
scornfully
rooms
excellency
##umbered
##aculous
undiv
undisting
sportive
hurry
ambig
teacher
dives
divert
motto
privacy
flourishing
riband
darkling
strengthened
severals
bitch
bookish
broom
lowness
hammer
hammers
hammering
##religious
officed
bastinado
milch
milks
christmas
starlight
portable
portends
forever
foreknow
absolved
detraction
miraculous
stealer
bellowed
seconded
fingered
lustier
lustily
wedged
excuses
poisoner
feeder
feeders
limp
briefness
spoons
spokest
larks
sealing
proscription
blew
bleared
satisfying
eased
easiness
pompeius
woodman
woodbine
shipboard
freshest
argus
argal
argued
arguing
argosies
prevents
promiseth
urn
urine
athversary
shared
sharing
occur
occident
unwashed
unwieldy
bolting
studying
conquers
tombs
northampton
midsum
succors
posting
volupt
insert
insensible
insatiate
departing
lending
unhand
virginal
treasonous
practising
encamp
susan
yearn
countermand
counterfeits
ignomin
ignomy
shades
learns
learnt
pike
pigeon
##conc
refined
refusing
leonati
avar
avised
brooked
shrive
shrinks
bitterest
wasting
##remove
properer
propertied
importunity
blessedness
dishonours
tarre
targets
##icular
##iculty
basset
##iolable
executing
executors
riddling
innovation
decays
decision
decorum
sharpest
sharpness
gender
varnish
varnished
lodgings
transgress
blameful
continually
credent
credence
unsought
unsuit
unsanct
unfirm
unfriend
unfledged
unfinished
dismant
dismember
vane
##ernal
successfully
neighboured
##culate
learnedly
viewed
viewing
hopest
smilest
catastroph
equals
pining
pinioned
pinnace
topmast
memories
dealer
expects
persuading
requested
holily
posy
wolvish
injunction
loathing
loathness
holloa
triumphing
becomed
plausive
complots
intendment
ceased
ceases
training
bodily
bodkin
gardener
##zebub
prophets
claimed
clearer
clearness
custody
##ubstantial
slaughtering
turret
mending
glassy
edmunds
professors
discoveries
largely
casque
casual
casements
irreligious
inhib
ransacked
unpri
unpolished
imaginations
lamentations
deriv
derives
mourner
fondness
accords
maidenhood
teem
teems
stuffs
startle
startles
conjures
condemns
sensibly
unbound
unbated
unbraced
produced
undertakes
undertakings
stormy
egyptians
shrewish
perfected
circumfer
circumvent
circumscri
rainy
rainbow
wreathed
heedfully
trials
exampled
gallantly
babble
babies
differing
weightier
ducdame
pleads
pleaded
angerly
ranker
rankness
affecting
squier
squash
squirrel
befell
halters
emptying
appointments
##apper
beweep
bewail
bewitch
combination
combating
spiteful
digging
epist
maintains
maintenance
melts
contemptuous
tempting
temptation
conducted
dignifies
funerals
sorel
waged
wagered
spares
daphne
alias
impert
preserver
compassing
accounts
determines
hollowness
borrowing
thicker
jointed
pursuing
guessed
conferred
treading
bawdry
beneficial
martyr
taming
bluntly
sprays
tempestuous
earnestness
furnace
sicilius
sicyon
decease
negot
cockat
baptism
skills
skilled
skilless
expressure
fiction
##nawn
##goblin
dotard
archer
archers
florent
purchasing
schoolboy
pieced
prevailing
cyn
cygn
cydn
cythere
prolix
prologues
apprehends
apprehensions
film
lengthen
lengthens
williams
methoughts
mountaineers
unworthiest
pronouncing
binds
climbed
burying
##ugal
statues
bushes
journeys
southwark
##resseth
confounding
neglection
censures
fineness
chastely
assisted
assistants
gauntlet
accepted
groaned
procured
slightest
waxes
testimon
willingness
intellig
inventor
inventions
habitation
pillar
pillows
tendance
grumbling
monumental
familiarly
familiarity
etes
monger
mongers
priami
repeated
repeals
semiramis
foxes
rocky
unfolds
dimpled
gleek
rapiers
declines
unseason
unseasonable
pompous
inherited
ravin
inky
debated
reaching
rejoices
experiment
clotp
recorders
destroying
grievances
gathering
sanctify
sanctimony
sanctimon
tasked
spleens
discretions
milky
gripes
haunting
knotty
knotted
trimming
spital
gloze
remorseless
petitioner
petitioners
pitchy
lenten
lifted
allowing
harshly
harshness
adventures
preparations
moralize
##encer
perdu
adamant
wrestled
applies
coronets
opposites
botcher
couching
maskers
nonce
nuns
rumin
rumours
dependants
dependency
fronts
frontiers
beautified
constrains
liberality
medicinable
baynard
candy
candied
lingers
lingered
scouring
merriest
stubbornness
rustic
rustling
ribbons
##cheque
foresters
stinging
ensn
rods
palmers
recompensed
aspects
leaping
spreading
lapis
flouted
flouting
collect
collars
berri
berwick
gidd
narbon
contemning
crests
##clamations
features
augurers
proportioned
pushes
noddy
boxes
scatters
begetting
accidental
accidentally
fleeting
potentates
pilgrims
increaseth
junius
measuring
revealed
chattels
mantuan
levies
leviath
polec
perpetually
perpetuity
errs
counselled
bargains
bargained
steeple
aspic
browner
exhort
unreverend
unreverent
spherical
harbours
consumption
curtal
protects
protectorship
ruffians
redeeming
volsce
solicited
fanning
ramp
ramping
sedition
sedges
seduce
tainting
historical
prediction
predicament
locking
batters
battered
morgan
##uishable
stoutly
defeated
frosts
consequently
blotted
scanned
somewhere
commodities
preceding
indignities
narrowly
bulwar
ecoutez
masques
pathetical
rareness
##ecost
enfold
tripolis
bridget
conversant
cramp
cramps
fortunately
surfeiting
rheims
especial
concealing
hungerly
hedgehog
july
muddied
pentecost
votary
thriftless
hawks
clamber
comparative
assaults
phoebe
inflaming
inferred
strawberries
favouredly
observances
superfluity
bachelors
darted
hungar
ripen
copied
mistrusted
resembled
resemblance
substantial
quarrelsome
opportunities
shrouds
condemnation
dissolution
scratching
impatiently
sufficiently
suggestions
lurks
mummy
rabbit
altars
altitude
disorders
majestic
holidame
trespasses
rheumatic
cooks
fowls
##oquy
whistles
butterfly
sweeps
plentifully
sapling
abatement
perseus
persecut
display
shrieked
espy
espies
espoused
espials
tyrannize
difficulty
ferret
muffle
panther
rigour
rigged
whelps
pratest
lewdly
unlikely
ploughman
likelihoods
cozeners
carriers
ruthful
summoned
contemplative
soliciting
bien
freck
frequent
mastiffs
sigeia
tapsters
wrapt
angling
enlarged
leafy
unthought
unstaid
unsheathe
aguechee
disobey
slipper
controlled
controlling
criminal
handsomely
ungently
epitaphs
dedication
europa
mulier
russet
russia
russians
shops
reinforce
sequestration
hobgoblin
maliciously
resolutely
inspiration
triumphantly
cerberus
gamesome
riveted
##bearer
hemmed
hemlock
sextus
facility
faulty
unfelt
unquest
arbitr
distinguished
patroness
misfortunes
bubbles
divinest
circumstantial
unlawfully
crier
fidel
gules
nutme
panting
vaulty
hissing
orphan
orpheus
outstare
outstrip
straying
molehill
glowing
compuls
incurable
interrupted
interruption
uncertainty
schoolmasters
upbraids
ewer
harts
obloquy
sessa
weaved
fragment
sundered
suckedst
chronicled
brimstone
canopied
replication
replenished
parching
draughts
childishness
sunset
surmises
savoury
dominator
eagerly
gnawing
adulterate
braggarts
genitive
thwarting
nomination
nominate
unconf
erthrow
smocks
devoutly
singularity
rapture
shipwright
coverture
covetousness
austerity
dainties
loser
losest
vipers
viperous
sojourned
##alleled
anchises
revelled
revelling
amounts
converting
blistered
scrape
disfurnish
flags
phrynia
incontinency
hugged
sycamore
diminish
augmented
centaurs
obtaining
blemishes
perplexity
arabian
dorcas
eclipses
fencing
fixing
icicles
icarus
otter
tinkers
vaunting
##ynna
##ittary
animal
conjectures
unpeopled
capering
grinning
grinding
harnessed
impressure
misgives
extemporal
irrevoc
uncurrent
daunted
cherubim
cherubins
magistrate
wheresoever
polydote
blaspheme
blasphemy
kicked
nostrils
pagans
sneaking
yawning
##lestick
shuffle
shuffling
mechanical
stagger
sects
lectures
cankers
swagger
plunged
scythe
progenitors
gramercies
college
collection
ergrown
erflow
contriving
remnants
carnal
carcasses
demeaned
demeanor
extenu
verbal
sorceress
sorcerers
counterpoised
clergymen
predominance
cricket
shipwrecked
minstrelsy
ebbs
ebony
fiddler
fusty
fustian
louring
ludlow
mental
menteith
munched
pallas
ravel
threescore
tottering
novice
nodding
stifle
stifled
astronom
astonished
envenom
amply
ampli
congregation
lecherous
scarec
scoffs
causer
causeless
twinkling
communicate
inducement
reprehended
besmeared
subtly
essence
impossibilities
vigilant
vigilance
insinuation
phrygia
pursuivants
forerunner
bombast
dazzle
kerchief
kersey
mitigation
mitigate
machiavel
ranges
surname
surnamed
tapestry
valley
valleys
thievery
thievish
seizure
speculation
plummet
plackets
scaling
disinherit
disinherited
lazar
grudging
normans
erswell
appertaining
carbuncle
farthingale
runaway
runaways
palsy
sincerely
profanation
temporize
posterns
turbulent
irksome
epicure
votaress
hoodwink
hoodwinked
unthrifty
unfeignedly
equivocator
catechise
bilbo
hospitable
lonely
pestered
tattling
tasks
tetchy
ulcerous
vomit
##worths
tools
hempen
shovel
friday
receptacle
lobby
bribes
congru
convented
ushered
scribes
outlives
cautel
pegasus
partisans
prejudice
harbinger
conserves
overflow
pharamond
burdens
wavering
calumnious
mountebank
urchins
philoten
unparalleled
savageness
unmasking
rehearsed
gambols
puddings
whosoever
ptolemy
sibyl
cicatrice
davy
gurney
gabble
gipsy
molest
maugre
ovid
omnipotent
pancakes
nook
hebrew
stalks
prorogue
enfee
ensconce
enigma
chalky
neutral
exasperate
exalted
origin
leopard
bladders
plashy
alighted
sagittary
dissever
laurel
ponderous
grisly
abridgement
cognizance
glorify
cannibals
premises
premeditated
contumelious
wittingly
undermine
parasite
subornation
suffrages
discoloured
misplaced
muscov
winnowed
cutpurse
untruths
boskos
undiscovered
dictynna
vehemency
portentous
insupportable
insurrection
squadrons
sprinkle
mercenary
unguarded
substitutes
extravagant
ottomites
irregular
victuals
essentially
sceptered
cavaleiro
compromise
unnecessary
misconstrued
promethean
bisson
cistern
celsa
dighton
fierceness
fugitive
gerard
gilbert
ibat
iteration
jelly
jarteer
kiln
mathematic
masculine
oracles
picardy
random
ragozine
videlicet
thessal
noontide
novelty
inestimable
inundation
haberdasher
steterat
library
frivolous
knolled
chertsey
excommun
enterprises
levelled
unicorn
ungartered
unlettered
unacquainted
unrelenting
marriages
marjoram
spruce
almanac
alabaster
scauld
scaffold
caudle
aggravate
clifton
laissez
norweyan
foggy
periwig
pelican
eruptions
handiwork
commissions
aforesaid
meritorious
represent
impregnable
actaeon
seacole
sunburnt
skittish
gaberdine
malapert
midsummer
voluptuous
ignominious
unsanctified
catastrophe
edmundsbury
circumference
cydnus
cytherea
bulwarks
aguecheek
irrevocable
mathematics
2s
ail
ains
auss
bou
bin
bess
bake
bang
bung
bals
bisc
banged
baskets
ces
cul
cum
cice
cree
cumber
cites
cuc
cooked
doo
drow
dile
dens
dowers
dites
dries
daw
dalm
dapp
dancer
eg
eter
eft
eels
ebbed
fere
fatter
fens
fans
fished
fund
folk
fainted
fern
fumes
fester
fixture
fencer
gim
gord
gill
gag
gel
gens
gasc
germ
gapes
gaged
gilly
gasping
gnawn
hou
hul
hud
hange
hipped
hoops
hinge
hedged
ion
ith
ira
jan
jill
jure
jau
jaw
jasons
janus
kim
kend
kates
kib
kibe
lus
lid
lard
lure
lown
louse
latch
lint
lated
links
lym
loop
lining
lanced
lards
lutes
longe
lakin
mes
moles
menton
mossed
mousing
malkin
nas
nit
ness
nio
nave
nag
nib
nape
nipp
napp
ninus
nipping
nouns
nasty
oy
ore
oaken
operate
pow
pore
pother
pave
pout
pans
peel
pash
poop
poult
pensive
pumps
ral
rant
rind
ration
rents
rump
rosed
rina
rural
rayed
ranged
ss
sere
ske
sill
sizes
soothing
tin
tir
tus
tad
tard
tag
tel
tert
tench
tory
tib
tully
tua
tips
tiny
taker
tangled
tester
tanta
umber
umb
vl
vet
vra
vide
vince
vend
vied
viv
vint
vents
vides
veal
vicer
wow
wad
wain
wry
wist
wince
winks
wots
wails
wands
waded
waned
yer
yel
yesty
yarn
yellows
zir
zod
##hi
##hu
##hor
##hear
##horn
##hib
##hardy
##ao
##aul
##aian
##acc
##aca
##ainders
##aemon
##aileth
##kings
##eg
##ech
##ept
##egl
##ezing
##echy
##dis
##don
##dia
##dled
##drew
##dities
##dale
##dlestick
##ros
##rin
##rers
##rive
##rum
##rence
##rings
##rions
##rices
##rations
##rility
##rane
##rative
##raine
##ranged
##iare
##iqu
##iated
##ihood
##iations
##ictions
##ikin
##ialties
##nag
##nier
##nels
##got
##gate
##gio
##gown
##gia
##grown
##goth
##gora
##giving
##si
##som
##ster
##sers
##sop
##spect
##cot
##cius
##cery
##cenet
##cative
##ciqu
##te
##ti
##tas
##tus
##tice
##tons
##tino
##tlest
##turned
##ymed
##oi
##oder
##oiled
##oyed
##work
##watched
##wsey
##warm
##waul
##va
##vre
##vice
##vise
##vile
##vors
##vable
##vities
##vident
##vails
##vres
##uf
##uer
##uus
##uist
##uery
##uerd
##ucon
##uiced
##ualties
##lord
##lish
##lies
##lains
##lars
##laid
##lication
##lgoth
##ma
##mes
##mar
##mut
##mus
##main
##mire
##mel
##mons
##mered
##mined
##makers
##mocked
##fes
##ffe
##faced
##bre
##bet
##bur
##bate
##book
##bare
##bourage
##bane
##bread
##boles
##bulous
##xy
##xom
##xico
##pas
##pse
##pate
##pian
##pret
##pitude
##powder
##prop
##zable
##zzard
thrived
##erp
##erville
##erva
##ouple
##osth
##osal
##ospitable
##nde
##ndor
##nded
##ndice
thews
##orre
##orish
##orters
##orals
##atians
##atica
##ateral
##inue
##inish
##inity
##initive
##inativo
##esby
##escend
##lla
##ller
##isdiction
##arse
##arest
##arred
##arms
##enets
##encing
##enominate
ton
tofore
toils
toiled
toler
topples
##onis
##onne
##onnet
##thes
##thood
##thol
##thian
##thew
##thog
##thread
##thrift
##thecary
##anth
##anate
##anmo
noised
noah
nointed
whine
whiff
whined
whites
whipp
wharf
wick
wiving
wiles
##veying
##inges
##omon
##oming
##reas
##reys
##reared
##reux
##requent
bech
bends
beag
bevy
becks
beached
bemo
bewept
inord
inver
insh
inmost
invert
infortunate
inforced
inacc
heure
hewn
hectors
##owls
shes
shag
shady
shud
shire
shred
shog
shaf
shunning
sheds
shards
shoon
shivers
thatch
haled
hacks
##eto
##eters
##etua
##uting
##uttered
##utations
##chos
##choo
##changed
foresh
foreth
##ldo
##lement
##lemain
mends
mexico
isles
isbels
##iry
##irch
##ircle
##irmed
##ereth
##user
##uster
##usal
##usest
##uspected
##itations
##itical
##itably
##itements
nots
notle
notation
notary
notify
##urt
##urse
##urest
withers
withstand
withdrew
##teriors
##imus
##imers
##imau
##immed
itches
ween
weke
weave
weaves
stee
stith
stap
stump
stair
stup
stages
stub
stoned
stitches
##sex
asse
asketh
##adio
##adation
##aloon
##alanta
thisne
butto
buttered
buttery
prain
prost
prig
prist
prings
priz
prib
prune
prank
prenz
prenominate
soph
sops
soaking
soho
##entive
##entinus
##entieth
##idled
##idences
##idden
##alling
##allels
doer
doest
dolt
dobb
onward
ongl
onions
lien
livia
liker
lichas
likings
lilies
##atham
##amous
##amped
##ammar
##esses
##essence
##essible
anvil
deum
decei
degr
deuce
deuc
deux
deceives
frat
frize
fracted
fractions
frolic
frugal
rex
real
reave
reined
recks
reapers
reclaimed
reechy
whatsome
enw
enl
encl
enno
enorm
seld
sewing
heresies
herrings
hereto
##ckling
##vergne
##rale
##raff
##rands
##raphy
##raea
##iever
##ieces
##ievous
thyme
##therly
goers
goli
goaded
golgoth
goffe
suum
alla
allig
allusion
##stool
shallows
kno
knack
knacks
##ilfully
##ilhom
loy
loan
local
tray
trink
trance
trist
trop
trident
tressel
traded
truckle
tranqu
tresses
##ctar
chill
chart
chine
chough
chime
chaud
chatham
nevil
neme
neanmo
nectar
lordings
ates
atlas
atalanta
goodlier
mane
manfully
mantled
managed
manager
mannered
mangle
managing
upside
upturned
upreared
bras
bray
brink
brute
brides
browed
brinish
##unal
##unned
##unctions
##unacy
exting
exchanged
ork
ort
orbed
orts
orthog
##illity
##illades
amid
amort
amities
sheer
sheen
sheaf
comf
comer
comed
comic
comets
comical
comrade
##antine
siren
##ellowed
faust
fables
fagg
facul
facing
faucon
fabulous
##ustion
##ustious
##ustrous
##arted
##ousal
##inem
##ineth
##ostication
##otle
lees
leak
leven
lender
leper
leman
leasing
leagued
leaky
hereabouts
unr
unan
unra
unear
unass
unction
unken
unbr
unused
unpr
unright
unpl
unchar
unmit
unweigh
unforced
unvalued
unurged
unremove
##uls
##uled
##ulked
##oneer
##oneous
knower
knowist
knowingly
##olted
blent
blames
bladed
blubber
canakin
cancelled
##venged
swam
swum
swound
swains
swab
swoop
switch
swounded
wells
arist
arbour
ariad
lovelier
##earied
whene
whenever
whensoever
sayed
##eemer
##ately
##inded
##indle
bog
boards
worry
worts
##icut
##icia
##icite
##icock
##icially
##icraft
specious
usance
usury
usually
mares
marig
maries
marrows
marullus
plus
plood
plag
plump
plated
plural
placing
##rial
##riously
whereunt
whereabout
whereunto
mads
madrig
spins
spav
spying
spites
spangled
spills
spousal
mayest
scion
scuse
scull
science
scuff
scores
sciences
scowl
##ppo
##ppers
##ppling
##ppingly
maketh
hoa
hogs
hoarded
outd
outc
outse
outgo
outcast
caith
capped
cauc
cavern
cackling
caulked
sapp
sabb
sables
saunder
agone
agitation
##orting
disem
disable
disann
mustachio
twos
twit
twine
twangling
twentieth
whoa
##eman
##emont
##emperate
##emaker
##igib
##igated
##igod
##igations
tisick
props
progn
proclamations
prohib
cling
clang
clipt
clasps
clusters
clutched
giveth
##ptions
##ptures
##ounced
laby
lavol
label
honor
##idels
godliness
godmother
godfathers
graven
graved
grazing
grappling
pody
poys
popped
pothecary
flib
flask
flamed
flutes
flux
flanders
##icked
quag
quip
quits
quaked
quails
grise
grunt
grop
grime
grated
grasp
grasps
gradation
grammar
lookest
aby
abet
abase
abel
abys
abated
abram
##isel
teller
tellest
##agree
##agates
##istinct
strung
strugg
heaves
heaving
heaping
awl
awards
aweless
##uder
##uded
##udemont
##ipro
fatherless
coh
coph
coins
coined
coped
coarse
hearest
hearsed
hearkens
gentility
gentilhom
breton
brevity
brewing
sermon
warble
warred
warily
warms
warmer
warbling
menec
menaced
fois
foix
foamed
fobbed
focative
betr
betook
betting
beteem
##quered
##quoi
perge
perig
pervert
rolled
roads
roping
##outing
peu
peard
peak
pelf
eared
earlier
mope
movers
moated
monde
##enelo
artist
articul
adage
adram
adores
adjour
adhere
adonis
erre
erru
erta
ersp
ermaster
ercast
erweigh
ercles
erjoyed
errands
##rob
##rops
wrist
wrens
masterless
nighted
nightgown
handful
handless
handicraft
bloodsh
dub
callat
callet
callest
otherwhere
##pering
##percal
parti
partlet
particle
partridge
comma
comments
commenced
commixture
##eltered
##eliver
##achum
hastes
sweetened
sweetme
##oulter
maur
mail
maul
maud
maps
maws
mahu
mazzard
jog
joins
glans
glides
glued
glares
glutton
##unting
##iances
##ianced
stander
standeth
cannoneer
slid
slice
slings
slop
slash
slays
sluts
sliver
slubber
slimy
sluiced
##iae
##iac
##iteur
emm
emul
emble
emulate
emphas
bearest
##phes
afire
antid
preyed
preached
arme
armenia
armiger
##mances
twofold
##eeped
wombs
dray
drest
drank
controll
presumes
firk
##bla
##blo
##blies
foolhardy
remark
remotion
remainders
compost
compose
compiled
computation
complements
complement
couriers
coursed
coursing
coursers
##swich
##swoman
##rowned
serviteur
##glasses
oldest
showest
showering
purging
merlin
indisp
indistinct
##uckles
witnes
repents
repays
reputes
repugn
##eeded
gibing
bettering
mista
mistakes
mistemper
charging
charnel
charlemain
##apse
##appe
##apius
newborn
##isses
##onsive
##onsider
##onsidered
putre
critical
holdeth
forts
harrow
harping
harbourage
lieth
lieve
sleight
felled
fellest
helper
attractions
guy
underw
underhand
undervalued
underprop
peaceable
peaceably
seteb
confl
confining
confutes
confusions
madams
smites
smug
smoked
smoothing
everywhere
belzebub
belgia
highways
##cyon
thrill
thrum
thrason
thrash
thrones
thralled
throstle
pax
pail
pacing
paws
pausing
paphos
##ivest
##ivals
fortuned
endue
endings
endanger
endued
endurance
elm
elbe
consangu
appal
appals
appalled
youngling
devant
englutted
bringer
bringeth
boyish
caesars
caesarion
fallible
besp
besort
besotted
placeth
resident
resumes
curd
curan
curve
curing
curtle
curls
playhouse
behest
paring
parks
parched
parric
parallels
fals
falter
falser
humming
humidity
humblest
eden
edown
turnco
##beck
##beys
##beams
##beards
passable
passenger
apost
apople
apric
draff
draweth
fuller
##intly
biding
kindling
wofull
braid
brakes
bracel
mindless
##retion
retold
retained
retrogr
retentive
presentation
presentment
villi
##cled
##clout
##clops
valorous
valentinus
sworder
tape
tails
taverns
bedew
bedeck
patents
solder
##ultier
##forms
meeter
huswife
impure
imponed
impugn
implements
imposth
childbed
killer
crownets
troll
track
traps
trapped
trappings
travails
erection
erebus
overf
overta
overbear
overjoyed
overplus
overblown
overhear
caret
carver
carol
carouse
carving
carousing
carrions
assent
assum
assails
assumes
farest
monachum
pleasest
sleeper
sleepest
wrongful
lupercal
actual
lighten
lightest
lightnings
farewells
##bted
justle
dispensation
hangmen
teat
##ifs
##ifery
wearer
wearies
weariness
praet
discand
discase
cork
coral
coram
corri
corrig
coranto
corros
misth
misers
misdem
misbel
misadventure
misinter
##abbled
##abreth
thousandth
gentlemanlike
buss
busily
maidhood
pardoning
pardonner
advant
advises
advances
useful
soundest
forgave
forgery
forgeries
strifes
##izing
reasoning
reasonless
lasted
musings
opes
opulent
nearness
deniest
denounced
barr
barm
bared
barne
bareness
barked
barley
barking
barthol
lucianus
landing
landlord
runagates
phill
purpled
institute
instalment
swearest
swearings
commandments
feu
feod
illum
illusions
illeg
signific
returneth
persian
perspect
perspective
murk
bodykins
darlings
firebrand
appeach
appeareth
titled
jude
wishest
intit
intemper
intrude
intestine
intemperate
sunken
talker
windowed
weepest
clapping
joyou
joyless
lessen
lessons
lessens
singed
##versed
prompter
furb
furlong
hardest
hardening
palms
palmer
paleness
palestine
palatine
proveth
revenging
messages
entangled
enticing
auburn
auvergne
baes
cleans
cleitus
winners
##neyed
burr
burly
burton
quickens
quickening
suppler
supporter
sorrowed
sorrowing
type
typhon
situate
sickens
founded
foulest
metre
mettled
recog
recoll
reciter
recipro
fitment
somerville
buxom
beseeched
capons
capuc
cheaps
cheater
lading
ruby
rubb
ruinate
rubbing
bounden
bounding
distrained
aired
condign
condescend
coldness
demon
demois
demigod
crabs
crawl
dams
damp
dammed
choir
chopped
choking
purposeth
puis
puzz
infusion
infernal
infamous
infidels
garish
garners
garbo
garnish
frenchwoman
affianced
raves
saddler
saddest
sinfully
streaked
straggl
satin
satyr
methegl
watered
footboy
football
loseth
gallian
galley
gallimau
gawsey
gaultier
##lety
exposing
expounded
exposure
expenses
explication
cambric
minerva
terra
terrest
drinkings
provinc
provocation
commoner
commonalty
depl
depra
depraved
deprive
contentious
burnished
burneth
colted
columb
colbrand
deserver
mortar
mortifying
males
warranty
surest
surgeons
surplus
blackberries
writer
writings
pasty
pastimes
reporting
jewish
delve
deluge
deluding
delabreth
confesses
donned
donner
hottest
incred
incony
incaged
incursions
inconsider
watchers
watchman
register
reguerd
thanksgiving
divest
divul
divination
eaters
requis
requites
trumpery
woolly
fastest
salad
salutations
estranged
buckets
ringlets
boldest
boldened
evilly
mornings
cards
constitution
visitors
embar
embro
embark
wallow
untent
untro
untied
untired
untread
untouched
personages
redeemer
extinct
extorted
interming
guardant
chambermaid
speedier
despairs
despising
subjected
striketh
bosworth
rosy
roscius
softened
calves
calculate
snar
snap
snared
snapper
snorting
favourer
favouring
batt
batten
forbad
relished
relapse
questionless
pencil
penalties
simular
simpering
haired
scaring
fetched
fetlock
labourer
laboursome
performs
performances
waterish
lamed
empo
empir
##uffic
widowed
plainest
weaken
defer
defac
defensive
deficient
definitive
mockers
##jointed
invade
invades
invocate
inviolable
excelling
lestrale
verier
verify
liegemen
disheart
dishclout
##acon
##acent
##acies
##acinate
harmon
harming
undid
undrowned
hurled
hurric
##volence
teachers
teacheth
diverted
##ringer
##ringed
hosts
hostage
hostilius
##comb
privates
troubler
witnessed
witnessing
granting
beginners
nurses
nurture
rived
ripped
##inacy
addrest
addiction
addicted
darker
darkest
severing
bitten
bitumed
broiled
brokers
resolves
judging
judgest
lowing
hampton
hammered
disgorge
disgracious
basting
wilds
christened
stares
stared
starred
fatted
portal
portra
portance
portage
forefather
forehand
foregone
forefathers
dreads
dreading
dreadfully
dete
detract
detected
miry
mirrors
lackest
famously
fillip
bellies
bellowing
##aze
##azed
secondary
lustrous
lustihood
wedges
excite
excitements
limping
limitation
talbots
larum
larums
cheering
corns
cornish
cornelia
elegies
##odied
##odils
possessor
alarumed
proserp
fashioning
fashionable
bleaching
blended
utens
##granate
beardless
modo
module
acquired
easing
fordone
fordoes
lovingly
smaller
woodstock
woodvile
##ggle
shipman
freshness
argier
cupboard
cupbearer
sorcery
whey
tribes
tribunal
unkiss
unkinged
matchless
breeders
trippingly
leonardo
emperial
headsman
effectless
noiseless
unwind
unwished
unwitting
bolster
dinners
formless
formally
studious
breasted
moveable
northward
adieus
lookedst
dully
dullest
dullard
postures
postscri
postmaster
volub
insist
insoc
insuffic
greenly
roguery
bowing
humoured
prosperously
neighs
blinding
blindfold
destitute
media
mediter
meditate
medea
mutes
mutine
mutines
mutability
muttons
lendings
unhair
unhatched
unhoused
unhacked
virginius
practis
practiser
churchyards
listened
torrent
encamped
##agging
suspend
yearns
counterm
countervail
countercheque
buyer
creaking
shadowed
reflex
avow
avails
robed
robber
robustious
shrilly
shrimp
measureless
demanding
thirdly
circe
vainness
wastes
hermits
importeth
importunacy
blessedly
trumpeter
trumpeters
rhymed
syrups
synag
tarries
usuring
usuries
cliffs
costs
catcher
rids
ridges
ridden
reigning
sharpens
geck
owing
variation
##ointed
heroes
lodgers
transm
blameless
continents
continency
continuate
vowing
walnut
unsounded
unsolic
unsubstantial
unschoo
unsuspected
unfix
unfilled
unfrequent
dismall
dismount
dismission
dismounted
essay
essex
##erns
tempers
tempters
governs
successes
successors
successively
neighbourly
towering
rougher
roughest
yokes
##culapius
##bertigib
banquets
observer
views
defending
smilingly
benedicite
catar
cataian
triumvir
courageously
equino
equalled
pinion
pinfold
vouches
vouchers
##ipper
wealthily
expectancy
persuasions
conditioned
holier
posies
posterior
injunctions
loathly
loathsom
amazons
holly
holland
hollander
triumphed
fishers
fishmonger
##bark
fleer
fleas
fleeter
punto
vented
becomest
cloths
clothed
clothier
ancientry
compliments
intending
##pler
enjoin
boded
bodements
julietta
criedst
gardens
forests
proposition
propriety
custard
customed
lydia
revolving
revolution
slaughtermen
turpitude
solitary
solomon
advantageous
princesses
auditor
audible
audacity
bianco
faintness
idea
idiots
brightly
brightness
wraths
remaineth
directitude
excusez
barehead
barefaced
casualties
figo
leda
potions
potpan
ransack
uncrown
uncouth
uncont
uncaught
uncapable
uncouple
unconsidered
unpin
unpract
unpossess
tremblest
protestations
lamentably
solemnize
deracinate
fewer
fewest
mourners
envies
spending
spendthrift
springe
springing
publicola
drier
drizzled
dwellest
corrupting
remembrancer
enforces
concave
concert
concup
physical
condemning
uttering
circuit
bases
corded
oxlips
unbind
unbowed
unbutton
unbuckle
unbolt
unbonnet
producing
undertaker
performing
performers
shadowy
shadowing
aiding
horsed
tuneable
heating
reverted
reverenced
reverberate
perfectest
vengeful
customer
physics
circumspect
raineth
raged
##etera
leisures
##udgeon
dungeons
hitting
heedless
stomachers
grating
considerate
recoveries
dusty
hatfield
numberless
weights
guiltier
disguises
disguising
leisurely
bottles
bottled
nests
rankle
rankest
halloing
stolest
##amental
fruitfully
abroach
affectation
capitulate
squint
squared
squares
halcyon
envying
flowered
flowerets
empties
emptiness
displeasures
lineament
panders
pandars
combustion
slowness
showedst
cupids
ransomless
digs
epile
melteth
pressing
frighting
frightful
armoury
armourers
contempts
contemptible
conduce
conduits
vouchsaf
hillo
wags
wagers
sparingly
flights
encountering
particularly
particularities
aiming
cureless
inclusive
includes
rendering
alien
immoder
preserving
accountant
hollowly
bottoms
bottomless
borrower
mildest
thickens
leaned
pursy
conferring
lieutenantry
tediously
martlet
porters
porringer
tameness
tamworth
##iterate
rewarded
blunted
sprang
strangles
strangling
profiting
profitless
profitably
packets
packthread
sicil
sicils
wakefield
stocc
stopping
deceits
sackcloth
cockney
cockerel
intention
expressing
aptness
ordain
archery
archde
vexing
vexations
schoolboys
equality
honeys
seaside
swept
beguiling
smoothly
smoothness
hortensius
cyclops
hiems
pedler
pouring
pourquoi
perjure
mercies
mercade
repaired
repairing
apprehensive
billeted
filial
filths
filching
piles
pilch
pilate
pilfer
rannest
torturing
torturer
tortoise
##acts
##active
hazarded
engirt
engraved
conveyances
clowns
apartments
divinely
mountainous
mountaineer
unworthily
unhappiness
plantagenets
ballast
sources
ungained
ungalled
scotch
scotched
climber
preferments
attempted
attempting
modesties
hybla
statua
seese
specially
specialties
buildeth
ravening
amazedness
journal
nerve
paddling
paddock
southam
southward
forfeiting
brainsick
monthly
marketable
exceeded
usurpers
usurpation
censor
duchy
finch
wanderer
wanderers
shouted
seller
selling
accepts
admiringly
rhyming
employments
whispered
whisperings
hindmost
supervise
unlaid
procre
procures
procrus
serpigo
slighted
rescues
abhorring
pills
pilled
pillory
pillicock
taller
tallest
stainless
grumble
handkercher
handkerchers
guilders
guildhall
consulship
bandying
banditt
bullet
bullens
winked
whipstock
withdrawn
priamus
unmu
unmake
unmuff
unmeas
unmingled
ariseth
##arelon
descending
edgeless
ambitiously
unfolding
dimension
dimensions
declension
unseem
boasts
spurio
spurring
coffins
coffined
driveth
belonged
advisedly
pompion
privilegio
inherits
bonne
mills
miller
milliner
millstones
tamely
inkle
inkling
inkhorn
stretches
ashford
debile
debitor
experiments
clotens
reprobate
confirmations
burthened
recorder
craftily
delaying
bellyful
sweaty
dowlas
lorraine
rottenness
tasking
inquiry
weathercock
sucker
suckle
alley
alleged
alleys
herefordshire
arrests
splin
splits
splinter
splendor
quenching
folds
faithfulness
milkmaid
sacrileg
mourns
griping
grizzled
paintings
breaches
perishing
gloomy
accuses
accusative
petitionary
calmly
pitchers
rebelled
kinswoman
lentus
whitest
storehouse
lifting
preparing
concernings
sacrificed
sacrificing
budding
luckless
matthew
sinewed
warder
warders
##pulous
##encies
wheeled
stupe
frailties
conveniences
conveniency
toothed
closer
closure
perdurable
villanously
coronal
opposer
opposers
tricksy
afeared
botch
botched
odorous
roussi
rumor
ruminated
stanz
dependent
frontier
dissembled
dissembler
constrain
medicinal
tormenting
later
lattice
linguist
reviled
revives
reviving
scoured
scourged
antiqu
townsmen
spleenful
mowing
ribbon
##ophag
toiling
forespent
ensued
bohemian
charactered
charactery
barbara
barbarian
pennyworths
axle
aleppo
lyingest
wailed
##ominable
shields
assemblies
succeeds
succeeders
scurril
scurrility
scrubbed
scrupulous
lapse
grandsires
flouts
collop
collied
colliers
collateral
countesses
distraught
distractions
estimable
interpose
forswearing
berry
bergom
bennet
dutiful
dumbly
homes
deceiveable
contemn
reprieves
killingworth
sufficed
miscall
featly
auger
augury
augurer
cleanse
termagant
pinching
stewardship
semblances
croak
tickles
inwardly
information
deafening
franked
franklin
scattering
coasts
messaline
prophetically
potently
potential
century
mingling
oceans
styx
chirrah
uneasy
erroneous
thronging
pheasant
bereaved
cudgels
nettled
pierces
racks
uglier
steeples
aspired
butcheries
trenched
exhale
exhales
unreg
unrec
unreal
unreconc
unrevenged
sphered
drunkenly
belching
endeavor
curtained
accessary
taxing
taxations
subscribes
voyages
protected
protectors
disturbers
eleventh
transpose
solicits
solicitor
fanned
piteously
rammed
seditious
seducing
sithence
tuns
vaults
vaulted
##auspicious
threadbare
predominate
knapped
##icleer
marvellously
replying
courteously
prompting
venomously
philippe
battering
gossamer
jesters
linstock
pulp
rotted
stoutness
defends
defender
bruited
precedence
recreants
rebuked
reproaches
reproachful
disciplined
dilate
dilated
dilatory
ecu
ecus
gnarling
lena
pestiferous
##genorth
enfreed
bridled
bridges
bridgenorth
fawns
convocation
converses
conversion
blazed
blazing
planks
coinage
resistance
brabble
brabbler
saluteth
hungerford
alexandrian
digestions
fantastically
michaelmas
nuptials
mudded
omitting
peeps
peeping
sustained
sustenance
votaries
thinly
unmanned
unmannered
scandaled
grimly
assaulted
puppets
territory
captainship
embassies
politicly
observant
darting
dashes
dashing
iceland
patchery
ripest
ripens
ripeness
ripening
##nonians
buttons
printed
printing
copest
copies
households
crann
cranny
resembling
substances
distresses
opportune
broader
cherishing
ceremoniously
dissolves
suggests
dowerless
females
fountains
gunpowder
hooded
hoodman
lurked
mumbling
ruder
rudest
rudder
rudiments
rudesby
##theon
shelves
grovel
grovelling
malecont
liefest
confidently
cheapen
cheapest
despiseth
achievement
simpler
vanishest
holidays
babylon
scandalous
scandalized
cookery
culling
cullion
cullions
dateless
dials
lanes
froze
chestnut
swims
swimming
sweepers
spanie
sapless
cobbler
undergoes
falconers
taunted
horridly
displant
displace
displaced
obstacle
obstacles
obstinacy
supplie
supplies
supplications
relenting
detests
espied
unproper
tyrannical
diffused
diffidence
ferry
fertility
pannonians
pantheon
rigg
renewed
vinegar
vineyards
##bolical
##bolton
whelped
prattling
enchantment
lewdness
university
blossoming
plighted
indirection
believest
vizarded
scarfed
ravisher
ravishing
sustaining
sympathized
balmy
nedar
nourisheth
tartness
vaporous
wrack
notoriously
ascended
allaying
unstate
unstanched
unshaken
unshaked
scolds
pertly
pertinent
periods
slippers
oblique
supportance
syllables
companionship
afflicts
magnif
dedicates
dedicated
eglantine
kernels
mulberry
mulmut
muleters
sallets
thefts
whirls
whirling
healing
halts
statesman
rearward
enrage
##strue
##strained
arrayed
slackness
antics
consisting
impartial
assailing
inspire
avouches
griffin
interprets
interpreted
applauding
defeatures
rabblement
eunuchs
balmed
dwelt
dwindle
ditches
ditties
ebbing
lulls
pigmy
puddle
patterns
rivet
rivets
tike
vater
vestments
mellowed
fraughtage
chimneys
facit
unload
unloved
proffers
permitted
erpast
erpowered
commenting
bragged
tabourines
patronage
tragedians
shrinking
celebrated
conjurers
conjurations
debatement
manifests
lunatics
shafts
disloyalty
benches
cedars
pantler
pantaloon
vaudemont
primal
reeky
trotting
abjects
advertise
ducking
presuming
competent
competency
attorneyed
branded
brandish
dispraised
dispraising
pupils
puffing
dishonestly
irishman
gossiping
upbraidings
impeachment
dallying
echoes
festinate
festivals
fisting
gestures
ouphes
omne
piping
ratsbane
sessions
tilth
tilter
tilts
yarely
##pital
whereso
anchoring
chapless
chapmen
brimful
levying
margarelon
flinch
quintessence
breech
nightingales
conflicting
smarting
implored
intruder
venetia
wafts
waftage
surmised
surmount
acquitted
acquittance
compassionate
languishes
gnawed
adulterous
bequeathing
aeac
direst
gorgon
hooks
radiance
rivalled
nominated
nominativo
deemed
separate
unconquered
unconstrained
wherewithal
scrip
scribe
scrivener
polyx
bretons
smacks
curtsies
parishioners
denials
demonstration
dunghills
corrects
planetary
inhabitants
dallies
daintily
daintiest
osiers
vailing
waggish
hacket
##chanals
prerogat
reveller
revellers
gobbets
shells
converts
blisters
arrives
scraped
pollution
polluted
quills
graybeards
coaches
betideth
purgatory
attributes
courtezans
edicts
treatise
misdeed
barbason
survives
survivor
untrained
referred
transgressed
memorial
unpregnant
pursuest
hyperboles
hyperbolical
diminution
augmenting
influences
moderately
cobwebs
perseverance
unquietness
gingerbread
ethiopian
eclipsed
fumble
felony
felicity
icicle
juggler
kitchens
operant
sterner
sterling
squeal
squeak
squeezing
vaunts
thawed
myrtle
shambles
shrub
shrubs
itching
select
severely
heretics
goblin
channels
conjectural
swooned
clogs
float
floating
hearkened
wrenched
misprising
sentinel
straitly
cambria
verdure
woodcocks
unwillingness
philomela
girdled
caterwaul
equivocation
uncurable
environ
multitudinous
interpreters
olympian
blaspheming
cottages
dastards
gems
obeys
sneak
sneaping
tourney
thumped
ingraft
shocks
shuffled
stinted
anthrop
sectary
chanticleer
chicken
conjointly
unclasped
unscarred
plaintiff
scythia
scythian
scalding
hoisted
clouted
lacedaemon
ergrow
erflows
erwhelmed
glimmer
glimmering
glimpse
sluttery
presageth
parrots
parlor
eyebrows
carnation
discredited
discoursed
discreetly
misconstrue
hitherwards
stripling
demean
pretending
oppressing
penetrable
verba
superstition
massacres
multiplied
transporting
blazoning
popularity
undeserving
cuffs
daffed
daffodils
fiddle
fiddlestick
hymns
munition
rooks
tossing
tincture
yorick
total
novices
nodded
invect
meadows
stags
astray
astraea
dexter
sewer
tradesmen
sheathing
congregated
unswear
unswept
unlocks
swerving
capel
disclaiming
strutting
warnings
perpendicular
adornment
communication
contaminate
besmear
retorts
subtlety
victual
illustrate
darkened
infallibly
infringed
garbage
razor
razors
tributaries
circling
hermitage
riddance
thunderbolts
esquires
prophesying
reverently
saucily
wreaths
befriended
dissuaded
intellectual
bonfire
restraining
masquing
primroses
disfigured
petticoats
cowslips
bombard
coughing
dazzled
giglot
ranging
sceler
tasting
tugged
##fullest
thriving
forcible
##keeper
prentices
prudence
engrossed
enacts
enkindle
seizing
sundays
logic
chapped
uplift
bricklay
bristled
brushes
brushed
blabbed
swinish
speculative
placket
spartan
scalp
disjoint
lazars
laudable
quailing
grudges
abjured
ersway
ershot
ershades
erbearing
commencement
gibbets
guileful
humanely
accoutred
accoutrement
accoutrements
overlooks
carbuncles
lukewarm
palsied
metaphys
recomfort
tenantius
tenantless
mockeries
admonition
encouragement
amazonian
wreakful
epithets
steerage
expertness
leavening
unexpected
consummation
vanquisher
herdsmen
votarist
austerely
foretells
equivocal
superstitiously
catechism
alderman
aldermen
border
cotus
certified
certainties
gouty
hospital
hests
jurors
jurisdiction
loneliness
mishap
mishaps
sampler
tassel
tetter
tightly
ulcer
beadles
fridays
enchants
enchafed
chalice
chattering
bribed
shearers
swarth
swarming
scribbled
dislikes
dislikest
lapsed
adoration
ertook
erturn
partisan
comprehend
comprehends
harbingers
attracts
attractive
improvident
assigns
disparagement
pharao
bacchus
bacchanals
burdened
caparisoned
chequered
chevalier
distribute
distribution
hurlybur
mountebanks
urchin
philotus
contrarious
decrease
decrepit
positively
unparagoned
savagery
unburth
unburied
dissolutely
obscenely
exhalation
exhalations
perturbed
perturbation
magnificent
magnificoes
rehearsal
puddled
whirlwinds
ptolemies
paradoxes
christophero
aesculapius
dialect
eaning
flexure
flexible
gospe
gosling
hooted
ipse
ipswich
muzzled
muzzle
mandragora
mentioned
nicanor
psalms
passeth
pissing
pensioners
sarcenet
tanner
xiii
##prizing
beldam
beldams
inscul
inscription
inexorable
shriving
shivering
forewarned
priority
sobriety
lizards
enseign
seaman
sequestered
kneading
trample
goodwin
exorcist
unnoted
unnumbered
unveiling
unmeritable
wassail
wassails
bloom
plodded
scorch
scorched
scutcheon
hoarding
outwear
twisted
laban
laundress
pewter
pelion
adjunct
adjacent
precipitation
housewives
housewifery
housekeeper
housekeeping
indiscreet
indiscretion
indulgence
bestirred
guerdon
guerdoned
pacified
pacorus
overpeer
overshot
overwhelmed
associate
lugged
misleader
horsemanship
palfrey
palfreys
entomb
entombed
entitle
baffle
baffled
skirr
skirted
demurely
garrisoned
provoking
captivate
possibility
possibilities
incarnate
interchanging
urgent
urgest
urinals
unheedful
deciphered
duello
duellist
conjunctive
sensuality
digressing
wagoner
daisies
hyrcanian
superficial
superficially
inquisition
inquisitive
superscription
odouriferous
reconciles
malefactors
difficulties
worshippers
disproportioned
diminutive
diminutives
ingredients
anatomize
anatomized
recommends
loggerhead
carbonadoed
azured
aurora
balked
corses
dandle
dungy
festered
fadge
hesperides
jutty
kettle
louvre
lisping
maggots
oeillades
pomegranate
pamper
tithing
velutus
thimble
whitsun
inseparable
shackles
forenoon
stablish
stigmatic
pruning
priesthood
primero
fronted
reliques
enamelled
heritage
gondola
sultry
uprise
upstart
upshot
amplest
unyoke
unrespective
blinking
canvas
swashing
ardour
sprawl
alphab
alchemist
sciatica
scambling
scorpion
outswear
cavaliers
saxons
disabled
clients
quiddities
quotidian
abridged
struggling
await
copulation
describes
mollis
adjoining
ermatched
erbears
erleap
ertop
participate
sloven
sluggard
contribution
execrations
indebted
induction
indigested
indictment
cradles
conformable
consonancy
consolation
countenances
edeath
edifice
drachmas
impetuous
impostor
impawned
subsid
correspond
corrupter
mischievous
pardonnez
barricado
pheeze
burghers
beaumont
metamorphosed
castaway
crawling
gallowglasses
gazer
expulsion
malcontent
blackamoors
academes
doncaster
embattled
emboldened
untuneable
extracting
undivulged
undistinguishable
ambiguities
foreknowing
unhandled
avarice
transgressing
unsuitable
unfriended
dismantle
inhibited
unprizable
derivation
circumvention
circumscribed
epistles
impertinent
negotiate
cockatrice
florentines
cynthia
cygnet
prolixity
testimonies
unseasoned
clotpoll
sanctimonious
ruminates
giddily
leviathan
polecats
hedgehogs
clambering
hungary
freckled
reinforcement
unquestioned
arbitrator
fidelicet
nutmeg
compulsive
unconfirmed
amplify
scarecrow
epicurean
congruent
cautelous
enfeebled
muscovites
thessaly
excommunicate
unicorns
voluptuousness
ainsi
aussi
bouciqu
balsam
biscuit
cucullus
dilem
dalmatians
eterne
fundamental
gimm
gordian
gagged
gascony
germens
gillyvors
houseless
hangeth
ithaca
january
jaundice
kimbolton
kendal
kibes
luscious
longeth
naso
nessus
nibbling
nipple
napping
oyes
pavement
peeled
ralph
rational
rinaldo
skein
tuscan
tadpole
toryne
umbra
vlouting
vraiment
vincetino
vendible
vintner
viceroy
yelping
zodiac
##rinth
##passeth
tolerable
##reasured
bechanced
inordinate
inverness
inaccessible
shreds
shafalus
steely
stubble
buttocks
prostitute
pristine
pribbles
prenzie
dobbin
ongles
degraded
deucalion
##raffed
golgotha
trinkets
tristful
chartreux
nemean
neanmoins
orthography
faculty
fauconberg
unkennel
unbridled
unpruned
blubbering
swabber
aristotle
ariadne
speciously
marigold
whereuntil
madrigals
spinsters
caithness
caucasus
sabbath
disembark
prognostication
labyrinth
flibbertigib
quagmire
abysm
struggle
cophetua
gentilhomme
menecrates
articulate
adramadio
errule
erspread
bloodshed
sweetmeats
glansdale
emphasis
armigero
controller
remarkable
witnesseth
mistempered
setebos
thrasonical
apricocks
bracelets
retrograde
imposthume
corrigible
corrosive
misdeme
misinterpret
feodary
illegitimate
significan
intemperance
furlongs
recogn
reciterai
capucius
cheapside
rubbish
demoisell
garboils
gallimaufry
terrestrial
provincial
inconsiderate
intermingle
hurricano
unwittingly
postscript
volubility
insociable
mediterrane
synagogue
unsolicited
unschooled
unfrequented
bareheaded
unpractised
unbonneted
archdeacon
banditti
unmeasurable
sacrilegious
bergomask
mulmutius
caterwauling
anthropophag
bricklayer
pharaoh
hurlyburly
bouciqualt
flibbertigibbet
2d
4d
5s
6d
8d
aet
aver
aves
aio
aided
avert
bight
bick
batch
bakes
bents
bav
bund
bash
bump
baking
bowers
bina
based
berm
bored
baker
bouts
bossed
bakers
bums
bunches
bibble
basked
bunting
cos
cet
cess
cil
cun
caster
cout
coud
cents
cues
cne
coura
cowed
cask
cowers
caked
casion
cots
ciel
cades
clys
cinct
coops
crib
cathed
coted
cowered
cicester
cooped
coulter
cerns
cetera
dore
dich
dild
dought
dint
dows
dans
dished
dines
dern
dips
douts
diced
dicip
dicers
dibble
dabbled
dudgeon
eo
ees
eves
eets
eject
eale
eeds
ego
elle
eche
ecol
ebon
eget
egress
eaux
eisel
fis
fas
fart
fick
foss
fides
fats
fils
fidius
fane
filius
frees
fenced
fico
fanged
fuer
gat
gis
gour
gast
gip
gang
gau
gend
gail
gated
gask
gays
gaps
gathers
gelt
gouts
gasted
gales
gagne
gatory
gills
gums
gaging
guttered
gudgeon
hi
hig
hick
huse
hench
hib
hys
hued
hives
hirt
hutch
hinc
hinged
hyster
hinges
io
ils
jen
jing
jam
jord
jol
jose
jum
jace
jull
jakes
jets
jeal
junk
jays
jane
jug
jangled
jading
jills
josh
jeshu
jowl
jolt
jouncing
jowls
kat
kere
kit
kam
kild
kated
kitt
lom
las
lorn
lakes
lade
lush
loof
latched
louses
louts
lashed
looped
mim
mome
mose
mic
moun
mio
mack
mith
mull
mite
muck
mower
mought
mains
mister
mund
mained
mowed
mixt
mired
mites
masons
mores
moult
munch
moused
mugs
mugg
makings
nd
nu
nere
nam
num
noun
nons
nsc
nines
naps
nipped
nub
nicer
noster
nazar
nai
navel
nieces
oat
oes
ous
omen
oils
osc
oared
ocul
osp
omission
pim
poo
pid
pion
pose
poun
pius
paster
pree
pign
pears
pits
piz
pany
piers
pible
paps
peds
pella
parel
palled
pione
pinked
pester
pashed
pashful
pioned
pareil
pooped
pioners
pibble
penelo
poulter
ry
ray
rere
rim
rother
rio
rakes
rains
rins
rif
raked
rony
raps
rooked
routs
rakers
rooting
rims
raying
san
sut
soo
sest
sain
sould
sie
sant
sate
sene
soss
souse
satch
sours
sided
sedge
slys
sipping
silling
soused
sde
sfoot
sooty
sutton
tos
tous
tile
touse
tens
tund
tutus
tened
tally
tank
tames
tipp
tipped
ticed
ub
udd
useless
udge
ved
vur
vid
vant
vive
vind
vort
vene
vert
voud
vix
volk
vina
vald
vails
vais
vouts
viced
vicero
vivo
vhere
vesper
wn
wer
wri
wro
wains
wingham
wane
wouns
xv
xiv
xanth
yed
yest
yau
yaw
yelled
yclip
zo
zw
zen
zed
zan
zone
zany
zeph
zenelo
##hun
##heet
##halt
##hab
##hires
##hives
##hored
##hoard
##houses
##haved
##hapen
##hole
##aes
##aust
##aol
##aire
##aber
##aith
##aign
##aiss
##actor
##apped
##aime
##ailles
##aider
##aurs
##aquit
##acled
##ka
##kil
##kles
##kined
##kyed
##kley
##kirt
##kworth
##eing
##eius
##eful
##eable
##eens
##ecl
##eches
##eaf
##ecut
##eze
##eurs
##eaux
##eaks
##do
##dance
##down
##dings
##dder
##dles
##diness
##dged
##days
##dalls
##dlers
##doing
##drops
##disses
##rer
##rat
##rar
##rom
##ras
##rut
##rim
##rue
##rast
##run
##rich
##rink
##rance
##rook
##round
##rench
##rents
##rened
##rung
##rines
##rites
##rider
##riel
##ricious
##rising
##riment
##rades
##rating
##ratched
##rossed
##rists
##renched
##rasures
##rangle
##ios
##ige
##iour
##iber
##iach
##iates
##iators
##iating
##iverse
##iases
##nn
##nell
##nive
##name
##nise
##nown
##nment
##nons
##nable
##nock
##nows
##nines
##naw
##nails
##nesus
##nuts
##naments
##nomy
##gm
##gor
##gest
##gare
##gian
##gment
##gied
##gates
##gays
##god
##gancy
##gingly
##gado
##gression
##guses
##gamo
##sa
##sil
##sol
##sides
##suff
##sters
##sley
##smore
##soned
##slips
##cu
##cos
##car
##cre
##cit
##cur
##cter
##cim
##cest
##cake
##cun
##cust
##cive
##cate
##corn
##case
##cull
##ciss
##cret
##cised
##cried
##count
##cally
##cument
##cility
##cony
##ciful
##crest
##cote
##cule
##cuss
##cilled
##cadel
##ciation
##cadoes
##cchus
##tes
##tre
##tie
##tro
##tress
##tree
##tiss
##tail
##taking
##tured
##tances
##tler
##toned
##tuce
##tlings
##tieth
##trip
##tereth
##yv
##yl
##yb
##yer
##yers
##yance
##yles
##yris
##yrian
##ydon
##oas
##oid
##oge
##oct
##opt
##oons
##oys
##oined
##oaned
##oiling
##oculate
##word
##wich
##wine
##worn
##wist
##wls
##wald
##wax
##women
##wearied
##van
##vance
##vier
##vated
##vals
##vado
##vator
##vais
##vative
##valled
##vii
##vables
##vato
##vonshire
##vouched
##viated
##uy
##uar
##uent
##uest
##uence
##uide
##uage
##uation
##uces
##ubl
##uild
##uits
##uys
##uations
##ucul
##ubar
##uption
##ubbed
##ugnant
##uosity
##uvres
##ukles
##lim
##lie
##lant
##line
##lace
##lave
##lius
##lough
##lap
##lons
##lins
##lime
##luous
##laughter
##licate
##lagon
##lubber
##lasses
##mos
##min
##mere
##mur
##mad
##math
##mill
##mell
##mish
##mace
##mness
##much
##mend
##mouse
##mits
##mets
##mates
##mured
##mires
##maf
##mek
##mixed
##matic
##monds
##moil
##mirched
##malkin
##fth
##fing
##fas
##fish
##fig
##fire
##ffect
##fters
##fares
##faring
##fitting
##facing
##ba
##ban
##bas
##bal
##bid
##bind
##bery
##bier
##bold
##bru
##brace
##bod
##bations
##brey
##bals
##bbling
##bards
##borough
##buts
##bulate
##borne
##bardy
##balls
##bird
##brave
##breast
##xes
##xit
##xim
##xment
##xicates
##pa
##pus
##pra
##post
##pic
##pick
##pery
##pful
##paint
##pier
##plet
##pling
##posed
##point
##pane
##preh
##pences
##pieces
##ponsive
##ja
##jay
##jus
##jock
##jaz
##jug
##junction
##zar
##zon
##zle
##zur
##zand
##zant
##zers
##zens
##zier
##zeth
##zaments
##zonet
thar
thas
thra
thum
theret
thaws
thoas
##err
##eros
##erat
##erit
##erly
##erra
##erate
##eric
##erings
##erary
##erald
##erica
##erizing
##ercim
##oux
##ousel
##osa
##osom
##osit
##osest
##ositor
##osella
##ndre
##ndle
##ndra
##ndix
theise
thebes
theban
##orse
##oration
##orps
##orister
##orily
##orary
##orched
##orally
##orges
##orbed
##orators
##orized
##orbid
##ata
##atus
##atur
##atim
##atest
##atain
##atant
##attle
##atures
##atoes
##atulate
##atibus
##inx
##init
##inse
##inest
##inine
##inings
##inian
##inap
##inced
##inister
##inents
##inople
##inover
##inally
##inued
##inared
##incted
##inoc
##inquity
##inhab
##injay
##esse
##esian
##lless
##llery
andir
andren
##isy
##iso
##isar
##isit
##isal
##isest
##isant
##isance
##isings
##isition
##isins
##isms
##iseness
##isque
##isited
##isingly
##isped
##isco
##isky
##isadoes
##isemaker
##arer
##ariss
##arled
##arried
##arning
##arched
##arina
##arages
##armon
##arvonshire
##arosa
##eno
##enon
##enit
##enter
##enge
##eniss
##enne
##enible
##enters
##enitive
##ennines
tod
toge
toged
toled
todd
tods
toaze
youed
##oning
##onia
##onable
##onair
##oniam
##oncing
##oncer
##onato
##onoured
##onimy
##onnesus
##onwald
##thly
##thill
##thee
##thook
##thouse
##thled
##thead
##thorized
##edant
##edded
##educ
##edalus
##edictions
##anie
##ania
##anors
##anned
##anect
##anize
##anapes
##annel
noes
nole
noces
nooked
noyance
noisemaker
whi
whim
whoo
whee
whew
whiz
whored
wholes
whales
whoring
whorish
wire
wiry
wiping
wipes
##velo
##veys
##inglike
##ingoes
##ingales
##oms
##omer
##omest
##omuch
##omaster
##omber
##omper
##omile
##omeness
##ombed
##ominy
##omuld
##omitus
##ommod
##reate
##reets
##reamed
##reathed
##report
##reviated
##rendre
##rearages
bean
bever
beart
beare
beto
beel
beans
befort
becked
bepr
bechance
beliest
beaks
beareth
bemocked
bemad
bepaint
bezon
init
inure
inro
ingl
inched
inchar
inaid
inns
inaud
inlay
inurned
inlaid
informs
injointed
inauspicious
inoculate
hect
heft
heli
hems
heats
heires
hews
hewed
hefted
heareth
##asi
##aser
##asive
##asied
##asiness
##asily
##owage
shir
shoo
shal
shard
shive
shrow
shorn
shro
shatter
shank
shod
shaw
shoved
shrows
shiny
shakest
shrived
shaming
shales
sharded
shoughs
shooty
shaping
##ceased
##celling
##cepter
##ceivest
hai
hac
haver
hander
hagar
haling
haeres
haec
haunch
haunches
hauf
##eton
##etas
##eties
##ettered
##utive
##uties
##utors
##utting
##utify
##utual
##utiful
##uteless
##uttoned
##cho
##chia
##child
##chford
##choll
##chewed
forag
forks
forwearied
##ayable
##leth
##lemen
##lected
##leading
meus
meph
mement
melf
meered
meeds
meiny
mealed
meille
meher
meisen
meacock
meanders
ise
isra
ista
iscar
##ira
##irl
##irable
##irations
##irical
##ereal
##usse
##usable
##usible
##ustered
##usingly
##usical
##usium
##usadoes
##uscadoes
##itis
##iton
##itas
##itome
##itie
##itant
##itto
##itress
##itless
##itier
##itans
##itled
##itime
##itters
##itating
##itoes
##itoph
##itifully
##itivo
##itutions
##itimation
##itzers
notre
notly
notest
notons
notched
notling
notations
notably
##urie
##urdy
##urial
##urions
##urday
##urten
##urator
##urously
##urgeon
##uriously
##urably
##urism
##urmur
##urposed
##urisy
##urcho
withold
withstanding
withstood
##terly
##tereness
##termined
##ima
##iman
##imber
##imited
ition
itched
##oopeth
wee
weet
weals
weedy
weathers
weening
weeder
weaned
wezand
strown
stover
stog
stinks
stunk
staled
stalled
staged
stitch
stelled
stacks
staider
stowage
sturdy
##sea
##seur
ascent
ascri
ascan
asaph
aslant
asmath
##kept
##kels
##keying
##ader
##adus
##adine
##adies
##adne
##adoc
##addling
##adrangle
##alour
##alia
##alable
##alions
##aluted
##alitied
##alteries
hisper
hissed
hisses
thistles
buttering
prie
prene
pria
prief
prides
prague
prated
prying
pryed
prancing
primo
prisc
priser
pragging
sod
soit
soly
soto
soled
soars
soils
soaked
socks
sots
soaks
sobbing
##entum
##entry
##entrion
##idon
##idom
##idue
##idant
##idery
##ididence
##idency
##idicut
##idatus
##allas
##allow
##alline
##allible
##alliest
doin
doorn
doits
docked
doters
dodge
doxy
document
dozens
lig
lither
licked
libb
lictors
livings
lifter
libell
libels
##omew
##athy
##lygod
##lytes
willers
willful
willeth
willfully
##amas
##amsel
##amble
##ampt
##amia
##amours
##amined
##amander
##amuff
##ambles
##amonius
##ambulate
##essed
ansel
ancle
anna
##orde
##ordo
dee
deo
deft
decept
decent
deals
dewd
decks
deigned
deifying
delect
deja
deesse
frock
frush
frays
fripp
frances
frayed
fraction
framing
fringed
fringe
framp
frisk
fringes
frutify
fritters
##esting
##estone
##estate
##estinate
##estibus
rends
rewell
recl
rector
reject
rears
really
reclaim
reaps
reclus
reche
rectors
rejour
rebeck
reiterate
reenter
receivest
enst
enro
envel
ensem
encel
enwh
enrid
enrobe
enclose
enointed
enpier
envelo
seer
sept
seash
severs
seym
seams
seamy
segreg
seige
herbl
hercule
##cking
##cknock
##verin
##vered
##verant
##verts
##ionate
##rais
##raign
##ractor
##raps
##railles
##raught
##raws
##ragon
##raphas
##rabas
##iew
##iem
##iez
##ieurs
##ievable
##thers
##theran
goer
goad
goeth
gogs
goads
##gemont
suive
suret
sueth
sunders
suerly
allich
allured
allays
allayed
alluring
allotted
##ourous
##ourne
##ston
##stake
##step
##stable
##stained
##string
##stals
##stairs
##stores
byzant
##pele
##peaking
shallenge
##ando
##andine
##andered
##andler
##andums
##ightly
ifs
##aketh
##ardened
##ardinate
##ardism
##ardonable
##iler
##ilon
##ilth
##ilial
##iliest
##iliano
##ilworth
##ilitud
##ilucul
loa
loon
loather
loach
loaves
lobb
loaf
loosing
loosen
lozel
lolls
loquit
locust
trout
trough
trier
tromp
tranced
trilled
trouts
tramp
trusters
truster
tranect
tromper
triton
##ctus
##ctial
##ctuous
chi
chus
chess
chol
chry
chic
chare
chud
churn
chans
changer
chats
chinks
chuff
china
chines
chipped
chapp
chilling
chasing
chaces
chien
chisel
chorister
chaser
chetas
chitoph
chandler
nec
necked
neaf
nemes
neeze
neopt
nefas
ourage
lorded
lording
lordliness
##uem
##akens
##astic
##astrous
thereabout
goodfellow
goodrig
goodfellows
manus
manure
manning
manured
manual
mangy
manna
mantles
mangers
manikin
manka
upmost
uphoard
brig
brunt
brock
brund
brayed
braying
brogues
briare
brinded
briber
brisky
brambles
##unter
##unire
##unite
##unnable
##unciation
exto
excl
expec
exacted
exclamations
exteriors
exsuff
extermined
##ichard
orife
orodes
##illant
##illation
ames
amour
amble
amph
amaim
ambled
amyn
amerce
amamon
america
nowhere
sheed
sheff
shelf
shews
shealed
shewed
sheweth
shekels
lettuce
comers
comag
comings
comfect
comond
combed
combless
comrades
##antos
##antly
##antua
##ellation
##ellished
##elligent
##feered
##fecter
fap
fais
faut
fait
faites
fausse
conies
conca
congr
congre
conveying
connive
##ustres
##artite
##artial
##artarosa
##inea
##inel
##ineal
##ineous
##inego
##inewed
##osted
##ostoph
##otes
##otence
##ottle
##otement
##otinus
##otaurs
##otamia
##otartarosa
leve
leet
leur
lege
leers
leag
leeed
leets
levers
leaked
lecon
leased
lemon
leases
lequel
levels
leashed
lechers
leiger
leech
leeches
comeliness
comelius
hereupon
unro
unper
unau
uncome
unint
unfor
unband
unfort
unner
unowed
unno
unque
unser
unsed
unbroke
unread
unsem
unche
uncape
unroll
unblood
unrolled
unblest
uncharged
unblind
unroof
unaching
unclaimed
unimp
unvener
unbless
unblown
unwept
uncheque
unarms
unagree
unappe
unjointed
unactive
unauspicious
universe
uninhab
uneduc
unkept
unctuous
wouldest
##erson
##ersion
##ulk
##ules
##ulis
##ulus
##ulence
##ulity
##ulated
##ulking
##ulkin
##ulency
##ulchos
wasters
knowings
moreo
##oli
##oling
##olver
##olate
##olies
##olier
##olois
##oluble
##ologe
##olinel
blith
blither
blains
blues
blanc
blowed
blowers
blurs
bluish
blois
blanched
blusters
blesseth
bluster
blustrous
bluest
blomer
canis
canons
canaries
cancer
cancels
canzonet
cancelling
##vency
##venoms
swing
sward
sware
swag
swans
swung
swoll
swilled
swills
swinge
switches
sweltered
sweno
swirl
switzers
swaddling
howls
howso
howsome
howlings
seel
seeth
seely
seething
seeling
seethe
seethes
##umond
ark
arion
aries
arto
arouse
arises
artery
aroused
arde
arteries
ariach
arrearages
themes
loveliness
##amels
##ishonoured
whences
sayst
##eech
##indure
##indful
boor
boom
boors
bobt
boars
boggl
boorish
boggle
bohun
bocchus
boitier
wort
worest
worried
worries
##icos
##icter
##icam
##icest
##icery
##icable
##icians
##icingly
##icative
##icensed
##icitate
##icums
##icircle
##icorde
spelt
spears
speken
spelling
speaketh
user
usances
marl
marle
marge
marbled
marvels
marmos
maritime
plue
plied
plates
plats
pliant
plac
plantage
plums
plighter
plurisy
##rowl
oneyers
didest
diddle
##rix
##rike
##riest
##riance
##riff
##rigs
##inker
whereout
madst
spig
spire
spans
spited
spray
spades
sperm
spilled
spilling
spiced
spaces
spinster
spieth
spangle
sperr
spilth
spicery
sprigs
maypole
alit
alters
almond
alton
alway
altering
scall
scound
scro
sciss
scions
scram
scored
scripp
scoring
scamels
scrowl
##ppy
##ppish
##ppice
##ppins
##ppened
##ppado
##ppadoc
shouldest
shouldered
shouldering
hoc
hoise
hovers
hoars
hoary
hobb
hodge
hoxes
greens
greener
greases
greasily
outro
outsc
outsp
outstood
outdone
outweigh
outfly
outpri
outworths
outgrown
outbre
outsides
outfacing
outbrave
outvenoms
cael
caged
cabb
cables
cawing
caelius
cacal
cacod
caverns
cauf
caetera
cappadoc
sacked
saxt
saba
agood
agile
aglet
aggr
agued
agenor
agazed
aground
agnise
##orts
disbr
disrel
disapp
disnat
disanim
disadv
disability
disvalued
disedged
disarms
disagree
disappe
disvouched
dislim
disjunction
disorbed
disallow
disastrous
disunite
##ookish
tway
twel
twits
twanged
twitting
tweaks
##ounding
##emand
##emious
##emned
##eminence
##emunire
##iged
##igre
##igance
##igig
##igies
##igness
##igable
##igled
##igram
##igrates
tissue
timor
timed
procl
propped
propend
projection
progne
progression
probal
speakers
##icehood
##ffs
clare
clack
clatter
cluck
clover
clung
clipping
clowder
clasped
clinqu
clasping
clipper
##pts
##ptic
##ptoe
##aceable
##acels
laus
laqu
laces
labe
labras
lagging
honi
hearten
heartless
heartiness
heartlings
heartstr
heartbre
gravest
gracing
grazed
grapples
gravities
grafters
pold
poke
poem
ponds
poper
pops
poped
poking
poising
polled
poppy
flay
flour
flick
flakes
flail
flote
flirt
flaunt
flagon
flaring
flaying
flieth
flaky
fluttered
flagging
fluent
flannel
flustered
taketh
##ickers
quat
quay
quam
quare
quies
quatch
quakes
qualt
quired
quoint
quern
quilt
quiring
quilled
quivers
quae
quinces
quaes
quinap
quoniam
quasi
quadrangle
gros
grates
grund
grubs
gruel
grubbed
lookers
abates
abler
absey
abuts
abashed
abuser
abbeys
abaiss
abrook
abutting
##isees
norways
northerly
norbery
##topped
##tolly
##uchadne
##assed
##assination
##agery
##agation
##agons
##agancy
##agulate
##istress
##istrel
##istration
##isticated
stross
struts
stroked
striding
stroyed
stricter
eyas
eyest
eyases
heapt
awed
award
awaken
awakened
awhi
awakens
##udition
##udges
##urnt
##urnal
##urnity
##iped
##ippe
##ipation
##ipool
offensive
coel
cocy
codd
copped
coyed
colebr
coher
cods
cohere
coppers
coblo
coactive
coctus
coppice
coagulate
coistrel
timelier
##astered
describe
hearings
hearths
gentile
gentlest
breff
brews
breese
brevis
brecknock
server
sermons
sereniss
warren
warring
warns
warkworth
menon
menaces
menaph
fob
foin
foal
fonder
fops
foins
foals
foining
foisons
foamy
foeman
fodder
foppish
betossed
bettre
##quam
##quies
##quents
##quities
##quared
##quote
##quoise
peria
perman
pervers
perched
perked
peradvent
perusing
permissive
percies
perverted
perusal
percuss
permaf
peroration
perfecter
roes
rove
roam
rover
roisting
ropery
rochford
peise
peop
peised
peered
pecked
peaking
peize
pecks
pegs
peaces
pecus
peereth
exits
frieze
earing
earwax
moy
mop
moat
mover
moors
moths
mopping
moping
movous
moorship
movables
fairings
##enean
artus
artless
artif
artists
adown
adult
adoring
adsum
adallas
erbl
ergl
ermen
erwe
errant
erween
ernight
erread
errest
erchar
ercame
erval
erweening
erwatched
erdoing
erslips
erworn
eruption
eringoes
erudition
##roved
##ropped
##ropes
##roaching
##rocos
##angles
writs
wrists
masterdom
masterpiece
##berates
deathful
deathmen
deathbed
handy
handles
handlest
handwr
bloodied
bloodier
bloodiest
bloodstained
duff
dupped
##ressive
otherwh
othergates
##perates
##perienced
##pertied
##pernell
partest
partakes
partaken
partially
partakers
partnered
comme
commix
commixt
community
commotions
commingled
commencing
commutual
##ighbour
##eled
##elier
##eliest
##elieved
##elpful
##auce
##aubed
lifelings
plebs
pleines
hasted
hasting
hastening
##reeing
##reeched
madeira
mais
maces
maison
mapped
mails
mazes
mappery
mahom
maxim
job
jole
joinder
jogging
joineth
beforehand
##ilea
glut
glue
glose
glare
glows
glues
glover
glowed
glared
glided
glancing
gloster
gliding
glanders
glutted
glazed
ladybird
ayez
sonance
sonties
##warded
truepenny
trueborn
honouring
honourest
slit
slake
slish
slab
slides
slowed
slunk
slaked
slope
slipt
sliding
slops
sledded
slomber
##endo
##endre
##endum
##iacy
owns
owning
ownself
##ullied
##iteth
##itect
##iteous
ember
emman
embl
emerald
imman
imbe
imbr
imbar
imitar
imitated
imitations
##phere
##phire
##phlets
##phlagon
afield
aflo
affeered
##ossible
antres
anticked
pread
preformed
preface
preocc
prethee
preambulate
preeminence
brotherlike
arma
armory
meaneth
worldlings
##liction
##lipping
##libind
womby
wombed
downs
downstairs
drought
drains
drouth
drained
droopeth
drudges
contre
contends
contume
contended
contusions
contraction
waylay
waylaid
leavetaking
prester
president
presences
presaging
presupp
presenters
heading
headier
headsh
firing
firago
##blet
##blers
##blings
##blingly
mightest
mightful
longly
longings
longbo
##ccare
##ccicos
fooleries
begg
begnawn
begrim
begnaw
remonst
remarked
remercim
compile
comprem
composes
compunct
compensation
courier
couronne
intoxicates
##swear
##swick
##swold
##swered
##attered
tillyv
servility
##gled
##gling
##gless
##glance
##glary
evened
olden
oldness
queas
queub
showered
purr
purus
pursed
purvey
purifies
purifying
purlie
exequies
nayward
nayword
merest
mervail
merops
meridian
thoughten
keepdown
indue
indite
indiss
indiv
indues
indited
indub
indurance
indigent
indisting
indicted
indrenched
daubed
##oped
##opoly
##opulate
##opardy
##oponnesus
##opotamia
##uckold
##uckling
witched
wittolly
repine
repined
repured
repining
repliest
reporter
repaying
reposal
reputing
repugnant
reputeless
repassed
giber
gibe
giants
givers
givings
gibber
mists
mistful
mistlet
mistread
mistres
mistakings
gracefully
findest
findings
findeth
chares
charon
charing
chariness
charne
charmer
chariest
charities
chartered
charbon
charitably
characts
charyb
charolois
##apets
##aplas
newts
newgate
##issart
##issored
##issolute
##onsul
##onsolate
crost
crone
crare
crants
crash
crank
crams
crested
cringe
crisped
crusadoes
dears
deared
dearness
holder
holden
holders
forted
fortifies
fortification
followest
##ensing
harum
harper
harried
harford
harped
harrows
liegers
bested
bestained
bestraught
##ilds
##ilded
sleave
sleided
fells
fellies
##erton
##ertime
##ertainties
helmed
attains
attested
attraction
attasked
guys
guiana
guien
guerra
guinover
guidon
guichard
guinea
underlings
underbear
undergone
underwr
underprizing
undercrest
underborne
truie
trundle
stilly
stiller
stilled
peacemaker
peacemakers
settling
settlest
confutation
confixed
confiners
confesseth
riched
richmonds
smit
smear
smatter
smatch
smalus
smutched
smirch
smulkin
nated
natifs
everyone
livelihood
livelier
belt
belman
belched
belches
beloving
belfry
belocked
highmost
highwr
thrush
thrilled
thrilling
thralls
thrills
thromuld
throttle
paction
paby
paired
pails
pauses
pailful
pabble
paunches
pauser
pajock
pausingly
paphlagon
worths
worthied
yeas
yead
yeomen
##ivility
##earsed
##dering
fortuna
endart
endows
endures
endym
enduring
endavour
endurest
elvish
conspect
consigned
considers
litigious
littlest
literat
appren
apperil
appris
apprent
appurt
apprendre
appurten
younges
youngly
younglings
##ews
##ewailed
devin
devises
devising
devote
devonshire
devoid
devesting
tongs
counting
englished
engluts
bringest
bringings
fallows
falleth
fallacy
##asonably
besom
bescre
beslubber
resounds
resorted
resumed
resurre
resorters
residue
resounding
curl
curbing
curdied
curlish
playeth
faithed
faithfull
behave
behoof
behowls
resty
restem
restful
restores
restoring
##alked
answerer
answerest
parable
parles
parca
parfect
parked
paritors
parler
parcelled
paragoned
paraquit
parsley
parmace
paramours
paracels
paragons
parapets
friending
friendless
friendliness
falsing
falourous
humbles
humbling
courted
courtney
edost
edian
edition
edove
edaughter
edoubt
edifies
edarest
edeliver
edamsel
edilucul
edemand
edissolute
turneth
turnips
##beat
passy
passant
passive
passio
##ouded
apter
apostle
apennines
drake
drabs
drabbing
fullam
fullest
fullers
##intida
biddy
bidden
biddings
kindless
kindlier
woos
wode
untold
womaned
womankind
bracy
braced
brazed
brazier
bragless
##retia
treys
trebled
retail
retract
retails
retailed
retinue
retourne
villager
villagery
vales
valence
valance
valentio
valuing
valenced
valuation
accited
accidence
acclam
accrue
eyeing
taber
tavy
tapped
tailed
tawd
tabled
tacit
tablet
bede
bedward
bedrid
bedashed
bedazz
bedimmed
bedabbled
bedrench
bedaubed
patay
pattle
patines
patrons
paternal
##enchant
##mency
soldat
soldest
##ulted
seemly
seemest
seemers
seemingly
meetly
imply
impaint
impale
impenet
impres
impaled
impasted
imposter
impetic
impounded
impieties
impotence
##psy
##pses
##pson
childed
childing
childness
childeric
horiz
horrider
horologe
killen
killest
killeth
forthright
forthlight
crowning
crownet
troat
troien
trolls
trovato
needer
needly
needest
backdo
traces
traversed
traitress
ereye
##lfellows
antoniad
mattering
overt
overcom
overgo
overhead
overhold
overmaster
overshine
overpassed
overcast
overweigh
overlooked
overgone
overset
overgrown
overwatched
overrun
overgor
overmuch
overtopped
overswear
overglance
cars
carat
carest
carves
carack
carper
carman
carped
carcan
carlot
caracks
subvers
submer
subsequ
submits
subverts
assence
assures
assub
asshead
assumed
assaileth
assyrian
assuage
assinego
assassination
spirt
spirts
farer
fared
farrow
farced
farms
monks
monastic
monopoly
pleaser
pleasers
pleasance
lettered
saidst
husbandless
dreg
dreary
##ixing
wronging
wrongly
lutheran
luccicos
actively
##insicate
reader
readins
readily
baned
banister
banning
banbury
banked
earthen
earthed
earthlier
viand
vizaments
##enges
attendeth
heardest
justs
justest
justness
justles
justled
justification
justicers
justeius
disputation
disputes
disputed
disparked
disponge
dispenses
dispiteous
suffices
sufferd
suffoc
suffocation
suffigance
thanking
breathest
tether
teips
tevil
camels
camelot
powerless
powerfully
##ifes
##ifiers
##ifical
##ifluous
wearest
wearers
wearily
weariest
wearying
praecl
prawls
praisest
praemunire
helpers
##garnet
handsaw
handsomeness
##caonia
lawrence
causeth
discourt
disconsolate
godson
henri
henned
henric
pardo
coroll
corbo
corky
corrob
corantos
misapp
misadvent
misanth
misusest
misprizing
misreport
misleading
misquote
##abble
##abel
##abited
##abris
##abras
##abilitud
##ailable
ratherest
shamefast
busky
bussing
buskined
pardoner
layer
layest
advocation
advisings
fellowly
getter
##fectness
happed
fightest
fighteth
soundness
soundless
soundpost
statelier
forgone
strived
strivest
stripl
stripping
strikers
##izer
##izances
reasonably
secund
securing
obidicut
##lands
muss
muses
mused
mussel
mustering
muscles
muscadel
opal
opulency
denay
denayed
denoted
denounce
denouncing
denunciation
denotement
baron
baring
barrow
barful
barrel
bartered
barbed
barrels
barrabas
lucretia
##fortable
##entship
seniory
senoys
landless
landmen
runner
runners
runyon
phib
phars
phleg
photinus
honestest
##ruct
##rubbed
##ruosity
##rucio
purport
purples
purposing
instate
instigate
instigated
instigations
insteeped
institutions
swearer
commande
fends
feud
feith
fevers
feated
fecks
fehement
febru
illness
illume
illiterate
signor
signum
signifying
signiory
##meditated
tearsheet
##undity
seafaring
persia
persists
perspic
sawpit
sawyer
majority
mural
murray
murky
murrion
##ibell
##ibans
##ibald
##ashionable
drawest
drawers
drawling
drawbridge
darter
darius
darks
darraign
firewor
firework
appeles
appeals
appealled
appeached
appelons
appendix
tittle
tittles
careers
careires
judases
wisher
wishful
wisheth
intil
intimation
intenible
intestate
sendeth
sunless
sunbeams
sunrising
talkers
vox
voce
voided
faultiness
windring
windpipe
windlasses
windmill
weepings
clause
clawed
clawing
deedless
villained
villainous
villainies
freezing
freezes
freezeth
blesses
singest
singles
singeth
singleness
promis
promulg
furor
furze
furzes
spiriting
hardened
hardiest
paled
palamed
palating
paltering
palisadoes
palabras
provexit
cassado
cassocks
revenger
revengers
revengingly
##umped
musics
entre
entry
entame
entreasured
entwist
entangles
entendre
auld
aucun
aubrey
baa
baily
baille
baiser
bajaz
baisant
baisees
baccare
clew
clef
clepe
clept
clement
cleped
clepeth
clemency
winnow
wincot
##neth
##neying
countrywoman
burrows
burglary
temps
wantest
quicker
quickness
quicksand
quicklier
quicksil
halfpence
halfwor
groweth
supping
suppers
supported
suppliest
suppresseth
supposal
supporters
supposest
suppertime
generations
generative
generosity
sorrowest
types
tymb
situations
protester
##byses
sicker
sickened
sicklied
sickliness
sicklemen
royalize
foundered
fouled
metres
mettest
metrop
mette
birch
recure
recited
recovers
reciting
recoiling
fitt
fitful
somme
##ouraged
servanted
buying
buoy
buoyed
casted
castigation
castigate
castalion
castiliano
worky
worked
workers
sisterly
capite
capoc
capric
capability
capricious
chez
cheats
cheaper
checking
prouds
proudlier
fielded
rued
rugs
rupture
ruptures
boundeth
dogfish
leaders
distain
distains
distasted
distillation
airless
skains
skipped
skilfully
skipper
skitless
skamble
skulking
skinker
##ceiverant
condoling
oathable
asker
askance
demise
demuring
antipholuses
craver
craker
crazy
damm
damon
damasc
damosella
chopt
chokes
chopping
chooser
chollors
choicest
favors
favourably
unclew
puke
puking
pugging
puzzled
puzzle
puerit
sightly
furtherer
infest
infold
infixed
infusions
inflict
infusing
infamon
infliction
infixing
cutt
cutler
prisoned
prisonment
prisonnier
garret
garcon
garnered
anges
affy
affied
affray
affinity
affaire
raved
raft
raving
raises
razing
raileth
raisins
saddles
sinning
streak
strands
straits
straps
straited
straiter
strachy
strappado
dreamest
dreamers
certainer
dareful
petre
petit
petard
petrucio
satis
sated
satiate
saturd
satirical
saturday
methink
waterton
footmen
footboys
footfall
footstool
footstep
gallons
galliases
gaul
gaude
gaffs
yielder
yielders
##imecu
expires
expiate
explain
expiring
expresseth
expositor
camlet
cambr
camomile
cambyses
minos
mining
minim
minces
minced
minime
minnow
minimo
minerals
minikin
minimus
minnows
minotaurs
ministration
terre
terrace
terram
tercel
##othy
##othanize
##cheduled
provand
provides
provider
proviso
gravely
graveless
gravelled
chargeth
chargeful
woundings
princox
depute
depths
depressed
deputed
deprave
deputing
deposit
deputies
depopulate
contentless
contenteth
veni
venit
venue
venial
venereal
wafer
wawl
wappened
waiteth
beholds
beholder
beholdest
wiselier
##shell
##shows
##shape
##shaw
burnet
colourable
coloqu
colme
colchos
colmek
tenors
tenable
tenures
tenths
tenement
tenfold
tenements
deservers
mortise
mortised
mortimers
mala
malchus
maledictions
maladies
warrantise
warranteth
warrantize
surance
surpl
surpass
surveyed
surveying
surpasseth
surveys
blacks
blackberry
blackmere
captum
captious
captived
serveth
moneyed
possets
possitable
possesseth
mouthful
payest
payments
pastry
pasties
pastors
pastures
pastorals
reportest
reportingly
sovereigns
sovereignly
##merian
jews
jewess
delver
delated
delations
delicates
delinqu
deluded
acorned
acordo
##upied
donne
##rences
incan
incites
incivil
incenses
incorre
incorps
incidency
incardinate
incensing
incivility
watchings
regress
regina
regiments
regular
regenerate
regreets
regentship
diviner
dividable
dividant
requit
requiem
profited
proficient
quests
questant
questrists
woof
wooingly
##affle
fasted
salter
salved
salary
salmon
salads
saluted
salmons
salamander
salicam
##ifted
estime
estrid
estridge
bucks
bucking
bucket
talon
marcians
groundlings
ringed
ringwood
ringlead
##overnment
bolds
evade
evades
evasions
evitate
evidences
##rewed
suiting
suitable
englishwoman
openness
carded
carders
cardmaker
carduus
cardinally
pomps
pomander
pommel
pomgarnet
towardly
canstick
heartsick
constancies
constringed
constellation
appearer
visitor
visibly
viscount
##oges
##ogued
##ogism
embers
embalm
embayed
embounded
embalms
embatt
emballing
embodied
embrasures
embellished
embrewed
wonderfully
wallon
wallet
wallets
walloon
sumpter
untried
untemper
untasted
untangled
untangle
untreasured
untwine
untirable
untitled
untimber
untalked
quarries
quartering
droit
droven
dropper
droppings
drovier
drollery
##oothes
changeth
changeful
changelings
approvers
appropri
personate
personates
personated
personating
rede
redound
redness
redder
redime
redressed
reddest
redeliver
redbreast
extends
extortion
extracted
extortions
extincted
kecks
keisar
interjo
intermit
interrog
interrup
intermissive
interjections
interdiction
intertiss
intermixed
intercepter
interessed
guardage
guardians
entreating
entreatments
chambered
chamberers
chamberlains
revengement
speeded
speediness
despiser
despoiled
pretia
pretences
pretended
pretext
baseless
valiantness
straightest
bosky
softness
softens
leges
legerity
legatine
legacies
legitimation
calved
calms
caliver
calaber
calydon
calibans
snails
snipt
snoring
snipe
snaky
snarling
snapped
snaffle
township
shortening
shortcake
praiseworth
favourers
favourite
opposes
opprest
oppugn
oppresseth
opprob
plucker
drumble
drummer
drumming
bating
batty
batlet
battled
batailles
forbears
forbade
forborne
relates
relents
relations
relume
relieves
relating
relative
relinqu
relieving
reliances
questioning
questionable
achieves
achieving
achiever
penning
penker
pencils
penurious
penthes
pennons
pencilled
penthouse
simile
simony
simulation
hairless
scarre
##andering
knewest
marchpane
fettle
fettering
labourers
performer
traitorly
watering
waterford
waterflies
waterdrops
bosomed
lames
laming
lamond
lameness
lambert
lampass
unlessoned
empale
cowarded
cowardship
feeler
##uffed
widest
widens
plaining
plainings
gainer
##ontic
moonish
moonbeams
glads
gladding
gladded
badly
badest
badged
##kesly
weakens
weakened
weakling
defies
defuse
defused
defying
defamed
defense
definite
defiling
defunction
defensible
defacing
defiler
mockable
mockwater
invoke
invasion
invitation
invasive
invitis
stirr
stirrest
stirreth
stirrups
stirrers
excelled
excellencies
verite
verbs
verones
verities
veroles
veritable
vergers
vermin
thrower
throwest
liegeman
laugher
laughest
laughable
dishabited
##acable
##acens
##acute
##bbery
thirties
thirtieth
fleshes
fleshly
fleshment
fleshmonger
monstered
monsieurs
wisp
wiseness
undress
undressed
undeter
unduteous
undoubt
undisp
undinted
undeck
undeeded
undeaf
undreamed
undutiful
undraws
undishonoured
cheeked
hurting
hurling
hurdle
hurries
##volent
##volences
ambuscadoes
creator
creates
diver
dived
diction
diverse
dipping
diurnal
motes
##comed
privity
troublest
flatterest
respectively
woefullest
poli
poles
polite
polacks
poltro
julio
beginnings
nursh
nurser
nurtured
heirless
lipsbury
flourisheth
mountant
mounteth
mountanto
rien
ript
ripping
##score
##feited
proceeders
commending
guiled
guilts
darking
darkens
strengthless
strengthening
pitie
pitcher
pittance
pitfall
pitti
pittie
veget
veiling
veux
vehor
whitehall
doorkeeper
severest
biter
bookful
bookmates
##erds
brokes
broking
broiling
brocas
resolutes
lowted
hames
hamper
hamlets
hamstring
whereinto
claret
conscienced
conscionable
offendress
offendeth
offendendo
disgracing
disgorges
jested
beastliness
beastliest
##ooping
fetching
hideth
kingdomed
understandings
understandeth
churls
official
basta
bastes
basted
milo
milked
milking
militar
wildfire
##empted
christom
starry
starves
starings
starving
starling
alarms
sufferances
fatness
fatting
fatally
fattest
fatigate
fatuus
portugal
portcull
portotartarosa
foreward
forefend
forecast
forehor
forefing
absyr
absolver
detains
detention
detractions
mirable
stealers
lackbeard
admission
administer
maculate
maculation
filly
fillet
##cution
belle
bellow
bellman
bellona
crossly
crossest
crossness
crossings
crossways
troiluses
secondarily
lustig
lustiest
rageth
excites
excited
excurs
excusing
excrements
excusable
poisoning
passioning
feedeth
##prit
##prievable
violates
violated
violator
limber
limps
limned
limander
limped
limbeck
##quements
briefer
briefest
talbotites
bastardizing
larron
larges
cheerer
cheerest
cheerless
hundredth
cornered
cornuto
elegancy
elevated
##odly
##odope
##odorus
orderless
offenceful
offenceless
secretaries
prospers
proscript
bleach
bleats
bleated
utility
uttereth
##grinate
issueless
modena
modicums
satisfies
acquisition
eases
easiest
easiliest
##eadfast
fordo
fordid
smallness
woodland
woodmonger
woodville
##gger
shipmen
freshes
##umbed
argo
argentine
affectioned
affectionate
affectionately
prevaileth
cuppele
sorer
sorriest
urges
urns
urswick
rebate
rebound
rebused
tribulation
unkinglike
bondmaid
parisians
hurtless
hurtled
hurtling
athol
horning
hornbook
shark
sharers
sharps
sharked
ancus
valourously
diedst
occulted
healthy
healthsome
tripe
leonitus
patients
effectually
solemness
unwed
unwatched
unwedge
unwares
unwarily
unwitted
unwearied
unweeded
unwrung
unwiped
bolins
boltered
bolters
diner
dining
finem
fineless
format
studs
students
studded
studiously
governess
breasting
breastpl
moveth
tombe
tomboys
tombless
tomyris
forceful
forceless
londoners
blowse
northampt
midas
middest
midriff
succedant
dulls
dulled
dulling
dullness
romano
romanos
volant
volquess
volivor
insane
insisting
insubstantial
insanie
insomuch
greenwood
greenwich
birthdom
approachers
sixpenny
sixpences
sixscore
roguing
roguish
titleless
departs
bowled
bowling
bowler
bowcase
##ascule
humourous
prospered
prosperities
tented
neighed
blinds
blindly
mede
medal
medice
medler
meddler
mediation
medlars
meddlers
mediators
mutest
mutation
mutable
muttered
mutations
mutiners
rounder
rounding
roundest
roundure
roundel
towered
towton
lenders
unhold
unhope
unhanged
unharmed
unheart
unhospitable
unhurt
unhidden
unhousel
unhorse
unhardened
unhelpful
unhoped
qualite
qualmed
qualifies
qualifying
qualification
virgo
virgined
treasonable
practic
philo
philadel
philarmon
listed
torcher
encore
encave
encertain
encumbered
encircle
encroaching
encertainties
encouraged
worsted
safed
safeties
cloudiness
##aggered
contrite
yearned
steppe
stepmother
stepdame
counterchange
counterpoint
foolishness
montant
montfer
montez
montacute
colouring
quarrelous
creed
crevice
ignis
ignominy
forwarding
receiveth
earliness
##apsody
learnings
jackanapes
piu
pippins
##oever
thitherward
refelled
refusal
refractor
cruell
cruels
crueller
troths
trothed
citing
cital
cittern
##archus
washer
washford
quieter
quietus
hugs
hujus
hugger
shrieve
perceiveth
jovem
thirds
circa
girt
girth
girding
girded
girdling
vainer
##iams
##iament
annexed
annexment
hermes
conclave
properest
fearfulness
falstaffs
imported
importless
importancy
rhesus
rhubar
rhinoc
rhodope
rhapsody
syenna
targe
tarred
targes
tarentum
tarriance
vieweth
##axes
##iculo
costlier
##iolated
forspoke
forslow
forspent
tricked
tricking
trickling
plantation
planteth
executor
ridest
ridge
riders
throe
throb
throca
throbs
throbbing
innovator
decide
decides
decimation
decerns
decoct
fledged
goldenly
sharpen
opinioned
owy
owlet
sorting
vara
varld
varies
variest
variance
variety
variations
thunderer
thundering
sevenfold
heroic
lode
transcend
transcends
transyl
transfig
transshape
grievest
drunkest
continence
continuing
credible
credulity
tearful
vowel
vowels
frowningly
unsound
unsured
unsorted
unspo
unspoke
unsisting
unsoiled
unsunned
unsmirched
unsaluted
unspeaking
unsightly
unsinewed
unsquared
unsullied
unsphere
unslipping
unsifted
unfed
unfought
unfool
unfamed
unfenced
unfellowed
unfaith
unfallible
unfilial
unfashionable
dismes
dismasked
eschewed
##ernible
helding
blushest
tempter
governance
governors
successor
successantly
roughness
yoemen
melius
priestly
priestess
brainish
brainless
brainpan
conceals
##berts
observers
viewest
viewless
cliffords
wenching
wenchless
livedst
defenders
hopdance
charmeth
charmingly
smilets
caters
catling
catlike
catlings
cataplas
moorfield
benevolence
benevolences
equival
oddest
pinse
pinned
voucher
vouching
topful
topless
topmost
memphis
wealthiest
dealest
dealers
expectance
expectations
entertainer
entertaining
entertainest
entertainments
birdlime
conditionally
requesting
ghosted
holborn
posse
posters
posteriors
injure
hailstone
hailstones
amazes
amazing
hollanders
sailmaker
widowhood
triumpher
triumphers
fisher
fishified
fisherman
fishpond
visitings
visitations
fleers
fleered
flecked
fleering
flewed
fleming
flemish
punched
ventages
ventric
venturing
threatest
threatener
becomings
stocked
stockish
althae
clothiers
clothair
clotharius
droplets
droppeth
ancients
danceth
##olluted
##box
plautus
plaited
plausible
committ
complained
complotted
intendeth
rascalliest
##place
##plets
##plicable
enjoineth
necessitied
necessarily
bodged
bodiless
grande
grandeur
grandchild
banishers
motionless
rosalinda
melancholies
booted
booties
garde
gardez
##zebel
forestalled
necklace
propre
proposes
proposing
propension
propounded
propugn
proposer
propinquity
propagation
propontic
claiming
clearest
clearstores
authorized
custure
custalour
lyra
lynn
lycur
lycaonia
pygm
##ubine
##ubtle
revolutions
shallowest
changest
greeted
slaughterer
slaughterous
slaughterman
repenting
repentent
repentant
choicely
camping
huntress
hunteth
turd
turph
turvy
turkeys
turmo
turmoil
turlygod
turquoise
solon
solum
solidity
glassed
preciously
advantageable
silverly
professest
audis
auditors
idles
ideas
renouncing
wrathfully
discovering
directs
directing
directive
virginities
virginalling
casa
casing
casques
casually
figuring
irres
irremove
noseless
nosegays
oweth
potch
potter
potents
potting
potations
potato
potatoes
##pedst
inhooped
inhospitable
inhearsed
debted
debtors
##iliable
exceptless
rooteth
uncase
uncover
uncasing
uncourt
uncorre
uncolted
uncrossed
uncoined
uncropped
uncuckold
unpack
unpressed
unpathed
unpinked
unpaved
unpolic
unpurged
unparted
unpubl
unpitifully
unpurposed
unpardonable
unpartial
unpossible
unpolluted
imagery
imagining
imaginings
tremor
trempling
tremblingly
protested
protesting
lamentings
solemnities
bigamy
biggest
derides
dryness
dryfoot
drybeat
fewness
loudly
loudest
##ocrates
challengers
challenges
spendest
springes
springeth
springhalt
lavache
accordant
accordeth
maidenly
maidenliest
publican
publication
drily
drivest
drizz
drizzle
dribbling
foughten
purely
soothed
soothest
teemed
stuffing
savored
savoy
saviour
twilled
monstruosity
corrupts
corruptly
corruptible
corruptibly
ministering
##ursors
weaponed
startled
startingly
enforcest
concur
concurs
concolinel
concubine
conjuring
monstrously
monstrousness
basan
basins
basimecu
cordis
cressy
cressets
fainter
##eously
shuttle
kneeed
unbent
unbid
unbend
unbaked
unbounded
unbashful
unbacked
unbraided
unbitted
unbidden
unbolted
unbuckles
unbodied
unbuild
unbosom
unbreathed
unbuttoned
unbookish
unburnt
unbelieved
unbreeched
unbattered
unbuckling
unbewailed
proditor
produces
desertless
underta
winterly
counterfeitly
stormest
aidant
aidance
aidless
horsing
tutto
heatest
stabedst
reverbs
reverberates
browse
coverlet
perfectness
tyburn
vengeances
renowns
circumcised
circummured
raining
rainold
ragamuff
wrecks
wreathe
wreaks
##rehensible
plotter
betraying
miserably
misericorde
cressids
tybalts
dunks
dunnest
dunsmore
dunstable
langage
langues
langton
pismires
heeded
heedfull
stomached
stomaching
##ractors
examines
examinations
sheepcote
gratii
gratillity
betwitched
slandering
slanderers
considerings
considerations
recoverable
gallantry
babbled
baboons
dusted
differency
hater
hatest
haters
hidest
pleader
pleaders
joining
naturalize
angering
guiltian
guiltily
disguiser
bottomed
easeful
pickt
picker
pickers
picklock
pickaxes
ranking
rankly
hallown
hallond
abrogate
affecteth
affectations
capitaine
deservedly
regarding
regardance
regardfully
diomede
feebly
feebled
feebling
feebleness
nineth
squiny
squarest
squarer
squandered
squabble
squandering
befit
befrie
befitting
befitted
halves
haltered
halbert
halidom
cloves
clothing
cloys
clovest
cloistered
cloistress
earns
emptied
emptier
dromios
appoints
displeasing
brokenly
lineally
bewet
bewails
bewasted
bewhored
prickest
searchers
searcheth
combated
combinate
greybeard
witching
jeweled
ransoms
ransoming
digt
digression
epida
epitome
epigram
wingfield
wingdalls
presser
pressure
pressures
frightening
burgomaster
temptations
conductor
mirthful
dignify
hilloa
napes
napless
romish
romage
wagtail
waggling
sparking
flighty
humphry
acquaints
encounterd
encounterers
particularise
aimest
apex
bards
barded
daedalus
include
inclines
inclips
inclinable
included
inclinest
immures
immask
immoment
imminence
immater
imperator
imperiously
imperceiverant
preservers
preservative
firmness
compasses
lieutenants
thrusteth
playedst
tempering
constantine
constantinople
determinations
pyramis
pyramid
pyramides
pyramises
pyramids
languor
languished
mildewed
mildews
thicken
thicklips
##ompanied
leaner
quitting
quitted
abhominable
jointress
pursents
slenderly
guesses
guessingly
treachers
petrarch
northumberlands
benefice
benefited
marts
martin
marted
martem
martino
poring
porches
tamer
tamings
whoremonger
infecting
infectiously
rewarder
rewarding
blunts
bluntest
bluntness
sprat
sprited
strangler
roarers
furnival
furnaces
packs
packings
ruling
rulers
saltiers
viceger
##locks
stopt
stoics
stokesly
deceivest
negation
negro
negative
negatives
swellings
sackbuts
sackerson
launces
launched
cozener
coziers
cockles
cockled
cockered
cockpit
warming
intentively
baptized
skillet
expressive
angelical
angelica
dropsy
dropsies
dropsied
preventions
fives
rato
rating
rattle
rattles
ratifiers
tiddle
dotant
doteth
dotards
dewy
dewberries
dewlap
cherries
ords
ordure
archelaus
archidam
architect
archibald
flora
purchases
vexes
vexest
vexeth
suspecting
equalness
equalities
ceaseth
cerements
cerecloth
honeyed
honeying
honeyless
honeycomb
rideth
railer
railest
prononce
prononcer
commissioners
smooths
aufidiuses
ambitions
violenta
violentest
violenteth
prevailment
pictured
picturing
cyrus
pedlars
pedascule
rasher
##taunt
strangered
perjuries
mercer
mercatio
mercifully
mercuries
mercatant
mercurial
barky
barkest
barklough
resolvedly
unknowing
conducting
billing
billets
billiards
dumbed
dumbshows
filch
filched
filches
filberts
fifteens
lengths
lengthening
misses
missive
missions
missingly
missives
misspoke
misshapen
pilates
pilots
tortive
torturers
torturest
##natural
enginer
engrave
enguard
engaging
engraffed
engaol
engilds
conveyers
dissensions
dissipation
clownish
unworthier
unhappied
baptists
pronouns
ballow
bindeth
eastward
soured
sourly
##vented
francois
franciae
recking
trifled
trifler
ungot
ungrown
ungotten
ungored
ungird
ungrave
ungenit
unguem
ungodly
wormy
scotches
climbs
climbeth
climatures
gloriously
preferr
preferring
preferreth
attemptable
objected
craveth
eighty
hyen
magot
magical
##orah
statist
statures
statilius
statists
browsed
browsing
ladyships
behalfs
bushels
builded
disdaineth
disdainfully
bounce
bounced
bouncing
jaunt
jaunting
journeying
nervy
neroes
nervii
paddle
forfeiters
forfeitures
steers
steered
steering
stickest
stickler
caveto
heavings
friendships
marketplace
exceedeth
##ogenitive
usurpingly
francisca
franciscan
censer
censuring
censurers
duchies
finless
finned
finally
finny
finical
rushy
rushling
wanderingly
islander
sells
##ilties
discharging
pocky
assisting
damns
damnably
gauntlets
policies
ripely
admirer
rhymers
punishes
punishments
employer
cellar
cellarage
hinders
hinderd
hindering
##eretto
shineth
superior
supervis
supernal
superpra
supernatural
unlace
unlinked
unlustrous
unlicked
unlimited
unlineal
unlicensed
scrimers
procuring
procreant
procrast
procurator
serpentine
slights
slightness
pairs
waxing
religions
admitting
eternally
eternized
tested
testiness
testril
unnaturally
slewest
rescuing
intelligo
skyish
skyey
minutely
snowy
snowball
snowballs
preparedly
invented
inventors
familiars
oxfordshire
crowed
crowing
crowding
crowded
fantasied
fiercely
naughtily
numbed
numbness
tendence
nobis
ingrossed
staines
staining
enobarb
grumblest
grumblings
conspires
conspiring
disgraceful
conceitless
prodigally
prodigals
prodigiously
unnaturalness
bentii
bentivol
banding
bandied
banditto
bullocks
ete
etc
etre
etna
monging
mongrels
masses
withdraws
stammer
repel
repeats
repeating
semi
semicircle
unmade
unmoved
unmixed
unmoving
unmellowed
unminded
unmoaned
unmarried
unmusical
unmindful
unmastered
foxship
prayerbook
mistaketh
imprinted
suspire
suspiration
unfoldeth
instrumental
avoids
avoiding
dims
dimming
dimples
ephesian
gleams
gleeks
gleeful
pistols
vincere
noblesse
notedly
declares
declensions
unsex
unseamed
unsealed
unseparable
unseeing
unsecret
unsearched
unsevered
boasted
boastful
spurrer
drivelling
belongings
pompae
privileges
inherent
inheritors
bonos
bonum
bonto
bonjour
bonville
mille
nicety
olives
olivers
ravage
ravined
sceptred
inkles
ashy
asher
debility
debonair
deborah
reached
reacheth
rejoiced
rejoindure
rejoicingly
knitters
knitteth
experiences
preyful
reproves
reproved
reproving
reprovest
reprobation
reprovable
confirming
confirmers
burthening
recordation
crafted
craftied
craftier
lambkins
undoes
destroys
banqueted
sweaten
specialty
cyme
cymbals
dowle
dowery
dowdy
dowries
escoted
escapen
federary
lorum
momentany
sancta
sanctifies
sanctuar
tasker
##soons
whoresons
inquiring
weathered
suckers
allege
chidest
chiders
blastments
splay
splenitive
quenchless
folding
currance
currants
welshwomen
accuseth
discontinue
discontinued
crackers
expeditious
mournest
mournings
mournfully
enviously
shrewdness
withdrawing
grize
griped
grizzle
paints
##wedst
##uceus
##ucement
shunless
shifting
trims
trimly
spitting
spitted
spitteth
perishen
perishest
perisheth
glozed
glozes
glooming
immediacy
accusing
accusativo
corporate
corpulent
corporals
silently
petitioned
calmie
calmness
rebelling
pocketing
yoketh
whiting
whittle
[...]
